<unk>
<pad>
<s>
</s>
,
.
the
in
of
der
die
and
und
to
a
is
for
den
zu
that
von
"
für
on
-
)
(
ist
The
des
an
:
auf
mit
with
be
das
are
as
eine
im
werden
I
Die
this
by
es
dem
nicht
it
dass
ein
will
Sie
sich
have
not
we
which
at
wir
auch
from
or
wird
you
sind
was
's
European
has
als
/
um
In
über
zur
oder
-@@
all
also
can
hat
einer
EU
haben
ich
Commission
our
Union
sie
so
wie
bei
Kommission
einen
its
er
?
aus
'
;
Das
!
können
their
Der
more
einem
am
nach
would
durch
but
your
been
Ich
zum
This
We
It
one
diese
un@@
s
%
Mr
should
kann
nur
dieser
de
new
vor
Wir
uns
er@@
other
daß
ver@@
Europäischen
wurde
must
Council
Member
they
S@@
noch
do
Es
re@@
an@@
States
very
there
only
...
ten
us
time
B@@
k@@
in@@
müssen
sein
wenn
o
these
t
about
aber
te
en
Herr
i
like
T@@
Europe
up
K@@
man
diesem
P@@
en@@
A
President
2
sehr
e
alle
countries
Hotel
eines
Mitgliedstaaten
out
into
1
no
who
mehr
war
s@@
C@@
t@@
D@@
if
such
sowie
bis
M@@
any
ihre
A@@
unter
d@@
were
ge@@
H@@
people
G@@
Parliament
between
zwischen
use
than
ing
vom
L@@
be@@
F@@
information
report
need
N@@
ab@@
well
b@@
Europäische
work
E@@
R@@
p@@
e@@
o@@
3
Rat
first
what
most
möchte
some
f@@
dieses
g@@
when
now
make
y
system
support
Ver@@
important
c@@
al@@
them
gibt
his
[
]
take
m
Präsident
able
An@@
my
m@@
policy
W@@
many
ed
made
z@@
way
muss
market
ein@@
keine
anderen
Bericht
ch@@
da
Europa
years
two
V@@
a@@
n@@
i@@
because
wurden
Im
hotel
Parlament
over
ter
those
gegen
hier
de@@
had
development
O@@
d
where
aus@@
unsere
economic
st@@
damit
he
end
ation
may
Entwicklung
Ab@@
year
u@@
ts
y@@
world
4
Maßnahmen
order
Diese
diesen
If
me
under
ers
v@@
just
immer
public
being
5
dies
Jahr
Ihnen
see
ung
area
neue
Unternehmen
10
through
part
gen
di@@
sch@@
For
l@@
dann
al
es@@
Wenn
jedoch
ate
ar@@
ihrer
k
neuen
within
denen
seine
Z@@
services
europäischen
political
even
J@@
right
heute
international
good
Zeit
EU-@@
possible
place
r@@
I@@
same
against
ungen
el@@
bereits
Frau
As
could
or@@
rights
after
Menschen
both
l
vor@@
zu@@
ent@@
ungs@@
Informationen
national
ti@@
li@@
sondern
le@@
measures
unserer
le
ge
social
j@@
sollte
used
on@@
h@@
ischen
.@@
Sch@@
country
Jahren
number
ro@@
Be@@
habe
Rahmen
um@@
here
therefore
auf@@
own
available
Ihre
is@@
at@@
zwei
level
finden
how
There
set
does
&
financial
Minister
ohne
am@@
andere
Commissioner
allen
Mit
then
sollten
products
Bereich
You
dis@@
Community
future
6
Zusammenarbeit
Re@@
view
today
without
ri@@
want
g
much
dazu
process
U@@
free
3@@
ische
still
Frage
last
w@@
case
already
mich
insbesondere
including
7
find
+
te@@
service
machen
particular
Ein@@
n
über@@
enden
proposal
point
different
Aus@@
geht
u
before
20
In@@
darauf
ganz
8
Ein
seiner
programme
p
si@@
ihren
further
2009
said
4@@
ensure
30
areas
liche
S
bietet
Lage
fact
data
per
liegt
agreement
el
great
room
b
situation
soll
em@@
human
th@@
Welt
ated
Al@@
energy
access
viele
ra@@
cooperation
Unterstützung
la@@
weil
dafür
say
Länder
ur@@
help
ch
se
Er@@
But
Jahre
it@@
State
common
quality
course
Committee
jetzt
wieder
Vor@@
la
Dies
provide
high
sten
tes
Richtlinie
during
ihr
too
law
c
stellen
cannot
einige
ob
That
since
Eine
aid
T
St@@
However
believe
get
würde
ab
business
2010
Für
taken
each
5@@
ern
denn
lichen
systems
15
know
Land
means
allem
stehen
Arbeit
geben
selbst
go
action
based
C
lich
h
Vorschlag
So
e-@@
rules
day
security
best
citizens
z
ens
her
example
issue
China
sp@@
et@@
x
protection
debate
lo@@
ter@@
Ziel
necessary
waren
schon
position
ale
city
think
small
co@@
kommen
eren
et
as@@
offers
ar
während
clear
trade
Herrn
three
question
se@@
Ländern
gen@@
ting
2008
next
9
seit
sector
12
bar
every
im@@
wollen
viel
Y@@
ad@@
nun
form
bin
ersten
2000
All
op@@
long
möglich
gut
basis
while
give
Fragen
Wie
Teil
On
sagen
E
management
drei
United
ende
change
50
deren
beim
erhalten
put
us@@
ste
rooms
mir
*
19@@
lassen
wo
6@@
x@@
unseren
sk@@
problem
million
con@@
st
Internet
steht
Nach
politischen
ber@@
given
problems
company
main
Und
offer
Our
large
7@@
Sicherheit
needs
meine
Bei
der@@
ins
ted
better
companies
adopted
doch
legal
Bedeutung
current
Art
To
f
Un@@
Er
conditions
2@@
ert
ag@@
These
weitere
2007
besteht
Bürger
issues
land
full
few
They
down
ations
unter@@
Fall
sehen
Parlaments
etwas
far
US
ie
state
8@@
worden
weiter
letzten
Group
ke
working
back
po@@
production
au@@
come
B
role
region
dabei
ni@@
den@@
seinen
health
USA
ating
€
D
r
certain
EUR
X@@
Regierung
qu@@
group
At
life
Auf
shall
pro@@
9@@
Gemeinschaft
growth
again
000
Zimmer
men
Daten
Recht
�
present
to@@
less
System
however
With
following
using
bringen
research
ent
ger
wichtig
together
os
Ar@@
account
25
18@@
control
ac@@
What
line
ten@@
Rates
ly
ma@@
2006
Mar@@
Con@@
whether
particularly
real
transport
industry
Germany
specific
why
ak@@
continue
around
aller
local
ck@@
terms
stellt
ere
wäre
ates
ant
framework
open
00
tun
Court
And
ol@@
daher
authorities
ings
inter@@
große
private
ja
Staaten
Namen
führen
decision
könnte
Was
innerhalb
gi@@
Ro@@
Treaty
11
internationalen
power
Co@@
result
second
chen
Ende
Verfügung
Artikel
government
Programm
Auch
welche
O
Möglichkeit
activities
tions
sowohl
Problem
located
Rolle
bi@@
special
budget
du
ap@@
become
großen
vote
respect
ul@@
Euro
é@@
global
another
sh@@
ung@@
unterstützen
always
water
gehen
Hilfe
stay
general
100
Stadt
did
legislation
mo@@
2005
projects
progress
hope
Region
einmal
major
environment
om@@
einfach
europäische
hatte
davon
so@@
che
bo@@
Zusammenhang
Politik
km
Probleme
project
t-@@
ä@@
Weise
her@@
EN
que
P
ans
ir@@
period
fully
darüber
gegenüber
Thema
implementation
muß
't
children
making
Zukunft
crisis
ve
verschiedenen
ne@@
per@@
Kommissar
women
Pro@@
ne
towards
Mittel
ger@@
Bo@@
third
2004
Umsetzung
ta@@
increase
various
erreichen
2003
food
men@@
il@@
institutions
eigenen
nationalen
ine
German
pre@@
bieten
Aber
Mo@@
zi@@
House
ihnen
Als
em
Seite
Kollegen
ser@@
field
no@@
M
Schutz
create
vi@@
especially
whole
competition
experience
besonders
key
close
tion
regional
sollen
When
standards
isch
economy
policies
beiden
R
zwar
kein
Wirtschaft
ler
sen
L
2001
_
politische
approach
centre
32
provided
Auf@@
Ihr
ci@@
regard
2002
Directive
old
Weg
Frauen
resources
matter
öffentlichen
single
Mrs
ing@@
ko@@
proposals
several
0@@
kommt
proposed
wissen
subject
alles
effective
Deutschland
ER@@
site
erste
di
a-@@
done
found
Kunden
ce
page
age
40
tra@@
Beispiel
safety
res
interest
members
ment
ds
rate
Website
hand
concerned
staff
'@@
New
ic
ou@@
par@@
ken
weiterhin
me@@
kon@@
ei@@
strategy
Finanz@@
directive
Di@@
least
Millionen
les
forward
price
est@@
start
environmental
Ge@@
days
Ma@@
include
arbeiten
ob@@
Service
vielen
employment
befindet
Zu@@
13
look
Um
Verfahren
itself
Ebene
going
Förderung
modern
Kon@@
-S@@
location
hinaus
range
man@@
Programme
wirklich
markets
importance
ö@@
Affairs
unser
Über@@
really
meiner
positive
investment
y-@@
taking
nehmen
efforts
costs
International
ex@@
etwa
ous
Ihrer
training
weniger
14
name
ze
fen
non-@@
Ex@@
N
Ziele
EN@@
Grundlage
Zugang
natürlich
Seiten
often
Tag
unterstützt
1@@
sa@@
Lösung
meeting
dort
money
schaffen
once
sen@@
building
He
18
application
product
est
gilt
results
individual
September
red
society
Europas
ber
resolution
value
due
stand
Dieses
opinion
Alle
Situation
entfernt
alen
cht@@
until
off
Um@@
ES
list
ep@@
direkt
allow
En@@
Bank
opportunity
personal
provides
do@@
France
möchten
technology
Ch@@
software
World
th
online
No
ischer
fast
indem
ist@@
ding
website
iert
licher
wirtschaftlichen
ask
light
ha@@
tri@@
Produkte
reform
among
dessen
away
improve
Markt
text
24
something
ise
An
ons
Unter@@
addition
wish
ally
rapporteur
V
ati@@
parties
ck
Anwendung
regions
ator
daran
air
bzw.
ieren
pro
hin@@
gemeinsamen
play
welcome
16
ts@@
call
Personen
da@@
Ihren
gemacht
Sp@@
side
ü@@
excellent
responsible
months
Par@@
programmes
G
responsibility
F
Regionen
Meinung
Dieser
customers
tige
Bezug
gel@@
yet
macht
Haupt@@
Verordnung
ebenfalls
technical
gentlemen
Inter@@
points
elle
halten
Hier
Lo@@
ur
Form
Po@@
risk
Hotels
cher
Bereichen
education
Leben
Auswirkungen
ru@@
Strategie
negotiations
little
ut@@
cht
recent
rather
Rechte
1999
things
mit@@
principle
nach@@
Abkommen
having
jeder
tax
ihrem
einigen
requirements
ben
darin
all@@
d-@@
mi@@
Grund@@
del
November
plan
ors
solution
Le@@
family
Li@@
related
home
views
ary
v
Uhr
version
Behörden
total
design
nen
Ent@@
via
required
meisten
los
him
internal
ec@@
procedure
ina
groups
might
nämlich
let
Da
ph@@
unserem
called
Deshalb
Verbesserung
wichtige
Qualität
aufgrund
above
bereich
step
cases
Kosten
un
contact
and@@
ran@@
ho@@
De@@
address
sozialen
After
du@@
sogar
mon@@
greater
content
nächsten
bitte
su@@
ven@@
Grund
ach@@
17@@
ments
zusammen
regulation
AL@@
Mon@@
essential
handelt
Verhandlungen
Kinder
cultural
K
agree
ER
Vorschläge
Hinblick
existing
ek@@
ST@@
sin@@
sei
0
town
Reihe
Entscheidung
Fraktion
developing
erte
currently
Car@@
times
gesagt
needed
seinem
achieve
Madam
schen
ster
for@@
Members
zen
thank
Präsidentin
One
IN@@
ca
je
quite
len
makes
bring
Presidency
attention
funds
dürfen
impact
difficult
w
setzen
show
Bedingungen
recht
tr@@
Arbeits@@
ity
amendments
behalf
force
betrifft
appropriate
hin
besser
car@@
others
Y
würden
ihm
Aussprache
states
gu@@
questions
Dienstleistungen
darf
®
Rechts@@
fi@@
fer@@
gemeinsame
April
ches
network
Or@@
X
eb@@
Gesellschaft
re
ded
Interesse
AR@@
solche
II
durch@@
objectives
Haushalts@@
gute
Th@@
tigen
Gebiet
Russia
favour
brauchen
sti@@
nutzen
strong
Haus
=
ass@@
reason
deutlich
zurück@@
Beziehungen
vier
pa@@
ange@@
vo@@
context
ihn
natural
art
prices
Software
60
TV
1.@@
developed
ellen
15@@
concerning
serious
ability
sustainable
keinen
erforderlich
.com
four
ka
sub@@
á@@
17
words
Se@@
sicher
Durch
Ansicht
lan@@
over@@
könnten
EC
known
Unsere
führt
chten
Gruppe
gt
Bar@@
short
minutes
AN@@
young
liches
complete
ie@@
pl@@
Außerdem
capital
ed@@
erreicht
Article
Menschenrechte
To@@
involved
led
assistance
Fortschritte
ladies
unternehmen
Berlin
beispielsweise
bedeutet
significant
ative
Vertrag
concerns
ad
ta
Ort
agreed
left
act
enjoy
genau
erst
ell
meet
statt
additional
held
Punkt
ia
kind
und@@
weit
min@@
deal
ationen
past
cu@@
relations
interests
Tra@@
fall
klar
tive
ft
member
changes
ago
Ri@@
IP
workers
Information
16@@
rates
ters
bar@@
share
pe@@
é
gestellt
Möglichkeiten
ure
Beitrag
deshalb
jeden
gerade
nature
go@@
themselves
peace
eller
integration
Abstimmung
simply
climate
clearly
active
pi@@
central
ic@@
Her@@
established
80
ms
across
station
decisions
sea
she
easy
wer@@
Republic
Gu@@
ene
allerdings
besten
gesamten
Rück@@
wegen
Forschung
Development
tischen
eg@@
bleiben
ker
war@@
Vereinigten
date
gehört
einzelnen
tragen
potential
Aus
freedom
visit
along
directly
solutions
nichts
Initiative
ves
agreements
low
ff@@
Vorschriften
objective
ens@@
please
findet
took
upon
longer
dar
bereit
road
sc@@
Bau@@
initiative
Frankreich
request
glaube
thus
voll
Zu
bu@@
mu@@
Von
lu@@
Demokratie
standard
wi@@
EL@@
partners
internationale
ß@@
19
Mitglieder
aim
Ergebnisse
Verantwortung
democratic
ma
Schaffung
12@@
Wirtschafts@@
democracy
notwendig
ell@@
fördern
person
etc
French
gs
Italy
ender
Ko@@
house
beautiful
21
communication
fest
sion
La
top
Umwelt
direct
user
Daher
Government
500
verwendet
Republik
facilities
early
cost
weiteren
Restaurant
effect
jobs
events
ig@@
car
ideal
final
wide
ging
Richtung
rei@@
heart
General
apply
takes
wa@@
ps
Investitionen
sure
Neu@@
fragen
14@@
language
event
schnell
fundamental
Ad@@
live
Justice
under@@
Verbraucher
Wasser@@
Bekämpfung
lead
foreign
Markt@@
dialogue
AT@@
res@@
consider
Spain
bekannt
aten
relevant
he@@
amount
fin@@
pay
verbessern
euro
actions
tion@@
av@@
au
verfahren
soon
Steuer@@
enough
ermöglicht
term
either
weltweit
Dank
decided
Wachstum
consumers
zeigt
according
benefit
kl@@
century
IT@@
Bevölkerung
lot
ver
bel@@
Institutionen
tu@@
br@@
ance
angenommen
Schritt
Weitere
lange
type
liegen
gemeinsam
Ergebnis
ausge@@
Portugal
derzeit
develop
mis@@
Landwirtschaft
helfen
promote
created
Geschäfts@@
ziehen
designed
eln
IT
population
AG
AS@@
mar@@
27
majority
wichtigsten
keep
care
har@@
From
Turkey
eh@@
maßnahmen
joint
tet
Angelegenheiten
wirtschaftliche
ges
ner
ren@@
material
erung
GmbH
goods
pages
history
media
Kontrolle
stage
werde
feel
Debatte
20@@
ra
Lu@@
agricultural
70
200
Am
form@@
commitment
ways
Ukraine
gh@@
ier@@
thing
mer@@
levels
Bestimmungen
gegeben
$
throughout
erten
EC@@
E-@@
kleinen
sprechen
leben
einschließlich
tor
Com@@
IS@@
Integration
almost
breakfast
team
funding
Wettbewerb
Cor@@
success
2.@@
ations@@
des@@
Liste
geführt
Beschäftigung
dern
eri@@
outside
verschiedene
ses
Sicherheits@@
Jahres
Bu@@
ES@@
space
EIB
near
comes
Su@@
wobei
mer
wichtigen
remain
Gesundheit
Israel
friendly
Ho@@
five
pool
lin@@
Nutzung
Ausschuss
included
alten
com@@
wor@@
tre@@
Türkei
af@@
Erweiterung
Nähe
tig
Japan
receive
Umwelt@@
lichkeit
Krise
hoffe
No@@
hatten
spielen
sche
Doch
va
s-@@
reach
though
procedures
mal
capacity
big
never
seen
22
priority
works
sta@@
exchange
ant@@
living
practice
gebracht
provisions
later
Man@@
ges@@
extremely
entwickelt
focus
Handel
June
hi@@
Geschichte
Herren
principles
UN@@
So@@
guarantee
package
links
increased
night
oft
guests
il
son
voted
Please
tan@@
gleichzeitig
Projekt
Projekte
hinsichtlich
vielleicht
restaurant
gleichen
performance
body
Economic
ard
ern@@
fight
How
verfügt
users
fo@@
ermöglichen
Windows
Gra@@
gewährleisten
rund
Man
regarding
1998
By
true
includes
end@@
wenig
treatment
DE
Bi@@
knowledge
reduce
parts
comfortable
looking
Paris
mentioned
Version
Mit@@
bare
Lisbon
turn
civil
Verwendung
nimmt
American
Since
besch@@
up@@
concern
basic
Tatsache
leading
Industrie
zusammen@@
Erklärung
13@@
opportunities
enthält
enz@@
Aufgabe
higher
soziale
Rechtsvorschriften
ebenso
insgesamt
Einführung
ty
fest@@
Ausdruck
{
achieved
bleibt
gel
konnte
community
note
table
Pi@@
creation
darum
ces
Seit
Mitglied
Einsatz
Italien
supply
Ihrem
genommen
presented
Erfolg
unique
enn@@
lässt
Central
Antwort
received
en-@@
La@@
hard
situated
í@@
Damen
Sozial@@
gemäß
connection
hei@@
music
90
Convention
actually
hätte
book
chte
everything
tern
file
wei@@
CO@@
bed
contribution
idea
demand
Damit
America
ben@@
land@@
hal@@
carried
equipment
zeigen
schaft
jedem
test
National
Juni
ite
-B@@
Berichterstatter
military
ation@@
1,@@
send
run
Darüber
gas
Mi@@
dar@@
Dis@@
0.@@
pp@@
lage
ari@@
IC@@
W
Gen@@
bestimmte
ah@@
ever
enthalten
press
industrial
understand
/@@
doing
ing-@@
consumer
Bildung
Reform
ang@@
beitragen
baren
providing
Agreement
ry
accept
neu
Regierungen
operation
dy
ones
week
à
Landes
reports
23
tionen
ys
considered
Zahl
det
December
ders
Press
billion
fünf
chen@@
internet
Qu@@
legen
response
external
party
Partner
pf@@
card
Ber@@
center
below
Mitteilung
reasons
San
Dialog
face
kan@@
allows
gab
traditional
Ausschusses
Spanien
Ru@@
Preis
co
features
effects
release
mehrere
tische
East
sorgen
prevent
Verbindung
May
Kar@@
professional
är@@
bus
}
lose
beach
draft
bei@@
increasing
öffentliche
ship
hours
limited
culture
Auffassung
although
Zentrum
ks
00@@
Tri@@
bil@@
bre@@
innovative
famous
mittel
bestimmten
efficient
successful
values
balance
try
enable
str@@
programm
aspects
dr@@
geb@@
stability
South
Regulation
kleine
aware
Organisation
einzu@@
added
ang
befinden
applications
danken
Minuten
program
return
zeit
Blick
cor@@
jede
Dezember
Park
eu@@
bank
Nach@@
Zum
enen
Africa
z.B.
gehören
Iran
coming
forms
setting
tur@@
gra@@
35
treffen
review
Themen
politik
10@@
anderer
model
1997
Notwendigkeit
Lösungen
board
Russland
choice
tic
www.@@
bestehen
reached
Mal
job
El@@
jedes
former
Bemühungen
hand@@
Mitgliedstaat
entwickeln
move
anzu@@
Fund
cks
fair
moment
Hintergrund
Land@@
WTO
tel
challenges
UN
committee
recently
4.@@
out@@
2011
governments
ano
verbunden
Gelegenheit
re-@@
London
original
remains
sieht
denke
inc@@
Änderungen
lic@@
ana
net
August
,000
3.@@
For@@
certainly
isches
U
instruments
Gerichtshof
Fahr@@
Mor@@
fa@@
Öffentlichkeit
Geld
außerdem
lack
..
organisations
Si@@
cher@@
Sk@@
ats
heißt
wohl
Zeitpunkt
labour
THE
eng@@
ales
benefits
sectors
Interessen
Q@@
asked
Finally
built
EM@@
heit
Platz
Kolleginnen
steps
previous
neuer
details
o-@@
Energie
bet@@
Vor
5.@@
Au@@
Pre@@
movement
einge@@
series
half
UK
ba@@
RO@@
enlargement
ast@@
Foreign
possibility
ties
customer
shows
writing
leisten
He@@
matters
code
gern
Welt@@
Durchführung
ven
Austria
commercial
regards
ster@@
ment@@
Greece
fe
и@@
bekommen
Sa@@
sense
Kultur
Ne@@
add
Änderungsanträge
Mai
P-@@
CH@@
richtig
enter
ence
Today
fahren
latest
tiert
weiß
bl@@
app@@
nuclear
Finanzierung
Entschließung
zurück
financing
partner
legislative
Gründen
Höhe
quickly
status
Abgeordneten
fishing
completely
perfect
gleich
Policy
English
My
somit
Änderungsantrag
lei@@
First
ann@@
zweiten
Regeln
unseres
innovation
entire
nothing
bisher
conference
erster
Unser
ling
Gesamt@@
mat@@
systeme
March
na@@
we@@
Verpflichtungen
beginning
tieren
Text
whose
Some
Dabei
contains
game
oil
office
tiger
tem
read
submitted
criteria
28
hohen
Management
siehe
contribute
id
1996
genden
ble
meinen
ill@@
front
gelten
protect
fe@@
expected
Lebens@@
verfügen
stop
ET@@
pen@@
>
weisen
durchgeführt
por@@
conclusions
rec@@
waste
annual
stra@@
simple
ganzen
web
equipped
ground
purpose
2020
Konferenz
Euro@@
voll@@
rule
Bar
folgenden
supported
Ireland
infrastructure
tor@@
Gr@@
Anfang
bes@@
independent
AC@@
walk
rest
Entwicklungs@@
großer
Kontakt
Bereiche
pr@@
Social
Entscheidungen
activity
gl@@
mel@@
auszu@@
eigene
mobile
charge
function
Du@@
ori@@
Monaten
Min@@
discussion
sch
mean
Prozess
Do@@
agenda
ages
Ni@@
ändern
Beihilfen
300
berg
Barcelona
October
reduction
hr@@
priorities
ierung
Während
Woche
weise
monitoring
overall
lagen
Let
size
sagte
März
möglichkeiten
neben
similar
Gemeinschafts@@
Wert
OR@@
Therefore
treten
More
Anforderungen
long-term
lang
Preise
gleich@@
ism
ton
Systems
Angebot
Kosovo
comp@@
brought
fl@@
Vertreter
Agenda
IS
europäischer
highly
zweite
Plan
genannten
persons
stark
style
efficiency
materials
fer
75
businesses
RA@@
study
ators
falls
gestimmt
travel
seems
2012
Binnenmarkt
fra@@
führung
Pa@@
rich
Einzel@@
H
S-@@
January
integrated
mind
Am@@
sto@@
anti@@
lines
45
holiday
AM@@
implemented
distribution
Me@@
ali@@
tatsächlich
ste@@
don
document
pu@@
Aktivitäten
Nationen
Wettbewerbsfähigkeit
zeit@@
zunächst
Anzahl
ganze
ban@@
Brussels
implement
SA@@
1-@@
creating
bringt
indeed
gesamte
lies
places
paid
prepared
Raum
park
files
ihres
fallen
approved
Innovation
Herausforderungen
shown
aler
dadurch
ality
July
source
check
plans
setzt
assessment
vergangenen
1995
gerne
bau@@
26
gives
Zur
safe
Per@@
lediglich
published
sites
sound
reforms
Änderung
ies
Standpunkt
Here
effort
200@@
sur@@
complex
mm
construction
Verkehrs@@
organisation
2013
payment
initiatives
ore
applied
Bitte
Mehrheit
kt
image
amendment
Ben@@
largest
suchen
produced
aufge@@
guten
credit
Zeit@@
calls
transparency
Kenntnis
Kommissarin
pressure
zehn
Produktion
direction
huge
ED@@
größten
mann
Italian
Oktober
comprehensive
ski
sektor
gar
establish
computer
nice
relation
clean
tors
völlig
Western
require
später
property
verwenden
everyone
Mitarbeiter
Ha@@
Fu@@
SP@@
technologies
sent
nie
Br@@
competitive
ving
а@@
Services
West@@
analysis
gro@@
Stellungnahme
follow
Im@@
link
ess
wichtiger
accordance
cken
British
answer
gesch@@
ak
Transparenz
vertreten
Fällen
accession
structure
Auswahl
ß
Amsterdam
solchen
Organisationen
Folgen
geschlossen
Spiel@@
behind
erneut
US-@@
Person
Tage
Parteien
pri@@
del@@
Handels@@
Ta@@
choose
ful
hohe
Erfahrung
,@@
eingesetzt
ort
Daten@@
с@@
Kampf
Ser@@
regulations
Wort
structural
Regelung
Griechenland
ler@@
hoch@@
uses
ess@@
hotels
fu@@
Bel@@
documents
aufgenommen
al-@@
administrative
Familie
Of
six
EI@@
weder
stands
requires
are@@
Hand@@
minimum
anderem
er-@@
stell@@
ums
Rights
closed
elements
Januar
Grenzen
Hand
Go@@
entsprechenden
Flug@@
Präsidenten
Fach@@
els
ris@@
äußerst
Nor@@
Spanish
gr@@
Now
Wahl
ente
equal
City
gung
urs
2-@@
fort@@
Design
zahlreiche
Sprache
thanks
Ä@@
Bild
sel@@
produce
Anstrengungen
reviews
Ansatz
Forschungs@@
tools
ó@@
Verwaltungs@@
ade
Sh@@
came
Zeitraum
ierte
Juli
guest
double
alternative
rise
ierten
growing
types
Furthermore
Vi@@
van
Annahme
Ü@@
Pal@@
Position
frei
stelle
prüfen
can@@
erzielt
Stelle
freien
ther@@
Gewalt
weiter@@
fordern
scientific
leave
Gefahr
bessere
berücksichtigt
stri@@
improving
bri@@
bau
verkehr
än@@
digital
Team
Ressourcen
floor
kosten
folgt
bad
Jo@@
Wasser
verpflichtet
log@@
film
lower
obwohl
lung
ines
verstehen
größte
Mediterranean
festgelegt
Zusammen@@
perhaps
instrument
poverty
angesichts
Poland
build
competitiveness
Verwaltung
allowed
banks
iger
cause
relating
gesetzt
tt@@
easily
tel@@
Kraft
search
met
Mittel@@
king
col@@
Conference
Security
mal@@
nationale
beschlossen
j
avoid
keyword
strengthen
server
schließen
elections
innen
DER
allgemeinen
legt
folgende
23@@
30@@
gende
ensuring
geschaffen
Sonder@@
started
technischen
ve@@
meinem
Staats@@
pres@@
Gar@@
summer
participation
War@@
option
Schritte
Programms
emissions
bezüglich
phone
31
Bundes@@
video
mission
violence
Web@@
д@@
amp@@
popular
conflict
Aspekte
Market
Groß@@
IM@@
speak
IL@@
Sal@@
written
aims
giving
tro@@
bit
mp@@
statement
konnten
See
Arbeitnehmer
Also
strategic
scope
North
ll@@
crucial
Wel@@
reference
6.@@
scheint
Sinne
Server
gan@@
Reformen
illegal
AG@@
EP@@
trans@@
Brüssel
beyond
hält
alität
During
Funktion
vorgelegt
C-@@
Aufmerksamkeit
Ste@@
Meer
versch@@
Medien
representatives
Por@@
Umgebung
ju@@
29
einzige
Kingdom
reg@@
versuchen
rural
ien
tete
Public
airport
Punkte
Preis@@
ying
Einrichtung
cover
damage
accommodation
Freiheit
Behandlung
Herzen
ir
official
forces
bestehenden
Centre
base
jeweiligen
schriftlich
eher
leicht
Ju@@
ready
Hoch@@
iz@@
adoption
na
lau@@
regionalen
atmosphere
Bürgern
ino
schließlich
stu@@
Nur
ev@@
besondere
sive
Gi@@
pleased
Natur
ish
affected
stellung
Nord@@
practical
ass
ese
Linie
Königreich
halte
aimed
reading
volle
nis
dan@@
bevor
ef@@
kte
raum
operating
OF
York
cities
Although
tool
ya
aufzu@@
tung
consequences
Czech
deutschen
sechs
äre
vorgeschlagen
Lin@@
EG
Kultur@@
Berichts
Te@@
tz@@
Museum
humanitarian
sm@@
bin@@
school
prozess
plant
met@@
Informations@@
LA@@
zer@@
Schlussfolgerungen
Ac@@
Erfahrungen
adopt
nahm
target
une
cs
EL
ast
variety
developments
committed
partnership
alisierung
cal
Dinge
PC
island
While
maximum
instead
Office
budgetary
25@@
teilen
message
concept
lat@@
tigung
Gesundheits@@
allein
pol@@
transfer
Kriterien
Fo@@
Har@@
Mio.
zone
kre@@
werk
West
terrorism
Netherlands
Arbeitsplätze
compromise
Kur@@
task
verhindern
Association
Party
offered
sing
intended
on-@@
vorgesehen
A-@@
Vereinbarung
carry
gender
border
Kinder@@
erfüllen
EU@@
Business
Ba@@
Moreover
Ra@@
aktuellen
Diskussion
guidelines
farmers
kam
improved
Den
privaten
class
ette
solidarity
Trade
sal@@
encourage
09
Insel
tik@@
dung
demokratischen
wider@@
Erachtens
abzu@@
außerhalb
5-@@
self-@@
tell
establishment
OS
word
entsprechend
Gemeinsamen
ausgestattet
Fre@@
Gäste
EA@@
tiges
expressed
highest
EG@@
Tur@@
Polen
Initiativen
Österreich
2,@@
nis@@
cohesion
University
became
AB@@
erklärte
Many
Instrument
Heute
average
behandelt
sit@@
nor
ECU
meines
erklärt
Stärkung
teile
onen
Verkehr
rä@@
Stunden
vollständig
distance
tim@@
om
Jahrhundert
heutigen
fordert
section
Privat@@
wer
Spiel
covered
Lissabon
challenge
teten
ungs-
employees
immediately
Unter
restaurants
co-@@
erungs@@
0,@@
erfolgt
Mal@@
01
processes
agriculture
Fl@@
technische
networks
Tier@@
о@@
leg@@
Web
operations
je@@
GDP
enterprises
enz
mark
Macht
ics
erwarten
ON@@
umgesetzt
fil@@
Z
win@@
mein
lives
alism
opening
fields
AD@@
az@@
justice
rit@@
Sache
item
sicherzustellen
Prüfung
Stabilität
measure
decide
contract
getan
Wahl@@
ID@@
borders
ron@@
secure
Arbeiten
regime
anti-@@
bro@@
Vertrauen
IN
Action
stärker
stre@@
unemployment
Schwierigkeiten
IG@@
UR@@
erwartet
tru@@
acc@@
ou
platz
gest@@
extent
ON
mainly
speed
powers
provision
Gruppen
weg
diejenigen
benötigen
Research
sports
implementing
gar@@
Bürgerinnen
Personal
harmon@@
AND
erg@@
Anerkennung
Rei@@
wenige
vol@@
isten
ash@@
leaders
extra
lie@@
neues
risks
е@@
Einrichtungen
genießen
reduced
leider
administration
Energie@@
Its
Einigung
Bet@@
fish
Aufgaben
drive
ör@@
coordination
Tro@@
Prioritäten
draw
geworden
ideas
Kor@@
7.@@
Ö@@
Partnerschaft
interested
US@@
Gegen@@
mindestens
apartment
caused
Op@@
goes
rel@@
hätten
ären
express
vers@@
3-@@
ack@@
reality
month
historical
verbessert
Bewertung
Beginn
bodies
death
Vorteile
hoch
sales
tig@@
genutzt
wieder@@
Afghanistan
daily
Basis
kurz
finance
Einklang
bur@@
Hotel@@
promoting
Meine
Environment
Technologie
yn@@
interesting
languages
discussions
port
generation
click
fine
finanziellen
crime
Transport
Irland
erk@@
geh@@
finally
trotz
zusätzliche
sport
ists
kommenden
weeks
CA@@
negative
enten
inn@@
hold
Fonds
lt
likely
Ober@@
offering
Arbeit@@
chtung
Strand
effectively
Val@@
stoffe
advantage
frage
methods
Technologien
Linux
sor@@
modified
schützen
options
Rechnung
Club
Praxis
zahlen
gend
Booking.com
seines
Em@@
ns
Ms
eigentlich
Dazu
gefunden
Ku@@
confidence
IP@@
signed
ably
Küche
reichen
Allerdings
folgen
Systeme
vorschriften
bel
practices
starting
pe
St.
Ministers
rat
Vo@@
bilden
box
electronic
Milliarden
processing
Frieden
laws
UNG
ga@@
erungen
enti@@
beide
Stadt@@
häufig
char@@
pass
worldwide
1994
wählen
Produkt@@
zudem
Russian
1.
sources
Armut
late
ourselves
conclusion
Vertrags
ents
98
markt
staatliche
äu@@
Center
poor
gre@@
Fi@@
wert
commitments
Tagesordnung
uni@@
ften
Vereinten
Leitlinien
Sub@@
entspricht
Mag@@
Druck
Mat@@
Gebieten
useful
numerous
tation
Selbst@@
ini
è@@
maintain
Energy
Sektor
Folge
cli@@
Präsidentschaft
Ak@@
24@@
Fehler
Ger@@
ok@@
Ap@@
round
Staat
tätig
Einige
E-Mail
Tagen
era
Nations
Dar@@
Gästebewertungen
len@@
CD
traffic
players
rechte
Villa
optim@@
Natur@@
sei@@
village
medi@@
supporting
detailed
train
relationship
happy
ständig
veröffentlicht
debt
größere
verantwortlich
Kern@@
verb@@
uss@@
fisheries
Secretary
sets
gesehen
flexible
erfolgreich
quiet
High
sofort
raised
cut
Firma
expect
institutional
wine
Ter@@
nahe
Wochen
union
ants
oben
Sicht
ology
discussed
Anfrage
Flughafen
alone
yer
Beitritt
tal@@
entry
Werte
barkeit
rechts
Empfehlungen
entscheiden
ness
Sen@@
changed
introduced
globalen
Health
lernen
länder
betreffenden
nt
Sport@@
planning
star@@
Instrumente
yl@@
cl@@
stärken
Tor@@
circumstances
Bal@@
gten
99
Wahlen
zes
historic
Col@@
Tel
begrüße
Solidarität
Monate
sec@@
ft@@
sufficient
income
separate
bs
consultation
obligations
closely
gewährleistet
Energi@@
darstellt
despite
bald
morgen
übernehmen
hen
eben
ca@@
Musik
arbeit
Hinsicht
schutz@@
Vergangenheit
#
transparent
cre@@
voting
method
ferner
od@@
Ausgaben
vel@@
Konzept
mm@@
fre@@
child
Online-@@
download
Your
Falle
'll
goal
neu@@
Forum
Fest@@
zahlreichen
33
Bad
Site
ear@@
Opfer
ismus
introduction
ür@@
alis@@
supports
head
assen
nachhaltige
Frühstück
sed
got
limit
cur@@
defined
vital
Even
Chinese
B.
ord@@
FR
ro
friends
Angaben
Überwachung
granted
eck@@
Abschluss
wahrscheinlich
elles
id@@
entsprechende
map
super@@
increasingly
Dec@@
ising
Sweden
Viele
т@@
students
Du
getroffen
ität
Inhalt
talk
green
Cas@@
Wege
8.@@
Hel@@
stimmen
Tagung
za
San@@
Beteiligung
schutz
saying
sis
jo@@
burg
Sea
bedarf
Über
Ban@@
regular
laufen
kannst
Ausbildung
ada
hinter
Luxembourg
Recht@@
berücksichtigen
Is
2015
inform@@
news
EF@@
Dienste
critical
wanted
braucht
parking
dienen
accepted
currency
animal
OL@@
ek
ls
richtige
colleagues
Vielfalt
lösen
delivery
ün@@
selection
mor@@
begin
ga
refer
ff
sign
tomorrow
helpful
discuss
tions@@
apartments
mehreren
anders
join
sometimes
begrüßt
Ti@@
teil
erforderlichen
Microsoft
fla@@
gewesen
ausschließlich
95
learn
warum
Tat
Romania
placed
Natürlich
Dokument
lokalen
ah
9.@@
ländlichen
worked
far@@
e-mail
namely
Belgium
Klein@@
aff@@
dringend
son@@
besonderen
Bilder
stated
star
finanzielle
Bur@@
Protokoll
Entwicklungen
modernen
Mu@@
4-@@
erfüllt
chance
vis@@
versucht
continued
player
Koordinierung
victims
letzte
Umfang
IR@@
Obwohl
Da@@
Stand
lost
denken
Standards
trägt
stellte
Wei@@
linked
ire
wenden
Enterprise
Berg@@
Sti@@
alised
animals
influence
Prä@@
Tätigkeit
zumindest
Kre@@
Do
beste
Agrar@@
Wor@@
Wi@@
Urlaub
domestic
don@@
proper
bathroom
34
wo@@
TR@@
ously
paper
Only
000@@
ce@@
clients
Anti@@
Nutzen
ergreifen
Anteil
payments
shopping
bra@@
überhaupt
vollen
genug
Zustimmung
gebiet
ase
freie
February
Neben
experts
Sil@@
marketing
paar
flo@@
ero@@
wing
gelegt
vergessen
opened
ple@@
fol@@
Background
Einhaltung
recommendations
India
28@@
authority
Sitzung
Schul@@
loss
congratulate
hor@@
purposes
Schlusselwortern
ING
Restaurants
IF@@
uren
associated
vehicles
kan
probably
stets
Res@@
historischen
Zweitens
listed
nahme
Nr.
Atmosphäre
Le
med
schreiben
erhöhen
в@@
gerecht
°
represent
followed
Federal
ßen
Room
Hu@@
Free
serve
hol@@
substantial
concrete
dig@@
zed
represents
dra@@
regionale
Not
establishing
Wohn@@
Bio@@
bedingungen
una
protected
Aufenthalt
ser
BIP
Terrorismus
All@@
Green
zation
strengthening
notwendigen
gang
Zweck
umfasst
Bas@@
scher
bestimmt
Wein@@
laden
ws
gener@@
Angelegenheit
400
enst@@
stable
oll@@
л@@
1992
morning
aktiv
prä@@
unterschiedlichen
eindeutig
elt
ke@@
Zudem
normal
kten
zeiten
Iraq
Dateien
Lassen
AS
Plat@@
fac@@
erkennen
ner@@
Des@@
thought
ativen
stand@@
games
Gebiete
Beschäftigungs@@
29@@
scale
unten
minister
scheme
schwer
ba
understanding
Gebäude
erlaubt
Mil@@
Wunsch
Produktions@@
Amendment
Financial
anischen
Anspruch
abge@@
darunter
concluded
usually
positions
welches
bal@@
phase
Osten
meetings
rechtlichen
48
Chi@@
Schließlich
minute
Gipfel
eter
Sol@@
ars
pat@@
machine
reducing
wesentlich
Engagement
informed
nu@@
Ausschuß
betroffenen
hören
Prime
nationaler
emp@@
Tre@@
Phase
möglicherweise
1993
KMU
plants
alte
managed
möglichen
demands
ends
anc@@
manner
email
verfügbar
considerable
ets
collection
Eastern
con
anything
gekommen
fähigkeit
kaum
selected
Agriculture
96
bewusst
dienste
eingeführt
Prozent
endlich
Wer@@
ulation
comments
Code
Bra@@
Star
Asia
к@@
staatlichen
dri@@
insurance
derzeitigen
gezeigt
Debian
geändert
broad
36
street
rück@@
schi@@
organised
Dr.
Grenz@@
verfolgen
lesen
nachdem
persönlichen
ik
investigation
Kunst@@
expenditure
tw@@
ehr@@
mes
playing
Fer@@
konkrete
heard
isch@@
mention
medical
Internet@@
gleiche
Falls
Airport
skills
Datei
ani@@
According
trading
edi@@
Verfassung
person@@
zug
ße
Google
2014
02
überzeugt
Absatz
running
referred
Entwurf
erzielen
Februar
mountain
improvement
trust
ach
ss@@
Ferner
compliance
SMEs
Indeed
Untersuchung
cross-border
Wirtschafts-
sions
tics
fuer
Cre@@
Kunden@@
danke
origin
People
exist
stes
Banken
Thank
families
suitable
participate
correct
lungs@@
wesentlichen
doubt
pan@@
150
gruppe
ban
dient
0-@@
offen
1990
beginnen
tiv@@
begrüßen
says
dly
tourism
regulatory
Delegation
Vorhaben
sicherheit
As@@
eingerichtet
satz
Bor@@
police
in-@@
cally
stock
fiscal
yp@@
Produkten
Pol@@
produ@@
Schutz@@
stat@@
Krieg
the@@
unbedingt
getting
stress
Belgien
trying
Märkte
operators
consumption
Schweden
plus
chs
generally
Secondly
führte
ll
ha
65
vermeiden
Ur@@
Human
Haushalt
Gas@@
compared
specifically
Benutzer
Strategy
essen
producers
recognition
element
Analyse
so-called
fahrt
images
Bro@@
Wer
Fe@@
spricht
cy
post@@
SO@@
Berichterstatterin
sol@@
targets
T-@@
difficulties
De
liber@@
Why
alismus
Red
garden
spar@@
Win@@
gew@@
amerikanischen
tt
PR@@
Roma
tar@@
facing
š@@
strategie
Denn
ungsp@@
fun@@
moderne
49
Bulgaria
Kat@@
III
Qualitäts@@
senden
kennen
I-@@
Switzerland
comfort
gem@@
structures
track
möglichst
governance
AL
Afrika
Bre@@
Ca@@
extensive
visitors
jeweils
Reg@@
genannt
Fischerei@@
walking
automatisch
discrimination
allgemeine
Wieder@@
Kommunikation
Fin@@
comply
langen
ka@@
sho@@
Boo@@
Besuch
Fran@@
Board
Erstens
weit@@
Fischerei
sts
cal@@
ordnung
Fra@@
combat
Leistungen
worth
absolutely
erinnern
Luft@@
Angesichts
fund
launched
dete
Middle
Grand
well-@@
Barroso
Vergleich
²
Schweiz
ara
El
candidate
Wal@@
Durch@@
menu
fällt
degree
wären
val@@
economies
dro@@
Mc@@
igen
Ist
presence
á
arbeitet
rein@@
umfassende
chts@@
core
politischer
criminal
Ka@@
arrangements
isation
Berichte
Stellen
Voraussetzungen
Pra@@
trag@@
Dann
heiten
lichem
African
Richtlinien
earlier
functions
recovery
Cal@@
sion@@
VER@@
Nun
aktuelle
Arten
announced
Programm@@
Cam@@
Computer
Each
bes
ised
Außen@@
bitten
zo@@
raise
tigkeit
NATO
handeln
sam@@
zufolge
Klima@@
losen
Justiz
tisch
Unternehmens@@
Gro@@
oni@@
oren
multi@@
Na@@
net@@
Verpflichtung
played
800
investments
zer
Spieler
founded
rich@@
07
Partei
promotion
components
EB@@
began
Homepage
darstellen
mögliche
behörden
Aufnahme
larger
kin@@
ausschuss
lich@@
OM@@
zw@@
08
Comp@@
entschieden
Mitteln
Pan@@
cia
powerful
failure
record
installation
™
feature
duty
born
spolitik
Regelungen
whom
fonds
ide@@
endes
Ihres
Herstellung
export
immigration
Beschluss
Überprüfung
fied
tures
jüngsten
97
Kindern
nung
verfolgt
propose
Inhalte
acts
sage
learning
Mark@@
....
Veränderungen
territory
zuständigen
automatically
urban
comm@@
Antrag
ahead
bericht
mente
becoming
Pri@@
genehmigt
wh@@
gabe
appear
swimming
path
love
tsch@@
Most
John
Übereinkommen
37
evening
fying
lit@@
gri@@
gem
zentrale
Infrastruktur
Idee
evidence
Pl@@
k-@@
ball
Station
yourself
gelegen
Tran@@
properly
_@@
sides
dliche
konzentrieren
Leute
Karte
RE@@
President-in-Office
Funktionen
Mis@@
Agency
übrigen
rat@@
tourist
speci@@
talking
freuen
Air
ele@@
38
Anwendungen
os@@
fahr@@
Kapital@@
blo@@
prior
syn@@
Chance
benutzt
las@@
balanced
Cyprus
cat@@
Aufbau
sha@@
Europeans
flexibility
warm
consideration
monetary
ei
Multi@@
format
Hungary
Rec@@
served
kulturellen
cul@@
teilweise
Star@@
erfolgen
Madrid
Sommer
buildings
ki
ships
schul@@
gek@@
wants
At@@
Costa
ical
shared
Rumänien
französischen
nor@@
dec@@
ures
sitting
ku@@
Kal@@
work@@
qui@@
ckt
digen
agencies
Volk
continues
oc@@
Wettbewerbs@@
Hause
che@@
Paper
stan@@
Regel
ins@@
parti@@
tour
Herausforderung
anlagen
gelangen
internationaler
Voll@@
chi@@
controls
Treffen
vorgeschlagenen
tungs@@
back@@
Frei@@
ved
spielt
Malta
aci@@
bek@@
Such
zentrum
Waren
außer
35@@
speaking
fixed
Vorsitz
entweder
ley
ado
Vis@@
le-@@
weis@@
daten
Hersteller
glauben
beteiligt
Plan@@
Tr@@
ologie
deine
applies
staaten
We@@
defence
kor@@
Produkt
outcome
Priorität
high-@@
TH@@
03
Framework
sa
ren
selbstverständlich
wirtschaft
alisation
tage
purchase
Berücksichtigung
imp@@
mem@@
infringement
Standard
Sprachen
permanent
Post@@
Wa@@
Bildungs@@
studies
rü@@
terrace
teil@@
künftigen
39
're
plan@@
votes
War
schafts@@
membership
otherwise
gesprochen
Dem@@
She
facilitate
Verbraucher@@
easier
schaften
klare
fresh
Zeichen
closer
wünschen
CON@@
significantly
geeignet
sicher@@
bestätigt
erfahren
Straße
beziehen
weiterer
else
win
Summit
Einfluss
Bus@@
respond
starke
Haltung
went
lä@@
differences
42
tabled
auswärtige
screen
welcomes
condition
Belarus
Maßnahme
connected
lichkeiten
Christian
erstellt
cars
dem@@
laid
Zunächst
Kan@@
exclusive
bildung
Greek
Suche
Warum
ato
mutual
Bri@@
summit
ently
fle@@
ki@@
mechanism
unver@@
tliche
evaluation
alt
abgeschlossen
DVD
difference
voller
55
motion
Bild@@
gave
industrie
sted
isi@@
ländern
43
immediate
Swiss
Gleichzeitig
zuletzt
Hin@@
ili@@
Irak
Risiken
exercise
Adresse
presidency
cra@@
jene
führ@@
lands
ory
richten
hoffen
PL
Pakistan
entsprechen
Augen
advanced
Autom@@
glich
min
Abkommens
Ob@@
unabhängig
wirken
Nicht
binding
vision
unbe@@
inen
erwähnt
white
gefördert
figures
dealing
fore@@
definition
entstehen
mark@@
tlich
inside
Bedenken
UND
Grundsatz
follows
Vorbereitung
VI@@
spirit
allowing
election
Grundsätze
D-@@
TS
Achtung
Just
pra@@
Leit@@
akzeptieren
ath
ET
photo
hinweisen
Status
thousands
Report
Industri@@
programs
wider
Wann
Arbeitslosigkeit
85
dlich
ame
SCH@@
acht
won
las
Finanzen
precisely
exp@@
threat
grounds
wrong
items
Investment
Rom@@
Lesung
ig
actual
initial
uss
waters
fälle
informieren
Mau@@
és
hu@@
Zoll@@
Teile
Frankfurt
spezifischen
pas@@
Communication
exactly
Met@@
festgestellt
combined
jährlich
Super@@
prevention
ture
court
Familien
Währung
freue
anderes
angeboten
cap@@
introduce
Kontroll@@
geleistet
ole
dagegen
tradition
0er
testen
oo@@
ue
Irish
pul@@
deten
lungen
Luxemburg
gefordert
peaceful
Trans@@
Anpassung
Besch@@
asylum
achieving
Fa@@
gruppen
Under
electricity
steigen
formal
nisse
speech
profitieren
Ungarn
pleasant
fr@@
Aktionen
completed
door
wal@@
Sport
sun@@
warten
Lebensmittel@@
100@@
mobility
Mitte
zen@@
führenden
spending
м@@
session
Familien@@
guarantees
MP@@
dimension
punkt
Empfehlung
kes
Sorge
Croatia
spend
Lei@@
wahr@@
numbers
inform
kom@@
ier
End@@
Finland
erheblich
ming
Lie@@
Kom@@
statements
welcher
Meeres@@
de-@@
Pat@@
changing
unterschiedliche
verk@@
buy
rau@@
seek
stehenden
funktioniert
AP@@
usw.
besseren
ingen
def@@
Dimension
Menge
co-operation
Other
boo@@
tional
nte
proceedings
--
achten
Syn@@
betrachtet
happen
06
noted
gestalten
umwelt@@
einiger
Film
ambitious
save
Gal@@
Stimme
ay
fte
ini@@
ch-@@
Mindest@@
tasks
shop
ausdrücklich
vari@@
Gel@@
entwicklung
individuals
05
nation
dank
goals
6-@@
operational
199@@
ständigen
standing
dan
benutzen
planned
adequate
reasonable
wonderful
represented
nächste
ön@@
umfassenden
Once
Betrieb
Rad@@
approval
sale
freiheit
halt
seem
ED
richtigen
betreffen
rasch
klicken
tom@@
telephone
1991
Agentur
considers
ack
gewinnen
Paket
Sur@@
Then
appears
possibilities
factors
mas@@
olo@@
Kunst
ker@@
ice
campaign
spent
stone
tten
advice
metres
registered
ited
Zeiten
instance
Zahlungs@@
fellow
Modell
26@@
gegenwärtigen
sting
miteinander
Mitgliedern
ktion
delegation
Mas@@
verstärkt
OP@@
wel@@
Pap@@
recht@@
ark@@
cards
air@@
beds
Webseite
relate
3,@@
camera
Best
Kraft@@
Bulgarien
istische
Medi@@
größeren
ola
Cap@@
sionen
wettbewerbs@@
hab@@
stoff@@
feld
ai@@
Förder@@
Uni@@
ching
Regional
•
Wirkung
Strategien
fs
kur@@
quote
7-@@
Gesetz
Forderung
ko
register
continuing
Vice-President
technological
600
thinking
Formen
greifen
Geh@@
mittel@@
lag
überprüfen
euch
firm
nation@@
ingly
werte
Großbritannien
operate
Pressemitteilung
Wissen
Eigen@@
Bil@@
institution
dienst
betont
Rede
intervention
Indien
tests
deliver
bas@@
season
liz@@
Internationalen
nachhaltigen
tn@@
speziell
Video
mitteln
MO@@
Pas@@
entirely
64
species
Because
winter
iel@@
dé@@
jederzeit
Representative
Name
Globalisierung
erklären
mechanisms
benötigt
suggest
failed
abo@@
monitor
Dra@@
wood
ological
schlägt
sicherlich
client
Verringerung
Jetzt
requested
Maße
Bedürfnisse
Gemeinschaft@@
chtet
isen
extended
Schi@@
yst@@
verbundenen
Test@@
dangerous
Sie@@
Home
geln
post
stadt
ella
strongly
hour
gs@@
Michael
ID
parliamentary
models
science
ona
shops
consistent
O-@@
eit@@
Hei@@
urgent
erhält
Titel
н@@
sämtliche
stimme
addressed
pla@@
erstellen
reception
availability
besuchen
ency
com
durchaus
27@@
select
His
Kl@@
Bürger@@
bilateral
zy@@
Tätigkeiten
äl@@
DI@@
Char@@
minim@@
Ara@@
one-@@
spor@@
functioning
advance
rapid
leistungs@@
Investitions@@
Verhältnis
tour@@
lia
sel
reicht
informiert
PRO@@
Hol@@
Peter
kitchen
Zweifel
Universität
ement
Hor@@
Bes@@
atory
perspective
port@@
Liefer@@
у@@
ti
AN
genuine
detail
arbeit@@
spiel@@
http://ec.europa.eu/@@
tigt
hingewiesen
wesen
aufgefordert
behörde
mental
applicable
ica
indi@@
OS@@
Island
lig@@
41
Great
positiv
attractive
obtain
character
haus
sagt
bit@@
hel@@
Unterkategorien
Single
Austrian
Pu@@
hear
Abschließend
vers
Apartments
limits
hauptsächlich
alo@@
Dennoch
spacious
remember
fäl@@
Str@@
vorliegenden
article
Problemen
Europäer
VAT
einsetzen
sub-categories
kal@@
deficit
glichen
Rooms
EV@@
drawn
Festlegung
gewährt
welt
pre-@@
tem@@
politics
Dan@@
erleichtern
off@@
becomes
solcher
Palestinian
ye
charged
entitled
seriously
vorhanden
participants
combination
esi@@
zz@@
betonen
isierung
lieren
ish@@
host
covers
elegant
Teil@@
ton@@
Nicht@@
enables
flu@@
britischen
eng
ction
Städte
93
cr@@
existence
experienced
Dom@@
Stellung
gegenwärtig
stattfinden
Korea
SS@@
gezogen
Denmark
195@@
Drittländern
angezeigt
flow
spezifische
ning
yo@@
CS@@
Elemente
Deutsche
typical
üsse
aspect
Eing@@
Forderungen
independence
bor@@
dungen
claims
identified
wenigen
ischem
Betriebs@@
licherweise
tungen
tere
voice
en-
stoffen
läuft
unless
gain
iste
Pf@@
advertising
sicht@@
werke
Ir@@
eiten
schwierig
cker
EU-Mitgliedstaaten
houses
kers
database
picture
cho@@
erhöht
att@@
disease
Both
Kredit@@
television
erter
Meter
issen
Erklärungen
dürfte
bio@@
plat@@
customs
manage
shower
einander
nissen
si
devices
wn
Effizienz
Reform@@
mod@@
LO@@
04
ergeben
zwei@@
Bedarf
released
zählen
communities
renewable
wollte
qualified
erleben
rail
sensitive
prepare
railway
corporate
launch
leader
dur@@
haft
Institute
sichern
Protection
High@@
Anlagen
contrary
opposition
starken
Unternehmens
elected
machines
cking
Risiko
Schlüssel@@
reliable
ands
ett@@
bringing
Leistung
courses
Vielzahl
Erhöhung
erenden
anten
Hälfte
tier@@
diversity
translation
geschützt
ther
ational
contain
Fälle
nicht@@
ched
d.
Niveau
spezi@@
fun
hervor@@
display
täglich
update
Liberalisierung
Fortschritt
Unfortunately
geprüft
hau@@
contacts
Geld@@
Food
einrichtungen
refugees
welcomed
Spa
Bestandteil
told
ita
inv@@
estate
Öl@@
deutsche
Air@@
an-@@
zuständige
vehicle
beg@@
Installation
eingehen
contracts
Aspekt
dennoch
z.
fuel
stein
Leider
groß@@
Global
district
pfen
gegründet
conduct
Struktur@@
sches
cuisine
ishing
Stu@@
Mel@@
frei@@
books
gte
ausreichend
46
explo@@
sätze
tic@@
ail@@
Studie
Zei@@
asi@@
Erzeugnisse
betroffen
ites
steel
obligation
carefully
zuständig
Common
finanziert
Lan@@
Aussch@@
Abgeordnete
kt@@
mag@@
fel@@
attempt
8-@@
erscheint
47
wagen
equality
fire
Ziel@@
calling
AV@@
übernachten
ely
Dollar
Normen
geschrieben
requests
ziert
itäts@@
zugunsten
geschehen
Open
bt
han@@
Kno@@
verkehrs
resulting
determined
Schwerpunkt
Ideen
Berufs@@
platform
heraus@@
Werk@@
übertragen
fication
demokratische
fraud
band
migration
Sam@@
44
Street
accounts
Mer@@
aufmerksam
Besucher
Teilnahme
improvements
names
Druck@@
exc@@
IV
diskutieren
Generation
resort
tte
erfordert
PDF
wunder@@
п@@
Aktionsplan
sicherstellen
analy@@
ante
wasser@@
coffee
hot
BR@@
Company
EX@@
IC
IA
Latin
Garten
storage
gene
pension
regelmäßig
described
ut
IK@@
Hal@@
Maria
asse
dat@@
Cooperation
confirmed
God
felt
water@@
impossible
wishes
reich@@
Gründe
relativ
wichtigste
Übernahme
weg@@
testing
Unabhängigkeit
amen
brand
biggest
kaufen
wers
cour@@
Jahrhunderts
tin
substances
legung
geltenden
Ausland
vier@@
strategies
preparation
gesellschaft
Diskriminierung
LE
responsibilities
compensation
gers
proposes
tal
@@@
south
Flexibilität
humanitäre
England
Ski@@
junge
grant
sum
intention
restructuring
Mio
woh@@
extend
Golf
Vielen
ы@@
Klimawandel
Seine
National@@
zuvor
dedicated
temporary
ander@@
fan@@
ambi@@
letter
Finnland
Click
Kommissions@@
print
industries
chter
bul@@
gef@@
miss@@
ware
Aufgrund
White
dre@@
92
uner@@
st-@@
truly
überall
temp@@
down@@
Private
art@@
verabschiedet
feststellen
lo
mail
geo@@
lige
zufrieden
weist
arten
medium-sized
Teilnehmer
nden
dor@@
Employment
Menschenrechts@@
u.
globale
situations
etz@@
kept
lic
hergestellt
approximately
restrictions
trip
Pen@@
forget
ligen
greatest
Gast@@
stru@@
loc@@
accessible
sobald
primary
background
w-@@
für@@
gemein@@
Links
moving
Funds
Welche
Ministry
Mehr
jungen
LI@@
garantiert
himself
Area
taxation
B-@@
danach
Bis
san@@
verlassen
Online
sofern
Sanktionen
orders
bezeichnet
xes
Special
My@@
ically
outstanding
Vil@@
registration
contained
Worte
etc.
ences
Süd@@
ón
ery
Data
Off@@
mandate
zeichen
kosten@@
haltung
cas@@
Fähigkeit
Texte
let@@
passed
Sar@@
Another
ausschusses
cke
Dutch
4,@@
istischen
sprache
maintenance
anyone
architecture
reisen
Auto
sam
Dienstleistungs@@
identify
seven
Zivilgesellschaft
sprachen
Rome
myself
Laufe
Lam@@
hands
Fol@@
involving
Hauses
ward
Fort@@
river
pal@@
helping
Zahlen
Joint
tos
issued
David
produktion
Sehr
firms
Turkish
fill
Dienst
Sach@@
aren
Reaktion
Foundation
Vereinbarungen
räume
wissenschaftlichen
Ci@@
Del@@
Wirtschaft@@
Reis@@
Vienna
mati@@
hon@@
ate@@
mittels
Last
nten
Dor@@
Monat
aro@@
gelungen
cing
affect
nötig
tä@@
guide
compatible
web@@
seeking
Firstly
Education
Mobilität
convinced
SA
länger
medium
Finanzierungs@@
Santa
Austausch
assist
stei@@
Kroatien
Tu@@
Komfort
einzigen
Breakfast
Kirche
Ph@@
zung
absolute
Teilen
chosen
vorlegen
thereby
Mann
sten@@
ring
Nevertheless
vollständige
sup@@
lets
affairs
Geb@@
Vorteil
submit
ai
effectiveness
religious
UM@@
Tour
club
desire
weapons
arms
manufacturing
happened
ktionen
Ja
factor
reservation
Prinzip
dad
hom@@
regeln
absolut
Schluss
chter@@
spezielle
Technik
transition
Lehr@@
Klicken
best@@
ée
ze@@
stoff
h.
Bru@@
positiven
Support
Voraussetzung
signal
10.@@
unacceptable
oh@@
UT@@
PT
exhibition
physical
notice
forced
groß
ATION
enzen
Every
Methode
satellite
dritten
Größe
Unterschiede
Patienten
ancient
disposal
zusätzlich
ual
künftig
Zi@@
Due
advantages
beginnt
judicial
association
Steuern
contributions
Media
keinerlei
gehalten
gelöst
rent
italienischen
es-@@
Jeder
Gericht
SE
aircraft
ania
ey
Rahmen@@
arrival
ongoing
nearly
holding
successfully
Control
Bank@@
cy@@
weltweiten
System@@
bezug
tenen
Haup@@
AU@@
vit@@
recommend
emergency
Abend
prozesses
bear
alle@@
Pe@@
Rechts
Men@@
seh@@
markt@@
maritime
Can@@
enhance
Indi@@
daraus
führer
abkommen
mus@@
ub@@
sla@@
Mac@@
alter
route
Niederlande
Dänemark
Mehr@@
claim
Nieder@@
BER@@
gutes
beinhaltet
Terrasse
multi-@@
hil@@
Verträge
Worten
charges
fung
EADS
Thus
keeping
eight
seien
micro@@
intensive
großes
Prodi
agency
digung
Euro-@@
museum
surface
wa
sanctions
bers
86
delivered
fal@@
einerseits
buffet
packages
ari
wall
Following
dynamic
relax
liebe
fear
е
respective
Netz
schlagen
unternommen
pollution
Absicht
persönlich
schönen
linie
č@@
marks
e.@@
Hinweis
Struktur
enormous
beaches
wodurch
ished
zugleich
declaration
my@@
fen@@
Nachfolgend
gebaut
.000
schools
mut@@
looks
brings
ersch@@
befassen
manufacturers
unds
Netz@@
Beschreibung
zing
Mittelpunkt
ining
meters
ete
mehr@@
unable
expression
sell
Moment
delay
burden
sieben
Brenn@@
weight
Ã
TER@@
Schengen
pointed
erhebliche
parallel
texts
angesprochen
OT@@
Ereignisse
Fil@@
forum
chs@@
fach@@
besitzt
Trotz
250
ports
lag@@
Nachdem
CO2
ena
technik
Verständnis
involvement
booking
Projekten
reagieren
Atom@@
Politiker
putting
Zypern
tene
ENT@@
umzusetzen
MEMO
11.@@
fern
wind
garantieren
black
remaining
werk@@
bildet
Open@@
45@@
Entwicklungsländern
neither
presentation
Führung
Nutz@@
qualität
eten
Einbeziehung
Strukturfonds
welchen
extension
amounts
Nutzer
kürzlich
flight
Fuß
sort
lö@@
category
Ei@@
Sinn
Finance
rechten
Tal@@
ehemaligen
heit@@
surrounding
Far@@
lebens@@
betreffend
Yet
remove
smaller
tly
Motor@@
talks
installed
examples
inner@@
pictures
empfehlen
ables
Hamburg
ises
AK@@
ca.
Safety
Handel@@
1989
organization
Vol@@
ile
12.@@
Note
offensichtlich
Mad@@
eigen@@
genen
Wissenschaft
Sehenswürdigkeiten
meaning
yang
fic@@
communications
recognised
Martin
i.e.
middle
Beim
mag
emphasis
tives
kraft
eti@@
coast
ee
wesentliche
liability
conclude
zimmer
Buch@@
einfache
nennen
Rel@@
ous@@
entered
Nachfrage
audi@@
Verbesserungen
centres
Charter
piece
asking
Begriff
angemessen
echte
Constitution
aktive
reply
deep
Zielen
wil@@
aries
capable
comment
kel@@
Bau
valid
laufenden
Wil@@
betrachten
Kritik
Sta@@
Structural
interpre@@
ths
decision-making
isiert
ministers
erende
ISO
Tel@@
ce-@@
consists
Tradition
kar@@
künftige
barer
Grundrechte
squ@@
ss
relatively
mass
TE
driving
verloren
spread
fall@@
angemessene
i-@@
Nacht
ks@@
Technology
imports
primarily
break
examine
massive
alized
appeal
Antworten
Decision
transaction
soweit
Tiere
atives
Manager
fur@@
и
Jahres@@
ty@@
guaranteed
EW@@
zieht
Hoffnung
Anliegen
wirtschaftlicher
Those
anbieten
ige
drugs
Democrats
ater
reflect
Inseln
leb@@
Download
to-@@
zusätzlichen
Stil
wirksam
exports
verringern
sum@@
nearby
langfristige
‑
produkte
cc@@
Q
button
Pr@@
Very
stabil@@
nahmen
covering
Partnern
ata
stellungen
competence
consensus
ligh@@
Mess@@
Genehmigung
lig
relaxing
Ul@@
controlled
expensive
MS
Guest
ys@@
unfortunately
zunehmend
konkreten
Geschäftsordnung
Auftrag
Dadurch
expertise
diseases
dge
anerkannt
weiteres
ard@@
getragen
wir@@
sonst
engine
erh@@
ergriffen
Methoden
eit
Arbeitsplätzen
Can
opinions
rou@@
offenen
Van
pping
fällen
Kin@@
Internal
lar
rechtliche
teilnehmen
fort
alist
Michel
Botschaft
Aid
Casino
vorschlagen
ord
enforcement
alization
comple@@
onto
shi@@
speziellen
Gegensatz
zt
Further
unit
ez
Umständen
Festival
enter@@
haften
x-@@
causes
Je@@
preise
color
unmittelbar
kam@@
spanischen
notes
Risiko@@
ams
feed
ös@@
dynam@@
previously
attack
Any
institutionellen
Zentral@@
hoher
ot
bars
representative
zurückzu@@
Doppel@@
höhere
cel@@
paragraph
Friedens@@
trifft
atic
window
zählt
Sektoren
Bereitstellung
Despite
Canada
treated
equi@@
fit
ía
Vorschlägen
attacks
handel
Spezi@@
andererseits
bereitgestellt
Is@@
awareness
dungs@@
bahn
funktion@@
trau@@
Option
saw
vertre@@
clo@@
regelung
sun
pun@@
bestimmter
F-@@
Anlage
Aussicht
story
Kosten@@
unterstütze
Sor@@
Net@@
ink
totally
lie
Flu@@
ine@@
EA
forest
interface
zugänglich
Nu@@
decades
investors
gebiete
taxes
conditioning
Programmen
zentralen
unden
assets
eth@@
Landwirte
bereiche
rep@@
kul@@
vo
tens
Bush
liberalisation
Regional@@
kostenlos
holidays
cm
ester
stations
hervor
Fernseh@@
patients
Kr@@
ik@@
deli@@
imposed
Player
sper@@
Urteil
Volks@@
attractions
Anbieter
leadership
bezieht
öl@@
competent
officials
beauty
Verhandlungs@@
anz
Veranstaltungen
title
tre
Definition
Reise
Start
Ham@@
Dokumente
invited
@
int
sole
leads
combating
verstärken
mobil@@
bekannten
mus
stal@@
Sha@@
servi@@
z-@@
Pla@@
programms
schneller
Europol
Minister@@
omm@@
oni
Agrarpolitik
Kontrollen
öh@@
Ost@@
Drogen@@
acting
square
directives
komplett
ian
identity
Meiner
ç@@
dlichen
chan@@
seitens
entwurf
gent@@
yesterday
radio
Han@@
device
breite
acceptable
Swedish
Sprach@@
luxury
passengers
stehende
Grenze
führende
liefern
replace
tritt
PL@@
Dem
·
tried
ane
write
Hilfs@@
traditionellen
Märkten
Kompromiss
Realität
Sitz
angeht
abhängig
ener
cru@@
tackle
Partnership
memory
requirement
latter
recommendation
Leistungs@@
einzelne
determine
haf@@
iten
Lauf@@
OR
schä@@
focused
wichtiges
Are
fand
DS@@
Entwicklungsländer
kommen@@
50@@
los@@
banking
Diskussionen
Ordnung
eröffnet
tischer
para
head@@
Obama
aufzunehmen
older
pos@@
install
posi@@
Fr@@
beachten
guter
Regierungs@@
1000
artists
Rau@@
finding
dig
versorgung
Beratung
bewegen
Paul
m2
discover
Allgemeinen
Out@@
gegen@@
FR@@
wealth
rufen
Fähigkeiten
Firmen
Ebenso
praktisch
Where
zahl@@
sat@@
Lake
Männer
constantly
cer@@
ble@@
Haus@@
Gott
block
wiederum
Strukturen
except
з@@
coun@@
lik@@
Over
Eindruck
main@@
stocks
optimal
serves
chain
leit@@
zeichnet
Pres@@
hum@@
expectations
Fotos
beschäftigt
indicated
Two
politisch
church
Willen
schließt
Erde
ret@@
itz@@
Harmonisierung
ov@@
Nice
ziele
rightly
Bon@@
Beiträge
chern
Hauptstadt
residence
sold
spre@@
conc@@
Beihilfe
Licht
esen
nah@@
Ausbau
sli@@
Presse@@
grundlegenden
ye@@
Prin@@
wards
geschieht
involve
perfectly
Ren@@
etten
richtlinie
damals
stellten
Auto@@
acy
einheitlichen
low-@@
Eisenbahn@@
nieder@@
Weiter@@
wen@@
Material
largely
Asyl@@
cies
hafte
chn@@
ater@@
elled
Arbeitsmarkt
mäßig
Tages@@
Fisheries
schöne
dige
ré@@
gens
remind
Day
eig@@
bath
Gemeinsame
statistics
shares
manchmal
carbon
gewal@@
zei@@
Inn
sign@@
but@@
beträgt
merely
Vorgehen
obtained
früher
essen@@
ering
obviously
acquisition
sem@@
Charakter
anische
marked
dos
abroad
Protocol
bert
verlangen
Verwirklichung
north
persönliche
reden
atoren
Unterkunft
tag
and-@@
Verbot
Musik@@
e.g.
fri@@
Fax
tierte
51
gewählt
explain
race
preis
post-@@
Cro@@
meat
Deputy
App@@
any@@
freundliche
gesellschaften
kulturelle
Verkauf
inzwischen
westlichen
cent
.de
finde
Rules
geöffnet
einverstanden
Card
Schl@@
hren
mountains
physi@@
Royal
Sho@@
ständige
Verbreitung
amongst
fruit
160
nunmehr
Alliance
fühlen
belie@@
Mission
cri@@
les@@
Gesetzgebung
ined
Studio
Gegenteil
fy
increases
Krankheiten
obvious
recommended
übernommen
fighting
kleiner
Palace
dist@@
weisung
anda
willing
trä@@
mb@@
Sel@@
Polish
Innen@@
rup@@
Beispiele
vorzulegen
ize
Altstadt
gets
updated
ñ@@
Beschlüsse
ktions@@
52
mar
contents
allgemein
Link
The@@
faced
unto
Dat@@
V-@@
Liber@@
row
CR@@
sta
entwickelten
Grunde
Mikro@@
Holz@@
leiden
Ausnahme
identi@@
q
d.h.
Experten
handling
spo@@
landscape
drawing
700
honourable
tain
dealt
cro@@
Beh@@
Pact
barriers
waiting
xi@@
Sü@@
turned
dent
Militär@@
Verhalten
Angebote
cycle
tho@@
Gespräche
durchzuführen
natürlichen
Entschließungsantrag
Kir@@
rely
gol@@
someone
Projekt@@
tik
foot
üh@@
äch@@
Stand@@
Amerika
Mitgliedschaft
protecting
store
gewisse
Gründung
spek@@
define
karte
Wegen
J
furnished
67
vorgesehenen
grün@@
resolved
deb@@
Resort
resolve
ahn@@
lake
heits@@
convenient
Führ@@
schung
ama
Bay
maintained
120
fördert
sab@@
begonnen
soci@@
Gesetze
Vom
gemeinschaftlichen
Thanks
touch
licht
Faktoren
systemen
Mand@@
colleague
Staatssekretär
southern
collective
Fisch@@
Spe@@
Bewegung
constructive
object
Mari@@
experiences
gegangen
Schäden
stimmt
vorgenommen
Slovenia
menschlichen
Modernisierung
trafficking
inflation
DA@@
tou@@
bestand
run@@
dam@@
enge
setz@@
hierzu
UN-@@
leiten
bereit@@
Einstellung
Winter@@
begann
tis
R-@@
eingeleitet
ül@@
nit@@
Vorschlags
actively
diskutiert
graph@@
Kombination
vielmehr
і@@
president
kurzem
BO@@
visa
recognise
volume
ony
rapidly
fähig
aussch@@
lang@@
abl@@
bestehende
Gre@@
Time
surrounded
strategischen
dru@@
appointed
nations
5,@@
liegenden
ecken
Tit@@
Übergangs@@
verlieren
glass
by@@
extreme
schemes
danger
welfare
whilst
ked
Aktion
listen
istic
Oper@@
Hy@@
producing
viel@@
Kam@@
wirksame
Mak@@
urge
Erwartungen
vous
named
Zustand
digt
mern
Verfügbarkeit
Baltic
wait
Details
а
Sonnen@@
Camp@@
Farb@@
Fraktionen
Ohne
fes@@
've
ertes
Verbindungen
basiert
TO
keiner
Beratungen
sou@@
Tourismus
ick
noise
lar@@
sy@@
verlangt
Wien
youth
CC@@
Mobile
89
acht@@
equ@@
exists
lauf@@
dic@@
vulnerable
photos
shape
Vertrags@@
wür@@
stream
liert
Gemeinschaften
heavy
healthy
disaster
Ki@@
PHP
ay@@
akzeptiert
helped
discussing
struktur@@
suffering
locations
ober@@
helps
Lithuania
vertrau@@
USS
Comm@@
popul@@
Schule
ideale
0.000
Ges@@
Sat@@
isch-@@
Kenn@@
behandeln
blu@@
zus@@
lied
encouraging
Before
uring
pleasure
berühmten
Located
amerikanische
dienst@@
assess
ol
conducted
Anschluss
multiple
Politiken
a.
providers
figure
settlement
88
units
justified
ê@@
grundlegende
passenger
Gewährleistung
ny
mode
set@@
Monetary
Insbesondere
suite
Presse
Buch
profit
beteiligen
bre
sharing
all-@@
Wider@@
Dublin
Gesellschaften
Montenegro
gone
dens
destination
aufen
inclusion
diverse
Ster@@
Shi@@
fassen
drei@@
vorzu@@
Parti@@
Nov@@
l-@@
S.@@
kop@@
engineering
Ther@@
Nahen
Slovakia
zustellen
Veranstaltung
Pic@@
beschränkt
Winter
lle
Landschaft
Pro
farm
EH@@
erhältlich
71
ended
SM@@
Act
strength
Zahlungen
vollkommen
exceptional
kontrolle
excessive
entscheidend
Spar@@
valuable
unterzeichnet
denden
Portuguese
68
zeug@@
contemporary
Datenschutz@@
spring
aum
mil@@
oral
articles
zig
ere@@
ads
Strom@@
Netzwerk
preis@@
decken
Europ@@
kinds
enger
studi@@
gebieten
highlight
ric
ros
dest@@
lokale
transpor@@
derartige
punkte
Resolution
quick
gestellten
spaces
corruption
privacy
DA
sky
Ke@@
Darlehen
tierten
erin
schwierigen
Fern@@
intensi@@
Ide@@
Versuch
leistungen
ungsverfahren
dene
Pil@@
UNION
itäten
estimated
Putin
ppen
Standard@@
NL
eins
66
Serie
kat@@
Ministerin
Square
entgegen@@
pose
Beach
elektronischen
PH@@
ffen
Mus@@
versions
subsidies
pped
declared
Kauf@@
copy
Telefon
Fri@@
eff@@
Waffen
browser
Neue
Amt
hängt
regularly
eds
EIN@@
ress
zusammenarbeiten
straße
websites
Gri@@
runs
ken@@
solve
2.
Hon@@
Kyoto
näher
werfen
dritte
transactions
wn@@
keit@@
höchste
Wander@@
output
Kommunikations@@
Sec@@
Untersuchungen
ausgesetzt
bon@@
Ruhe
projekte
WTO-@@
gestern
COM
Wo@@
sustainability
esses
pour
eck
moved
Rat@@
herr@@
PP@@
bom@@
herzlich
welt@@
Slowakei
stronger
constitute
Veröffentlichung
prove
Kategorie
ush@@
Raum@@
Britain
proved
früheren
Jan@@
length
anhand
Vizepräsident
undertaken
94
owned
duties
derung
two-@@
Westen
í
Farben
reserve
onn@@
Einkaufs@@
pursue
neuesten
ping
spa
ial
Letz@@
occasion
default
din@@
bern
2007-2013
Straßen@@
u.a.
Angriff
Binnenmarktes
denk@@
91
Datenbank
George
AT
soft
tra
stil@@
Gestaltung
spot
Ratspräsident
19.
Tar@@
ech@@
höher
CH
zustimmen
56
bekämpfen
Given
б@@
fran@@
speakers
tobacco
kraft@@
gal@@
categories
S.
dia
sters
ст@@
GR@@
Culture
fläche
reported
menten
staat
G-@@
Essen
lay
Fein@@
IB@@
Hi@@
Format
accompanied
spiel
Klimaanlage
heutige
Hau@@
chemical
opposite
9-@@
offen@@
Süden
Beteiligten
politi@@
Law
vertrag
Marktes
Krisen@@
niveau
enth@@
vorgeschlagene
error
maintaining
profile
General@@
tern@@
politicians
Planung
ter-@@
weite
custom@@
ł@@
ong
ück@@
equally
Pool
taste
DIE
golf
Alternative
Ram@@
Gefühl
sorgt
Chancen
tical
72
nochmals
proof
western
pil@@
origin@@
MA@@
durchführen
Bus
Versch@@
hilft
Charta
schafft
bing
erinnert
voran@@
beteiligten
kti@@
toren
profession@@
Raums
träge
rejected
organizations
ign@@
OLAF
Schwer@@
Zusatz@@
genauso
Maß
Menschen@@
fts
tari@@
Verbrechen
Network
trac@@
aller@@
uting
pel@@
feeling
opp@@
millions
bun@@
conf@@
tioning
Gl@@
Copenhagen
Wirtschaftswachstum
ney
Director
stieg
verschiedener
53
Praktiken
fail
Post
Englisch
Lord
Schaden
Waren@@
depends
terrorist
Cl@@
ust
olog@@
tiv
Japanese
universal
constant
ath@@
Consumer
ush
sichere
Their
cam@@
Digital
Organe
treaty
Liebe
Stre@@
gesp@@
laut
höheren
mas
festgelegten
din
Zimmern
determination
schlag
Second
Stunde
dende
beruht
deckt
vast
author
Tod
Verfassungs@@
Mr.
\
steller
creative
höchsten
62
th-@@
Termin@@
Eigenschaften
Brazil
non
actors
Kooperation
GB
musi@@
verkehrs@@
attitude
betra@@
motor
Balkans
flows
echten
Stoffe
Freunde
exclusively
Partner@@
enhanced
courts
wissenschaftliche
Gener@@
el-@@
On@@
RO
Emissionen
6,@@
inger
sozi@@
Kop@@
zieren
Tatsächlich
hinter@@
vereinbar
dates
setzung
strict
Lebensmittel
TO@@
offices
leaving
Staat@@
karten
system@@
Roman
sichergestellt
CAP
Fac@@
Alter
ursprünglichen
CI@@
financed
bedroom
Blu@@
Völker
heraus
JavaScript
Geist
dol@@
USD
Kurz@@
satisfactory
peoples
ativ
spe@@
Lau@@
Stability
disc@@
Foto@@
summ@@
historische
ge-@@
Lebens
Such@@
schön
Stadtzentrum
EM
Dialogs
struktur
skin
eding
continent
sexual
Handeln
conflicts
Spiele
quarter
intellectual
hier@@
Gästen
Betrag
break@@
weitgehend
hö@@
brechen
respon@@
tigte
aktiven
Via
linien
teams
aux
reifen
UC@@
characteristics
Erholung
aged
organisiert
Zwischen@@
sur
bedeuten
Übereinstimmung
involves
81
See@@
Migration
Serbia
Tom@@
entscheidender
suppliers
druck
Handels
Zwei@@
esch@@
Körper
Tru@@
Video@@
Tim@@
zentr@@
ards
automatic
Estonia
cket
Twitter
tigten
read@@
heritage
seite
Erfüllung
yes
ele
zunehmen
roads
Rou@@
objects
Bei@@
ritt
ym@@
Küste
Umweltschutz
Ladies
knows
schätzen
School
ain
Enjoy
seeing
Pet@@
stor@@
nahezu
gespielt
Northern
Munich
hit
bung
tours
absence
aging
chinesischen
whatever
fi
wirkt
Umfeld
grenzen
Besorgnis
erweitert
get@@
bemüht
konferenz
begrenzt
vessels
Norway
toler@@
Energien
ills
preparing
Chamber
notified
impose
graphic
tau@@
Architektur
Flüchtlinge
forthcoming
AF@@
Zuständigkeit
collaboration
Den@@
arch@@
Norden
a.@@
Freude
mes@@
Robert
II@@
Kunde
Problems
applying
Executive
Beseitigung
connections
Telefon@@
Vereinfachung
bemühen
messen
Rural
tin@@
Ombudsman
bislang
Vision
Lag@@
spann@@
eil
Mein
Sand@@
realis@@
â@@
ethnic
dans
Institution
fein@@
Punkten
verändert
notwendige
Slowenien
ausgerichtet
elling
creates
isse
supplies
verursacht
productive
Beweis
erscheinen
Des
bauen
q@@
führten
iner
Verteidigung
tur
emphasise
erer
dir
fähigen
Klima
Zwecke
Pflicht
weshalb
notably
removed
Mexico
58
schen@@
Ob
breiten
Suite
Kli@@
dert
Wachstums@@
Websites
frag@@
voluntary
entschlossen
faster
Industry
Hohen
einbezogen
Ant@@
ni
Überzeugung
Minutes
unverzüglich
Karten
р@@
Gerichte
stände
Einwanderung
formen
EP
igkeit
Optionen
serv@@
alisierten
ky
boost
obstacles
CE
Forsch@@
emerging
adopting
Vielleicht
annehmen
viol@@
materi@@
AP
domin@@
Use
trees
initi@@
serviert
ausgeschlossen
index
spon@@
top@@
37@@
82
Schulen
Werbung
Anstieg
54
demonstrate
Nummer
Che@@
organisationen
or-@@
demo@@
entscheidende
Konflikt
Schiffe
ello
griffen
Werk
Zugriff
entstanden
Ausarbeitung
Ausführungen
EEC
Materialien
milk
allocated
uri@@
trotzdem
te-@@
yers
Budget
regret
Litauen
Film@@
lasting
hör@@
grow
Anfragen
Reise@@
ando
west
tiven
aufnehmen
opposed
Wohlstand
happens
besitzen
isti@@
Gedanken
gangs
tut
Studien
eigenes
Christ@@
anlage
utz@@
Lim@@
WC
schnelle
GN@@
entlang
ri
Gleich@@
berechtigt
Internet-@@
behalten
Express
Eu@@
mäch@@
perform
River
Mul@@
ented
87
fies
emen
Plattform
Wird
Abfall@@
direkten
personnel
cle@@
respected
manager
debates
Find
Fle@@
appe@@
parents
niemand
wär@@
truth
Preisen
EG-@@
mö@@
öffnen
Geräte
dence
bequem
Cli@@
subsidiarity
Erhaltung
Good
DR@@
L-@@
containing
sle@@
Regime
funktionieren
ultimately
watch
Zentralbank
Element
termin@@
intend
oper@@
ries
widely
Kollege
acquis
streets
bedeut@@
atische
coordinated
HO@@
Bahnhof
gh
boat
savings
erneu@@
ernst
enswert
Gebrauch
entlich
alities
temperature
Kind
erlauben
Dauer
presents
Alp@@
precise
facts
zahlung
furniture
russischen
cheap
Boden
Gleichgewicht
effiziente
kol@@
procurement
ú@@
elektronische
radi@@
ash
discovered
sern
verhindert
Test
fulfil
Kriminalität
ops
dinner
musste
Alb@@
bestimmungen
Instead
Aufsichts@@
Ab
brief
plays
joined
charming
Year
eingehalten
Rule
sozialer
jemand
AC
61
ziemlich
ham@@
eil@@
Städten
maxim@@
Š@@
20.
dischen
leistung
BSE
fee
Geschäft@@
reserves
ehen
produziert
gg@@
stakeholders
Sudan
Wirklichkeit
Log@@
Unterschied
PO@@
cle
ala
nachdrücklich
s.@@
import
Mobil@@
lierte
kamen
interessiert
appreciate
Prozesses
east
Männern
IM
satisfaction
äußern
illegalen
ace
klaren
Take
illustr@@
Book
scht
.00
63
Wahrheit
sicht
walls
Gegenstand
g-@@
isieren
confirm
werten
treat
Dru@@
Gold
cable
Newsletter
77
grundsätzlich
organized
awarded
Kontakt@@
kämpfen
bedrooms
zäh@@
lierten
kli@@
förder@@
asser@@
separ@@
SU@@
Latvia
73
journey
cross
tum
Fischer
Training
Wohl@@
beigetragen
tag@@
drücken
Belgian
with@@
erfolgreiche
Stein@@
Rotary
definiert
naturally
Garantie
divided
QU@@
Formular
interpretation
Photo@@
educational
pieces
Frist
atischen
ierungen
zulassen
dishes
realistic
consu@@
signs
depending
sektors
discharge
willkommen
Vertretern
eastern
Bemerkungen
author@@
Poker
Umgang
Kommissionsmitglied
hof
bound
Gesch@@
tested
oriented
van@@
humanitären
gent
verleihen
loans
3D
Est@@
Fuß@@
targeted
overcome
schl@@
ag
weiten
glob@@
Jugend@@
atten@@
ßt
owners
352
Dort
mentation
Plaza
personally
ausschuß
mitten
zweifellos
ont
-up
losses
Konsultation
ct
Arab
Regierungskonferenz
sprach
AIDS
schwer@@
Maschinen
vollständigen
Organis@@
breit@@
vereinbart
aden
Power@@
TA
Main
gue
Gemein@@
machte
Einkommen
21.
minority
IE
Ratsvorsitz
ong@@
regul@@
labelling
eye
strategische
emo@@
Minderheiten
meist
Son@@
ständen
productivity
geeignete
gehende
59
Gesam@@
ierende
ily
master
Life
Differ@@
User
tex@@
nummer
duc@@
sinn@@
ells
dd@@
criticism
finished
impressive
Bou@@
percent
Will
Rap@@
Kapitel
dauer
convergence
ruhigen
som@@
provider
legitimate
Contacts
proposing
leisure
globalisation
negotiating
Washington
Prof@@
resolutions
Hungarian
kurze
log
facility
deiner
fantastic
wirtschaftlich
Stat@@
messages
Procedure
buchen
Luft
ließ
Thomas
oning
erlassen
expert
programming
direkte
drivers
tlichen
vorhandenen
ett
Process
hervorragende
entdecken
Revolution
intends
satisfied
Authority
ersetzt
rein
Abschnitt
übernimmt
Apartment
Welcome
Jedes
hängen
ome
iso@@
parks
friend
maschinen
behaviour
Don@@
FT@@
dependent
erfolgreichen
Rom
entertainment
sia
mostly
weather
audio
Hafen
Ausführung
bestätigen
bekräftigt
Komp@@
Kontext
ländliche
roman@@
benen
Atlantic
niemals
ierungs@@
intern@@
Reduzierung
zuerst
va@@
Ausstattung
IV@@
defend
ACP
pris@@
Kanada
enabling
explore
organis@@
puts
routes
französische
untersucht
Design@@
ons@@
visible
career
heating
einfachen
Dol@@
will@@
verwaltung
frequently
load
Rent@@
gegebenenfalls
rap@@
Anti-@@
demonstrated
Akteure
tak@@
Mod@@
stressed
invest
ury
rechts@@
ately
legte
equivalent
channels
Regierungschefs
ap
raw
Information@@
drug
vieler
dorf
Straßen
Vorsitzes
lautet
expansion
Not@@
flights
abgelehnt
Black
Fla@@
Award
Schrift@@
ktion@@
ade@@
aviation
Science
Führungs@@
nungs@@
EX
verfügbaren
Beifall
gän@@
ticket
ji@@
sight
verurteilt
Schiff@@
anstatt
alistischen
kung
prosperity
edge
IT-@@
patent
Komponenten
EUROPEAN
Sollte
Asien
blue
mo
judgment
ories
auer
regarded
dumping
examined
theit
britische
stätigkeit
raising
deals
Entscheidungs@@
M-@@
reich
anbelangt
Lang@@
gestaltet
sicheren
ausgezeichnete
f-@@
Ware
är
bisherigen
couple
Eltern
ination
nec@@
Space
langfristigen
Rechtsstaatlichkeit
industri@@
p-@@
beraten
Mur@@
ison
Bir@@
fiziert
techniques
Old
command
worse
assure
driver
topic
ütz@@
stück
sinnvoll
Back@@
gap
venture
Geschäfte
castle
Medien@@
mentar@@
cou@@
award
lab@@
ehemalige
München
Vereinigte
investieren
letztlich
20-@@
Les@@
Auditors
schla@@
deck@@
album
father
cold
died
schrift
Tour@@
Society
г@@
Prinzipien
betrieben
revision
Transport@@
gewähren
klar@@
kehr@@
bridge
Haftung
add@@
ora
Nahrungsmittel@@
halb
eyes
Konsens
Ausgangspunkt
vern@@
Bü@@
einheitliche
Analy@@
Gol@@
zeu@@
üt@@
bli@@
committees
Beziehung
Youth
NO@@
eckt
klein@@
sich@@
Chinas
kanischen
Wirtschaftspolitik
newly
addresses
Quar@@
abuse
Kontakte
strengthened
genannte
trend
happening
probleme
U.S.
dor
kostet
gehenden
Erstellung
PS@@
Nein
zentren
outdoor
ECHO
citizen
Ausstellung
Pläne
3.
doors
Jugend
iting
aly@@
Anhang
answers
films
atik
AUS@@
participating
schli@@
Spezial@@
examination
blood
internen
glaub@@
EWG
owner
transportation
Ambiente
CL@@
zeugen
voraus@@
firstly
präsentiert
sugar
Staates
installiert
believes
gemeinschaft
ska
bestimmen
returned
delegations
oring
exception
op
Los
esc@@
Immobilien@@
Nah@@
40@@
Angst
Fang@@
ierter
argu@@
clean@@
201@@
hundreds
understood
performed
contrast
reaching
gerichtet
falsch
Aqu@@
richtet
PC@@
ausgezeichneten
bis@@
Hindernisse
parliaments
festzulegen
Bedrohung
harmonisation
starten
DO@@
Europa-@@
erst@@
Federation
IO@@
hostels
geräte
Trek
überprüft
dining
tickets
Kann
Freizügigkeit
publication
considering
unabhängigen
northern
Mensch
ANT@@
updates
minorities
Tisch
Shop
wünsche
Front
supervision
bles
Flash
Lat@@
ced
wit@@
griechischen
showing
multilateral
kg
ged
verstän@@
looked
Kab@@
sending
fas@@
satz@@
Außenpolitik
lieb@@
fts@@
ersucht
Wirksamkeit
cooperate
schönsten
inhabitants
Kol@@
ought
ziel@@
bild
einig
menschliche
repeat
iges
regionaler
welchem
ras@@
stellungs@@
sehe
sauna
addi@@
King
wan@@
Kas@@
Inv@@
Niederlanden
Assembly
generated
meant
Klasse
freundlich
liefert
gearbeitet
long-@@
constitutional
Versicherungs@@
brau@@
Ele@@
X-@@
Besonders
ani
Vertragsverletzungsverfahren
lec@@
St
standen
irs
scheinen
periods
serving
seat
Growth
ppe
erstmals
External
Stockholm
Cha@@
Women
Pin@@
lift
Ed@@
Vit@@
lien
adapt
Airbus
unge@@
Declaration
alter@@
Innen
Permanent
wachsen
safeguard
corresponding
Yes
Künstler
ment-@@
Brasilien
Park@@
justi@@
Wein
Eigentum
teilt
chung
sprach@@
integrierten
.....
wonach
Hinter@@
effizient
ensures
,00
rock
ausgesprochen
nam@@
raten
Anlass
crimes
tter
Potenzial
transmission
carrying
NGOs
component
bus@@
entsteht
bereichen
Roh@@
196@@
öffentlicher
mix
EK@@
Höchst@@
holen
specified
solid
cash
ils
acted
Sy@@
komme
Fenster
verstanden
Studenten
mü@@
aner
reiche
kurzen
li
fordere
favourable
plenary
derzeitige
rapporteurs
proud
sorgfältig
packaging
frem@@
69
asses
HT@@
Sit@@
doesn
fehlt
decline
Egypt
dit
verkauft
colour
ref@@
partly
Sicherung
gestärkt
enterprise
selling
arian
klu@@
vorschläge
wann
formed
ungs
extrem
ungefähr
geplanten
Identität
decisive
starts
Badezimmer
exclusion
lots
farming
occur
heim
invite
Fahrzeuge
Sachver@@
Foto
lin
Georgia
reduzieren
Prüf@@
inf@@
ausgaben
somewhat
verfahrens
Budapest
mess@@
Landes@@
drink
glad
fassung
authorised
ull
mittleren
verkaufen
rising
Korruption
trägen
professionals
bezahlen
Drittens
islands
hall
saving
flug@@
jahr
unmöglich
prin@@
Ausbildungs@@
programm@@
Runde
decorated
MEPs
DC
Real
pass@@
blog
ennung
recorded
Sim@@
Eis@@
winning
delighted
siert
ases
Hier@@
76
funded
solange
Übersetzung
ela
wie@@
Mrd.
mi
Hü@@
José
than@@
orial
UL@@
topics
obliged
Zivil@@
Überlegungen
Acc@@
amm@@
Tabak@@
Estland
vollem
match
trends
ère
receiving
Schw@@
Eurozone
cles
clubs
läu@@
ähnliche
Beide
gliche
correctly
unterliegen
angemessenen
Werke
Len@@
Bestellung
Staatsan@@
besonderer
lovely
shipping
penalty
Ministerium
57
Gewicht
legally
manufacturer
destruction
Aut@@
ergänzt
praktische
Zusammenhalt
schö@@
Civil
angebot
definitely
sicherung
Deutschen
Arbeitsplatz
GU@@
Bucht
motor@@
tically
showed
fr
Durchsetzung
enh@@
stärkere
Music
kro@@
Ratspräsidentschaft
Kohäsionspolitik
adi@@
fähige
Erd@@
strukturen
Within
Musi@@
prec@@
m-@@
angesehen
visited
Dek@@
asing
properties
printing
Dorf
turen
Soviet
jährige
preventing
substance
umfassen
TS@@
83
gewis@@
lösung
cutting
Bis@@
Rechtsgrundlage
Next
candidates
genügend
generate
Without
fähig@@
74
Ton@@
password
ände
Ebenen
einzusetzen
mt
Trau@@
FOR
checks
läßt
riesigen
Industrie@@
Verfahrens
Schwe@@
possibly
ister
teste
Fru@@
renovated
til@@
Stra@@
aktivieren
News
bedeutende
metal
hervorheben
konzentriert
Kri@@
sodass
schicken
resistance
ación
10-@@
famili@@
nungen
verändern
theme
fers
angegeben
ared
IX
gio
demanding
übersch@@
unde
Mac
Systemen
USB
pur@@
Maastricht
well@@
Fischler
aling
programmen
towns
Kräfte
cuts
high-quality
tierung
housing
änden
einschlägigen
A3@@
Dusche
Fü@@
Lieferung
ausgeführt
classic
liste
slightly
ingt
ok
Earth
BC
warning
Radio
sucht
balcony
tax@@
Fron@@
Nachrichten
ix
replaced
coherent
psych@@
steuer@@
Lettland
ization
gezwungen
Individu@@
Ausgabe
surroundings
license
tsp@@
tran@@
ly@@
üssen
ased
Errichtung
Erreichung
Mutter@@
Person@@
impression
vorher
introducing
plätze
gold
gratulieren
remote
hardware
Erk@@
press@@
ending
Einwohner
militärischen
-F@@
DS
familiar
TEN
cir@@
kette
http
moral
langfristig
Umwel@@
zurückzuführen
AND@@
Noch
Sc@@
Legal
copyright
tab@@
burger
arti@@
waffen
Beitritts@@
Box
zugrunde
eres
igh@@
Einheit
ister@@
Mes@@
1st
pm
inner
maschine
Zone
Energieeffizienz
Norwegen
Premierminister
sions@@
digitalen
vorbereitet
acqu@@
Tonnen
Wol@@
Zer@@
räger
societies
ening
ION
gaben
Flo@@
rahmen
Verarbeitung
überein
Fassung
GNU
Krankheit
ebene
Sozi@@
europ@@
Congress
impor@@
ession
revised
pak@@
spolitischen
kolle@@
modell
Get
ds@@
ungser@@
fs@@
ity-@@
einzigartige
orts
bike
input
careful
Las
11.
grenzüberschreitenden
Hostelsclub
iti@@
Under@@
appointment
Kamera
Freiheiten
Internationale
stro@@
Sorgen
Alt@@
distributed
Verk@@
bereitet
lam@@
Boden@@
arbeits@@
Behörde
cast
å@@
Rückkehr
gestattet
wasser
Cat@@
resource
lan
displayed
Dienst@@
Bereitschaft
Jede
nde
immigrants
tory
slow
Abschaffung
Tan@@
Marke
festival
U-@@
.org
füllen
Je
Pak@@
schlecht
woman
arrive
James
foundation
offiziellen
mir@@
contributed
kern
PS
frame
assume
them@@
istr@@
territorial
asi
Überblick
Übergang
Wandel
gespeichert
cian
lern
ration@@
division
Mechanismen
loo@@
Delegationen
Mün@@
institutionelle
unabhängige
Sommer@@
credibility
Komm@@
cked
84
Plus
spr@@
tend
department
Signal
Israeli
abgestimmt
wed
AR
jährigen
Alles
usual
operator
mischen
78
Marina
depend
Serbien
stored
yed
spec@@
reporting
paying
rating
Kurs
arise
gestaltung
mä@@
channel
prospects
konfrontiert
einfacher
Sektors
zieh@@
exit
scho@@
steuern
Finanzkrise
Farbe
-based
erhielt
lists
verbringen
vin@@
functional
mented
Plenum
vig@@
Steigerung
consent
quotas
directed
stages
Mittelmeer@@
chem@@
nationals
kürz@@
Geheim@@
Prague
märkte
Department
remained
wines
angewandt
fron@@
sement
ursprünglich
Power
elsewhere
chtes
Sun@@
Lö@@
settings
größer
visiting
jegliche
peti@@
Islands
sheet
weak@@
Elektro@@
steigern
Herz@@
fällig
7,@@
Kooperations@@
Vorstellung
universities
relative
ances
ques
Annex
Nachhaltigkeit
GF@@
entes
inten@@
0s
diplom@@
lev@@
wachsenden
graphy
oned
percentage
erreichbar
survey
Saint
Louis
Whether
prefer
avec
verwal@@
representation
besorgt
kel
wege
neighbouring
äh@@
Firmen@@
umgeben
nights
desk
senken
eignet
gener
Vorlage
Personal@@
Schulden@@
2.0
rati@@
library
Having
Hall
ungsin@@
Glas@@
Danish
schw@@
suggested
Rest
tö@@
organisieren
Gem@@
spoken
eien
Änderungsanträgen
Projekts
loan
beobachten
Labour
Rio
stars
Port
attached
Senkung
interessante
smo@@
supplier
enthaltenen
Es@@
¤
marine
hierbei
Ah@@
wollten
Deswegen
dun@@
hydro@@
freedoms
lessons
aming
werken
steigt
lob@@
keit
gelangt
amended
Sitz@@
Buchung
sco@@
undertakings
Übereinkommens
Bestimmung
basi@@
advis@@
Det@@
DG
Staats-
afrikanischen
Gest@@
Java
Gefahren
î@@
beglückwünschen
entr@@
tels
jo
Afri@@
halten@@
centr@@
olo
Wir@@
Gegend
Sig@@
val
Sony
Verbraucherschutz
dering
derer
kun@@
interior
Morgen
ham
Sollten
wirksamen
samen
suites
außen
altern@@
Church
arising
mangel@@
Neben@@
gewonnen
teren
Kilometer
tourists
Sauna
addressing
Taiwan
geplant
län@@
Binnen@@
Mach@@
Mangel
reject
jenen
module
effektiv
grateful
solches
offene
9,@@
Einstellungen
Fas@@
ECB
angepasst
Fitness@@
änderungen
Tex@@
fourth
typ@@
Tun@@
Polizei
ó
passiert
selbst@@
Auge
kohär@@
considerably
Viertel
überzeugen
Netze
fashion
grad
afternoon
unity
vely
PA
Pau@@
Investoren
Marketing
Messe
ator@@
Stück
wirtschaft@@
gran@@
alisiert
Friday
án
Andere
heat
Zusätzlich
gained
vorher@@
stem
argument
verhalten
appearance
university
Bade@@
ump@@
vorstellen
ond
präsentieren
count
fees
herrscht
els@@
organic
Mechanismus
documentation
apart
corner
netz
refers
Kra@@
sees
ute
subjects
verst@@
ž@@
ura
Gleichstellung
egal
earth
constitu@@
lebt
cken@@
förderung
tigkeiten
geboren
ersetzen
regu@@
planet
constitutes
comparison
eingereicht
derte
swe@@
sent@@
Versorgung
Mont@@
Ol@@
portal
reflects
cular
nutz@@
Kauf
Through
ron
Verteilung
wild
Professor
geographical
igung
Verkehr@@
competitors
windows
Gam@@
Zwei
managing
HIV
label
PAR@@
sn@@
rechtlich
armed
fris@@
siv@@
Insgesamt
Freizeit@@
telecommunications
großem
Band
surveillance
entwickelte
hervorgehoben
overview
occasions
gering
dere
indicators
8,@@
cen@@
Sonne
concentration
chron@@
60@@
tun@@
View
aqu@@
Mazedonien
fern@@
Fon@@
VI
sogenannten
massage
sex@@
individuelle
hear@@
counter@@
valley
encouraged
CD@@
hierfür
ux
hilfe
nat@@
forests
Auftrags@@
Drittel
80@@
electric
stag@@
Mitarbeitern
Öffnung
este
absor@@
movements
Schwar@@
reconstruction
Schlafzimmer
Vietnam
individuellen
Hostels
prop@@
leitung
Exchange
difficulty
erheblichen
Fal@@
Körper@@
Refer@@
züge
ero
relaxation
Ziffer
Based
Ausrichtung
Einzelheiten
sach@@
Rem@@
tea
Grad
ink@@
severe
entgegen
producer
greatly
Vir@@
Lab@@
Wünsche
studio
direc@@
vention
ergibt
GE
gewissen
Fel@@
Golf@@
kräfte
Wind@@
rain
ж@@
eventually
effek@@
beschrieben
prakti@@
lounge
incentives
Gentoo
erfordern
wert@@
mother
eld
exciting
continuous
proceed
Straf@@
Identi@@
beschäftigen
maßen
Beschränkungen
infolge
entrance
hinzu
Wald@@
decade
Sobald
dispute
amt
airports
urr@@
ativer
aufs
ordinary
itä@@
buch
Provinz
wiederholt
hostel
landwirtschaftlichen
Quelle
Or
constitution
Katastrophe
umin@@
Force
billi@@
dom@@
flü@@
graphics
flexi@@
public@@
gut@@
Thailand
anschließend
Chem@@
zahl
reflected
flat
solely
aire
allocation
tief@@
fahrzeuge
Gaza
ра@@
clause
methoden
suggestions
ssen
Personen@@
restore
yr@@
wat@@
leichter
proportion
excluded
ado@@
Steuerung
verboten
umsetzen
schau@@
geschä@@
Verlust
gewi@@
irre@@
bottom
eingegangen
jener
enabled
domain
euros
Pass@@
liefer@@
Zuge
Gerichts@@
Cer@@
Schu@@
integriert
bewältigen
arbeitete
sian
Stimm@@
Funktionieren
reduziert
vacation
portfolio
accurate
dul@@
extra@@
jointly
gas@@
Zw@@
ami
schaft@@
imm@@
Perhaps
adults
Sou@@
Kulturen
Rahmenbedingungen
ASS@@
Rob@@
enjoyed
modernis@@
vermitteln
dance
geleitet
vereinbarten
tables
slo@@
formation
kla@@
Verletzung
Commissioners
Archi@@
wohnen
alia
nevertheless
Verbrauchern
tiere
Sein
extraordinary
speaker
gardens
Miss@@
achievement
MySQL
spra@@
ling@@
Brun@@
Mah@@
mussten
configuration
play@@
Nachricht
geboten
Relations
roo@@
Ausmaß
Quellen
disabled
arm
wage
referendum
plenty
step@@
Quality
Schön@@
Versammlung
exploitation
verringert
Projek@@
dich
umfangreiche
märkten
Speci@@
ô@@
è
Währungsunion
bekann@@
traditionelle
courage
budgets
liberal
Webseiten
tonnes
Helsinki
я
esse
Selbst
aut
Speicher@@
verdient
Ty@@
tter@@
zin@@
bet
entspann@@
suffer
verbinden
Scho@@
grund@@
Küsten@@
diver@@
gesetz@@
sively
par
Lern@@
Australia
Bern@@
Pack@@
fitness
drinks
airlines
hinzufügen
lier
jährlichen
Parlaments@@
brachte
Ergebnissen
Syria
Macedonia
trial
ange
staatlicher
Massen@@
Sin@@
externen
Perspektive
UR
Modelle
auff@@
AD
Zimmer@@
berichten
belief
Adri@@
dien@@
dal
mig@@
Wechsel@@
sensible
subsequent
implications
übermittelt
hän@@
hn@@
ähnlich
schweren
Befugnisse
Der@@
se-@@
ov
artist
cosy
Wiederaufbau
Kapital
Edition
highlighted
Rechnungs@@
Charles
photo@@
erörtert
Wahrung
seeks
Av@@
EEA
Denk@@
disasters
hearing
ci
Regionalpolitik
18.
sufficiently
completion
cross-@@
conver@@
Branche
arrived
vorhaben
appar@@
proven
Rö@@
Inform@@
Zy@@
bekannte
cent@@
desired
schauen
Regulierung
manu@@
strah@@
Question
betreiben
Nachbarn
Grün@@
sit
verehrte
einf@@
forschung
MB
tigungs@@
ologischen
Informationsgesellschaft
hohem
fleet
analyse
Ansichten
verteilt
ées
ests
inos
boot
ruft
sers
pack@@
gründen
Institut
Ausweitung
necessarily
zeichnen
umfassend
description
erteilt
gradu@@
deposit
dest
Adobe
wechsel
whereas
driven
einzuführen
poly@@
Werbe@@
Consequently
nahme@@
zig@@
retail
Skype
sights
Selbstverständlich
79
protocol
Image
zy
§
Weg@@
übrigens
UK@@
Bewältigung
--@@
endi@@
Gerichtshofs
finances
ck-@@
restricted
ergänzen
Glaubwürdigkeit
Amendments
weak
suffered
öffentlich
gemeinsamer
explained
Town
perfekt
ativ@@
ausgegeben
kompet@@
Hohe
aussprechen
Objek@@
objek@@
Weiteren
lock
beschränken
ato@@
Konsequenzen
hair
threats
ac
Wirtschaftskrise
Absch@@
Kampagne
tered
um-@@
ч@@
wies
org@@
500@@
priv@@
Ken@@
Oder
concepts
Schlüssel
Inflation
New@@
sk
auswirken
adapted
schie@@
Description
indicate
Faktor
tively
Leitung
adjustment
nine
sought
alling
außerordentlich
Last@@
engage
missions
rechnen
accounting
bilateralen
hingegen
reform@@
wahren
letz@@
TRA@@
lio
füll@@
keiten
Islam
Asian
wechsel@@
gerät
unterschiedlich
aktu@@
reibungs@@
wrote
gebeten
rental
wesentlicher
PER@@
adap@@
229-@@
Nacht@@
acks
militärische
permitted
lis
us-@@
schu@@
hy@@
Mandat
eligible
wand@@
gebo@@
Flughäfen
Herbst
uted
schnell@@
vorgelegten
esischen
zentral
Institu@@
internationally
gallery
battle
everyday
aj@@
ALL@@
bol@@
Operation
auftreten
highlights
departure
IMF
makers
bett
Anbetracht
errichtet
virtual
Stufe
mers
zahlungen
Patent@@
4.
por
eta
dered
connect
Hil@@
revenue
Hostel
bezogene
Chr@@
spectacular
dominant
Like
mass@@
gebildet
itz
Betreiber
scene
Sek@@
Gau@@
Justiz@@
о
ен@@
Bul@@
FOR@@
phrase
dische
ager
zun@@
gere@@
Countries
Gold@@
beings
stylish
usses
beruflichen
dramati@@
su
een
Project
pilot
ehrt
Don
Vorausschau
innov@@
unterscheiden
geber
anzuwenden
Protokolls
langsam
credi@@
zogen
itation
Positionen
complicated
ST
associations
Sicherheitspolitik
ENT
arguments
essi@@
Strasbourg
ered
ais
operates
Tau@@
steh@@
wohl@@
erzeugt
11@@
Chairman
moder@@
shift
Innovationen
governing
installieren
panel
alisieren
nei@@
fans
fon@@
nom@@
DES
fehl@@
statisti@@
häuser
wear
pace
in-depth
täglichen
gefallen
inter
früh@@
schei@@
traditions
ici@@
CS
natürliche
genehmig@@
politically
Versionen
Ehr@@
sil@@
connec@@
Freunden
Update
Puerto
sized
Rein@@
Telekommunikations@@
Kopf
verw@@
fly
Administration
festzustellen
erhoben
Show
vorliegen
Small
Pho@@
A.
engaged
Balkon
real@@
verstärkte
stolz
Fun@@
zugute
aside
promised
Futter@@
ergän@@
lierung
conventional
Competition
geplante
staat@@
Handlungs@@
Veränderung
Früh@@
Erasmus
weekend
filled
stag
Bahn@@
Chile
erlebt
Sonn@@
Applause
Poly@@
optimale
Bars
haber
fahrer
appeared
gendes
num@@
Il@@
Tourism
Gelder
unfair
et-@@
pression
lauf
secret
Gerechtigkeit
wave
refer@@
Well
GAP
Investitionsbank
Hochschul@@
angegebenen
reise
succeed
beseitigen
Haushaltsplan
Produk@@
ito
Balkan
miles
feu@@
sex
gradually
Prozesse
politisches
homes
thers
räumen
ols
Computer@@
Wes@@
root
ruling
verbindet
ologische
conservation
rechtzeitig
Tab@@
COUNCIL
army
cancer
Nachbar@@
kri@@
Videos
Rund@@
ii
Konflikte
habit@@
countryside
firmly
Stad@@
wiederholen
5.
inklusive
significance
Kompetenzen
gelassen
Ferien@@
Gemäß
ular
roll@@
aching
missing
normalen
Übertragung
Bab@@
Tschechische
Vel@@
ading
kün@@
patient
sections
Thirdly
MAR@@
absol@@
spartner
Valley
cos
fanden
chtungen
bia
Desk
amending
Situationen
holds
chts
transfers
geschichte
Konzer@@
gestellte
Besides
angewendet
handle
toward
Stimmen
rö@@
alt@@
pt
Salzburg
cin@@
Standort
EG-Vertrag
Rückgang
religion
transitional
united
Kopenhagen
Geschle@@
Meeting
dict@@
zuzu@@
accident
bewerten
approaches
Unterzeichnung
hundred
900
Blo@@
iner@@
Drei@@
Dun@@
Wür@@
uneingeschränkt
gedacht
sah
erleichtert
OECD
Mö@@
Wo
druck@@
Apple
ect
bran@@
effizienter
Wi-Fi
collected
Regel@@
krise
Bemerkung
Mail
leben@@
integrate
letztendlich
sz@@
NE@@
kontrolliert
'm
Stellungnahmen
Weiterentwicklung
Touristen
Salz@@
Among
letters
neun
pot
abilities
Hof
Blan@@
capabilities
Liechtenstein
alise
spoke
Verlauf
Page
Entschlossenheit
NI
ght
Polizei@@
Ägypten
Kranken@@
Köni@@
Seg@@
produkten
kontrol@@
Sunday
ausgezeichnet
Urheber@@
ever@@
jetzigen
therapy
cky
theory
EZB
Berichten
bende
Dokumenten
Software@@
MA
Tem@@
lunch
authorisation
Thursday
ew
Inkrafttreten
ration
betrieb@@
rare
ruhig
Wesentlichen
nd
processed
design@@
vorgestellt
voraus
eli@@
praktischen
Gang
Kle@@
phones
Politi@@
dou@@
manche
mach@@
isp@@
bewertet
DEN
originally
lung@@
Inn@@
supplied
sprä@@
nütz@@
Entlastung
ausgewählt
dness
Dritten
pillar
Abhängigkeit
Corporate
appropriations
marquis
geri@@
Wohnung
Road
Rezeption
rie@@
attra@@
negotiation
layer
Canon
Islamic
blick
irischen
HR@@
concentrate
Wettbewerbs
poses
beabsichtigt
cells
körper@@
Chancengleichheit
enthalt
Agenturen
verti@@
organisierten
Zahlung
regel@@
fertig
erheben
cont@@
Kla@@
reservations
kenn@@
finanzieren
Dep@@
Barnier
Aufforderung
male
artistic
Billi@@
preliminary
pen
DER@@
gerufen
Kriegs@@
Verabschiedung
untersuchen
diskrimin@@
transferred
straight
behaupten
filter
freut
attempts
cop@@
Widerspruch
hochwertige
vieles
ep
zeug
Interessen@@
Direkt@@
Fig@@
dienstleistungen
magnificent
Rechten
isl@@
ico
alisierte
vocational
gn@@
della
PD@@
bares
Licht@@
pap@@
errors
kö@@
rats
befasst
violations
schwei@@
tigungen
FA@@
reck@@
mechanismus
Arbeitnehmern
Beg@@
Leg@@
scientists
eingestellt
Vertrages
sphere
fundament@@
müssten
vent@@
acceptance
Regions
caf@@
Budgets
BMW
prime
stä@@
Who
didn
Games
bergen
recognized
Pun@@
leaves
iss@@
none
Gran
stör@@
ump
stärksten
Vater
EU-Ebene
Schwei@@
ped
Außen-
Haar@@
Dro@@
erzielten
female
bemerk@@
gelingt
dation
fishermen
bekämpfung
thousand
Language
path@@
ziel
Nos
pflich@@
Geneva
Ker@@
beantworten
bonus
p.m.
regardless
Ursachen
ITEMS
normally
regulated
Glück@@
Hom@@
killed
pec@@
fig@@
negativen
approve
il-@@
centuries
einzelstaatlichen
verd@@
Rab@@
Eink@@
Statistiken
Register
eas@@
progres@@
Papier
Doha
einzigartigen
Ashton
beit@@
zielt
geregelt
by-@@
Benutz@@
reibungen
Wur@@
Ganz
tle
liked
äd@@
doku@@
anwesend
Fernsehen
Schiff
thy
inst@@
uniform
Cir@@
Ernährung
noti@@
prozeß
baus
Direct
losigkeit
museums
teachers
beendet
integr@@
confirmation
Spitzen@@
Cu@@
weltweite
aw@@
Tat@@
15.
amed
fax
urgently
sh
Theater
Jugendlichen
dy@@
Milch@@
generations
complaints
willingness
zukünftigen
Volkswirtschaften
kleines
Reding
äumen
gekennzeichnet
kno@@
spa@@
verteidigen
villages
modern@@
Konto
Vier@@
dating
liter@@
üb@@
wendet
videos
turning
fairly
kä@@
anwenden
folge
Pfer@@
destroyed
travelling
Großteil
PUNKTE
beri@@
ME
kontrollieren
renowned
Spaß
fli@@
Lizenz@@
Beschäftig@@
Büro
auto@@
Cri@@
Blog
accidents
verantwortungs@@
binden
Should
Allianz
Bosnia
teaching
till@@
ktiven
Betriebe
Kapazitäten
tech
Abbau
heading
lion
mechan@@
ald
Marken
Kategorien
Eff@@
Kap@@
ed-@@
not@@
Unions@@
digitale
Schreiben
Beachtung
presenting
berufliche
erkannt
ueber
combine
Kontinent
ride
Anmeldung
wireless
Americans
Transpor@@
manufacture
EST@@
Pakete
Trotzdem
й
unterstreichen
Cup
anner
dated
ratification
SV
thin
Saf@@
Richard
profits
Level
gehörige
faces
schriften
Export@@
Änderungs@@
grös@@
Cho@@
parameters
medicines
s.
schrittweise
Pacific
sidenten
Garden
virtu@@
Audi@@
dau@@
ennen
cas
Bl@@
Gerät
Lernen
esten
sammeln
ease
beihilfen
Dafür
treff@@
consequence
signing
geprägt
welcoming
gelegenen
steuer
entering
Sammlung
fang
counter
mitteilen
audit
Geschäft
cleaning
reaction
Set
Lohn@@
Darum
disk
lers
Bedürfnissen
findings
uter
trips
allzu
red@@
Mail@@
visu@@
Syrien
Live
Family
bedeutenden
angebracht
wonder
Generationen
drop
flächen
elec@@
Anreize
efficiently
entscheidenden
lon@@
sili@@
teils
ION@@
endgültigen
affecting
crises
AM
consulting
Mexiko
acquired
onal
Master
Blue
italienische
normalerweise
finish
bo
expor@@
Tests
ope
regi@@
ELL@@
erie
seu@@
festen
Client
fut@@
gemeinsames
football
sparen
contributing
prob@@
beizutragen
directory
Defence
hinzu@@
alem
Shar@@
philosophy
Gemeinde
Reisen
größeres
cial
Somit
Jan
tief
festlegen
Lebensmittelsicherheit
dauert
garten
agents
specialist
Dreh@@
individuell
atively
oria
1988
SD@@
Registrierung
wu@@
Access
sus
federal
Hamas
sovereignty
deeply
correc@@
Todesstrafe
Fundamental
critic@@
visual
Č@@
überwachen
Staff
komple@@
Jacques
fik@@
pure
Ablehnung
Ale@@
Sind
COM@@
CO
paket
bat@@
Water
vornehmen
ø@@
Anwendungs@@
LIN@@
gab@@
stammen
ungspolitik
instructions
aufgebaut
dlicher
SW@@
pt@@
gefährdet
Monday
Entwicklungshilfe
bekommt
luxurious
Sachen
ы
upper
non@@
Heran@@
Schwellen@@
lights
designs
dignity
buch@@
boards
ь@@
influ@@
of-@@
genes
Ky@@
permit
freundlichen
spiele
ano@@
shortly
trag
Pul@@
Py@@
wunderschönen
nomin@@
bereiten
Umstrukturierung
colours
zeichnungen
EE
researchers
rom@@
schutzes
meets
Tools
gin
überwinden
harmful
Zeitplan
Typ@@
finanzi@@
teen
Mut
fir@@
individu@@
Teams
Rin@@
geraten
reinforce
prosec@@
projekt
Pop@@
Sco@@
pfung
umzu@@
branche
erei
bewer@@
hr
assembly
Deb@@
resulted
relief
WLAN
Micro@@
hopes
Gran@@
well-known
ordin@@
Kong
Mängel
eing
pools
relates
Metro@@
Ga@@
Gerade
facilit@@
eat
inclusive
xis
krimin@@
extending
UNGEN
http://www.@@
mid-@@
SC@@
Jahrzehnten
Tieren
Betracht
geschlossenen
executive
Hong
anim@@
three-@@
gehandelt
Inneres
Bosnien
relevanten
freely
blocks
celeb@@
Bran@@
überra@@
bed@@
Treaties
ji
scheduled
Tei@@
ires
ford
chemicals
iler
bild@@
stitu@@
operated
lichkeits@@
UNG@@
Gas
joining
Exper@@
Siehe
gross
einfach@@
guidance
palästinensischen
realise
anschließen
Dam@@
hardly
illegale
ernsthaft
aria
aufzubauen
shot
zukünftige
ownership
supposed
gige
Diplom@@
essentially
Glück
ystem
bly
öff@@
damages
Besteuerung
leistet
GD
authenti@@
Glob@@
EIT
gegenseitigen
granting
KL@@
ship@@
Lit@@
endorse
Wirk@@
rig@@
techn@@
empfohlen
computers
follow-up
virus
diert
produces
Opposition
Berliner
halt@@
vorliegende
anzubieten
mittlerweile
eite
Aktien@@
......
Anhörung
Place
quo@@
compulsory
produk@@
gemä@@
Bin@@
vorschlag
quar@@
College
Volkes
Patten
Roll@@
lived
itable
oms
Sau@@
gepf@@
fizierung
commen@@
bedürf@@
clarify
inmitten
zog
Á@@
birth
adverti@@
Sierra
proz@@
bour@@
ekt
ktive
erfreut
normen
opol@@
gesetzten
Capital
asp@@
Climate
Lounge
gegenwärtige
Gewinn@@
Grundsätzen
astic
atz
ING@@
Alters@@
Fehler@@
reliability
deswegen
director
Hö@@
Email
Does
symbol
Herkunfts@@
tionally
Georgien
passen
ès
Schla@@
Journal
genaue
Ani@@
KO@@
hart
crip@@
Sup@@
Überarbeitung
cell@@
Guests
sichtbar
Morocco
hohes
liable
Alexander
gin@@
Ret@@
bou@@
Geo@@
Zwar
Ansch@@
satisfy
selten
cultures
Beschluß
Beurteilung
coastal
xel
representing
qualitativ
Emissions@@
greenhouse
EESC
mand@@
dream
tennis
gert
faith
abstimmen
komp@@
endgültige
Verteidigungs@@
Distri@@
ori
Stahl@@
schule
Freitag
Bedien@@
Derzeit
Reserve
Gir@@
kredi@@
Verfahrens@@
13.@@
erweitern
skiing
Castle
ließen
keinem
benden
Kollegin
preparations
17.
Grünen
ierenden
Motor
navigation
ösen
Holiday
6.
etzen
ners
Gast
Heads
legi@@
selb@@
lokaler
versichern
widespread
Verlängerung
student
Dies@@
1.5
Nav@@
iel
hence
empfangen
Geschmack
Albania
Tool
chair
fak@@
mid@@
gesellschaftlichen
Point
regierung
Wissenschaftler
Dre@@
Technical
Manuel
heben
Posi@@
korrekt
Erzeugung
Aspekten
1980
Mol@@
emission
fed
og@@
everybody
absch@@
ful@@
Produktion@@
classes
spreche
Todes@@
alty
our@@
agra@@
spolitische
sität
ums@@
Clu@@
Les
schem
türkischen
FL@@
underlying
Southern
beenden
Nation@@
verdienen
Parkplatz
stattfindet
effektive
mittlere
viertel
organise
esti@@
Waffen@@
entspannen
shel@@
sounds
abil@@
Captain
preserve
loser
Wählen
grenzüberschreitende
prozesse
parliament
dargestellt
Offen@@
deadline
soil
speichern
ital
execution
Ltd
Hä@@
geschäft
ökologischen
technischer
350
duration
edition
Plas@@
Check-@@
Up
Schon
südlichen
leh@@
applicant
remarks
Galileo
Referenz@@
mentary
geäußert
eth
ollen
kräf@@
letzter
Führer
roots
Konferenz@@
stake
comparable
ligkeit
alls
erforderliche
einzel@@
Organ@@
Kul@@
identification
Prozeß
europäisches
tain@@
Lok@@
Browser
wä@@
suggests
Blut@@
handels
Suiten
gesetz
vertritt
twice
techni@@
arbeiteten
mine
Instruments
structured
sizes
Grünbuch
Gewal@@
consolidation
melden
Indian
mung
Ten@@
Guide
Vermittlungs@@
lösungen
ille
V.
thermal
Amts@@
begleitet
produzieren
Situated
aktiviert
Pati@@
besu@@
learned
ücken
Schweizer
occup@@
engines
schnellen
Provin@@
Playa
Real@@
gam@@
quellen
atur@@
wahlen
Cel@@
klein
surely
modules
Macht@@
enorme
free@@
pho@@
cab@@
schwere
premi@@
A5-0@@
Kandidaten
ats@@
Notes
verletzt
invites
tivity
timetable
integrierte
interessant
inn
reserved
unded
2016
delicious
contrac@@
lobby
Menü
zukommen
focuses
initially
Dritte
Stell@@
denjenigen
C.
Corporation
rahmens
aks
dargelegt
Red@@
Eingang
Defizit
Würde
illi@@
abri@@
behoben
anforderungen
übermitteln
geeigneten
samm@@
gesetzlichen
knapp
ax@@
camp@@
iled
Donnerstag
spir@@
ministerium
offizielle
Resi@@
stoßen
finds
©
empf@@
worst
diplomatic
yle
guided
grown
üs@@
istan
eliminate
ologischer
müsste
Rh@@
pp
drin@@
Ablauf
revi@@
Gehminuten
han
zeichnete
gesichert
frühen
qualifications
dal@@
fü@@
Bord
Iceland
characters
angenommenen
reasoned
Darstellung
Ag@@
abkommens
achtet
ey@@
opens
selben
gleichermaßen
zeichn@@
villa
gence
focusing
strictly
kontaktieren
natur@@
Airlines
dend
saved
altung
Feld
musical
compete
functionality
biodiversity
XP
erien
Pflanzen
anywhere
doubts
Technologi@@
expec@@
ms@@
worthy
vielfäl@@
lor@@
gebühr@@
Häfen
autumn
fix
Get@@
Armee
Venice
jen@@
lieber
beschleunigen
ost@@
Pir@@
observed
überein@@
sensi@@
akzep@@
Sign@@
aster
Haushalts
ecological
song
Erinnerung
Sterne
MEN@@
fügen
unforgettable
sü@@
fan
Bat@@
TEN@@
unterbreiten
Official
tree
CC
Gewässer
16.
propri@@
Dach@@
Cy@@
beru@@
arm@@
neighbours
stützen
stands@@
kapit@@
c-@@
collect
Ari@@
ordered
Facilities
sible
Kun@@
goo@@
ua
soli@@
werks
secondary
grosse
leitet
Vertrag@@
solar
mur@@
Lizenz
cell
hi
informationen
occurred
neg@@
Wiederherstellung
Deutsch
seri@@
ential
Bearbeitung
Halb@@
Lastly
MS@@
fährt
iPhone
mechanismen
Frauen@@
NG@@
Betrieb@@
Nat@@
Tip
Nigeria
bestellen
Intelli@@
suit
Ankunft
tial
Governance
ständiger
Kürze
incorporated
Redner
Administr@@
UB@@
Beru@@
dien
Respekt
Wirtschaftsraum
travel@@
gla@@
smooth
Lateinamerika
healthcare
Jean
geführte
Hinweise
bach
antworten
Socialist
referring
Parlamente
mul@@
gerechte
eingesch@@
SAP
ratio
Zeitung
hotel@@
Dur@@
reibung
remin@@
jurisdiction
exchanges
Ausgrenzung
prece@@
informal
schm@@
broader
NE
freund@@
behand@@
passt
viable
choices
fortgesetzt
Kennzeichnung
Börse
employed
ago@@
wis@@
Franz
cha@@
Journalisten
zia
konkret
wirk@@
renewed
Grundlagen
Aufhebung
lichsten
worfen
ро@@
Gebühren
frequ@@
hospitality
Antonio
transit
netze
Kirk
Kroes
Debatten
SL@@
Ev@@
GM@@
Präsenz
Fir@@
Work
elten
ader
urgency
ungsmaßnahmen
Vorsch@@
Zug
heads
Geschwindigkeit
publi@@
grants
lement
songs
xen
1,5
economically
imagine
prim@@
ITY
Mittelmeer
altet
plastic
nern
alists
Banken@@
wach@@
restored
Genießen
expand
tät
stammt
push
Fortsetzung
ão
Gemeinden
Phil@@
breach
weilen
Saturday
wäl@@
kir@@
ill
innen@@
räu@@
schlüsse
Spr@@
130
merk@@
beinhalten
könne
anzupassen
ple
everywhere
undoubtedly
Children
Erwerb
wick@@
Invest@@
managers
vali@@
auffordern
tracks
taining
Erst@@
Stärke
stän@@
Ausflüge
Several
mitt@@
is-@@
Dr@@
gefragt
May@@
movie
Unternehmen@@
siven
Garantien
Erst
anzunehmen
Schulden
province
Verordnungen
swit@@
dio@@
Betten
meal
gestal@@
ausüben
entliche
beeinflussen
diff@@
bot
utmost
vorzunehmen
Eurostat
erörtern
Mark
Kö@@
grenz@@
folgender
erwerben
zü@@
vern
commun@@
partnerships
ologisch
bezahlt
labor
zusetzen
repe@@
alongside
IA@@
lending
IWF
antes
pressing
Universitäten
ceiling
Planeten
ан@@
SH@@
dialog
EU-Kommissar
CN@@
amenities
regionen
Konjunktur@@
Well@@
inspection
nisses
Four@@
anniversary
Tausende
Verheugen
automati@@
herunterladen
vorbei
certainty
zeitraum
Total
servers
causing
Dass
Parameter
diensten
Finnish
Ratifizierung
Kompetenz
Tages
nord@@
eigener
endor@@
ausländischen
civilian
Energiever@@
König
hinweg
sachen
tenden
trav@@
promise
fei@@
Miß@@
Abendessen
planung
inhal@@
Bag@@
resp@@
schwedischen
see@@
considerations
Burma
gewünschten
Stuttgart
teu@@
Academy
Übernachtung
enhancing
forderte
Three
kreis
flug
eurozone
phenomenon
catch
überaus
publications
ee@@
Frühstücksbuffet
tol@@
Peace
uro@@
gering@@
ony@@
vice
proc@@
alcohol
revolution
Verb@@
Piazza
gres@@
Andererseits
reis@@
DP
Check
schnit@@
dry
fortsetzen
tac@@
ESS@@
entdeckt
Christmas
Vorsitzenden
Dynamik
hü@@
individually
heres
Will@@
Hans
ples
adding
stance
Bereits
sauber@@
Up@@
n-@@
erkennt
Strecke
assen@@
Cohesion
printed
affects
Working
tionary
vorsieht
berechnet
bearing
upgrade
ville
nützlich
Zunahme
urlaub
haftet
Volksgesundheit
Innovations@@
7.
gerechtfertigt
könnt
Einnahmen
Mem@@
Mittelmeerraum
pensions
я@@
maß@@
diesbezüglich
partial
beziehungen
Schloss
Öl
switch
nar@@
Binnenmarkts
employers
atom@@
Freund@@
zige
dankbar
codes
Tür@@
stau@@
klassischen
Willkommen
horizontal
rent@@
verweisen
know-how
aufbauen
Arbeitgeber
cla@@
hervorragenden
istisch
freight
leiter
innovativen
seg@@
bi
Г
leu@@
intelligent
HTML
ouse
Ori@@
Datum
spectrum
Jac@@
Sohn
dei
west@@
Full
bahn@@
formally
geringen
ans@@
lehr@@
interne
Entwicklungszusammenarbeit
conferences
veröffentlichen
Mallorca
wissenschaft@@
Vorrang
kontrollen
nbsp
kurs
aches
Mutter
olle
composition
Straßburg
fications
mens
rem@@
verkehr@@
verein@@
beginn@@
treatments
Bezeichnung
marktes
integrity
Optim@@
underground
tious
acknowledge
neutr@@
aut@@
Beschwerden
aul@@
belieb@@
Strom
dead
existiert
Annual
Together
gos
Album
timely
Top
heißen
records
lick
stimm@@
Fahrt
Wellness@@
Allgemeine
betrieb
Kü@@
dollar
Eröffnung
Eng@@
factory
oo
populations
chens
Sicher@@
verzeichnen
Hat
Vertretung
Währungs@@
nes
attend
sson
wellness
principal
ras
norm@@
amazing
sely
subsidiary
Verstärkung
evol@@
steam
Joseph
dian
poorest
Ausnahmen
180
var@@
dark
Eur@@
whereby
CAR@@
anzuzeigen
fortzusetzen
Nizza
achievements
till
inser@@
reagiert
shore
metro
Haushalte
radik@@
construc@@
instruc@@
asset
besucht
Constitutional
Sowohl
Jer@@
Jur@@
vergleich@@
Öko@@
Siemens
setzte
repair
Berg
heim@@
Meinungs@@
Kommissionspräsident
österreichischen
SE@@
grossen
digte
Orte
Portal
antly
Völker@@
sibility
Cur@@
sessions
Bevölkerungs@@
rt
ité
Katastrophen@@
sauber
Cookies
ausländische
Ven@@
Südo@@
technologie
Sicherheit@@
rupt
chers
generell
Franc@@
eingeb@@
bat
spätestens
armen
gast@@
Ach@@
tiz@@
ishes
SK@@
EWSA
belong
undertaking
Wochenende
medicine
convention
Third
mani@@
8.
Baum@@
negotiated
ко@@
Studi@@
riding
vre
Werden
miss
undertake
hinaus@@
reputation
Customer
empfiehlt
neigh@@
1987
Benutzung
Lou@@
Umweltfragen
compact
zeichneten
Fore@@
Tibet
Sied@@
Cab@@
SIS
wes@@
ICH@@
Islam@@
Zwischen
grenze
treiben
stores
beibehalten
ähn@@
zusehen
Besitz
Meines
gegenseitige
ve-@@
Lis@@
romantic
Tag@@
älteren
Gor@@
Sri
subsequently
Heizung
short-term
Aktu@@
Museen
Connec@@
wohn@@
getreten
dependence
ean
struggle
emplo@@
installations
var
Autobahn
Erfolge
itali@@
EGF
varied
adds
behält
Stock
stam@@
Kampf@@
ame@@
austausch
medizinische
Ec@@
effizienten
Vista
super
erwähnen
zugestimmt
Fläche
smart
honour
organ@@
virtually
liger
kn@@
SC
lege
fails
bewahren
mere
Ersatz@@
Verzeichnis
én@@
chapter
electoral
certification
zerstört
Länge
alising
offiziell
Tsch@@
gänge
Käufer
wald
campaigns
commit
Kern
aufnahme
disputes
hoffentlich
initiated
angekündigt
EUROPÄISCHEN
kas
gewählten
lingen
tatsächlichen
zentraler
behandlung
yard
gues
Visa
olive
Deutschlands
Anna
pretty
Fehl@@
cau@@
Sum@@
posed
Entspannung
communicate
eo
Eth@@
Südafrika
magazine
vi
journ@@
Ministerpräsident
13.
Schüler
brow@@
ер@@
Marokko
Klimawandels
Partnerschaften
inadequate
enne
prize
sonstigen
accordingly
handels@@
Maschine
zierung
ziger
CHF
ultimate
deep@@
Jung@@
bank@@
Cast@@
Top@@
Hän@@
licht@@
erwiesen
2nd
Asi@@
ali
betrag
Location
beef
het
zerti@@
gingen
usage
formats
Tal
bewertung
inge
gia
Beihil@@
substantially
gesam@@
Port@@
gehei@@
Pack
Jun@@
artige
Lebanon
Rechnungshof
Green@@
Kenntnisse
Gipfeltreffen
vergeben
Monti
langer
endet
tile
12.
Amerikaner
Rußland
Ameri@@
ao
Cr@@
Content
bled
Kongres@@
Spielen
amps
M.
Moldova
ris
Filme
Herzegowina
ousness
int@@
chi
Leiter
1986
Reservierung
illa
Marken@@
Jedoch
ologi@@
consult
zugelassen
ae@@
OK
Vertrieb
sonstige
Rats@@
Mir
Meg@@
dürften
Over@@
swi@@
progressive
Tor
dition
1985
Ständigen
spanische
komplette
begins
eco@@
Anträge
Religion
briefly
sums
konfigur@@
marking
minor
agentur
Gesetzes@@
industriellen
bonds
ran
DR
lian
seats
siv
tei@@
begegnen
Infrastruktur@@
Herzegovina
Leh@@
electrical
ANG@@
Gruppen@@
plates
bedanken
utter
Compu@@
Would
foundations
combines
erzeugen
polnischen
pursued
Hum@@
practi@@
fes
AKP-@@
Florenz
retain
elte
activ@@
funktion
Weißbuch
Bour@@
ston
Bibliothek
Produktivität
welle
operative
Ausrüstung
fairen
eland
Autos
günstigen
Schönheit
36@@
ätze
voc@@
überlassen
veran@@
sichtlich
recording
gebilligt
sse
Schlaf@@
brauch
CA
hill
Tschechischen
tant
schluss@@
Casa
oll
stic
sieren
Haiti
ati
tz
tätigen
eröffnen
judge
Objective
Steuer
dents
bürger@@
ökonomischen
contin@@
geblieben
relationships
300@@
zierten
Ansprüche
Albanien
Werten
pes
Minute
Opera
Source
reductions
Rus@@
consultations
environmentally
onom@@
Är@@
posts
power@@
wechseln
spite
Mrd
arrangement
gestiegen
sand
script
obligator@@
Il
delays
gültig
checked
östlichen
chinesische
lica
girls
Events
mäßigkeit
objec@@
imperi@@
diger
block@@
Gaz@@
aku@@
ßer
vent
short@@
fted
Bö@@
verwendeten
composed
¼
zwingen
Gut@@
floors
INTER@@
forth
Pay@@
Wand@@
ex
meter
begründet
Vorstellungen
insufficient
größter
Euch
irgend@@
Spring
Haben
gewidmet
Cuba
gewicht
falling
steu@@
Play@@
strasse
Finanzmittel
froh
low@@
lädt
tti
kommun@@
Ry@@
lebenden
Kohärenz
wander@@
schwierige
CEO
Kreditkarte
teilte
SOL@@
fewer
Übrigen
betriebe
cker@@
Danach
Be
Abschluß
ausreichende
Vic@@
eria
späteren
10.
Holz
sexu@@
sophisticated
erfahr@@
champi@@
traum@@
NRO
Stiftung
Vizepräsidentin
quota
succeeded
unzu@@
schriftliche
weis
günstige
Sky@@
Qual@@
Mädchen
UM
Ausübung
Zulassung
gebühren
perfekte
collabor@@
removal
ähnlichen
Strah@@
camp
credible
zwölf
purely
Bom@@
residents
änder
Using
raums
Schn@@
Anwender
vorliegt
engen
Wiederauf@@
110
Intergovernmental
gegebenen
eira
kes@@
vermieden
daten@@
nü@@
beu@@
Tak@@
thorough
derten
Betreuung
solide
erhol@@
Regulierungs@@
Abteilung
Leben@@
verfol@@
unmittelbarer
publish
netz@@
investigations
recognize
tika
beschließen
trat
exposed
Edinburgh
encies
shadow
Contact
Friendly
logical
Altern@@
violation
bru@@
freier
technologische
gei@@
sozial@@
füh@@
но@@
Citizens
A.@@
wör@@
einsei@@
Basel
losing
inspired
law@@
Schlußfolgerungen
führungs@@
Debian-@@
abend
offenbar
polis
fügt
oli
stätten
prisoners
DV@@
Co
compres@@
sub-@@
bench@@
selber
mandatory
hast
struc@@
orientation
ached
surprise
pä@@
guar@@
kehren
beer
mei@@
Mitglieds@@
tert
án@@
sterben
Themen@@
Haut
sogenannte
Tou@@
EF
Oc@@
forming
urt
9.
erstreckt
exact
erneuerbaren
sä@@
restri@@
mistake
usw
Herz
Revision
postal
kür@@
ita@@
Sol
generi@@
Hauptbahnhof
textile
Laut
eless
klin@@
Zugangs
vac@@
tations
Weiß@@
kapital
mitglieder
ordnungsgemäß
Betra@@
Jerusalem
pit@@
fuels
Haf@@
ř@@
skosten
specialists
Vari@@
angebote
imported
cool
ign
bility
Herr@@
komfortable
Australien
vos
pay@@
besonderes
overlooking
Head
Fan@@
minister@@
14.
soeben
Guidelines
non-smoking
Al
narrow
volles
ema
Schengen-@@
Palette
Montag
Jean-@@
wort
picturesque
vise
Country
guaranteeing
Konvent
Nero
geliefert
constructed
rad
deliber@@
clu@@
crew
Schutzes
hypo@@
Nachdruck
broken
Einen
Begründung
Product
mile
Democratic
kilometres
Luftverkehrs@@
Transfer
journalists
Infrastrukturen
thi@@
deficits
Line
BA@@
Entfernung
Mob@@
sweise
tes@@
homo@@
ski@@
chnungen
gang@@
wiesen
alitäten
mögen
CDs
Arzneimittel
convenience
simplification
Num@@
agi@@
Darfur
gelesen
Tari@@
legitimacy
wachsende
radical
thri@@
Lon@@
gemessen
Golden
UNO
conversion
rest@@
Professional
richtungen
manchen
superior
bedroht
Prize
chä@@
grünen
W-@@
dres@@
oppose
Innenstadt
vil@@
wur@@
Palacio
faszin@@
Tür
weiterzu@@
Kaffee
elli
räum@@
Urlau@@
unemployed
Inst@@
passing
Beamten
stechnik
listings
dom
Fluss
at-@@
repeated
würdig
Europa@@
BA
prev@@
taxi
stories
explanation
span@@
Release
europa
lei
Valencia
Passwort
ept
beruhen
Besu@@
änge
н
segment
over-@@
withdraw
Brand@@
veranstal@@
295
begun
gegenüber@@
Wähler
sie@@
Sound
casino
USS@@
niedrigen
Section
assessed
enlarged
aufgeführt
Zucker@@
succ@@
hebt
UNESCO
Hein@@
exec@@
Form@@
ebenen
holder
Inc
anian
aktualisiert
richtung
compo@@
deutsch@@
erstes
Industrial
ingredients
panoramic
zel@@
kernel
gestatten
Aktions@@
zones
Nor
Glauben
Lebensmitteln
BS@@
ima@@
jun@@
jüngste
arium
Drittstaaten
extrac@@
niederländischen
hiking
ox@@
archi@@
Neelie
Freund
ault
territories
Apart
respectively
oftmals
ental
devoted
Argumente
Meer@@
eventuell
Renn@@
Zürich
Augenblick
Rand@@
Univer@@
outs
fing
Have
Yugoslav
releases
stuff
sau@@
oured
mouth
assurance
Kapazität
e-
fell
geschickt
verschieden@@
vable
Stabilitäts-
Strand@@
pol
Satz
institute
troops
Föderation
Parkplätze
lim@@
zierte
lieben
nehmer
ín
wächst
Kie@@
sendung
Fischereipolitik
einig@@
suff@@
Unternehmer@@
Indikatoren
alistische
Maschinen@@
kämpf@@
maximal
native
bla@@
spezialisiert
kriterien
onic
such@@
ario
Pflichten
Ministerrat
first-@@
ral
xed
Atlan@@
onien
H-0@@
Einsatz@@
üblichen
Wild@@
unnecessary
Streit@@
Cra@@
Them@@
voraussichtlich
SY@@
shand@@
berei@@
eption
ý
stur@@
Detail
Drogen
gling
Speisen
eingeräumt
Russlands
concert
margin@@
deut@@
promises
sleep
Nokia
kommens
zweifel@@
Umstände
Tief@@
Car
Pension
event@@
boats
τ@@
evident
victory
synchron@@
Million
jährliche
Know-how
Lissabon-Strategie
vary
tariff
zweiter
linge
handel@@
überwacht
Prozess@@
loading
wartet
Zertifik@@
Arbeitsweise
SS
Die@@
taxpayers
pick
ahnen
künst@@
threshold
pa
symbol@@
Einleitung
divi@@
ritt@@
compla@@
plac@@
bathrooms
Hierzu
herstellen
info
Porto
LAN
sanit@@
frequency
amend
statistical
Residence
ood
d.@@
erarbeitet
respects
Cle@@
Hafen@@
Diam@@
promoted
Automobil@@
rum@@
oldest
ned
Arbeitsgruppe
cast@@
Bewer@@
leitungen
Doku@@
Souveränität
Spektrum
mittel-
verschaffen
stunning
verabschieden
verwende
e.g
bright
Feststellung
klasse
Chief
unterschiedlicher
max
langem
enza
Häuser
feet
Nä@@
KOM
schluss
Bud@@
Fur@@
Truppen
ändert
teilung
sitz
deutliche
ow@@
erweiterten
condem@@
Behin@@
alisten
equity
newsletter
herzustellen
chtern
Dingen
Energiequellen
Wellness
Berichterstatters
Räume
aktuell
doc@@
verteilung
baut
geringer
Spitze
potentially
herz@@
Ferienwohnung
zeichnung
Main@@
typischen
theore@@
zeigte
Vorsitzender
Vordergrund
negotiate
hidden
DN@@
rot@@
zunehmende
ares
potenti@@
Karel
bs@@
coverage
Besonder@@
enormen
technologischen
Außenminister
visits
Verkaufs@@
herrlichen
stattgefunden
Miet@@
nötigen
coordinate
gungs@@
Muslim
Lor@@
linken
notification
IP-@@
ausgehen
Widerstand
fehlen
verursachen
automotive
ausgearbeitet
openness
Einer
ank
wahr
chemische
Güter@@
Handlungen
19th
kümmern
tigem
frü@@
differenti@@
Ly@@
ails
manual
vir@@
infra@@
wirkliche
distur@@
beeinträchtigen
bling
verbreitet
formul@@
Bed
pet@@
Edi@@
VO@@
institution@@
digungen
Unternehmer
erstaun@@
assigned
HU
Symbol
contractual
Jugoslawien
Wissens@@
ysteme
Docu@@
veröffentlichte
tus
sym@@
fünf@@
meals
fifth
coal
belgischen
erneuerbare
Rahmens
ij@@
pas
MENT
erteilen
genauer
Messe@@
ore@@
Lesen
verpflichten
zielen
ßten
roll
LA
wirft
α@@
benutz@@
wendung
Zuständigkeiten
age@@
tedly
geistigen
Develop@@
entlichen
Sicht@@
prison
rank
Angebo@@
expanded
assem@@
verbindungen
Piebalgs
Inclu@@
insist
ids
Zielsetzungen
zahlt
bequ@@
uncertainty
kostenlose
COMM@@
mitgeteilt
senior
exist@@
doppel@@
rasche
ghts
ermitteln
ität@@
trained
Mengen
2.5
assu@@
saf@@
alternatives
bilität
в
Informations-
Auflösung
auen
onia
stick
viewing
mäß@@
Commerce
Abfälle
Change
arischen
hielt
verständlich
gerechnet
hafter
expense
emphasised
gefähr@@
standes
OTHER
dup@@
kurse
proce@@
League
Entwicklung@@
eries
Somalia
Sul@@
regelungen
Oberfläche
Govern@@
premium
PM
tolerance
zunehmenden
ansässi@@
translated
geringe
hole
bringung
surplus
respecting
contra@@
ld@@
shuttle
systematic
ly-@@
Vorgehensweise
Black@@
Lux@@
merger
Schnell@@
durchgeführten
Lebensqualität
unentgeltlich
angle
gels
der-@@
Bestätigung
nutzt
Bah@@
grund
Solana
foto@@
schläge
onie
Florence
loses
mehrfach
CD-@@
faire
theti@@
enc@@
buses
p.@@
restrictive
unterstreicht
mixed
Saison
Terror@@
zungen
defining
Konsultationen
verletz@@
Fleisch
Stock@@
unterbreitet
anzeigen
venue
ér@@
klimati@@
Konflikt@@
believed
DH@@
klären
Wachstums
verstoßen
sul@@
kleinere
länger@@
Belastung
foster
BM@@
attri@@
modi@@
affordable
Keine
Fabri@@
sad
hochwertigen
Sozialpartner
umgehend
Betrug
Ass@@
pot@@
STR@@
placing
planen
Explorer
Einschätzung
Weil
jedenfalls
ě@@
FI
refused
transp@@
bewirken
verhältnis
olle@@
Hilf@@
calcul@@
Nord
Vie@@
remarkable
Berge
kunden
ray
befürwortet
urs@@
Imm@@
Tabelle
Sonntag
garage
zo
gesucht
Woh@@
inde@@
Zah@@
ose
sequ@@
Saddam
Bol@@
modernisation
Richter
envisaged
jahres@@
bildungs@@
ı@@
Viel@@
Panoram@@
Erarbeitung
Az@@
eben@@
specialized
menge
plur@@
phe
Med@@
tten@@
betre@@
iertes
collapse
Weltwirtschaft
GEN@@
intensiv
assi@@
präz@@
erfasst
Assoziations@@
berichte
ups
Kommun@@
Wirtschaf@@
repeatedly
shilfe
Fahrer
zweck@@
resi@@
Marco
Demokrati@@
zweitens
keits@@
conciliation
derselben
peac@@
lenken
bought
Luf@@
Sab@@
Urlaubs@@
Arbeitskräfte
Mig@@
evaluate
Inten@@
abgegeben
genau@@
koh@@
bay
RES@@
Suites
failing
llen
seemed
Beihilfe@@
Leipzig
Alternativen
keys
landwirtschaftliche
Zusammensetzung
farms
Digital@@
ho
Bücher
äm@@
meister@@
part@@
clarity
Eines
DI
beschrän@@
studied
Vereinigtes
ć
manufactured
Jes@@
punkten
Rechn@@
Communities
compatibility
Kün@@
plas@@
orientierte
Aktionsplans
beschä@@
chairman
weichen
rek@@
etab@@
Traditionen
simplify
grafische
aufgestellt
Benutzer@@
references
ious
versteht
Vorgaben
verbesserte
surprised
sitzen
Besuchen
organiz@@
penalties
bon
alisierungs@@
menting
Yugoslavia
ausser@@
ea
reli@@
zurzeit
ECH@@
orientierten
Olympic
revealed
stipul@@
abor@@
rus@@
Performance
beträchtliche
angenehmen
definieren
entity
izi@@
spät
GVO
arly
reichhal@@
hop
Parliamentary
Ner@@
Telec@@
underlined
Legislativ@@
geograph@@
arts
Hard@@
prospect
Großen
Schle@@
greif@@
aking
GA@@
Emp@@
diversi@@
Herkunft
verbindung
Assist@@
É@@
miß@@
tivi@@
gerungen
agrees
momentan
Dresden
Auslegung
hung
tains
Team@@
trop@@
Terms
mals
terung
Beruf@@
Durchschnitt
matic
berichtet
exposure
Ziels
anz@@
wind@@
Intervention
TV@@
Lü@@
90@@
angenehm
Sz@@
widmen
crops
Hab@@
Wör@@
Travel
Engineering
Appartements
endorsed
Nordic
developers
staying
alog
no-@@
audience
J.
beeinträchtigt
zero
Wh@@
variable
certified
consistency
geld
Mich@@
м
berufen
machinery
realer
30.
dramatic
enjoys
solved
140
blan@@
ratified
ring@@
LICH@@
snow
Textil@@
gehör@@
recycling
new@@
Rock
Durchführungs@@
Ay@@
ausstattung
einstimmig
keineswegs
Inspek@@
iron
agu@@
EI
appro@@
liti@@
dahin
kungen
ал@@
Audio@@
fat@@
asks
Ja@@
permission
mel
Equ@@
Zweiten
poli@@
64@@
zah@@
Ingenie@@
cti@@
occupation
Aussage
cross@@
Et@@
violent
sport@@
ehren
tagen
Privatsphäre
dieren
Export
Frühjahr
Konvention
Händler
isters
stayed
pati@@
sustained
amp
ansprechen
Dokumentation
verfüg@@
zusammenzuarbeiten
ements
dieselben
ansehen
Klarheit
Mass@@
Krieges
quantity
umgehen
signature
necessity
CP
Experi@@
describe
ruppe
Ferr@@
gon
denkt
blei@@
finanzierung
Text@@
gastronom@@
Module
seconds
theatre
Osteuropa
Samsung
Kau@@
pru@@
classical
travellers
bürokrati@@
elf
gor@@
ingu@@
http://@@
CO2-@@
hell
ranging
disp@@
professionelle
mensch@@
desto
charakter@@
viewed
Stri@@
Verfolgung
beneficial
Moscow
commission@@
Cou@@
Orten
Fremd@@
tual
Mw@@
stimulate
Kommunikation@@
Tampere
Existenz
Stro@@
änderung
Bürgerbeauftragten
NEW
Philippe
tail@@
colors
Saint-@@
wonder@@
teilten
promising
Warcraft
Maj@@
comprises
Gewinne
booked
ity@@
buying
itu@@
Moldau
rolle
confident
bü@@
ш@@
observe
Vorbereitungen
technique
ähr@@
methode
Bed@@
alien
withdrawal
Libanon
ot@@
Fluggesellschaften
IES
gate
Fis@@
incentive
erb@@
Oli@@
4-star
tut@@
til
tackling
Trend
Sem@@
Quell@@
trieben
Safe
Beschäftigten
20th
Pierre
exten@@
clock
eda
fertigung
attended
Erhalt
codecision
simultaneously
full-@@
mouse
jk
Merkmale
Jugendliche
Denken
broadband
total@@
bruch
Nikon
pharmaceutical
calm
Typ
Bewusstsein
discount
avi@@
arabischen
Entwick@@
Koordin@@
univers@@
anten@@
verbrau@@
trock@@
artigen
erarbeiten
Buil@@
smoking
kostenlosen
papers
renoviert
fin
supplementary
kennt
Ve@@
vermittelt
Wohnungen
infrastructures
Zuverlässigkeit
Sto@@
afford
roof
bigger
saal
anne
Big
array
Generalsekretär
gewöhnlich
Netzwerk@@
umfangreichen
residential
declare
Sir
citizenship
sth@@
SK
ethical
umfassen@@
fire@@
harm
lossen
indirect
publishing
publ@@
indoor
hills
Prävention
Sitzungen
anpassen
schir@@
academic
Netzes
Wissen@@
süd@@
exemption
Sustainable
hen@@
gehörigen
Patri@@
gebunden
wooden
Aktualisierung
mie@@
redu@@
ized
GA
io
bungen
fare
presidential
Solar@@
airline
dings
moreover
konsequent
wirkungen
Jesus
logo
Out
deaths
Gemeinschaftsrecht
istischer
isto@@
fis@@
coherence
Gibt
sig@@
Stur@@
dimensions
migrants
Nutzungs@@
Diensten
fahrzeugen
eingebracht
Nachbarschaftspolitik
Key
invo@@
suche
verwaltet
Internetzugang
Jewish
genuinely
less@@
450
FF@@
Sieg
simil@@
vertraut
berger
Fremdenverkehr
HER@@
ened
Account
medizinischen
Tob@@
the-@@
intelli@@
iling
Presidents
Jahresbericht
securities
util@@
Fes@@
17.@@
macroeconomic
Directives
king@@
Samstag
entstand
Peti@@
tu
Strände
Europe@@
gericht@@
preferred
ateg@@
dial
apparent
ernannt
exceed
rägern
wife
interim
Ergänzung
ergi@@
lock@@
Unterkünfte
flat@@
Palestinians
Erweiterungs@@
Angabe
TA@@
EMU
dring@@
Vice
ahl
Dal@@
birds
Vogel@@
Sports
Geträn@@
Wit@@
CM@@
Vorfeld
aben
schnitt
imposing
Argument
shortcomings
nehme
technisch
fangen
Einzelnen
ool
oud
Wasch@@
Bla@@
Publikum
yal
entities
observation
portra@@
ul
eme
biological
encourages
Mani@@
drängt
Marktwirtschaft
autom@@
beantwortet
Konzepte
ail
Chin@@
att
competences
terminal
Ruf
hundert
alize
entsch@@
strike
jüng@@
Klassi@@
ad-@@
thal@@
Problematik
entfernen
escape
FÜR
Schie@@
RAT
stung
motorway
crow@@
kombin@@
mol@@
robust
Cock@@
neutral
urity
einführen
EST
bewußt
neighbourhood
verwiesen
Def@@
iring
bann@@
Fischer@@
Subject
Beschlusses
honest
ritte
verwirklichen
Fünf@@
Konzentration
Assoziierungs@@
organisierte
innere
contextual
Verluste
gical
Erlebnis
stützt
Mann@@
mali@@
Poker@@
Inhalten
68@@
Search
reflection
orienti@@
Sound@@
würfe
order@@
Philosophie
asts
foremost
adjusted
Tauch@@
angeb@@
glück@@
bud@@
14.@@
branch
Ima@@
Urspr@@
schar@@
cancellation
Erkenntnisse
Norm@@
Erzeuger
perpet@@
Demokraten
enjoying
requiring
Ford
feh@@
arranged
cious
Servic@@
Wohnzimmer
sprech@@
vals
Mir@@
sätzen
fragt
mün@@
Bug@@
16.@@
Antri@@
Prag
Besitz@@
Ali@@
remo@@
Versand@@
aled
fahrts@@
woo@@
Partnerschafts@@
Georgi@@
tschaft
geklärt
Spezialitäten
Pilot@@
thro@@
enni@@
enor@@
stones
Territ@@
Güter
Plug@@
Scotland
ft-@@
400@@
LAN@@
Kandidaten@@
Bevor
Lud@@
Spre@@
Max
höchst
Einfuhren
rufe
expenses
15.@@
onds
würdigen
Repräsent@@
purchasing
false
Os@@
feste
Jahr@@
formuliert
Stabilisierungs-
erweisen
borne
officially
elev@@
Software-@@
SP
eted
adult
Europäisches
chairs
glie@@
licence
actor
Lieferanten
ungsweise
garanti@@
schreit@@
kit@@
Basis@@
religi@@
foreseen
flexibel
ure@@
komplexen
Zusammenschluss
dus
wirtschafts@@
raft
externe
mines
suited
tigh@@
interven@@
string
ebo@@
foot@@
besie@@
arrest
Times
Offenheit
maybe
Feu@@
dep@@
thaus
Lehrer
autor@@
acquire
füllt
Arbeitnehmer@@
Dok
ander
NICHT
agt
dity
Folgendes
12.00
azz@@
omen
reviewed
Erwachsene
sample
Sun
erinnen
begrenzte
eo@@
Argentina
Mitgliedstaats
paths
vorge@@
Metro
intentions
FC
inquiries
Landwirtschafts@@
Direk@@
Wall
zweit@@
ede
legislat@@
günstig
Still@@
Wednesday
berührt
Read
ket@@
edited
streben
Ps
Krisen
explicitly
urg@@
1957
dein
modify
justify
biologischen
hervorragend
maj@@
ATE
clothing
mäßige
schedule
mie
existieren
scar@@
Datenschutz
derart
sar@@
concentr@@
Immobilien
terer
layout
continuously
Ticket
dateien
digten
vertrauen
Hen@@
nächster
lea@@
mut
photograph@@
bewus@@
entscheidet
Master@@
tension
gefährlich
Barri@@
Gebäuden
ageing
instru@@
ESF
Wall@@
Bildern
charm
optional
calendar
bene
qualifizierte
früh
Spannungen
missed
runde
mengen
indicates
Round
busy
tribute
Können
Mehrwert
Francisco
ent-@@
qui
nel
position@@
telefonisch
affili@@
Stan@@
lück@@
Kontin@@
berühmte
adventure
akan
Sn@@
gegeb@@
viert
Finde
Übersicht
Riviera
bezieh@@
Sym@@
gefährden
hilfreich
Schwerpunkte
Make
PK@@
Fak@@
Hot@@
Allah
sey
parlamentarischen
tangible
Schau@@
Ursprung
medieval
Feuer@@
prinzip
versicherung
visi@@
hinzugefügt
engagement
Environmental
Nicht-@@
ausgewählten
jek@@
consistently
ees
kombiniert
komplexe
distinction
nicht-@@
GMOs
fantas@@
harmonised
gieren
Objekte
verordnung
oration
Genau
portugiesischen
Milan
refuse
Ratschlag
purchased
performing
deserves
erfolgte
smus
sovereign
gefühl
Himmel
Wind
Katalog
plug@@
Edel@@
RT@@
ffs
logistics
Building
Friedens
Republi@@
loaded
Sens@@
das@@
ña
dual
zustande
Kapit@@
Einfl@@
clicking
hard@@
Kreu@@
Doppelzimmer
inneren
assungen
mein@@
ino@@
Blair
authorized
ROM
edy
estimates
Heimat
einzuleiten
Aufzug
Steuerzahler
tung@@
Free@@
andal@@
beiträgt
Web-@@
jahr@@
sierte
becken
Anmerkungen
globaler
Nehmen
30-@@
Hall@@
Zeu@@
russische
professionellen
gerung
secondly
erläutert
ution
beurteilen
quet
regimes
signals
awa@@
Mario
Bun@@
acking
Verein@@
authors
erlangen
sens@@
wertung
still@@
superb
Case
spots
Bilanz
promo@@
question@@
maps
patterns
wirklichen
Gottes
B5-0@@
duction
bearbeiten
Ehre
depth
taus@@
platforms
angebotenen
nik
rus
Versprechen
beseitigt
IR
dt
ë@@
Einschränkungen
hang
unanimously
investiert
iness
RD
einhalten
posted
bewegt
vention@@
Betroffenen
mäßigen
Gegner
destinations
motivi@@
integral
Kommissionsvorschlag
assessments
nets
responses
ight
basierten
25.
Caribbean
mechanical
demonstrates
complement
closing
ßte
Work@@
importantly
Autob@@
wirkungs@@
Cin@@
Regen@@
measurement
derjenigen
conventions
möglichkeit
einzuhalten
suspended
verliehen
fru@@
abgeben
Imp@@
Funktion@@
stresses
Comple@@
prof@@
ärmsten
tiker
haus@@
entri@@
Beijing
Nation
ital@@
Hardware
eindeutige
gravier@@
koordin@@
arte
poker
Gay
Ursache
High-@@
erzeugnisse
reinforced
complaint
empty
ritten
meaningfully
unterstütz@@
KM@@
tas
rated
Darin
Net
shareholders
whe@@
qualit@@
EU-Vorschriften
gend@@
Kommentare
Part
urer
geltend
Politik@@
satzes
Kolle@@
fulfilled
inspiri@@
quest
Entwickler
Arena
brands
Heimat@@
Wälder
Otherwise
nur@@
Empire
gains
Effekt
MP3
ARE
Rek@@
porting
Erwägung
Wichtigkeit
ehe
Monitoring
tags
Andre@@
vez
wies@@
transformation
müsse
Governments
Ausgleich
rela@@
wünscht
Mini@@
Ander@@
währ@@
Brücke
consulted
drinking
vereinbarung
trains
pays
Go
weitaus
logic
übt
Arbeitsbedingungen
frau@@
greift
patents
master@@
restrict
zips
emerged
Aussagen
comb@@
William
cus
contributes
SQL
feder@@
berge
gewähr@@
folglich
confirms
Solche
cope
prü@@
Vers@@
stür@@
baby
adaptation
gkeit
hist@@
läng@@
erkunden
counts
blieb
Perspektiven
Fakten
Run@@
geniessen
Erleichterung
rac@@
hä@@
nachhaltig
zenden
ESS
ergeb@@
konzep@@
Berich@@
Wett@@
perio@@
I.
dges
prohibited
Folge@@
aer@@
threatened
moments
fikation
evi@@
komm@@
schle@@
Vermeidung
luxuri@@
Klage
felder
Listings
zione
Lager
ο@@
Hör@@
Ereignis
istry
geachtet
Überwachungs@@
kritischen
pers
Firefox
Palma
tragic
Haushalt@@
stabilität
Gerichten
diving
küh@@
Sex@@
konzept
1.1
Coun@@
Finanzdienstleistungen
integrieren
Km
Monte
utes
preserved
Erschein@@
Annehmlichkeiten
Kein
ffe
beider
LT
ök@@
70@@
merken
SER@@
ücke
bten
Energiepolitik
bewähr@@
recession
inquiry
Series
whenever
Schei@@
gehörigkeit
schten
tness
supervisory
existi@@
Original@@
Königreichs
Order
hersteller
advise
RA
basieren
TER
ektor
befürworten
Noti@@
verzichten
examining
bab@@
abzielen
verstehe
MAN@@
Ce@@
ne-@@
histor@@
Slovak
Bauern
height
aktion
Europäischer
auswählen
blind
ots
prevented
olls
Rede@@
certificate
älter
spective
Schicksal
kontextuellen
Extre@@
Einwander@@
zugän@@
GPS
Quark
beweisen
About
beinahe
dacht
unions
Studien@@
Ausgangs@@
lette
krieg@@
ción
nete
ium
entdeckst
gestartet
Werkzeug
ensive
train@@
accuracy
liegende
ungst@@
Trag@@
Until
Autonom@@
speeches
229-5@@
sanc@@
ruhige
peri@@
prüfung
replacement
Nich@@
donors
holders
respektieren
anerkennen
Zus@@
Bureau
turns
ckets
Beschluss@@
Las@@
nachzu@@
getrennt
vest@@
recall
verstärkten
Armuts@@
Myanmar
Ausschüsse
IER@@
characteristic
err@@
neo@@
projek@@
Mitt@@
Eh@@
ständiges
Schiffs@@
Diesen
bird
bewäl@@
unding
Wäh@@
fä@@
Mög@@
Aufträge
berat@@
ffene
Verletzungen
größ@@
abgesehen
Respon@@
Fast
sorry
Fire@@
Technologies
alike
ht
Appartement
listening
abe
quantitative
friend@@
falsche
aufwand
D.
herrschen
heavily
Eco@@
Kopf@@
it-@@
grammatically
Daniel
Gewährung
Gesellschafts@@
zivil@@
contextually
arom@@
Energies@@
ensured
kü@@
schreibt
Bonn
behauptet
pers@@
ausgewo@@
ket
frequent
hinzufugen
Millennium
ressourcen
boasts
wertvolle
kontextuell
ausgewogenen
destroy
infl@@
alp@@
stärkeren
tragedy
mietung
Strategi@@
Schreib@@
returns
Ausblick
Vene@@
debating
grammatisch
bewegung
typically
Impf@@
fam@@
tan
Soldaten
gangen
davor
4303
beispiel@@
för@@
inter-@@
strategien
EFTA
Priv@@
grade
umso
Stabilisation
ku
fascinating
Burg
terrible
differ@@
defin@@
Aussichten
insul@@
Economy
ision
einstellen
Arts
kunden@@
Düsseldorf
verhandlungen
halb@@
schwan@@
lowest
Zusch@@
up-to-date
Weltbank
Indonesia
Schlusselphrase
Schlusselwort
zell@@
durchzusetzen
aufgezahlt
drängen
verurteilen
rey
Kredi@@
Pon@@
betreffende
Labor@@
Fahrzeug@@
aufgerufen
Zusagen
Proz@@
Slo@@
iss
95@@
H-@@
präzise
patri@@
argue
Transaktionen
integri@@
abrufbar
Schulz
drückt
geehrte
pursuant
Distribution
kommerziellen
Tä@@
ranken
Cologne
abhängi@@
wherever
Weltkrieg
uta
monitored
expanding
Sä@@
iser
ensu@@
1970
Tagungen
winners
wissen@@
å
t.@@
attract
lem
pling
kle@@
glichkeit
verarbeitung
Pur@@
brie@@
pack
verse
SEN@@
themes
partner@@
forgotten
Wie@@
vertreter
claimed
spüren
ursprüngliche
Alps
Finanzmärkte
strafrecht@@
Verträgen
Internation@@
Libya
grand
lap@@
Maritime
Gleichbehandlung
по@@
Zerstörung
Cop@@
kleineren
capacities
jects
experi@@
gelegene
Meister@@
198@@
enses
streng@@
Meinungen
undermine
begrüßte
Lar@@
Subventionen
Rassismus
erleb@@
solch
lively
Telekommunikation
strengen
Venedig
dieselbe
Renten@@
Autor
Deutsch@@
Philipp@@
endgültig
ailing
blicken
Erfol@@
sem
gefährliche
cio
illu@@
TU@@
chat
Bestell@@
Program
Gesprächen
deployment
Speis@@
transposition
betonte
funktionen
treas@@
Patent
deutlichen
belongs
By@@
supple@@
rants
Kling@@
epide@@
Immer
Kil@@
winner
K-@@
stopped
1945
-und
wand
SL
Café
schalten
Generaldirektion
schlüssel@@
Organen
folder
gesonder@@
2000-@@
foo@@
Tunisia
gebäude
örtlichen
kostengünsti@@
Champi@@
bezogenen
ständi@@
Aufenthalts@@
continuation
Val
graph
leichte
mediterran@@
Rechtsrahmen
Boot
outlined
gesundheit@@
History
moderner
vorgehen
inspec@@
Spaziergang
agen
Bestände
erwähnten
Rahmenprogramm
olf
ratifiziert
änder@@
gift
verhältn@@
bedenken
Modul
HD
Wallström
premises
Digit@@
Für@@
eintreten
konvention@@
uti@@
vermutlich
beabsich@@
ariat
breit
Clubs
sake
eingeladen
Sing@@
sand@@
wski
hofft
euro@@
intelligence
20.@@
Erzeugnissen
Werkzeuge
Taten
Menschheit
geis@@
Modern
ätz@@
Konferenzen
nier
sorge
Storage
Rechner
Similarly
Minderheit
machten
Balkan@@
insofern
arbeiter
ermittelt
fa
Zins@@
condi@@
ith
deri@@
geräten
bezogen
seln
elegante
deemed
soul
Französisch
Vermarktung
dged
Investition@@
Weine
Köln
Communications
Rezession
Non-@@
aket
horse
innovations
iPod
Zwangs@@
IL
ints
druckt
Ausbeutung
Rubrik
discipline
tempor@@
pursuing
xe
Sozialpolitik
31.
Instrumenten
Garten@@
Vent@@
löschen
porte@@
Kuba
voters
Formulierung
Brau@@
condemn
Rennen
Volkspartei
Termin
wissenschaften
reconciliation
GM
Bay@@
pending
Prof.
Gremien
Insel@@
Greens
expressly
tropical
Sav@@
Einvernehmen
Baby@@
IBM
energ@@
agen@@
closure
Stau@@
featuring
angewiesen
.net
Wachstum@@
chner
kompliziert
Learning
tradition@@
vie@@
eigh@@
Missbrauch
overla@@
deserve
sender
delete
wel
behin@@
Malaysia
hospital
splendid
Stamm@@
Mobiltelef@@
Zimbabwe
phys@@
Mittel-
Weiterhin
wesens
fün@@
gelt
atemberau@@
Event
feedback
ð@@
Fahrzeug
graphie
rul@@
ur-@@
ghter
Index
Quoten
privileged
aggres@@
cookies
Weiterbildung
fangs
Branchen
Felder
iti
erzielte
thumbnail
nah
interactive
skilled
Mehrwertsteuer
tis@@
perspectives
answered
align@@
Referendum
derartigen
Phili@@
designer
facilitating
wendungen
spartner@@
zwischen@@
Word@@
sicherer
Konzern@@
33@@
projekten
Modus
bott@@
Vertriebs@@
gewachsen
rischen
Uns
declarations
Fisch
Konsolidierung
überrascht
TP
Anonymous
bindung
Sekunden
circulation
plate
hes
slau@@
chose
pro-@@
Func@@
estimate
fizi@@
provo@@
kit
acknowledged
hood
Simp@@
£
thir@@
moves
multilateralen
ambition
stücke
Stütz@@
Lager@@
demographic
Organization
evolution
sech@@
Domini@@
announce
derungen
Schalt@@
öse
starkes
zehn@@
ja@@
teilzunehmen
israelischen
wirksamer
Genehmig@@
wöch@@
Co-@@
65@@
Moder@@
Verteidigungspolitik
ags
ados
Schil@@
Berlin@@
poll@@
berto
pattern
monu@@
Investition
ernsthafte
occupied
Hände
kurzer
Anbindung
Menü@@
Contin@@
veröffentlichten
sierung
akes
unerlässlich
banken
bevorstehenden
läufe
wages
accessories
Laden
derived
ample
fang@@
instal@@
Erbe
Ernennung
fro@@
stimmung
bathing
cation
Kämpf@@
digit@@
Sei@@
Mischung
höchster
Promo@@
etzt
æ@@
fizierungs@@
18.@@
workshops
receives
NA@@
Kit@@
discre@@
21.@@
CP@@
neh@@
Bit@@
frist
Seele
dog
Unsicherheit
dium
pain
Tickets
Tam@@
carte
enthusi@@
Unterlagen
bug
Samm@@
Getränke
beantragen
größerer
react
Ansprechpartner
religiösen
regelmäßigen
Plätze
Foot@@
ground@@
chem
Opinion
Wat@@
Terroristen
rad@@
GER@@
Tech
eure
confidential
instantly
facto
Außenbeziehungen
Istanbul
OL
Gewinn
voran
völ@@
controlling
Flü@@
vierten
15-@@
potenziellen
grundlegender
Bürokratie
BIL@@
Filter
här@@
rix
essor
analyses
Review
plant@@
basically
wahl
flying
Kreativität
schenken
gehabt
WHO
zellen
foods
strenge
earn
GUE
ball@@
verarbeitet
Bestellungen
ат@@
Trends
erfolg@@
Parlamentar@@
zip@@
mentiert
bür@@
220
einiges
Scha@@
Lap@@
resul@@
meantime
langsam@@
ausgestattete
Formul@@
Nichtraucherzimmer
slopes
uten
benannt
Konvergenz
vereinfachen
Versuche
Downlo@@
gabe@@
Ideal
händler
eve
after@@
öl
nachzukommen
Gö@@
nos
polic@@
jeglicher
RON@@
horizont@@
specifications
Pub@@
Library
vierte
calculated
Schwarz@@
Madeira
Statisti@@
PRESS
ideally
gebung
encryp@@
refugee
dent@@
VII
eingeschränkt
wurfs
einzubeziehen
ausgesch@@
empfin@@
centers
enheit
experiencing
teuer
erung@@
Political
excellence
yo
Ursprungs@@
24.
Komit@@
Beratungs@@
interess@@
Gute
Tradi@@
Kurz
ökonom@@
Village
Standpunkte
creativity
compli@@
Currently
Perf@@
Wertpapier@@
market@@
gemütliche
inischen
bereitzustellen
IK
mail@@
custom
detaillierte
rechtfertigen
nov@@
lok@@
gehe
Reit@@
lowing
gesetzte
sing@@
Ran@@
Andreas
sheets
retten
departments
ärer
realen
TAC@@
tera
kapazität
rea
ausgebaut
Bundesrepublik
ц@@
fter
ungarischen
GT@@
Super
adequately
URL
Bergen
govern@@
ließ@@
Umstellung
Regi@@
conditional
Auflagen
Natural
Innerhalb
unzureichend
Zut@@
Anwendungsbereich
Händen
Kyoto-@@
nieren
Legi@@
dauern
Halle
tons
fit@@
Copyright
vic@@
Basi@@
key@@
angen
begünsti@@
act@@
decre@@
erstens
dasselbe
Set@@
isierten
streng
Ros@@
Dri@@
mon
quelle
trags@@
dic
plane
ICT
desktop
ih@@
mature
Tourismus@@
projec@@
Katastrophen
afraid
Block@@
concentrated
jeop@@
Reinigung
debated
Task
pair
Analysen
Menschenrechtsverletzungen
Rac@@
beneficiaries
Olymp@@
schwieriger
fix@@
Empfänger
unterscheidet
aufgaben
Seen
eping
KDE
inci@@
IONS
specially
stoß
Fall@@
gigen
vorbe@@
Transpar@@
pum@@
CF@@
gradual
andal
Vertreters
pfe
verl@@
wohnt
leidet
compar@@
Nachmittag
eter@@
Berechnung
Kel@@
spolitiken
behavior
ühr@@
Ball@@
conduc@@
aufweisen
Euro-Mediterranean
mobili@@
Clinton
vorrangig
Key@@
group@@
Maß@@
eur
FIN@@
cz@@
embra@@
nobody
beizu@@
soldiers
knew
Updates
gefasst
Amtszeit
angel@@
richt@@
schaftlichen
EUROP@@
perc@@
Bauern@@
sitzung
neten
Fußball@@
kontinuierlich
decentr@@
nötige
Impulse
elderly
split
pressed
Spor@@
Amerikas
vereint
kanische
Young
rice
TION
station@@
ökologische
Metall@@
Nature
tips
tion-@@
legten
Ok@@
wise
intervene
irische
Gesicht
Außengrenzen
band@@
mining
spare
Schö@@
excursions
Erhebung
Spra@@
1979
lans
ströme
360
lit
California
tent@@
utt@@
@eib.org
genetic
bezeichnen
quantities
französ@@
convert
elabor@@
Ot@@
investing
raises
ennt
realisiert
elektron@@
width
Conc@@
zulässig
fähiger
voneinander
entran@@
zwanzig
Empfang
Dou@@
Arbeitslosen@@
ignore
treaties
Zusammen
caught
od
sunny
aufgehoben
ethnischen
tisches
Wünschen
modes
38@@
enfor@@
organize
grav@@
tioned
cancelled
elemente
Caf@@
Physi@@
laying
Experience
Original
tone
teure
E-Mail-Adresse
RAT@@
revenues
konstruktive
genießt
Tempo
umfassendes
Migrations@@
BL@@
Augen@@
demokratischer
adjust
unternehmer@@
ie-@@
Öff@@
aiming
whatsoever
Stahl
einzurichten
eigentliche
städ@@
präsen@@
Versorgungs@@
Integrations@@
unterbrochen
catalogue
Illu@@
settled
Merk@@
yn
mehrerer
istri@@
bestimmtes
rose
niedriger
pic@@
Limited
Pflanzen@@
entscheidungen
ungeh@@
forderten
EU-Recht
Lun@@
kräften
Beau@@
VON
stechnologien
stens
1984
schlechte
Publ@@
Drei
Dienstleistung
direk@@
wheel
Products
Reser@@
Hochschulen
A4-0@@
dens@@
einnehmen
äufe
Ank@@
care@@
Auth@@
küste
deu@@
Kräften
esen@@
Summe
precious
3rd
headquarters
Gulf
Karl
Festplatte
Bek@@
geteilt
civil@@
Past@@
ally-@@
erhöh@@
Fans
klen
Gesundheit@@
hne
worrying
Portu@@
gaining
mid
dauerhafte
drafting
willigen
terror@@
registri@@
veness
C5-0@@
flag
behindern
chtigen
monuments
Customs
formular
Bahn
Everything
Techni@@
nä@@
partei@@
Beit@@
erreichte
WORD
ahn
Agreements
BER
literature
Frieden@@
klär@@
cons
s-
Neighbourhood
stattung
TF@@
lighting
Venezuela
wirksam@@
arbeitungs@@
proximity
ältere
durchschnittlich
designated
constraints
einst
Audio
ziehung
gefährlichen
relaxed
tivität
typisch
Rhein@@
audiovisual
assessing
Verstoß
Consul@@
Einwanderer
profi@@
Rechtssicherheit
delivering
newspaper
Direktor
Call
emerge
stops
hosts
brut@@
umb@@
Itali@@
struk@@
accountability
assist@@
HD@@
drives
ired
aktivitäten
Gewinner
basierte
Wales
aring
bereitstellen
Anwesenheit
ε@@
Lasten
atten
specialised
Kaz@@
BAR@@
exhibitions
Vorgän@@
begrün@@
beschreibt
Ferienwohnungen
chief
cum@@
concludes
verkün@@
observations
Santer
quali@@
glaubt
URE
Seri@@
summary
Côte
plätzen
occurs
Bisher
produkt
intense
Gut
Fair@@
Leb@@
ferenzen
zin
langes
Solutions
äder
Info@@
städtischen
anna
measuring
MIT@@
tot@@
herum
fold
Kongo
krieg
verbot
streaming
list@@
pper
specify
rigi@@
gewinnt
Iraqi
Which
betrug
reiben
fertigt
2,5
Soci@@
zur@@
consequently
Engl@@
bahnen
beschäf@@
Wen@@
Zurich
risen
industrielle
bag
Gonz@@
investitionen
Future
laufende
enswerte
unlikely
stil
Local
orien
KG
bischen
TV-@@
Import@@
Nar@@
Ausfuhr@@
beeinflusst
freu@@
schaff@@
tender
Gebir@@
sculp@@
Tö@@
UT
noon
rational
Lamy
preferences
Konflikts
Four
Iranian
Andr@@
alog@@
seekers
19.@@
Beruf
Initi@@
carriers
osteuropäischen
Mid@@
zeitige
S.A.
ASEAN
precision
bid
publicly
adv@@
Pel@@
eting
Muster
Kreuz@@
Start@@
arrange
OC@@
Conditions
indication
humanity
Genuss
reib@@
vorsit@@
gebau@@
nia
gon@@
arin
abschließend
Erste
lah
zende
erwar@@
safeguards
heb@@
Cour@@
Qualifikationen
ь
ablehnen
Mittwoch
¶
landschaft
Industriel@@
EWR
EU-Bürger
berg@@
cham@@
Batter@@
Ambi@@
.europa.eu
Hung@@
abstra@@
landes
habt
gelingen
Lanka
Papier@@
tausend
Bezir@@
drück@@
kritische
lassen@@
regulate
Intel
gegenseitig
Tunesien
implies
painting
womit
enstein
gesammelt
simplified
wirkung
Logik
Van@@
einzugehen
nutzung
rol
W.
Steu@@
Klin@@
throw
upcoming
klarer
Dritt@@
ел@@
Human@@
Bewohner
spiegelt
Rue
etes
alled
Rande
fic
MIN@@
Follow
unusual
Fristen
fitted
teilungen
Catherine
challenging
Diszipl@@
rolling
Konkurrenz
Radi@@
Peru
öffnet
geneti@@
Sard@@
Jag@@
wenigsten
high@@
investigate
bestände
Treff@@
ORT
verzö@@
kter
confidentiality
wahre
SDL
bevölkerung
erreich@@
WEL@@
Produzenten
Iron@@
gelernt
cameras
assured
Enter@@
kontin@@
unch
gemütlichen
griff
Bühne
lays
bilaterale
itze
passion
Energieversorgung
splat@@
Gipfels
samkeit
verantwor@@
philosoph@@
Spa@@
Sac@@
stein@@
forums
Reservi@@
Städ@@
chtete
ausdrück@@
Agricultural
guard
ermutigen
konsolidi@@
Bür@@
maßgeb@@
Service@@
autonom@@
heutzutage
angehören
finanziell
Vertragsparteien
Menschenrechten
radio@@
hunder@@
Mitarbeit@@
Spielraum
überwiegend
generous
discriminatory
Kais@@
Bett@@
Quad@@
stream@@
abolition
antwor@@
Produ@@
Präsentation
Articles
erlei
kapital@@
camps
vegetables
tened
Direc@@
gesenkt
à@@
angehen
bor
mento
wars
underp@@
Vergabe
Bill
С@@
5.000
riff
meldungen
eigentlichen
breaking
wärts
Einwände
Vorsitzende
BS
Mercosur
beantragt
Liberalen
junger
tape
Catal@@
japanischen
eva
arri@@
powered
Zinsen
OH@@
Zahn@@
schungen
Danube
Adressen
finanzieller
ova
Virus
underline
konzipiert
preventive
Artikels
Zimmerbeschreibung
underlines
Frequ@@
displaced
Hinsichtlich
dener
Fair
weisungen
measured
Roth@@
äume
Phänomen
SI
Behinderungen
Antoine
volumen
exceptions
catering
Parties
ava
converted
meldung
isa
ließt
22.
rescue
PN@@
erische
ehrlich
recover
kr@@
lining
eled
Medikamente
39@@
struction
ür
Bewirtschaftung
Krank@@
sexuellen
transatlantic
gebe
slowly
Marine
decrease
gross@@
waff@@
tica
herrschenden
complementary
desirable
Moh@@
graf@@
übergreif@@
transfer@@
Arti@@
mistakes
prestigious
stran@@
EURO@@
internation@@
chender
Schuld
Game
Pad@@
observers
vis
unknown
book@@
qualitative
schneiden
eleganten
removing
bereitung
vine
Geräten
tower
trouble
brenn@@
Reaktionen
gesell@@
movies
platten
atz@@
sailing
tier
ruhe
deleg@@
sied@@
koordiniert
Histor@@
Subsidiarität
prote@@
Das@@
Reak@@
ima
fting
'd
qualifizierten
Anpassungen
biologische
Origin@@
scenario
Ful@@
monthly
VE
participated
begrenzten
permits
einzig
dustrie
complexity
ausführlich
righ@@
diesbezüglichen
identifying
Glas
empfängt
absurd
Maxim@@
Unterstütz@@
rub@@
kos
Stadium
fem@@
Theorie
Angriffe
novel
spielte
IF
Beschränkung
Cultural
Auswahl@@
betri@@
Eingliederung
Schiffen
beschei@@
ancy
chester
zimmern
Betrifft
gericht
GP
Informationsaustausch
large-scale
226
consisting
23.
aussehen
negativ
explains
decent
recognises
Dest@@
anticip@@
griffe
workshop
situ@@
architectural
Mitwirkung
bone
G20
manage@@
kampf
terrasse
ml
gewünschte
coordin@@
mix@@
avoided
breaks
interessanten
zugs@@
Gewerkschaften
PROCESSED
backed
investig@@
cho
Holland
ause
Haushaltsplans
betreiber
gesorgt
éri@@
demokratisch
bereichs
wunderschöne
WA@@
thes@@
determin@@
esa
Lehren
Fed
eingebunden
Augu@@
kap@@
oth@@
tto
administrations
tering
well-being
boxes
gestütz@@
klausel
Umsatz
angenehme
Gil@@
urges
Mar
arity
Visit
adverse
renomm@@
rass@@
placement
subscri@@
Einschränkung
Kohlen@@
cosme@@
inning
Mun@@
warmly
Neues
volunte@@
Flexi@@
қ@@
verni@@
sektor@@
Schad@@
isse@@
chtungs@@
prüf@@
fehler@@
ira
vacc@@
vielfältigen
handled
tiefe
mini
kontroll@@
Cham@@
problemlos
Berei@@
Dok@@
Vermögens@@
griechische
Frühstücks@@
reaffir@@
belonging
Ski
sensor
fines
Erfolgs@@
sectoral
Supp@@
Wolfgang
grundlage
Director@@
ida
Cris@@
führungen
elen
й@@
establishes
vergabe
downloaded
admit
ventions@@
photographs
MID@@
Funktionsweise
entrepreneurs
harbour
bureaucracy
degrees
emin@@
vorbehalten
diox@@
governed
differ
dollars
sämtlichen
Ocean
eignen
imbalances
Exc@@
rung
gerichtete
Bewertungen
glei@@
quoten
Pom@@
versicherungs@@
EAS@@
ature
ausbildung
Wesen
describes
emm@@
road@@
dauerhaften
erworben
äußerster
Vereinigung
orientiert
Byrne
realize
Volk@@
Wichtig
racism
Umfrage
District
excess
Zurück@@
gesellschaftliche
qual@@
Techniken
konsequ@@
gau
ende@@
verbesser@@
Geschäften
copies
monat@@
kurzfristig
lässig@@
Verwal@@
militär@@
Massage
Anfän@@
Unabhängi@@
tauchen
warming
Saudi
befrie@@
invitation
2000-2006
ten-@@
brech@@
nic@@
etz
Gali@@
hat@@
Left
ń@@
editor
s.com
bedienen
terrorists
Bridge
Гј@@
Saal
agent
transmitted
tform
emis@@
Gebühr
provin@@
pläne
Route
Spir@@
HP
ftung
Verschie@@
top-@@
haltenen
minimal
bie@@
Empf@@
Mehrere
friedlichen
bte
jour@@
Krieg@@
Verzögerungen
zzo
kil@@
überzeu@@
abi@@
ï@@
auseinander@@
characterised
adju@@
verabschiedete
mono@@
nem
parameter
rücken
22.@@
Übersch@@
cip@@
tta
dnis
01.@@
Verantwortlichen
tro
tec
allo@@
Credit
POL@@
demonstration
fischen
Vermittlung
Prote@@
happ@@
ret
gipfel
passieren
erklär@@
ield
öhnung
Premi@@
unification
Leistungsfähigkeit
Alltag
sw@@
erläutern
versammlung
europa@@
Ref
größe
hesitate
tough
proliferation
refle@@
respektiert
Partners
verträge
spi@@
Gui@@
Schnittstelle
versehene
Ähn@@
ture@@
Texti@@
Öst@@
Goo@@
Aktien
plying
poin@@
docu@@
erial
spektakul@@
concerts
cians
Grundfreiheiten
maximale
analysiert
3000
jet@@
Datei@@
Visum@@
tec@@
Beträge
promenade
lov@@
diagno@@
Beförderung
eous
registriert
versehen
may@@
Select
Mode
tailored
asion
Lek@@
compare
Gewer@@
Strasse
Tarifa
Sky
Gerä@@
deplo@@
isolated
assoziierten
teter
Quartal
fisch@@
Randlage
wen
ausgewogene
Rot@@
bill
komfortablen
dänischen
en.@@
Lad@@
scrutiny
aan
Robo@@
Gesundheitswesen
dras@@
förm@@
household
Krist@@
continental
Heil@@
conjunction
Abgeordneter
EIT@@
unterliegt
Bulgarian
displays
automatische
accommodate
autonomy
theater
demokrati@@
geführten
toilet
Reich
außerord@@
sandy
unprecedented
Mart@@
RI@@
denz
Akteuren
interventions
Ze@@
acci@@
archive
Stabilisierung
sty
adjustments
periode
jü@@
Secretary-General
Lul@@
Israelis
compens@@
acceler@@
boden
Arbeitsprogramm
jeweilige
incorporate
Wald
9001
bedien@@
gleicher
vergröß@@
proo@@
denti@@
traum
untereinander
develops
antrag
Gemeinschaftsebene
angelegt
discrimin@@
revolution@@
wra@@
decor@@
gebraucht
Infek@@
coins
herunter@@
normale
CFSP
ebs@@
racy
mmen
Telek@@
linguistic
launching
vereinfacht
rem
Euroraum
inland
Ann@@
protest
angeschlossen
begeister@@
CO2-Emissionen
tener
ingham
kommende
keeps
dors
Sicherheits-
En
heated
verständnis
Borg
Boh@@
embo@@
interaction
lication
Vertreterin
exploit
Her
verband
fahrten
Sant
geschafft
favourite
analysieren
Gespräch
branches
verwalten
margin
associ@@
denselben
ohnehin
fiel
Var@@
Schätzungen
fikationen
List
niedrig
correction
stärkt
Zug@@
reverse
Jordan
Beste
bedauerlich
apparently
mitzu@@
Türen
Angel@@
Wortlaut
Provi@@
crossing
die@@
announcement
verschie@@
Tower
Humanitarian
tage@@
Poten@@
partially
lovers
konstruktiven
connecting
übertrag@@
teln
chest@@
Profil
Komponente
air-@@
appreciated
Wert@@
Hunder@@
antrags
rän@@
kore@@
lean
rant
00-@@
Ré@@
Entwicklungspolitik
frucht@@
testi@@
icon
Ferrero-Waldner
stattdessen
hef@@
bewiesen
capture
Inhaber
seaf@@
enters
shor@@
Libyen
grei@@
versetzt
Plenar@@
reduces
Initiativ@@
simul@@
prior@@
Forscher
reimbur@@
invested
schein@@
Plans
Kn@@
realistisch
Nichtregierungsorganisationen
Auff@@
mien
blin@@
Aff@@
announ@@
alizing
Ero@@
Minibar
handed
catastro@@
т
komplex
zeigten
erheb@@
twin
Hektar
ungeachtet
bewahrt
cheaper
gerechten
subscribe
Gebietskörperschaften
iten@@
Budgetary
restoration
self
aded
Folglich
bak@@
esische
degra@@
besseres
ECO@@
v.
sagten
region@@
copying
stays
meister
englischen
Fried@@
belt
effizi@@
Fertig@@
1978
Defizite
verlängert
thetic
Cross
integrating
Büros
remedy
LL@@
Universal
-in
Beri@@
essence
Vin@@
Hussein
lehnt
Feier@@
half-@@
Besonderheiten
datei
Barcelon@@
transnational
Avi@@
Amtsblatt
grap@@
demonstri@@
Frattini
geholfen
retirement
Exek@@
Problem@@
scre@@
sentence
pft
veränder@@
anstal@@
Yo@@
vorherigen
Metho@@
Stal@@
entries
einzustellen
Häu@@
Einkommens@@
annually
FINAN@@
Meanwhile
behindert
predic@@
begangen
23.@@
Kredite
privati@@
Funktionalität
wäs@@
lay@@
Annäherung
aggressive
abzielt
Tom
bir@@
Linien
shir@@
Natura
räf@@
olds
Class
aktualisieren
directions
koordinieren
cooking
drafted
pricing
anzugehen
Flugzeuge
Congo
Interior
BSE-@@
ossen
Zü@@
thoroughly
fusion
Zo@@
cancel
vermögen
eu
Dritter
MON@@
namen
iere
Nichtraucherzonen
Division
ausgenommen
Fün@@
gerech@@
reichende
strit@@
Verhaltens@@
Feder@@
setzungs@@
PPE-DE
asen
Solidarity
Anzeige
ough
thesis
PA@@
schte
lichste
Schaf@@
künfte
artificial
Awards
Charme
Fif@@
Kron@@
fassungs@@
defizit
Menschenrecht@@
Liikanen
Guinea
alleine
sett@@
effektiven
jemals
vorherige
Bett
thanking
Soziales
Gegebenheiten
officers
Romanian
einzelner
Aro@@
flan@@
Abwicklung
Präz@@
Wiener
REACH
hazardous
kanz@@
Doma@@
ords
größt@@
aton
unterwegs
Radio@@
ät
seminars
suggestion
steten
imagin@@
Brow@@
ovi@@
Studium
pet
bass@@
para@@
peak
ation-@@
ernste
Handy
atie
banned
victim
vels
schwier@@
Dampf@@
eric
bisschen
ämpf@@
ę@@
cheese
checking
Bedingung
solving
sound@@
Hilfen
stret@@
anlässlich
magic
twenty
Alpen
deutet
Designer
lia@@
utter@@
stanz
kreu@@
Glei@@
Palestine
Abstand
Muse@@
Gallery
stab@@
Juan
elegan@@
lower@@
Tochter@@
sorganisation
angemessener
Colle@@
Scientific
tries
Motto
ι@@
bots
gerichteten
empha@@
Ern@@
capability
extremis@@
1967
clearer
survi@@
infec@@
zweif@@
Eisen@@
Let@@
Nuklear@@
Registri@@
gases
Rak@@
tails
Eigenschaft
Verbindungs@@
unterrichtet
jar@@
Som@@
schn@@
ruf
Ron@@
Entstehung
verankert
berechtigten
grü@@
Deposit
gewisser
Gru@@
esta
einheit
SV@@
zuge@@
ökonomische
Objekt
lav@@
dat
bra
Inflations@@
.ch
moderate
snow@@
bearbeitet
condemned
Má@@
trans-European
AF
obtaining
mithilfe
practically
promotes
gratis
activated
Medizin
kra@@
PP
consci@@
gesunden
buil@@
bilder
Taliban
Wetter
Singapore
dlichkeit
iny
steigenden
Einwohnern
genetically
Tanz@@
CoR
mische
aufrechterhalten
eigenem
resist@@
procedural
gele@@
Shanghai
beam@@
durchschnittliche
damaged
oul
Sowjetunion
writer
communic@@
ef
Operationen
1975
fires
Non-Smoking
Minimum
Wärme@@
getötet
lief
geladen
tia
automation
Dé@@
lier@@
Integrität
tat
SME
XML
sos
ington
rez
bases
torture
convince
awar@@
impetus
Smith
doctors
Rechtsa@@
t-
phil@@
Rep@@
andt
volcan@@
Santiago
Beendigung
vorteil@@
Nonetheless
Medizin@@
aktiver
quarters
angem@@
6-0@@
zeuge
worker
Durchschnit@@
returning
recei@@
reit@@
validity
Autor@@
sporting
inwieweit
Korrek@@
workforce
strateg@@
seminar
ista
Migranten
authentic
erbringen
open-@@
18th
Sevilla
ISCH@@
currencies
Anwen@@
Wort@@
hört
ues
holes
luft@@
MARK@@
Kinnock
ULT@@
Dienststellen
weib@@
aturen
Beitrittsverhandlungen
deutscher
Deep
Certi@@
enting
gutem
dental
isk
ationale
engere
Fehlen
Rechtsprechung
droht
aga
mitig@@
Schmer@@
Lom@@
avoiding
Om@@
Between
untergraben
dün@@
zauber@@
begleiten
Verhaltenskodex
wahl@@
EU-Kommissarin
advoc@@
adel@@
Niederl@@
Optimierung
Indem
schaf@@
Regarding
Flüchtlingen
schaftliche
reale
Feld@@
ре@@
forecast
kostenfrei
aten@@
Kongress
weaknesses
usi@@
arbitrary
combining
Tochter
churches
keen
blame
beding@@
lined
Install@@
regelmäßige
fiable
länen
Sper@@
verwirklicht
secured
ahr@@
russ@@
uen
spei@@
favorite
ext@@
state-of-the-art
rid
akte
approx
Schienen@@
Gesetzes
BAS@@
harm@@
unmittelbaren
controversial
ablen
beliebigen
Colum@@
hoped
Lösungs@@
forderungen
suspension
höh@@
schönes
Terminal
ordn@@
ess-@@
mini-@@
Additionally
sofa
wolle
Wiederein@@
Journ@@
Look
enha@@
Zufriedenheit
infringements
dena
schlechten
Beobachter
ARB@@
ausgelöst
gungen
secret@@
leather
onder@@
29.
energie@@
teacher
spä@@
terin
schaftlicher
teilgenommen
34@@
Hierbei
isierte
exklu@@
atile
Millenni@@
Jav@@
vorsch@@
Zigare@@
170
choosing
founding
Anreiz
ENN@@
prominent
bureaucratic
wig
Rand
writ@@
Unterhaltung
verhältnisse
inspections
Broad@@
Kohl@@
calculation
phas@@
Rü@@
1.2
Clear@@
ques@@
lassung
Profession@@
carrier
bestimmung
fears
weren
expan@@
trennen
Johannes
drucken
Current
geschlagen
one@@
Excellent
schol@@
plötzlich
preparatory
1976
Gemüse
Fris@@
NAT@@
angeblich
Traum
aps
proving
amoun@@
manifest@@
exam@@
Wille
downtown
worry
verhe@@
SMS
Finanz-
Verfasser
vorzubereiten
Aktivität
OME
eus
ears
univer@@
como
wake
ны@@
passende
Intern@@
sist@@
watching
compos@@
creature
defiz@@
dazu@@
broadly
chendes
insula
zahlreicher
inakzeptabel
fossi@@
geschäft@@
2050
ilität
entrums
aufeinander
erlau@@
EIB-@@
Liberal
Studios
vielsei@@
Consi@@
pragmati@@
Trennung
Aufsicht
digkeiten
semi-@@
gefolgt
anony@@
Lehre
kommerzielle
ranten
Opfern
ceremony
bezahl@@
twelve
Hence
separately
oberen
tigsten
kurz@@
tende
Italien@@
bags
lications
suchte
Flüge
stood
GBP
Haushaltsjahr
schwerer
silver
gemeinschaftliche
ministerin
itarian
Mom@@
fuhr
annt
ersuchen
Emission@@
ommen
thr@@
Leuten
Elektron@@
twen@@
TEILNEHMER
isher
konz@@
Quali@@
privater
radiation
RI
hire
zeitgenöss@@
roles
fried@@
Gärten
Laufzeit
tägliche
Strukturreformen
anne@@
VA
parado@@
sl@@
chemischen
Konstruktion
Hoheitsgebiet
performances
awards
internationales
alla
dachte
aes@@
amen@@
graphical
Israels
Frank
Sus@@
dner
vereinbarungen
Obviously
End
Erreichen
separation
Ostsee
spruch
autonomous
uma
outset
nesses
thly
FISCH@@
borro@@
thin@@
Johannesburg
shaped
Communist
usti@@
Zoll
lities
vorgesehene
Schlag@@
receipt
Zusammenfassung
Statement
hibit
PARTICIPANTS
betten
Wahrnehmung
Begrenzung
Frontex
Selb@@
dis
sharp
esslich
Schnitt@@
Bosni@@
Berat@@
determining
B.@@
dominated
Satelliten@@
MD@@
deter
Heritage
batt@@
abel@@
organ
Palästinenser
Banglades@@
Laeken
nonetheless
beitrag
tube
Renaissance
ungsplan
28.
Zusage
silence
temperatures
26.
kritisiert
Eigentums@@
Tuesday
Roo@@
counting
schreiten
eindrucks@@
Whit@@
fate
FF
PCs
Künstler@@
Koordination
Übermittlung
warm@@
fliegen
ance-@@
grand@@
valuation
Zugangs@@
aterie
ouses
sq@@
Pflege
commerce
Rechtssache
expressing
Seh@@
eness
notify
environments
ürzt
unstable
friedliche
hause
1982
nutri@@
alarm
Äußerungen
stechnologie
bian
tox@@
Installations@@
laser
fenster
passes
Verbrauch
chro@@
prüft
Viviane
Wettbewerbspolitik
lacking
bark@@
FER@@
Stich@@
ар@@
Galerie
sident
wozu
untuk
economics
Kernkraft@@
Grou@@
Ratsvorsitzes
gewer@@
consist
vertei@@
mentieren
europä@@
stringent
Ordner
enchan@@
statten
Spy@@
schrau@@
Forschungs-
breites
Regimes
resident
convers@@
sole@@
xy
donor
bic
shofes
survival
vereinbaren
vorzuschlagen
konstitu@@
Buddh@@
broadcasting
palette
lug
länder@@
GES@@
verbindlich
eingerichtete
isn
Gültigkeit
medicinal
gelag@@
ameri@@
Währ@@
extends
149
identical
Milosevic
Eck@@
JP@@
ax
pipeline
disappointed
interinstitutional
confusion
gebenen
Medical
Wireless
Erneuerung
Cathedral
ueber@@
einheiten
OM
grew
lakes
ices
verknüpft
ours
Olympus
Geburt@@
chtigkeit
shire
Editor
standardis@@
vernünftige
Regul@@
GASP
annte
Eigentümer
vel
non-governmental
auszubauen
Ath@@
Light
orient@@
humans
feels
VIC@@
schil@@
leid
Bewerberländer
Konvergenz@@
bekräftigen
ison@@
modernes
Soweit
rel
nachdenken
Merger
liness
schend
patch
oes
roughly
probieren
Übersetzungs@@
lagern
jet
bag@@
electronics
bedingt
Right
hrt
pregn@@
extern@@
zügen
postp@@
cleared
Indonesien
98@@
unlike
Auskünfte
wissens@@
ied
celebrate
Sarkozy
Woo@@
ktiver
doctor
verstößt
Finanzierungen
Hir@@
visitor
Nahrungsmittel
Beitrittsländer
craft
ver-@@
lte
Alpine
airo
Aktiv@@
trags
Realisierung
Brok
Rich@@
alliance
Aufnahmen
rechnung
regen
vergleichen
notion
Zugleich
multimedia
consolidate
Prozent@@
Entschädigung
Ira@@
abgesch@@
Welthandelsorganisation
dairy
Vul@@
filling
läge
as-@@
Carlos
Verts
Cs
Flugzeug
Ric@@
multip@@
izing
Drittländer
Freedom
Jobs
rank@@
progno@@
näh@@
harmony
Choose
würdige
Menschenhandel
Nie@@
households
grüne
cript
äußerte
brain
Zielsetzung
api@@
recep@@
bevorzu@@
Popul@@
Bewegungen
ruled
License
pione@@
kapazitäten
kids
verwand@@
ös
Aufrechterhaltung
Herrschaft
1983
beleu@@
Archit@@
einmali@@
Karriere
Snow@@
Kirchen
örung
Boli@@
ßes
ück
Experten@@
Büro@@
feiern
officer
vised
plain
tariffs
dangers
IEN
indispensable
reser@@
rachten
Gum@@
Bezahlung
schnitte
dez
Internetseite
argued
nö@@
assumed
Neph@@
ger-@@
Tennis@@
executed
lear@@
auszur@@
porte
anci@@
tatsächliche
stecken
Cross@@
lesson
freundlicher
stern
embar@@
Einbindung
railways
geschätzt
messe
Everyone
Qui@@
Sak@@
deadlines
Taus@@
Minde@@
Voyager
Anders
scann@@
gebnisse
schwedische
21st
zurückkehren
Panel
Konflikten
erwähnte
namens
bas
folgendes
Jak@@
backing
formationen
circle
geber@@
ellen@@
recommends
ague
confron@@
immer@@
restra@@
engineers
Datenbanken
neben@@
halts
mation
knapp@@
socio-economic
incompatible
OSCE
gewählte
EK
teilnehmenden
AUF
strich
Frankreichs
ecks
101
Inanspruchnahme
onian
fühlt
pig@@
maß
,5
125
Aufenthal@@
zivilen
Trump
commonly
backs
107
erweise
dening
у
2010-@@
MED@@
dging
Ankündigung
free-@@
ulen
Bildschirm
UP@@
zten
Oliven@@
strom
schein
serklärung
denied
arab@@
Weit@@
exploring
fresh@@
Anregungen
LIFE
Beweise
Gewi@@
eingerichteten
ä
tensions
wickelt
Mä@@
broch@@
bal
Evaluierung
typische
rom
euer
Geschlechter
Cala
prochen
führender
ALE
eken
specialities
world-@@
technologien
strukturellen
favor@@
dex
score
pact
24.@@
jähriger
lichten
Geben
gezahlt
Rum@@
schützt
nachhaltiges
posit@@
bean@@
loved
interview
geordnet
bestens
shaushalt
Überra@@
definitive
beteiligung
Moskau
doub@@
rubber
inher@@
vielfalt
systematisch
U-Bahn@@
engl@@
contradic@@
Advanced
on-line
Gegenwart
wording
Ang@@
Art@@
Cannes
Att@@
Kluft
Desktop
wai@@
sichten
globalization
anen
AU
konkurri@@
stieg@@
vessel
rekten
Fortsch@@
time-@@
Criminal
aggreg@@
Orienti@@
Einfuhr
Bonus
üblich
Ferien
utili@@
ansonsten
starker
AKP-Staaten
Bolkestein
rob@@
photography
qualifizierter
punk@@
Ermittlung
conci@@
engagiert
Heimatland
porno@@
gefangen
Akti@@
ruption
abund@@
Picard
Airways
corri@@
ruhiger
vertrag@@
Bün@@
wiederhol@@
column
pos
itter
Mehrwertsteuer@@
coinci@@
lager
Betre@@
cali@@
chteten
Simbabwe
lektu@@
ask@@
Live-@@
MIT
Incre@@
orten
falschen
Come
pron@@
modest
tags@@
sache
guides
schöner
fashi@@
erneuerbarer
Fähr@@
BE
noticed
Cardiff
Unit
gesunde
Zwecken
atorium
globally
ünd@@
rah@@
tlicher
pole
frischen
distortions
funden
gra
fluss
belegt
isolation
zim@@
chef
Untersuchungs@@
einziges
BU@@
theat@@
Drive
Effekte
stitution
teenth
solven@@
reichsten
schwerwie@@
vernünftig
ow
textiles
employee
errichten
ditionen
ssi@@
News@@
Sax@@
Stor@@
Works
22@@
US-Dollar
bedauere
verleiht
amo
vorkommen
Mountain
Harmon@@
olen
show@@
eling
personen
draw@@
zigen
expl@@
Workshops
fassten
accepts
proto@@
bewirkt
Hub@@
gram@@
1968
Armen
NOR@@
yl
islam@@
änen
sto
-to-@@
fizieren
Rechtsakte
characterized
Ji@@
stan
asti@@
repa@@
hygiene
Argentinien
Berater
Fro@@
Consulting
view@@
herauszu@@
на@@
dell
Aires
she@@
zukunfts@@
sons
mündlichen
ś@@
renewal
Straftaten
tool@@
pleas@@
Double
u.@@
unanimous
Beteilig@@
Pass
neighbor@@
intermedi@@
Clearly
survive
begrenz@@
jer@@
liances
erre@@
ank@@
196
gebnis
Angeles
DIN
verbieten
accompanying
Blin@@
Cyber@@
sak@@
nie@@
Poli@@
Aufruf
Schnei@@
stet
Wettbewer@@
Textes
IVE
Holding
cost-@@
lichere
introduces
schätz@@
Buchungs@@
deser@@
paradise
atta@@
sprin@@
AB
mic
konfli@@
voranzutreiben
weigh@@
verkauf
adi
uneingeschränkte
ultur
genauen
Obst
tening
Höh@@
databases
beauftragten
Gemeinsam
reibern
profound
inequality
ausführen
Aufteilung
edit
müßte
rejection
RSS
Against
optical
geschle@@
tless
bevor@@
jugoslawische
Stellvertreter
nische
automated
consolidated
defense
Konfiguration
Genf
hosting
appreciation
Milli@@
limiting
Privacy
regulators
Verhinderung
distribut@@
haven
districts
wachsen@@
Hitler
Leonardo
bad@@
detailli@@
verweist
Freuen
112
girl
volu@@
nennt
abandoned
ware@@
TAC
akt
FOL@@
chambres
ausger@@
verbreit@@
WEI@@
AdR
längere
orie
Intel@@
Additional
zuverlässi@@
bread
Joe
reicher
enorm
entstan@@
steckt
konto
Gefähr@@
niedri@@
Buenos
Gitar@@
vorzugehen
erfol@@
surprising
detection
Ernst
sichts@@
ignored
tained
Korean
dak@@
wan
legiti@@
gesamt@@
criterion
seits
Chris
rehabilitation
translations
heu@@
Karten@@
lla
erstatten
Strafverfol@@
schließe
vorn
sortium
.com/@@
Storni@@
machung
Kreis
annul@@
Prüfungen
Loy@@
schrieb
achtung
Features
day@@
chtig
badly
Conven@@
Passagi@@
sear@@
jan
stie@@
Botschafter
stechn@@
stabile
Fernseher
anded
achst@@
entnehmen
Säule
align
m.
blä@@
ments@@
Autoren
stätte
forwar@@
unvergess@@
akzeptabel
Mill@@
gli@@
masch@@
Übersetzungen
Fleisch@@
immense
justification
disabilities
solo
ständigkeit
Ansätze
qualifizi@@
27.
Hun@@
rhyth@@
ländischen
binnen
unlimited
Dolmet@@
erbaut
Tendenz
streck@@
Orts@@
30.@@
kritisch
Listen
effektiver
ria
Panasonic
conformity
furthermore
zugeben
Chemikalien
Naturkatastrophen
vertical
Veranstal@@
owing
beschreiben
evalu@@
Kurse
Wartung
weekly
Coast
flowers
safeguarding
hilfs@@
Langzeit@@
wahrnehmen
sever@@
emer@@
Tut@@
Milch
cargo
SR@@
Verstöße
versetzen
Kommissare
keinesfalls
ventionen
shots
Cher@@
etary
chocolate
Naz@@
offset
Empfän@@
veranstaltungen
Gan@@
übergeben
flag@@
tragenen
auszuüben
enttäuscht
Verkäufer
RELEASE
rie
Eig@@
battery
legungs@@
verbindliche
accepting
Zentren
realisieren
betragen
interessieren
abgestimm@@
long@@
Anleger
mittelfris@@
Prak@@
schlechter
talked
migen
tells
ules
AKVIS
leis@@
häu@@
fought
sorgfäl@@
Män@@
Barack
licit
Flug
judges
kenntnisse
strange
translate
abzuschließen
Rol@@
komfortabel
Priority
apar@@
Anzeichen
1990s
labels
registrieren
Nr
Close
5th
Taste
affir@@
dev@@
Fusion
tment
beauftragt
flotte
sien
independently
admission
gy@@
essed
Reader
uph@@
beitreten
nutrition
hierarch@@
credits
clarification
Öffent@@
einmalige
allies
Bedienung
24-Stunden-Rezeption
Elevator
Particip@@
wishing
gegrün@@
Vollendung
2030
3.0
Jahrzehnte
ruppen
WE
leihen
exhau@@
disman@@
fließen
thoughts
incorpor@@
telling
reiterate
Reb@@
Fenst@@
nachkommen
3D-@@
fertig@@
Verschlechterung
acro@@
momentum
DEN@@
freig@@
verhandeln
Besitzer
х
sert
gan
Navig@@
Öffentliche
Reserv@@
paintings
gle@@
Handels-
Manche
Christopher
emmnisse
hl
verbin@@
CT@@
ßig
bath@@
sere
Officer
hiermit
Region@@
fragten
Cold
Sant@@
restriction
beruf@@
Premium
adet
Lieb@@
mende
leidung
terte
piano
commission
Entschließungen
Marktan@@
HR
funk@@
ffer
zutiefst
größtenteils
Tragödie
married
weich@@
lohnt
glu@@
mini@@
Sozialfonds
Dür@@
right-@@
alties
Lobby
dimin@@
nien
ruhen
Argu@@
linking
accelerate
günstig@@
Yu@@
Klaus
gewünscht
Horiz@@
inbegriffen
kenntnis
Ibiza
abeth
Water@@
erischen
bereitgestellten
recy@@
Flughaf@@
Luxus
cris@@
mier@@
tini
anter
transpar@@
EPA
anno@@
Representatives
Weekly
John@@
Bak@@
taught
FORM@@
schmerz@@
explicit
ausgelegt
hig@@
Gebrau@@
gru@@
Privatisierung
angefangen
Unterdrückung
Protok@@
rivers
Netto@@
enthal@@
Ausgleichs@@
zio
zusprechen
Hannover
fig
advances
strebt
accessibility
securing
echt
hectares
unterstrichen
verify
anfän@@
laboratory
conten@@
controller
längst
grafischen
grave
Army
nee@@
suspici@@
Hôtel
hervorra@@
gemis@@
pf
Ear@@
implemen@@
Stei@@
nördlichen
faktor
Put@@
ester@@
osop@@
zumal
frie@@
uli@@
Halbinsel
seiten
fehlende
Versuch@@
cut@@
äden
searching
Pit@@
turnover
incredible
oods
і
entrepreneurship
scenery
Innov@@
Legitimität
VIS@@
richtete
gathered
zuführen
fän@@
etzung
conve@@
3.5
Minder@@
interpreted
jahre@@
orte
izz@@
abilität
tschechischen
Gegenstände
Host@@
approxim@@
fifteen
streit@@
Cubase
sendet
Wahrscheinlichkeit
sierten
Visi@@
Zahlreiche
Chal@@
1973
schiff@@
fault
Agen@@
seas
accused
angeben
pin@@
gear
Gewässern
tique
Scheitern
atmosp@@
ades
Komple@@
anzen
Erzeug@@
widri@@
Finanzierung@@
transformed
oppelt
Parks
enced
gelegte
vian
human@@
systematically
Augenmerk
thei@@
Anweisungen
Jahrzehnt
überwachung
Sep@@
medizin@@
amerika
centrally
zustand
то@@
panels
künstler@@
permanently
abgehalten
klares
Instanz
erschein@@
Head@@
erweiterte
Abstimmungen
bands
cha
Hill
31.@@
durchgesetzt
Ganzes
breathtaking
flash
supplement
realized
Flotte
Nielson
erreichten
hou@@
hur@@
Job
Mexi@@
Attraktionen
strive
Commun@@
eras
bürgerschaft
mption
ürz@@
newspapers
vermis@@
Verwaltungen
verbo@@
schaden
Anhänger
Landwirten
genetisch
Af@@
Nob@@
Cit@@
angebo@@
differen@@
Wü@@
use@@
Statute
skep@@
Mé@@
op-@@
ausgegangen
E-Mail-@@
enforce
Fei@@
Spi@@
Ausgang
1977
fat
4th
Satellit@@
IZ@@
Walter
therapie
ambitions
Above
Schaden@@
cache
end-@@
Progress
Sand
distribute
Hoff@@
krank@@
tight
Ruh@@
Eigentums
tail
bereitschaft
sinstrument
begrenzen
diesel
generating
discovery
Schatten
walks
gaps
Breitband@@
män@@
Aufwand
safer
nica
cotton
kultur@@
Arbeitsk@@
Steel
Automobilindustrie
LCD
Finanziellen
indications
IMM@@
certificates
expe@@
fur
straßen
geschätz@@
nischen
Gebur@@
mill@@
hyper@@
visas
Spon@@
Andalu@@
Brit@@
gebühr
instrumente
minds
Gibraltar
thre@@
ption
mp
schiff
approves
Standard-@@
sin
Arzt
Erleb@@
allmählich
beschleunigt
materialien
Abenteuer
Aufstellung
cinema
18-@@
encomp@@
pillars
regrettable
Angola
Gefängnis
Ein-
Dist@@
POLICY
advisory
Besuchern
az
metro@@
zukommt
Ereignissen
75@@
Athens
Grupp@@
golden
jähri@@
Metern
Frühjahr@@
Him@@
surfing
intensity
Alpen@@
ça
Maßnahmen@@
erc@@
Europae@@
Hauptziel
magne@@
Dynam@@
finest
recip@@
Vassiliou
Socialists
Brief
profitable
zunehmen@@
DO
Hygi@@
ehrgeizige
Fahrzeugen
-Seite
1981
Monte@@
HM@@
Accession
Practi@@
refusal
collec@@
gment
beschluss
erinnere
Semin@@
ignoriert
zuverlässig
rahmen@@
Timor
formula
unterhalten
firmen
themen
kin
Erfin@@
Dikt@@
Heating
clinical
Ecke
time@@
typen
Skri@@
Verhütung
hoben
Angleichung
aki
igkeiten
Prü@@
spiritual
engagi@@
alpine
tranqu@@
ückt
desper@@
Bevölkerungsgruppen
Ökonom@@
nette
Ufer
vorhandene
objections
user-@@
impro@@
RS@@
verglichen
Sales
delayed
Länder@@
vorangegangenen
Teilnehmern
limitations
vermu@@
belegen
orable
Zur@@
geänderten
Chancellor
jec@@
anges@@
dauerhaft
Verzögerung
Proto@@
indigenous
parent
Blau@@
meistens
U.@@
Potential
defending
exklusiven
Diagno@@
leichten
expresses
downloading
ungsphase
odation
Ord@@
Recommendation
ems
delicate
genommenen
auseln
Display
Eurojust
high-speed
Finan@@
investor
sek@@
unterhalb
charter
zügige
Tool@@
nützliche
Sofern
bedingten
öst@@
E-mail
prov@@
sch-@@
Implementation
INN@@
Stein
Laser@@
gewahrt
uk
saison
Blick@@
four-@@
Miguel
intergovernmental
mentsprechend
E-Fraktion
landscapes
Hügel
spezif@@
во@@
gäste
handlung
frühere
atis@@
Assistance
Directors
conviction
Kohäsionsfonds
inters
mond
durchsetzen
inne
week@@
dre
vorbereit@@
ika
deeper
deck
conveniently
Logo
magnetic
incomes
Verhältnisse
prefer@@
civilians
ehrten
Schlei@@
separated
rue
gehend
adher@@
disadvantaged
reci@@
Ausgaben@@
Oslo
refined
luß@@
isions
fach
embedded
Zie@@
Clar@@
damaging
gü@@
fuhren
ATA
COD
Bere@@
12-@@
verschärft
Onlin@@
Vergnügen
shoo@@
betreibt
commented
zerstör@@
big@@
ailed
sebene
wehr
Wettbewerber
spür@@
zö@@
bauten
Democracy
Arbeiter
mad
Verhältnis@@
angs@@
pressures
utive
aciones
torate
gehalt
PE
optimum
po
Dienstes
Luggage
sexuelle
299
GMO
nationales
ausführliche
weißen
Spezialisten
korrekte
ò
striking
transeuropäischen
sinn
Wich@@
VIII
anbietet
stabilen
ety
Touren
sprachigen
Mira@@
entscheidung
Entscheidungsträger
Nit@@
abu@@
Supervisory
Kaffe@@
gefügt
mirror
talent
reine
illon
valu@@
verlei@@
Fahrrad@@
Lanzarote
Jackson
Contrac@@
Ausstellungen
hes@@
beein@@
CAD
anbieter
accumul@@
liqui@@
influenced
Better
Industriepolitik
frustr@@
Victoria
günsti@@
gezielt
brachten
fluss@@
Garanti@@
24-Hour
Heiligen
Remo@@
aya
Kaiser
Algeria
Classic
nehm@@
sämtlicher
Mary
Beitra@@
hybri@@
unzureich@@
out-@@
Sometimes
Merkel
Müller
pain@@
trieb
2008-@@
defects
jur@@
ernden
embargo
haz@@
Zweit@@
Word
Berichterstattung
nder
Forest
startet
künften
schulden
lawyers
bör@@
Esp@@
Stellenwert
geschlossene
biegen
PHARE
klassische
sieb@@
vorüber@@
benötigten
Kompromis@@
Aufnahme@@
Einheiten
Zit@@
personenbezogenen
Kernel
enhof
divide
nen@@
Vereinbarkeit
reads
fertigen
ICH
begleit@@
ANGENOMMENE
struck
berühm@@
lifelong
ually
Play
unverändert
freies
Hav@@
login
schau
hinein
proble@@
onte
urged
exclude
Substanzen
anstelle
trademarks
daughter
Fat@@
chin@@
Tätigkeits@@
lehnen
Heb@@
limitation
exo@@
sozio@@
forestry
profession
Chef
mineral
Age
verabschiedeten
impacts
letztes
ungspf@@
wenigstens
Massa@@
nationality
ight@@
buchs
tude
abgeschafft
Eintritt
wichtig@@
angehörigen
häusern
sad@@
versuche
sional
kulin@@
Planet
G8
Gestatten
Wechselkur@@
athle@@
Küchen@@
wofür
monopoly
Sher@@
Absichten
Weis@@
REG@@
Innovation@@
Sicherstellung
line-@@
punkt@@
ierend
Abstimmungs@@
Einfuhr@@
mah@@
berech@@
Herstellern
Erwerbs@@
eingereichten
nutzbar
Zyper@@
XX@@
GEMEIN@@
ESA
Statut
Aviation
debat@@
EZ@@
Abgesehen
enes
Managing
eingehende
bist
Bremen
Bron@@
2.2
thos
kirche
milit@@
Treibhausgasemissionen
Christ
MT@@
deutlicher
dedic@@
dele@@
KON@@
veget@@
initiate
DL@@
Zusammenbruch
black@@
wet@@
Colombia
freundliches
Watch
ill-@@
tetes
gym
unfortunate
Vorbild
Große
Entdecken
aufw@@
geordneten
selec@@
distributors
Entspannen
Statistik
fairer
Interface
differently
boy
bedroh@@
Phasen
belastung
expres@@
rische
üben
erzeugung
vorhin
Premier
Bad@@
Kabel
Malmström
zügig
Deli@@
olz
classified
ke-@@
Attra@@
rachte
Discover
stehe
realised
-in-@@
recogni@@
suchten
ry@@
ERÖRTERTE
österreichische
Turk@@
ältesten
floo@@
Finn@@
von@@
migrant
Demokratischen
veranstaltet
salt
sicherheits@@
.The
agieren
high-level
liberalen
nacht@@
Streitkräfte
Klar@@
indirekt
zwangsläufig
presentations
höchstens
wünschenswert
rot
konstru@@
continually
ces@@
kompatibel
electro@@
Famili@@
reaches
adresse
zent
third-country
lassungen
Wechsel
dam
deta@@
gular
gebiet@@
Vertrieb@@
gl
asiatischen
institu@@
herrliche
Ersatz
Biokraft@@
Acht
Charak@@
gi
formu@@
b-@@
ausmachen
celebrated
profiles
strö@@
vertik@@
Panorama
agne
Feli@@
preservation
unteren
fizierten
Treib@@
Juncker
alternativen
öffentlich-@@
zi
foodstuffs
Facebook
clothes
Gross@@
arien
getroffenen
lows
Days
abhängen
Pazi@@
tings
Fili@@
Münzen
Volkswagen
geseh@@
TNG
Begleit@@
kultur
resorts
v.@@
setup
abol@@
gelung
SM
demanded
iga
Marketing@@
Zimmerservice
verschiedensten
südlich
Regierung@@
lessly
Kim
temperat@@
operativen
Wichtigste
shal@@
inia
Handlung
loy@@
editing
Aktionsprogramm
höchst@@
pets
Elementen
übersetzt
CV@@
WH@@
mos
enten@@
Mobilfunk@@
darfs
Zusammenhalts
Wag@@
Sebasti@@
fügte
dnisse
obstacle
consultative
Rather
Cotonou
Extra@@
anstreben
koennen
motivated
Ukrainian
Niemand
Spo@@
a.m.
xx
entrum
Gelegenheiten
profit@@
trails
geni@@
Schwimmbad
Korrektur
Italiens
begeistert
licences
exzell@@
sierungs@@
r.@@
stit@@
Operational
aces
instability
ardis@@
motions
Alexand@@
itten
clauses
Unterhaltungs@@
GP@@
Lissabon-@@
Richt@@
schrieben
Rechen@@
büro
dreht
erw@@
routine
Wirtschaftszwei@@
orian
Dach
riesige
Kompon@@
Avenue
Strecken
Verkehrsmittel
enthusiasm
Schlacht@@
denburg
zuverlässige
Stabilitäts@@
schwi@@
betreuung
concessions
faktoren
lands@@
harte
File
preisen
Jazz
ansprüche
kunft@@
Schwimm@@
missible
umgekehrt
mann@@
tra-@@
Stattdessen
gements
erfreu@@
kamp@@
Währungen
auszuarbeiten
cape
Kör@@
gebene
idealen
Gepäckraum
NI@@
RF@@
Yor@@
irgendwelche
enfalls
indirectly
herrschende
selek@@
maintains
abschließ@@
Thessaloniki
Questions
eating
five-@@
abuses
Stoffen
mangelnde
weitem
Tyrol
tradi@@
Voraus@@
classification
encounter
besetzt
Prop@@
php
organisms
verbundene
Richtlinien@@
Tee
flüge
dump@@
gekauft
gebrochen
arrested
orities
Palazzo
IFA
gelegten
Fäl@@
-Sterne-Hotel
disciplinary
zulegen
Bekann@@
ergrei@@
aran
Isol@@
endo
Zentralbanken
ancement
Architekten
Begriffe
Therap@@
beruh@@
intensiven
waves
optimalen
spons@@
giert
Jugendher@@
Euros
kommunik@@
attrac@@
E.
energi@@
Ärzte
anspruchs@@
WWU
Chicago
Lido
Zucker
zier@@
coalition
JUS@@
liquid
IGC
Programmier@@
Naturally
afrika
Einladung
wachstum
aders
dierung
ember@@
Easy
fruits
Faz@@
ILO
iles
Wetter@@
pflicht
broadcast@@
maker
schicht
skap@@
murder
Gesundheitsversorgung
deleted
Wahr@@
familien@@
gefällt
Leid
cultiv@@
Rohstoff@@
API
vermehr@@
mole@@
Retur@@
hot@@
cep@@
Montage
recru@@
ossen@@
Harbour
gäbe
1974
boarding
Danke
arises
Almunia
angestre@@
yellow
distor@@
hinzuweisen
eman@@
definitions
Mahl@@
dynamischen
satell@@
aka
geeinigt
auc@@
clari@@
kennen@@
ühle
ien@@
genutz@@
shr@@
deckung
Hit@@
gescheit@@
Rüst@@
atur
gerin
ook
Taxi
48@@
befreit
messer
Soft
turing
pflan@@
ole@@
Wiederaufnahme
Fortschritten
amerikanischer
Ungleich@@
listened
socially
porteur
äum@@
ecke
Interess@@
cit@@
utility
continuity
micro-@@
irrespective
zusammenhän@@
Train@@
Jam@@
allevi@@
Betriebssystem
bulgar@@
existed
cycles
Tele@@
Jap@@
problemen
lasten
bedürfen
Peri@@
außergewöhnliche
gerade@@
hüb@@
wholesale
U-Bahn
transparente
Wochen@@
drew
zweimal
responding
styles
CHT
Finanzrahmen
urop@@
alistic
ünde
bew@@
Service-@@
arme
VOR@@
younger
pe-@@
deny
split@@
verbesserten
aters
endo@@
nobyl
anschluss
löst
überlegen
orn
Fremden@@
imperative
Herberge
Material@@
Bedrohungen
eni@@
schulen
clin@@
Bestimm@@
türkische
ancies
Zealand
ate-@@
Schwein@@
HA@@
verwöhnen
grafi@@
Blut
Elec@@
zulässi@@
atte
Rechtsetzung
750
Schattenberichterstat@@
Allgemein@@
gefäl@@
KS
enemy
hob
SO
Umweltschutz@@
fair@@
Hotelsafe
Anreise
ermutigt
suddenly
ystems
Siena
ampagne
Navigation
undes@@
kompletten
beob@@
Abu
verehrten
CAN@@
discretion
veri@@
Erbringung
incorrect
cool@@
entwickel@@
Lev@@
LEG@@
Tokyo
räte
unterzeichnen
TI@@
aga@@
bears
o.@@
kompetenz
Flüchtlings@@
Effektivität
prompt
Flä@@
hausen
behinderten@@
eingeh@@
grid
itar@@
contest
untersagt
reinforcing
Veget@@
glo@@
practic@@
networking
Anschließend
freiem
brutal
completing
abe@@
unmittelbare
exklusive
ordnungen
robu@@
Heim@@
Frau@@
Kä@@
verschul@@
befür@@
aca
Benjamin
parall@@
theast
conven@@
Nap@@
cattle
onymous
Beobachtungs@@
Arzneimitteln
ukra@@
-System
Railway
Fitness
aufgeführten
Temperaturen
distinct
seed
ssa
Än@@
σ@@
arks
enberg
bah@@
tv
LateRooms.com
32@@
cooperative
.jpg
vest
Apache
Amaz@@
bere@@
orca
Befug@@
Breit@@
gefährlicher
ense
safely
boundaries
Überna@@
Tatsachen
Implementierung
Redu@@
güter
grenzübergreif@@
ş@@
alive
Dienstag
WOR@@
knowing
wache
Moderne
advent@@
Asyl
Zauber@@
Bali
Palästina
ergie
inspiration
Gesamtheit
annten
gemeldet
macro-@@
JA@@
bration
stabili@@
eicher@@
Terr@@
ancing
runden
Erfassung
accoun@@
expects
homepage
seas@@
Prestige
verkauf@@
abteilung
DS9
endete
Application
Six@@
OG@@
classi@@
Nachbarschaft
häufiger
amtierender
impres@@
kör@@
aluminium
Vertiefung
sau
Materials
Straßenverkehr
Mitgliedsstaaten
evil
Dir
erzeug@@
isc@@
albeit
rigorous
gaming
Afrikas
Temperatur
vie
Police
Alkohol@@
Buffet
Finanzminister
LU@@
beln
thirds
vielfältige
verbände
territorialen
earned
Parlamenten
Subsidiaritätsprinzip
gebiets
latein@@
Geschäftsbedingungen
Abon@@
defines
Stil@@
Dringlichkeit
PSE
Adriatic
gig
Archiv
sty@@
establishments
LD@@
Hübner
Kathedrale
municipal
tausende
fache
Herstell@@
Auseinandersetzung
witness
Unterneh@@
diesmal
träch@@
orious
distinguished
acher
Entschließungs@@
alb@@
Ben
verlu@@
privatisation
preserving
ceram@@
modelle
Finanzielle
Raf@@
activate
schritt@@
Luftfahrt@@
Mineral@@
ganz@@
Nepal
gather
oth
tit@@
Ash@@
frisch
richtlinien
zusammenzu@@
endeavour
Birma
Architek@@
single-@@
workplace
tip
Kabel@@
lateral
Reichtum
killing
asting
matches
luggage
Technische
fabri@@
Prioritäts@@
Spuren
1960
perman@@
emotional
zwecken
abel
Hongkong
laun@@
mieten
stunden
neys
recalled
ordnen
Mailand
bedeutend
anxi@@
verbleibenden
Profi@@
bund@@
gezielte
gelang
ishment
trademark
Wikicars
Devisen@@
EZ
Regulations
Schließung
Sicherheitsrat
Tennis
Top-@@
unkte
spru@@
läufig
feier@@
entsprechender
ERDF
og
Straß@@
interference
Spek@@
Ple@@
255
ärm@@
Nobel
Toi@@
beat
vorrangigen
muy
pub@@
Koso@@
geschütz@@
entru@@
coordinating
Verein
wehr@@
FAQ
transatlantischen
raschen
Aufgaben@@
Voraus
Schwach@@
fasst
Ltd.
vorbereiten
Legisl@@
auseinander
gehand@@
vul@@
lens
Religions@@
vorsichtig
beträchtlichen
WAR@@
Sekret@@
conscious
recruitment
stel@@
CAS@@
anzusehen
überschritten
tism
bewegungen
vicinity
kalischen
ausgehend
shil@@
Basic
Überwindung
Tony
erklärung
verbreiten
charging
Schluss@@
äußer@@
quo
state-@@
featured
Dr
resistant
Algerien
Gemeinschaftsrechts
stating
duly
änderungs@@
äle
dogs
Vielmehr
Camp
drit@@
angeneh@@
there@@
inevitable
deinen
2.1
datum
nau@@
élé@@
Erkrankungen
detec@@
Reihenfolge
pre-accession
Production
asy
Leu@@
toi@@
Flächen
segments
afri@@
abwechslungs@@
retro@@
Beibehaltung
unilateral
1500
empfeh@@
korrigieren
dioxide
tunnel
finan@@
Liquidi@@
selbe
quer
voranzubringen
yield
nick@@
VIP
passive
Studies
schwäch@@
Foren
you@@
Liter@@
nig
SIT@@
Seiten@@
Hur@@
carries
kill
perform@@
Glaub@@
Juden
Presiden@@
ismäßig
itären
spartnern
gewerb@@
Nachteil
ritts
Could
founder
elite
wissenschaftlicher
ehl
pré@@
last@@
PPE
einsetzt
tiny
tigkeits@@
Griechenlands
Proc@@
hang@@
educ@@
partition
anerkannten
Aufklärung
ignorieren
sives
andau@@
benachteiligten
TN@@
consul@@
SIM@@
blocked
bn
spreis
OP
avoid@@
umfassender
ont@@
Ring
Sah@@
demnächst
äuse
Feri@@
Shops
Göteborg
ind@@
Granada
chil@@
Companies
signifikan@@
turn@@
ellem
appointing
Ras@@
geringfü@@
mails
terne
iet
bekanntesten
Lodge
innovativer
höhe
aushal@@
emphasises
enburg
Grande
Schal@@
telecoms
Hague
fai@@
exploited
fits
jum@@
10,@@
tat@@
bräu@@
ör
prises
ausgedrückt
unanimity
beacht@@
engagieren
issuing
Sozialdemokraten
UNIC@@
Alkohol
FP@@
Luxus@@
perceived
insu@@
competing
floods
ehrgeizigen
taste@@
delivers
MM@@
Hunger
eingegangenen
intensivieren
lad@@
Type
möglicher
Child
Benz@@
räder
Betrugsbekämpfung
ρ@@
Leone
mehrmals
Queen
häl@@
Schlu@@
festivals
deployed
hoc
Ton
vermei@@
zuhalten
bien
karten@@
Variante
Demonstr@@
container
â
Skla@@
DM@@
reihe
Castell@@
anderswo
gging
Summer
anien
capit@@
genügt
Konz@@
Leidenschaft
veränderten
Unlike
lichung
Frage@@
verschoben
Gelände
assisted
exclu@@
irgendeiner
Sofia
strei@@
ror
zerstören
capital@@
Chall@@
repression
enswer@@
votre
Demokratisierung
ark
circum@@
verursachten
kauf@@
congratulations
stry
chances
Funktions@@
Rate
Drittstaats@@
sac@@
finanzierten
N-@@
enrich@@
128
Berichterstattern
Ausfuhren
aver@@
Kunststoff@@
Dau@@
Store
concer@@
breeding
deterior@@
jan@@
alco@@
lifestyle
bricht
dringlich
chene
fet@@
saubere
kompli@@
culinary
schlage
intel@@
dow
gewiss
Juli@@
MEDIA
marriage
Schokol@@
gebrau@@
verteilen
anträge
resolving
Schottland
Adam
cooling
vorne
circuit
kat
ihrerseits
Cent@@
kommission
headed
getestet
László
unterstützten
verliert
arro@@
cycling
legisl@@
arriving
neueste
nowadays
blatt
eleistungen
schlimmer
musik
esco
AFFAIRS
Segel@@
Hz
ech
Are@@
einbringen
muster
forecasts
cat
bare@@
helicop@@
therap@@
Friedensprozess
rupted
ec
nachhaltiger
Kriterium
Lebensbedingungen
Banking
weitergegeben
ries@@
Teu@@
Ausfahrt
Tschech@@
93@@
Superior
Much
-TV
oping
reproduction
aliz@@
gement
Wikitravel
ocean
beschl@@
etwaige
Verantwortungs@@
technically
Gy@@
Gate
prints
Tep@@
class@@
beachtet
mathemati@@
info@@@
rechn@@
organising
fragile
shoes
licensing
Krimin@@
geschoss
methodology
ausgeübt
Anla@@
Tai@@
acken
moderni@@
09.@@
Feuer
scra@@
penet@@
fici@@
mündliche
sont
Sämtliche
relevance
einzigartig
ausführ@@
Disk
Schluß
Aktivi@@
divisions
verantwortung
inevitably
Que@@
Störungen
poss@@
disch
tainer
mort@@
Fertigung
counter-@@
bekistan
E-Mails
bestehender
Funk@@
explanations
tron@@
stra
Jon@@
ungalows
wire
costly
Ungleichheit
aids
geschwindigkeit
Kommunal@@
verschieben
1,000
Nachfolger
Junior
sightseeing
NAL
Jury
Offizi@@
shaushal@@
gesetzliche
enstoff@@
Hyper@@
Pedro
Sorgfalt
zonen
Glücks@@
Gegen
Kandi@@
detention
Whilst
verbrauch
weapon
deciding
Biom@@
Alpha
RC
warranty
vere
elimination
attach
Umstruktur@@
25.@@
Add
jack@@
Geber
envis@@
Auftraggeber
skill
Artikeln
niedrige
ALL
Anpassungs@@
supran@@
opping
rang
host@@
Urban
gency
pflanzen
stehend
ausreichen
reboard
Konvents
colonial
schuldig
touched
Sett@@
part-session
Associ@@
Amp@@
Quo@@
transparenter
Overall
kov@@
Albert
Swi@@
bloo@@
was@@
sweet
Fischereiabkommen
preference
sinken
Veranstaltungs@@
vergleichbar
Beton@@
ers@@
Persönlichkeiten
gest
Tibet@@
Chechnya
afterwards
thereof
Lizenzen
Sech@@
Vinc@@
besides
fel
frastruktur
Wettbewerb@@
Chan@@
burdens
tliches
ahl@@
Energiem@@
dict
erzeugnissen
zeugnisse
Manhattan
Jews
fundamentally
intelligente
schnelles
Ausdehnung
dah@@
sheep
unvermei@@
contracting
kunst
Whirlpool
evaluated
verarbeit@@
1950
Enlargement
festgehalten
cz
stahl
Publik@@
Koordinierungs@@
Uhr@@
far-reaching
Modalitäten
designers
bün@@
Quer@@
Ess@@
Zeitraums
Geist@@
Vertrau@@
Finanzinstitu@@
Produc@@
biom@@
reak@@
Gleichheit
hunting
Verpackung
Disk@@
Freien
IMO
vorsehen
dependen@@
psycho@@
BOR@@
mau@@
104
Bier
cel
Gastronom@@
Bestandteile
führend
digkeits@@
Willi@@
Bell@@
schlägen
volumes
PRO
I.@@
ACK@@
16th
hide
förderungs@@
terror
grundlegend
schnei@@
äter
legitim@@
ausrei@@
ordnungsgemäße
billigen
Befehl
brother
blau@@
temporarily
Marbella
TEL@@
Arm@@
complimentary
vide@@
reactions
Konzern
lus@@
particip@@
Canadian
Bestands@@
Bench@@
refurbished
Techn@@
mming
Stellvertretender
Glo@@
tif
keln
inte@@
studios
fif@@
Geschenk
Familienz@@
Kindes
erend
2014-2020
mounted
bring@@
Solange
Facility
76@@
damaligen
complied
ware-@@
Obergrenze
here@@
gesetzlich
konkre@@
Burundi
trials
axis
Smart
hunger
reasonably
stufe
Gesetz@@
arest
Jack
cod
NOT
geld@@
schall@@
idealer
traditionell
Kopie
vollziehen
Gegenwärtig
Säu@@
Erdgas@@
Europar@@
Erdbeben
visibility
sozial
collecting
Entertainment
nähe
boom
weal@@
nav@@
Henry
geomet@@
oten
Seel@@
stellvertreten@@
Luftverkehr
Hindernis
spac@@
erhielten
H.
collections
Mechanism
ausgestatteten
capita
amin
forder@@
hn
½
qualities
abschließen
gli
zukünftig
protective
Though
chert
christ@@
brun@@
Video-@@
glücklich
advocate
außergewöhnlichen
prevents
Norm
Ebenfalls
abzulehnen
preises
IS-@@
carri@@
accompl@@
steigende
washing
nun@@
Kanal
ML-@@
Tap@@
den-@@
schlag@@
jed@@
fundi@@
geschützten
Wiki@@
Rechnungshofs
TIC@@
ttä@@
APPROVED
Ostse@@
voices
lifting
wild@@
ergy
speaks
Magic
tie
rigen
DVDs
draws
pose@@
settle
konkreter
sichert
finanz@@
engine@@
daraufhin
prejudice
Tipps
Thai
ar-@@
Umweltpolitik
ausgeweitet
Leist@@
Sensibil@@
Nachhal@@
rechtlicher
thilfe
erfassen
č
Pakt
Berlusconi
vorausgesetzt
geliefer@@
land-@@
Interventionen
gründlich
ит@@
freiwillig
vorschlägt
luck
Guatemala
Mensch@@
begreifen
PDF-@@
vigil@@
modifications
biotechnology
befürworte
Komplexität
GL@@
emergence
leist@@
ambience
venues
energies
pointing
pride
entfallen
zusätzlicher
modification
tured
Geldpolitik
Orientierung
drän@@
Thermal@@
h-@@
etta
traf
pow@@
isierungs@@
lagen@@
Ungleichgewichte
aving
scenes
Arbeitsp@@
aim@@
echter
Somm@@
benö@@
oul@@
UPS
geschaff@@
Auslands@@
D.@@
ateau
gelöscht
fabric
nachteili@@
Wohlbefinden
sigkeit
tracking
libraries
erhebt
mysq@@
Umwelt-
debi@@
Stefan
anrufen
Streitigkeiten
stufen
Fab@@
befris@@
diam@@
ardo
ju
mobi@@
arische
Hop@@
wandern
Kosme@@
promp@@
Regulierungsbehörden
statt@@
Mount
Algarve
Nachteile
Eurobarometer
defen@@
lern@@
EC-@@
loss@@
allowances
character@@
ckers
schriftlichen
Theater@@
bey
bestanden
Vorwand
gen-@@
schalter
LT@@
Mittelmeer-@@
E.@@
parlamentarische
attempted
197@@
Erika
Label
configure
mobilen
dentally
Assoziierungsabkommen
Schne@@
lieferungen
Gefangenen
Mittag@@
grati@@
schuldigen
Muslims
Holy
accom@@
gehörte
EUROSTAT
Channel
aufweist
ovo
ernähr@@
Einfluß
gültigen
на
gesundheits@@
folgedessen
exemp@@
Nordirland
Schwan@@
Beitrittsländern
Theatre
leute
drücke
share@@
camping
holung
symbolic
titles
mutually
improves
sourcing
Übereinkunft
fulfilling
princip@@
toll
Aufstockung
brand@@
incident
Rohstoffe
air-conditioned
scri@@
allgemeiner
ranges
scep@@
Jahrhunder@@
Affili@@
akh@@
wus@@
Folter
ames
ERS
polnische
REA@@
brin@@
Russ@@
verzerr@@
Griff
bedeutendsten
hit@@
VN-@@
CHE
Geltungsbereich
Grafiken
Einsparungen
bestellt
Being
finnischen
Ausbruch
Fragestunde
Outlook
refu@@
annehmbar
Nutzern
Cypri@@
stituted
überarbeitet
rüger@@
reformen
Ambassador
Focus
Diversifizierung
Bildschir@@
Exist@@
Maßstab
er-
RIS@@
Hans@@
Begeg@@
Swimmingpool
religiöse
sends
diente
beschäftigung
Beschwerde
Engine
Assessment
geltende
subsidiaries
bindet
teach
outer
Inte@@
Fres@@
aufrechtzuerhalten
inen@@
ausgestellt
Monats
resol@@
schri@@
fizierte
Netzwerke
inviting
anmelden
lichte
bedauern
höherer
mium
Verstän@@
Verbin@@
ORE
situationen
ex-@@
Kabelj@@
beschloss
zeh@@
exceptionally
gebern
locally
Zentrums
statutory
besagt
aufkommen
Beschleunigung
haltungs@@
6th
NC@@
bö@@
oxi@@
Lieferungen
bub@@
Schwächen
servative
multinational
zeitigen
levard
GH@@
threatening
bekämpft
singer
erschienen
treibt
Wurzeln
Dimas
subjected
palace
beobachtet
countless
Kompromiss@@
feelings
Autonomie
vorschlags
Mou@@
incidents
Transit@@
probe
moon
twenty-@@
exceeded
grenzüberschreit@@
entworfen
manipul@@
CI
deterioration
produc@@
Komplettpreise
finishing
Sicherheitsrates
DNA
teur
predec@@
up-@@
gemachten
conducting
GH
Privi@@
übrig
rh@@
dive
lend
Spaniens
criminals
gil@@
astery
bungs@@
wuchs
Partei@@
genheit
wechselt
Zwischenzeit
Ratstagung
schön@@
lindustrie
perception
Gesi@@
embry@@
verlust
chal@@
Hart@@
gründet
entfer@@
automatischen
agenturen
agung
Rock@@
nachzudenken
Tier
turel@@
Christen
Prix
Manchmal
ratify
screening
Applik@@
Kernenergie
In-@@
dahingehend
wü@@
Beobachtung
charman@@
digkeit
Zeitungen
Seeverkehr
Teilnehmer@@
mailing
dari
setzungen
Peking
Mauer
elektronischer
opponents
eilung
rain@@
Large
Wach@@
DEBATED
OSZE
Ungleichheiten
schaftlich
visions
buyer
Weihnachts@@
WW@@
stärker@@
Seeh@@
applicants
Spirit
ausschließ@@
untersuch@@
query
äuß@@
Flüchtling@@
Camping
gau@@
sensitivity
dlern
repres@@
Schuld@@
gewann
einbeziehen
Isch@@
uniqu@@
PX@@
Staatliche
Verona
Versand
Kf@@
PC-@@
dichte
Anmerkung
thaf@@
malerischen
stir@@
doppelt
avian
Kommissars
hip
Telef@@
zugelassen@@
Territorium
wälte
erfor@@
Stim@@
installing
mittag
wunsch
Deine
Model@@
Organismen
ás
Szen@@
subscription
Statt
COR@@
islamischen
Beispielsweise
council
eux
Fußgän@@
stimulus
prerequisite
iz
Weiter
unum@@
Austausch@@
vineyards
purchases
anch@@
Interview
Verpackungs@@
gangene
dio
beliebten
ellers
open@@
Brü@@
tling
liquidity
tremendous
eingehend
excluding
berau@@
emann
strengere
clim@@
Petersburg
15th
Friedrich
Christdemokraten
kalische
colo@@
labor@@
rak@@
diplomatischen
eable
langfris@@
correspon@@
Loc@@
Angehörigen
mitzuteilen
offences
Buchstabe
Stadtteil
abzugeben
Oxford
EU-Politik
wertvollen
schü@@
simp@@
lying
notwendi@@
quanti@@
etze
Balance
zte
gestri@@
updating
Beauf@@
Zellen
advised
Mei@@
wiederherzustellen
Bedürf@@
template
Beamte
verhandelt
strukturelle
spell
musicians
samples
Event@@
optimieren
tar
Eintrag
Audit
.-
Block
shock
reveal
essing
stoppen
setzten
Befreiung
geholt
utor
Lufthansa
befreien
Minderheiten@@
abstained
Custom@@
Adap@@
selecting
Rosen@@
qualification
termination
teilnehmer
Repar@@
verzi@@
beha@@
plo@@
unverbin@@
Zertifizierung
therapeu@@
Gleichwohl
ICA
Begleitung
Zentr@@
estic
4379
tram
rägen
freiwillige
short-@@
UP
Konzepts
towels
ann
Mountains
sincerely
Kost@@
Plattformen
vacuum
harten
Zäh@@
Cav@@
lez
Electronic
IO
Beitrittskandidaten
Diskussions@@
escal@@
Fahrplan
ministerial
ht@@
menü
Marie
beratung
fünfzehn
beschränkungen
warmen
filters
spezifischer
ener@@
gebir@@
eco-@@
climbing
scen@@
joy
tuna
erwarteten
kilometers
metals
maßgeschnei@@
quick@@
GEN
Temp@@
beweist
comforts
woods
Heiz@@
refriger@@
Früchte
Kolumbien
vertiefen
ao@@
más
interoperability
konzentri@@
openly
conce@@
statute
gebrachten
Ivoire
landing
Politikbereiche
studying
shooting
Literatur
EWR-@@
acier
pfer
arran@@
VP
Unregelmäßigkeiten
stock@@
Nul@@
baro@@
sposition
assign@@
1980s
gni@@
schwarzen
meaningful
Musli@@
gulierung
versicher@@
Antibio@@
zugenommen
Dich
Bres@@
tionelle
verage
Creative
call@@
precautionary
z.@@
Giovanni
compensate
wachstums
dictatorship
Religi@@
webe
fallenden
ländische
Handelsbeziehungen
dynamische
bedingte
Azur
versehenen
econom@@
langjährige
berichts
Teneri@@
Rental
illes
Gefan@@
Neu
istet
Extremis@@
Freie
bezauber@@
Baroness
Zinssätze
einrichten
pursuit
erkennbar
Technologie@@
angestrebt
geschm@@
Long
Vorbe@@
tary
Lav@@
Acro@@
Cube
Innern
leg
546
Goals
besticht
strand
erce
lv@@
jac@@
commodity
lass
attitudes
Wilhelm
uts
plugin
ensystem
solidar@@
Cru@@
enswerten
issu@@
schwe@@
eron
interfaces
Looking
sende
Gesetzen
cca
herausra@@
hilfen
aph@@
betro@@
142
aufgezeigt
zuversichtlich
Organ
halts@@
Kallas
bels
Rati@@
Signale
geziel@@
la-@@
überschreiten
Fokus
Dialogue
Interoperabilität
DVD-@@
reti@@
toxic
laundering
reader
arily
broadcast
tournament
winkel
Asylbewer@@
interessierten
steuerung
Simply
merc@@
Fotogra@@
vou@@
ziehungs@@
ae
detected
Love
Überprüf@@
Gerichts
Ž@@
GO
dust
achel@@
Texas
requesting
dened
Mitglie@@
stütz@@
Schengener
vertrags
Besich@@
fasste
globe
agna
ет@@
resultier@@
dress
oph@@
aufre@@
kultureller
außen@@
Halbjahr
vesti@@
resumed
alleged
xis@@
missi@@
demselben
Verordnungs@@
stabil
netzes
door@@
verhängt
suppor@@
Multi-@@
hospitals
äußerten
await
umfaßt
Präsidium
wedding
Neuigkeiten
Accordingly
seitdem
dreams
Mitgliedstaates
tico
zweier
mixture
Landschaften
sozusagen
statistischen
pg
licensed
Zim@@
befindlichen
Exporte
müh@@
Italia
weiterentwickelt
judiciary
000-@@
parte@@
Watson
Karls@@
navig@@
Afghan
hea@@
Grie@@
angeführt
etwa@@
wich
racing
exhibit@@
unified
maßgeblich
Geflü@@
rarely
Pfle@@
Sour@@
Völkern
Tax@@
repräsent@@
Sci@@
meint
bilater@@
St-@@
distant
Luxem@@
Integr@@
eliminating
wachen
exquisite
earthquake
rangige
Meinungsäußerung
Platform
Meil@@
Immobili@@
menden
corner@@
ller
zeitlich
3-star
Waff@@
ehr
jana
wertet
geräum@@
oli@@
Gastfreundschaft
findung
detect
potenzielle
Cec@@
Seminar
stunde
serie
erschien
berühr@@
Garda
portion
Kartell@@
informellen
dramatically
competitions
eigent@@
Hydro@@
Phar@@
amin@@
klass@@
dies@@
Chaos
emandem
Ble@@
resear@@
Vulkan@@
Arbeitszeit
Rettungs@@
Demokratien
Kühl@@
poten@@
Biotechnologie
RAM
mount
Instand@@
verschwinden
asa
schieben
lon
mitglied
semi@@
Nuclear
thumb
FS
Package
Zubehör
streichen
sciences
Rohr@@
Beitritts
Spanisch
Ausch@@
Gesprä@@
sinstrumente
ceilings
off-@@
authori@@
späten
mittelten
TT@@
Rimini
Mühe
sag@@
TRANSP@@
Establ@@
BET@@
99@@
ellung
grams
infring@@
fortable
Zuliefer@@
miner@@
auer@@
inet
Vorbehalte
1969
bücher
menus
griffs
17th
296
stren@@
benutzer@@
Allow
compet@@
supporters
Nachweis
Hypoth@@
personen@@
ā@@
Exhibition
maßnahme
cam
staats@@
Canal
formerly
Stimmung
Bestrebungen
Beein@@
Nationalpark
55@@
Hear@@
Uganda
Projektes
erstklassi@@
Provider
hung@@
Ganzen
herrschaft
profitiert
ses@@
multiannual
relie@@
Later
direkter
Gesetzgeb@@
contamin@@
Pro-@@
Sty@@
desselben
Oz@@
Geburt
Gig@@
energy-@@
lical
hopefully
seaside
withdrawn
timing
bekräf@@
incurred
Toleranz
zwecke
encountered
Kommentar
beheben
fahren@@
Major
kus@@
luxuriöse
dossier
ät@@
strecke
gion
atisch
glich@@
verification
lieferung
depen@@
läßlich
feasible
78@@
specul@@
sacrifi@@
Table
verlängern
Monaco
schlug
STAT@@
bekun@@
Upon
heil@@
nischer
arena
Business@@
crystal
sham@@
insight
troub@@
niedrigeren
mässi@@
T.
isms
zurufen
siver
europaweit
atories
zyklus
laimed
Globalisation
Frankfur@@
somewhere
Save
inhab@@
ż@@
Werken
hem@@
reiz@@
haushalt@@
Golfplatz
episode
cover@@
IND@@
Lea@@
Band@@
FT
Bavaria
rd
ande
mpft
servatory
schlusses
jung@@
tras
medium-term
Masse
Scottish
Ministerial
vereinig@@
Schritten
fehler
enzo
š
hôtel
legislativen
einnahmen
Simul@@
endless
ador
wähl@@
ideological
impe@@
gendsten
Einsetzung
Davon
geist
Unless
cultivation
Andro@@
responded
wished
transported
denzen
ing-up
fehl
ktes
yards
vernünftigen
grafie
traders
Leon
Verschmutzung
Taking
chno@@
Auftrag@@
Gutachten
processor
drehen
defeat
zugesagt
operation@@
unkten
zeige
Klärung
HAL@@
EUROPÄISCH@@
wunderbare
Programmes
URBAN
Solar
gründe
restric@@
Erleben
nya
packen
Geschichten
solu@@
Conver@@
hs
polizei@@
Print
Passagiere
ingo
scienti@@
shine
gestrichen
Converter
hinausgehen
year-old
Überschwemmungen
stete
dialo@@
Künstlern
democracies
Nationalen
tible
Langu@@
diesjährigen
/index_en.htm
organs
Dörfer
Commander
tiefen
pdf
Freihandelsabkommen
5000
capitalism
widerspiegeln
origins
ausgeprä@@
risiko
R.
Nationale
ausgewählte
Strategic
achse
Nev@@
Maison
aufnahmen
appel@@
F.
Warsaw
bemerken
mountain@@
Kompromisse
Cancún
vising
laufend
yiel@@
Zau@@
0.5
Sammel@@
Tagungs@@
offensicht@@
175
nahen
persönlicher
Barrot
ów
erhöhte
spokes@@
P.
hosted
afft
Internetseiten
auftritt
Shopping
geschul@@
Psych@@
Verknüpfung
Chr.
cook@@
rival
packed
Räumen
Vertrauens
akts
Diskrimin@@
co-ordination
unvergesslichen
Kompetenz@@
admitted
stärke
vorgesch@@
agua
emit@@
Schwier@@
immunity
π@@
Umsetzungs@@
crimin@@
forcement
Trock@@
eph@@
Gä@@
villas
outline
attraction
IND
seeds
-Spe@@
Investment@@
Haushaltsmittel
strikes
1.3
dringen
prechen
ective
Gefäng@@
unglaub@@
Dimit@@
pir@@
diges
traditionally
gathering
standard@@
beurteilt
Elite
Guar@@
kommunistischen
stroll
heimische
herself
niederländische
μ@@
Teils
staff@@
FS@@
identifizieren
stant
geordnete
Minim@@
wahrgenommen
frau
couples
DM
ouldn
enshrined
exi@@
mord@@
Gericht@@
positives
zufriedenstell@@
DJ
üssel
Syrian
NCC-@@
noisy
Spam@@
etings
ento
Carl
Kohäsion
vri@@
highway
deter@@
iums
sourc@@
overwhelming
taten
swiftly
convincing
attempting
Volkswirtschaft
atischer
Akzeptanz
incoming
plung
vigor@@
decides
denz@@
PM@@
Mountain@@
peror
Photo
Croatian
festhalten
agnen
Busse
Zuerst
remember@@
Entfer@@
cock@@
symbols
Clau@@
text@@
Rotterdam
SCHL@@
handic@@
lingu@@
Stam@@
acker
punishment
Formel
beliebt
recipient
Canary
erforder@@
Delta
Ratspräsidenten
Donald
unterzogen
Ministerpräsidenten
Michel@@
thwest
Einblick
racht
INT@@
Christians
doz@@
hinterlassen
butes
reflecting
Bundesminister
outermost
Expan@@
massiven
silent
Festung
Price
trail
salon
gelegenheiten
spunkte
Hist@@
personality
Benutzern
crop
zeugung
Erziehung
rechtswidri@@
barrier
news@@
accessed
verträ@@
overnight
Schri@@
corporations
Ermittlungen
risiken
simpler
kommissar
ausgebil@@
investi@@
Potočnik
tätigkeit
TEN-@@
herbei@@
Rezep@@
κ@@
kas@@
Dubai
ZI@@
erbe
sprüfung
glas
Zukunfts@@
rig
IST
Info
länge
Excel
Cz@@
stattungen
Roten
derartiger
Charlie
Stränden
Rahmenrichtlinie
zenten
usa
chip
Instabilität
Songs
injury
ungssystem
discipl@@
aufhalten
geografischen
illing
Allein
rangi@@
bedient
103
gebor@@
park@@
presiden@@
Carlo
Ansatzes
tab
elegance
redund@@
prinzipien
erschüt@@
anschließ@@
eler@@
Argent@@
ETS
Tax
streit
10.000
FO@@
großartige
Kanäle
Wettbewerbsverzerrungen
ounced
Reden
anteil
Jar@@
bikes
dienstes
mischer
0,00
Trading
hie@@
Autover@@
Nag@@
Vorbereit@@
Konzert
cement
grass@@
Größen@@
Collection
USB-@@
Wunder
technologi@@
panorama
Lichte
wr@@
skommiss@@
schlus@@
Around
fulness
Kamer@@
hop@@
Kön@@
88@@
Termine
leuten
rical
gged
ishers
wasn
horses
Betrieben
italien@@
sorg@@
eingang
riebenen
irregularities
Gesicht@@
universe
on-site
Christop@@
griffs@@
Inzwischen
replacing
upgrading
prescri@@
Beschwerde@@
Gender
Terrorismusbekämpfung
enjoyable
einleiten
additives
gewand@@
Gebiet@@
inations
toys
deduc@@
Vorredner
1972
spoliti@@
retained
Institutions
touristischen
umpen
Zeitalter
seller
jah@@
sonni@@
urban@@
boys
LED
Kommand@@
austerity
proves
sphase
Besetzung
ausgedehnt
anfangen
nnen
computer@@
Swe@@
angegangen
iern
folgte
ceas@@
flexiblen
check-in
decoration
toff@@
Stufen
Montreal
inson
ENCE
Gall@@
passenden
nehmern
Konsumenten
herein
Romano
bewährte
Bangemann
UNO-@@
.-@@
dereg@@
Napole@@
unterrichten
Plugin
dead@@
102
abgel@@
mend
geschenkt
eradic@@
gle
fasc@@
Erfordernisse
Speicher
Vermögen
Beachten
INI
gesu@@
Anbau
gente
RE
Kraftstoff@@
pop
Aktuelle
ù
favo@@
Umstand
Luftfahrtunternehmen
Bangkok
Deluxe
BB@@
vielfach
Ergän@@
vermark@@
CIA
7th
atically
LateRooms
schwach
wirtschaftspolitischen
lossene
batteries
lins
sincere
versi@@
excise
stetig
Kontinents
productions
originating
veterinary
Split
Tragen
Span@@
Vorjahr
Conclusions
mache
projected
amtierenden
Bele@@
prozessen
Friedrich@@
Five
Vergleich@@
py@@
Treas@@
bedeutender
Steh@@
Ausnahme@@
anium
latt
disagree
fortgeschrit@@
Möchten
Mie@@
verknü@@
bewährten
verfassungs@@
Candi@@
secre@@
anzuerkennen
ves@@
stres@@
antiken
hesi@@
outlook
Kleidung
klam@@
Oracle
chair@@
Lama
hic
Javier
auft
105
zion@@
beläuft
übermäßigen
wenngleich
Canaria
wol@@
licity
surgery
ever-@@
Guarantee
gambling
Nothing
hairdryer
ule
rs
themati@@
wäsche
Besteller
prohibition
Neither
stätigkeiten
Mugabe
asien
fortsch@@
niedrig@@
entu@@
Interpretation
uropä@@
flora
Road@@
Gesetzgebungs@@
Kühlschrank
moralische
Refu@@
Pascal
anti
ergab
Mitteilungen
Gei@@
beleb@@
EURO
angemeldet
Gesundheits-
geschäfte
Smart@@
arkt
endem
delle
Traff@@
ulp@@
competi@@
plä@@
qm
herunter
gee
g.
artier
kaner
problematic
kamera
coach
spieler
04@@
seitigkeit
vernachlässi@@
printer
Intensivierung
aufgeteilt
Rindfleisch
livestock
ühlen
Petitions@@
unternimmt
SPA
Angeboten
grenzt
eventuelle
spreading
misst
schien
stauran@@
Pav@@
SA-@@
Binnenmarkt@@
Almost
durchschnittlichen
Sahara
disparities
ünsti@@
listing
giant
Preis-Leistungs@@
counted
Daneben
Behinderung
settlements
beratende
untern@@
Reiseb@@
passport
hows
Gedankenaustausch
sé@@
Gott@@
jenige
devi@@
beliebtesten
tiver
terten
tent
Curr@@
Pakets
EU-wide
beauftragte
umfang@@
categ@@
CIAL
Schulung
1971
Höhepunkt
Preises
Vec@@
abandon
appearing
apel
makroökonomischen
horiz@@
schätzt
abends
apier
pushed
rechtmäßig
ferry
Klausel
bilanz
schreck@@
tful
Fuss
Active
Vorstand
communist
Dör@@
Flughafen@@
blocking
angenommene
genten
chart
belast@@
gelte
warrant
Unserer
belaufen
Again
Horn
ğ@@
Hoffnungen
Ala@@
Konzerte
har
Ast@@
enta
allow@@
ño
Bandbreite
PVC
Schä@@
Manchester
sympathy
gefahren
public-@@
bewahr@@
SSL
Pharma@@
Kodex
legendary
theoretical
change@@
Fusionskontrollverordnung
westliche
Kohle
fossil
abgerufen
Unterricht
iranischen
Duis@@
Lock@@
Bulgari@@
opera
fostering
Final
Schutzmaßnahmen
Gäste@@
nisch
double-@@
DEM@@
Palästinens@@
debts
cco
Universal@@
Verpack@@
tom
second-@@
shell
revolutionary
algorith@@
pez
schluß
Moz@@
timm@@
mild
Jack@@
transform
dekor@@
legacy
Straft@@
organisator@@
Seattle
uno
mentari@@
besser@@
bekam
dehnen
600@@
priori@@
rics
innocent
Vö@@
Dün@@
Gs
lü@@
antibio@@
Dafürhalten
schot@@
Rücküber@@
bemerkt
VIT@@
mug@@
Baro@@
predictable
EIN
Entschei@@
Treiber
Erfahrungs@@
third-@@
Frank@@
worried
affen
positively
cue
dable
bicycle
Fracht@@
Tochtergesellschaft
folgen@@
accommod@@
ol-@@
einrichtung
Week
disziplin@@
clas@@
Wertpap@@
Diesel@@
ungsindustrie
sfer
robots
adapting
mund
provisional
Starfleet
smug@@
abgedeckt
astro@@
hearts
fier
perf@@
ppen@@
colon@@
reluc@@
Umgeb@@
abetes
ECT@@
Erwerb@@
täts@@
confer@@
Dutz@@
versorgen
jury
Verbrauch@@
geschicht@@
Sanierung
ights
Visual
Standorten
Harry
tagon@@
ure-@@
retri@@
layers
Clean
quer@@
stellern
ämmen
englische
bara
Vall@@
Little
wirtschaf@@
beautifully
Autorität
verpfli@@
Vorgang
distinguish
Direkt
cereals
sowje@@
LE@@
anhaltenden
anticipated
Wies@@
Sän@@
amtierende
veränderte
hochwer@@
0,5
REI@@
herkömmlichen
Kath@@
athon
torial
Arten@@
restauri@@
apped
Resources
Leon@@
ausgewogen
Geschi@@
Anlage@@
inequalities
Simon
jn
tanks
Wohnungs@@
gleichwer@@
Pakist@@
Seu@@
frische
EU-Rechtsvorschriften
Beschäftigungspolitik
slowen@@
fielen
immerhin
Donau@@
Å@@
TW@@
wandeln
Eri@@
bury
4-Sterne-Hotel
otive
ühl@@
vorherseh@@
Mut@@
viability
akter@@
check@@
Innsbruck
ppt
Werkzeug@@
spoten@@
bond
Adres@@
newest
ference
Vertei@@
anhaltende
Ausschl@@
kontinuier@@
120@@
Explo@@
figh@@
hielten
Persön@@
enforced
Mali
tendency
indicator
Florida
lich-@@
Gur@@
nearest
opt
und-@@
Relax
Verkehrs
pull
Kanz@@
Fundament
Lob@@
breiter
ños
accountable
merch@@
markts
Lobby@@
angezogen
Pestizi@@
esk@@
Daraus
buff@@
tise
Versicherung
Gewerk@@
Beispiel@@
Flash@@
thinks
erör@@
afgh@@
EU-Haushalt
excuse
Epo@@
mg
chamber
gangs@@
part-@@
Bewerber@@
Flach@@
eingeschrän@@
Users
defini@@
Bewegungs@@
fere
männ@@
gebun@@
downlo@@
problematisch
start-@@
Leiden
koordinierte
ula
zweites
record@@
vegetable
MB@@
coding
collecti@@
freiwilligen
mittelfristig
multilater@@
vorrangige
Olympischen
adidas
erbracht
Belastungen
eingestuft
recalls
ismo
Tourist
ausgeglich@@
steigerung
NA
vey
alogue
knowledge-based
54@@
12,@@
psychological
Rica
tana
Eurex
ernity
begriffen
tackled
Reisenden
Til@@
Entdeckung
115
Ep@@
wid@@
ender@@
mans
Personals
builds
ausgezeichn@@
optionen
alleys
angekün@@
schrän@@
kunfts@@
illness
besichtigen
ffenen
Figures
Besondere
ppy
Wun@@
verläss@@
74@@
igo
SD
anwendungen
läufi@@
Bemühen
ped@@
bestrebt
compromises
Gremium
German@@
Gom@@
exacerb@@
resu@@
accompany
Grenzwerte
ghtful
beginn
dimension@@
ologen
guiding
rum
Diktatur
Stars
Logistik
urmet
mont
esian
alleg@@
mins
swift
Ausschüssen
vorgelegte
Lande
Egal
Night
dler
live@@
zusammengefasst
biofuels
Getrei@@
Jahrhunderte
ACE
attraktive
qu
Euratom
But@@
G.
einigt
Festivals
sidentin
Applikationen
chips
Mono@@
Zeug@@
ausschlaggeb@@
Aufschwung
dropped
mentos
witnessed
protects
LED@@
konzer@@
surro@@
gelände
einla@@
execute
rech@@
Überleben
wanting
judgement
Fest
Infos
emphasize
bewe@@
Workshop
kontinuierliche
telec@@
Posten
hec@@
sätzlich
Verpfli@@
Unterstützungs@@
Especially
Swis@@
Asy@@
Fassa@@
Tac@@
ANA
unterstützte
underway
rag@@
gewöhnlichen
Erkenntnis
Andris
DIS@@
bollah
bildungen
Lauf
vente
Getreide
later@@
müßten
Essen@@
Bologna
Bruder
nachgewiesen
.html
mma
schwä@@
weites
HA
fishery
Fli@@
bigen
hoff@@
submission
municipality
stad@@
Bern
kus
angan
Hunderte
sinitiative
Verwen@@
übertragung
Ersten
Inc.
äler
ғ@@
ermög@@
abling
Still
invoice
spraktiken
Depending
Insofern
gras@@
vet@@
i.e
Löhne
Urteils
verweigert
construct
abhängt
positionen
HOTEL
Interessengruppen
Strafe
transparenten
belastet
audiovisuellen
overseas
attaches
thematic
ausgeben
readiness
foc@@
günstiger
strategischer
oberste
Linken
ka-@@
Tschetschenien
strahlung
Enh@@
ext
vorübergehend
margins
ол@@
benachteili@@
merged
Zutaten
Renten
getre@@
Befürwor@@
varies
healing
gestützt
Zulassungs@@
mitting
aro
Aufbau@@
onwards
herbeizuführen
figur@@
pine
imple@@
zugreifen
korrigiert
alpha@@
www.eib.org
Gestalt
Galax@@
stim@@
Copy@@
Geschen@@
A5-00@@
liner
siden@@
disastrous
metall@@
Müt@@
Song
phases
Rundfun@@
Piet@@
smoke
ro-@@
biomet@@
varieties
en.htm
lifts
kreative
retention
desi@@
GRO@@
chapters
weiger@@
erkan@@
posting
eingeben
Ernährungs@@
market-@@
revol@@
manipulation
sträger
Lagerung
schließung
dorthin
besorgniserre@@
schlimmsten
begab
Immigration
00352
architekton@@
ò@@
Wissens
scop@@
pedia
encing
Erdöl@@
berfläche
pension@@
WITH
ateway
expliz@@
Näch@@
Ou@@
She@@
esh@@
erkenn@@
documented
Sli@@
ähnlicher
zeuger
geneh@@
exempl@@
angehörenden
Result@@
Vali@@
illegaler
ALDE
HI@@
Dauer@@
six@@
halben
blockiert
PPE-DE-Fraktion
Behandlungs@@
booth
esp@@
Stärken
repar@@
sammlung
Ära
versprochen
Nordkorea
portugiesische
EMP@@
Medium
Mittagessen
concluding
protests
Sw@@
utions
painted
Gerne
Chat
Defini@@
Ersuchen
dicht
beside
shortage
niveaus
EFRE
orange
contamination
Reichweite
Everest
steiger@@
übergreifende
subsidy
uner
litz
p.m
endums
beglückwünsche
aba
distortion
tchen
äng@@
ta-@@
restoring
correspond
unabhängiger
CK@@
................................................................@@
dev
treibung
03.@@
Kontinuität
beträchtlich
A1
irgen@@
Gedächt@@
anom@@
3,5
überflüssi@@
ermäßig@@
Diejenigen
Bekannt@@
adver@@
Grundsatzes
casting
weakness
zielle
verdanken
restlichen
Singapur
Soforth@@
burning
eingesetzten
zep@@
McCreevy
Cruz
Bie@@
EFA
Punta
Begeisterung
convic@@
TH
adjacent
Lig@@
destabil@@
Behandlungen
sustain
funktions@@
hl@@
diagnosti@@
Cul@@
terraces
Auswirkung
persistent
zugewiesen
Erzeuger@@
Handelspolitik
erzählt
Germans
demonstrations
SONSTIGE
Activ@@
queries
Od@@
schwachen
terrain
edly
Aar@@
Wohlergehen
varying
Dom
life-@@
Manage@@
Spielern
würdigt
distinctive
1040
entwick@@
Schulungen
cup
Salvador
disziplin
Marin@@
Uruguay
Appell
anca
Standor@@
riffe
Domain
jahres
contro@@
Massnahmen
Tus@@
sprechende
rations
begeben
inaug@@
fres@@
Sili@@
Zap@@
hinzuzufügen
abolished
Hintergrund@@
konstruk@@
Habit@@
aufrecht
Sequ@@
été
exercises
voy
zir@@
Erlass
Weitergabe
stly
Eleganz
iter@@
Oberflächen@@
otel
County
Verbre@@
a.m
markiert
fred
Rund
business@@
under-@@
familie
tolle
irgendwo
NAF@@
modus
24-@@
gui@@
icro
Sortiment
Europe-@@
holt
portable
800@@
stricter
Lyon
Ganze
Vorkehrungen
brauchs
getä@@
woll@@
teres
Quadrat@@
eliminated
energie
STA@@
afrikanische
ý@@
überwie@@
mehrjährigen
106
smallest
Umweltverträ@@
indischen
Verband
south-@@
Patente
eggs
Catholic
Management@@
unterneh@@
Rollen
Unfälle
Armenia
faden
Binnenmark@@
frontier
Spann@@
static
Buchstaben
shorter
splan@@
Akademie
Vorsorge@@
fungen
Recently
einräumen
Souven@@
gesendet
Freilassung
obo@@
occupational
unlängst
pedestrian
dants
Suchen
verläuft
diversification
bestehend
dengan
Any@@
oom
folk
anhängi@@
Geor@@
heimischen
Motoren
Schauspiel@@
tragung
exemptions
possession
Satellite
galt
künftiger
evo
Auskunft
Auszeichnung
Bluetooth
INTERREG
verbindlichen
Sop@@
gangenen
Gletsch@@
unlau@@
CNS
widerspiegelt
Property
reveals
beneficiary
kurzfristige
quiry
experimental
Hochschule
С
DAS
Swoboda
remuneration
pflegen
stabilisation
Möbel
eits@@
demic
Ausstellungs@@
instances
rought
tonight
Continental
Bewertungs@@
tank
Alber@@
geared
Oliver
ordnet
sofor@@
literally
Risikom@@
Written
Verbrau@@
ausreichenden
Mandats
depic@@
dissemination
cially
Porsche
bulk
offener
katastro@@
Motiv@@
konvention
ν@@
uro
diagnosis
eingebet@@
liance
furnishings
Doppelbett
opath@@
ehrung
rige
Kooper@@
rer
Jordanien
essimis@@
Stab@@
leich@@
Tabellen
derogation
personenbezogener
Klick
frontiers
Pensions@@
förmlich
Kurs@@
ön
Hinzu
pushing
Ses@@
Disabled
Geschäftsführer
upload
steine
Koloni@@
financially
tories
Mec@@
-Sti@@
ummer
omet@@
worauf
ungarische
Umstrukturierungs@@
Lamanit@@
Transaktion
valued
rüstung
Modellen
allgemeinem
hof@@
sorts
Defiz@@
Bürgerrechte
Milliarde
lebens
erholen
disappear
cane
chains
modul@@
erospace
za@@
Messenger
Scandin@@
häufigsten
1.000
klassi@@
Gegenden
2.4
kommunizieren
Naturschutz@@
ranking
archae@@
beitritts@@
anto
vibrant
starb
basin
Enttäu@@
240
humane
eke@@
controll@@
variables
Kup@@
ermor@@
customized
Ange@@
Baj@@
gelder
Back
rors
Us
Resultat
FA
sein@@
sequence
ört
eh
Erwachsenen
oils
paragraphs
mergers
Making
instant
impede
eintritt
Richtlinienvorschlag
blicke
Nichts
ard-@@
schär@@
FIS@@
bahnhof
accommodations
ehemal@@
Erwägungen
ICT@@
night@@
rüstungen
Grafik@@
Gesichtspunkt
Emplo@@
Musiker
Integrated
tied
Brown
Rücken
YORK
Vegas
geringeren
GO@@
bestraft
abschluss
ebung
Zuständigkeits@@
forwarded
Mozilla
KB
Atlantik
Jahresende
favoured
Competitiveness
juristischen
targeting
neo-@@
Zeile
Jah@@
negara
trou@@
EU-Kommission
Beleu@@
spam
Thun@@
Meister
Später
Paradies
Ergeb@@
Banan@@
malen
severely
chtige
outh
ßig@@
römischen
Gesetzgeber
Electron@@
NATO-@@
Luc
Flugzeug@@
Klo@@
Al-@@
omo
medien
Zölle
modular
ausgerüstet
finger@@
Strafre@@
Verspä@@
mac@@
kunft
berühmt
virtuellen
ECOFIN
Immunität
stimulating
diet
Son
orous
slowak@@
Points
Authenti@@
erfahrenen
vin
guitar
Controller
mid-term
readers
baggage
wash@@
wisdom
27.@@
Marc
City@@
verwendete
Anhebung
währung
even@@
mitglied@@
Egyptian
recti@@
Psy@@
dealers
ekte
denkbar
GRAM@@
packt
vorläufigen
automobile
Gedanke
altitude
adopts
Import
Kooperationsabkommen
Fau@@
Französ@@
Id
Modell@@
Isa@@
Linux-@@
diversen
dokument
Arabia
angewand@@
Lärm@@
mean@@
popularity
risi@@
ÄN@@
successes
andin@@
Along
Kapaz@@
auferlegt
auto
Impul@@
Neut@@
stadium
downloads
Brand
Nachbarländern
endern
Wohl
zeugt
Wu@@
Misch@@
GI
Ost
Hollywood
gesetzes
Fischbestände
Ständiger
EU-Ländern
efully
Long@@
actu@@
Stephen
Gehir@@
Zivilisation
confi@@
sical
1.4
kid@@
wurf
Schlussfolgerung
harmonise
Ansprüchen
uth
honest@@
Messung
intuitive
FI@@
föder@@
comfortably
schiffe
roten
generic
Mandelson
ui
städte
festgesetzt
selector
Pod@@
gewöhnliche
vities
formulieren
basierend
attraktiven
congratulating
Breite
vertrieben
Prüfungs@@
geho@@
Trav@@
geschnitten
priced
Saudi@@
Arch@@
aspirations
veranlassen
bets
Cash
Kapitalismus
Fluggäste
administrativen
Lust
promin@@
Baden-@@
Loch
zeugs
deci@@
Anyone
pflanz@@
versorgt
Mayor
Insurance
samer
aktionen
clarified
Erit@@
Likewise
nachfolgenden
dog@@
resume
Kontra@@
zurückkommen
preferential
threaten
represent@@
lös@@
Aufstieg
rief
Richtigkeit
disadvantage
Thom@@
650
Gesundheitsschutz
aboard
Bestand
gratuliere
Konzeption
ignano
Vermögenswerte
Erdo@@
ART
Pots@@
ingrad
ural
isst
liges
Abend@@
grundsätz@@
eiro
painful
counterfeit@@
Sciences
teils@@
insist@@
belgische
Finger@@
Seminare
Orange
ordering
jecting
om-@@
coa
Vernetzung
kurzfristigen
circul@@
Elis@@
reformed
PRES@@
bearbeitung
sme@@
Equipment
anyway
Zuver@@
Län@@
überwälti@@
enda
Hybri@@
Broschür@@
worth@@
Einzelpersonen
defe@@
municipalities
mächtigen
PSE-Fraktion
sofortige
tü@@
verursach@@
CER@@
Errungenschaften
ego
ennis
dryer
gängig
eive
insert
Petitions
beugen
aufhören
Vorsicht
intensify
Schnit@@
wiederhole
westen
eldeten
bemühungen
ssiers
unab@@
Janez
Entscheidungsfindung
Sehen
in-house
Supreme
ussy
Prince
beschlossenen
Tabak
critique
kub@@
japanische
Vertri@@
employ
nuklearen
rever@@
Absatz@@
namentlich
burg-@@
definierten
Endes
Aus-
put@@
itas
Touristen@@
contribut@@
reiterated
kunde
ungsh@@
strongest
guilty
doc
Eindämmung
Dienstleister
affung
MEP
intent
überdenken
zügigen
Kris@@
Labor
modernsten
Unfall
Kloster
Tajani
agon@@
memories
Zielvorgaben
geeigneter
paint
Anleihen
EG-Vertrags
Memory
neuro@@
Rub@@
configur@@
tagung
bewundern
Lee
Ökon@@
Geis@@
subsi@@
transl@@
Etik@@
3.1
intim@@
eim
Blizzard
directors
Others
exported
Pfeiler
Gepäck
Downloads
rounded
Newspapers
Netzen
Alz@@
staates
Terrace
handelte
renovierte
Jen@@
fu
ffern
ember
DF
Emo@@
anspruchsvolle
itzen
fitting
slight
artikel
gie@@
RS
Rechtsvorschrift
schloss
gliedert
CFP
zucht
obliegt
Subjek@@
ermuti@@
Ramblas
surfaces
turm
Kalender
passion@@
eile
favor
Depression
xels
ront
Help
esis
concep@@
troll@@
tah@@
wettbewerbsfähig
boosting
Anwal@@
bege@@
writers
rewar@@
home@@
Rehn
armament
zza
note@@
Independent
ни@@
hervorzuheben
tali@@
Anzeigen
Lissabonner
bedauer@@
tei
energe@@
rigor@@
renovation
ologies
sser
gesicher@@
Aben@@
Dum@@
lawful
einkommen
Turin
TACIS
perfek@@
Wohnsitz
bekanntlich
cap
denheit
compiled
feeding
netzen
Kameras
Vorab@@
Entwicklungsziele
offizi@@
unt
-Sh@@
Bayern
haft@@
behei@@
anstehenden
beizubehalten
wirtschaftliches
bürger
simplifying
fristig
Erstellen
wünschte
aufgegriffen
tiles
vio
Spec@@
gation
beeindruck@@
protein
erstattet
operieren
Lomé
erschwert
Ih@@
2.3
ktor
indert
accomplished
ängen
spotenzial
fruit@@
Weltkrieg@@
erschwing@@
israelische
ty-@@
befugnisse
confronted
verlaufen
Nahrungsmitteln
einher@@
genz
Handhabung
regre@@
lauten
Nano@@
combin@@
worlds
Strei@@
voic@@
agten
siedlung
bisherige
vorwiegend
25-@@
Grü@@
solle
suspected
fically
Nicolas
cathedral
mari@@
229
corresponds
rede
Klang@@
Virtu@@
unkt
äußert
sored
orientieren
Ether@@
alkohol@@
Beauty
Haftbe@@
iter
Translation
Erweiterungen
Vieh@@
past@@
bold
perfec@@
Mauri@@
lässig
Leucht@@
dying
satis@@
beiträge
eilen
kopieren
Humanressourcen
Gewähr
Nähr@@
Handelspartner
fonds@@
Vorteilen
einhalb
kab@@
Versicher@@
zusammengestellt
entziehen
Genauigkeit
nächstes
irgendeine
cultur@@
Parag@@
insur@@
Gutes
Saat@@
Zugestän@@
geheim@@
Portfolio
ckte
eht
ish-@@
buttons
rechnet
Gläub@@
Flynn
farm@@
galleries
cream
behold
Publikationen
gestion
ISSION
Protec@@
aufrufen
Mein@@
wis
Campingplatz
spot@@
Maus@@
disability
eili@@
verwandeln
Got@@
Reinig@@
Entschließungsanträge
quoted
Charakter@@
heimer
eventu@@
einheimischen
frames
ultra-@@
eten@@
Mitentscheidung
FREE
Emer@@
ertem
birgt
10,000
Former
Darauf
akadem@@
~
trages
berry
Malaria
Centr@@
westlich
Fülle
surveys
terminals
s/@@
Sydney
ttern
Dossier
unverzichtbar
vorgeschrieben
Norwegian
nas@@
Regelungs@@
keyboard
submitting
355
allgemein@@
TM
Erforschung
Heu@@
gemüt@@
atures
Christi@@
Maßstä@@
closest
internally
unchanged
liberalization
Slowak@@
journalist
mord
definite
decor
Elektrizitäts@@
infection
refund
y-to-@@
attracted
L.
alisch
Schluß@@
pragmatic
mittelstän@@
Süß@@
offer@@
Serbian
geprä@@
curr@@
persu@@
inappropriate
aufgel@@
Fische
reiterates
ckness
EDF
Veneti@@
hochrangigen
mächtigungen
stritten
Verschiedene
Begünsti@@
Stern@@
wäch@@
Interim@@
relevante
GRA@@
Anschluß
multilaterale
-Fraktion
artig
regulating
untergebracht
sav@@
gage
Lücken
peripheral
gigan@@
german
deliveries
Kali@@
density
intimate
Whatever
phy@@
prison@@
zierter
loh@@
C.@@
WiFi
verstär@@
Hochgeschwin@@
bres
Canc@@
besserer
bacter@@
Transatlan@@
understandable
Genfer
Cape
Zagreb
BRA@@
Hou@@
developer
BIO@@
Veri@@
Magazine
HIN@@
identifies
etten@@
erup@@
etti
ktivität
ITS
läs@@
Lady
RATES
wide-ranging
го
Reisende
Kamp@@
chy
thur
ilfe
Megapi@@
Orchestra
negoti@@
dameri@@
Haut@@
Prognosen
aw
Concerning
dion
Ali
verschi@@
Abfällen
M.@@
geschmackvoll
Therapie
berechtigte
Sad@@
abzustimmen
f.
kehr
Nic@@
280
108
frisch@@
earliest
baute
Ernährungssicherheit
Anmel@@
ain@@
noble
diplomacy
Princ@@
Erteilung
enko
exe
ber-@@
HY@@
Stabilitätspakt
Kürzung
denklich
stairs
misleading
Konkurrenten
1930
optimiert
guest@@
sor
menten@@
bürgerliche
Jean-Claude
codi@@
Wettbewerbsregeln
Medina
Solarium
Parall@@
Räumlichkeiten
Kürzungen
loads
Wachstumspakt
Stipen@@
ude
[...]
