<unk>
<pad>
<s>
</s>
.
,
?
you
i
the
to
that
a
for
and
is
it
&apos;s
your
can
like
at
in
what
be
me
want
ok
of
would
how
:
have
okay
with
help
yes
will
need
one
do
great
did
hi
sure
are
order
removemeimaboundary
thank
on
let
there
all
they
an
so
please
$
yeah
&apos;m
anything
get
else
no
&apos;ll
up
restaurant
got
book
pizzas
tickets
or
this
good
appointment
!
right
from
movie
people
see
00
correct
number
2
today
&apos;d
has
tonight
as
go
two
place
about
my
when
any
was
where
&apos;re
1
pizza
uber
&apos;ve
&amp;
could
if
now
3
car
know
many
time
8
pick
take
make
just
much
u
name
should
does
phone
reservation
we
9
booked
find
food
looking
ready
30
hello
total
found
minutes
showing
10
crust
moment
but
first
them
fine
bella
next
7
bar
milk
ride
starbucks
&apos;t
4
more
out
second
sorry
going
kind
sounds
luna
not
some
day
other
thanks
both
work
alright
cost
extra
6
set
which
5
available
perfect
three
very
also
looks
enjoy
look
new
tell
cheese
well
chicken
p.m.
give
auto
california
four
called
san
check
francisco
pickup
small
theater
type
medium
mobile
pm
another
fee
shop
street
table
xl
bye
driver
large
their
options
while
been
imports
party
confirm
hey
pepperoni
then
those
tomorrow
city
coffee
intelligent
mall
receipt
seating
via
cream
lovers
p.m
yep
89
am
amc
assist
it.
long
price
repair
think
20
nope
oh
picked
size
something
trip
fare
option
really
regular
wanted
)
9pm
address
friday
near
regal
welcome
whipped
(
15
b
ok.
open
preferences
repeat
thin
too
york
drink
free
monday
possible
problem
serve
.@@
916
cinemas
don
eat
information
soon
ticket
after
ahead
before
chinese
inspection
meat
r
schedule
sound
30am
bring
italian
outdoor
s
sacramento
thick
40
hot
little
location
menu
needs
nice
seafood
search
showtime
sold
stars
texted
veggie
average
awesome
choose
down
having
may
only
show
traffic
watch
whole
35
45
american
cancel
into
lights
located
lyft
off
rating
said
say
airport
around
bbq
booking
by
delivered
dinner
e
fair
great.
green
l
restaurants
sausage
who
works
30pm
aquaman
dishes
hear
house
iced
mind
needed
sent
text
2008
25
a@@
add
barbecue
c
caramel
few
gluten
mins
n
o
passengers
pizzeria
pool
reviews
six
spell
uberxl
able
actually
arrive
center
chain
chicago
described
device
estimate
full
morning
prefer
preference
star
sushi
theaters
thing
toppings
trying
16
again
bacon
bit
bj
here
honda
last
lunch
note
peppers
scheduled
stalling
steakhouse
uberx
.i
3@@
50
9@@
arden
area
cool
dining
dollars
each
either
hoping
indoor
later
mexican
nissan
offering
pilot
provide
showtimes
sit-down
soy
style
tall
unfortunately
you.
00pm
18
2011
2013
3d
7pm
appreciate
between
doesn
five
grande
k
m
mocha
model
onions
order.
rogue
seems
serving
standard
sure.
than
us
.did
8pm
booth
busy
casual
drop
ed
film
glass
goodbye
grill
lexus
list
live
oil
ordering
per
placed
plus
problems
repairs
same
sauce
send
thai
vehicle
wine
wonderful
wondering
x
you.@@
you.can
%
-@@
19th
2010
2015
8th
applied
care
change
characteristics
cinnamon
directed
duration
eatery
expensive
fast
fish
fresh
is.
japanese
la
latte
maybe
mechanical
mercedes
mins.did
moment.@@
olives
ordered
out.
over
purchase
select
south
subaru
these
towards
upscale
year
.do
350
afternoon
alita
angel
availability
beer
buffet
china
class
comes
done
heading
hope
imax
instead
international
it.@@
john
light
modern
outback
patio
person
places
priced
probably
reservations
review
s.@@
service
showings
sit
smith
space
way
were
12
55
additional
al@@
avenue
bay
be@@
benz
can.
categorize
cinemark
cold
contemporary
cuisine
directions
excellent
family
fantastic
hm
ing
inside
issue
kitchen
message
midtown
most
movies
north
playing
pretty
re@@
rest
rx
s.
seats
serves
set.
shared
status
submitted
t
that.
try
use
venti
you.i
zero
.and
2009
2@@
4.4
56@@
7@@
am@@
as@@
asap
available.
bmw
burgers
cafe
choice
close
confirmed
definitely
didn
different
espresso
everything
fully
garden
hour
jones
keeps
made
mary
michael
mood
mushrooms
opening
part
rated
reach
road
sandwiches
session
several
specific
square
texas
thinking
times
ts
under
week
white
...
.is
0
3.@@
30@@
34
4pm
52
5@@
6@@
accommodate
battle
best
black
buy
come
continue
course
cuz
d
denver
doing
downtown
drive
dropped
express
extensive
familiar
featuring
gluten-free
google
hello.@@
home
hotel
jeff
king
knoxville
leaking
mechanic
min
mins.do
moment.i
noise
orlando
outside
p
paesanos
park
parking
patxi
philadelphia
picking
quick
repair.
request
rpx
series
shops
somewhere
special
stylish
sun
t@@
third
though
thursday
tomatoes
total.
tune
views
war
waterfront
why
wines
y
&quot;
10pm
1@@
24.@@
32
39
45pm
54
6pm
accessible
added
alexander
allow
ap@@
appointment.@@
awesome.
b@@
based
beef
bu@@
c@@
captain
card
century
charge
chocolate
cinema
closer
code
completely
destination
epic
es
family-friendly
february
file
french
friends
g
golden
guess
ha@@
happy
hawaiian
hill
houston
idle
interested
jason
keep
las
lover
ly
marvel
mercedes-benz
momoa
options.
pennsylvania
pm.
poppins
popular
pub
put
range
rates
returns
roadhouse
room
s@@
salads
setting
shall
spider-man
spider-verse
stalls
steak
stuff
supreme
u@@
until
venue
waterbar
welcome.
whenever
&apos;@@
.does
.should
14
15pm
26
36
3pm
4.@@
40pm
42
45@@
50pm
5pm
7.@@
ac@@
accurate
alegrias
ambiance
americano
asian
at@@
availability.it
azul
back
bar@@
boulevard
br@@
brewhouse
broderick
buckhorn
c-class
canyon
checked
cheesecake
classic
co@@
coming
couple
court
creative
credit
crust.is
cup
d.@@
dine-in
dish
dried
drinks
drivers
drizzle
earliest
elegant
elevated
end
estimated
eta
evaluation
evening
example
features
fighting
finish
fixed
fun
good.@@
h
had
heard
hi.
high
hilton
hmm
hong
hours
ice
include
indian
inspection.
interior
isn
j
jack
jersey
kong
korean
left
lego
lepic
lift
liked
lincoln
looked
loud
macchiato
madison
makes
making
march
meal
might
mikuni
minute
mission
moment.the
mushroom
napoletana
o@@
okay.no
one.@@
outpost
oyster
people.
pier
pl@@
placed.
placing
plates
please.@@
read
real
reason
receive
red
rides
rock
romantic
rue
safe
seasons
seen
served
shopping
soonest
spanish
spelling
ta@@
tea
that.@@
thing.@@
things
tip
to.@@
tony
top
traditional
university
using
vegas
view
virginia
water
weekend
wife
within
wrong
y@@
you.are
you.one
yup
&apos;
&apos;am
.it
.the
.what
.which
.would
.you
05
10@@
11
12@@
15@@
15th
2-@@
21
25.@@
25pm
2pm
35@@
4.2
44@@
49
555-1212
555-555-5555
5th
7-@@
72
890
8@@
90
a.m.
ad@@
addres@@
affordable
alfredo
all@@
altogether
an@@
arriving
art
asking
assistance
ave
bad
because
being
better
beverages
big
boston
burger
byebye
caffè
cajun
call
campana
cappuccino
car@@
chair
charges
cheap
cheddar
clay
com@@
dallas
dayton
deep
delivery
dessert
details
din@@
dine
ding
earlier
east
en@@
engine
enough
er
es.
etc
f
f@@
far
fat
feta
fine.@@
fit
following
form
frank
gets
goes
group
h@@
hakkasan
half
he
headed
hearing
hills
ic@@
including
inner
its
local
los
lot
lovers.@@
lunas
ma
main
mean
mike
mint
moderately
mulvaney
museum
narrow
nearby
nice.
now.
now.@@
offer
okay.@@
onion
openings
ou@@
ozumo
p.m.@@
pad
pairs
pasta
payment
perbacco
pineapple
place.
plate
playground
pm.which
preferred
process
pull
purchased
quad
ranch
reciept
recommend
reserve
restaurant.@@
ro@@
sake
salad
scheduling
seasonal
seat
seem
selection
sf
shortly
skim
sometime
specifications
spot
star@@
station
steaks
still
sugar
sunset
sure.@@
t.@@
tables
tacos
terms
th
the@@
there.how
thin-crust
time.
ting
tly
topping
town
tuesday
turn
united
updates
usually
v
v@@
vanilla
vegan
vegetarian
village
wait
wheel
whip
yes.@@
yourself
&#124;
-style
.7@@
.can
.ok
11am
123
13
14.@@
18.@@
2019
21@@
22
2219
227-477-4546
23
24
25@@
30th
38
40@@
44
470-691-2141
48.@@
4th
5.@@
50@@
555
564-2114
57
570-1920
8-@@
8.45
805-555-3343
88
9.@@
921-2500
99
999-555-6669
99@@
a.m
age
air
akiko
almond
always
amarillo
anchor
and@@
angeles
anytime
appointment.just
ated
available@@
battlefield
bbq@@
bel
believe
benefits
berkeley
besides
bi@@
bohemian
bottom
brews
bridge
bridge@@
broccoli
brunch
brunswick
buffalo
bunch
caffe
calculate
californian
cantonese
characteristic
charleston
check@@
chef
classics
closes
closest
club
cobble
cocktails
coconut
complete
confirmation
confirmed.
contact
cook
cool.
coqueta
cor@@
criteria
cu@@
customer
d@@
date
days
de@@
depending
destination.did
detroit
device.anything
digs
dim
down@@
dress
dropoff
e.
e@@
eats
ed.
edwards
elephant
empire
ent@@
escape
exact
eye
factory
fancy
final
finding
fix
folie
formal
friendly
garlic
gave
getting
glad
good.
gr@@
grade
great.@@
grove
gu@@
ham
harris
hear.
helpful
heritage
hi.how
higher
hold
hopefully
i@@
ic
id
idea
il@@
illinois
immediate
inexpensive
info
ing.@@
inn
instructions
issues
it.and
it.what
l@@
lasalle
lax
leak
least
less
lively
lloyd
long.
lounge
love
manchester
maple
mare
market
massachusetts
matador
match
meatlovers
mentioned
metreon
michigan
mid-@@
minutes.
minutes.@@
minutes.do
moment.so
mon@@
muffler
must
no@@
nonfat
nopa
nothing
notified
now@@
nt
ok.@@
okay.and
okay.that
old
olive
ons
order@@
our
ous
overhe@@
oysters
panda
pastas
pe@@
people.is
perfect.@@
philly
phoenix
pick-up
pies
pizzas.
place.@@
pluto
pm.should
point
policy
portions
portland
pot
pricing
processed
pulling
quality
rd
relaxed
reminder
requests
rhapsody
ri@@
rich
ride.
right.@@
righty
road@@
rob
rutgers
s.did
salty
scale
scratch
sell
ses
shack
shake
shortbread
side
since
sotto
specialties
spicy
sport
stadium
stly
stop
stopped
story
student
sum
syrup
szechuan
t.
table.
taco
take-out
takeout
tasty
th@@
thanks.
then.@@
thing.
thought
through
till
tion
today.
today.@@
tom
trendy
tune-up
tur@@
up.@@
valet
ve
ve@@
w
w@@
waltham
welcome.have
west
western
wheelchair-accessible
wings
wisconsin
xd
y.@@
yeah.
zocalo
zoo
.78
.95
.9@@
.alright
.in
.okay
.so
0@@
10.
101
1111
11@@
12-@@
1212
123-456-7890
13@@
14.
14.33
17
19
1939
2.@@
2014
2055
20@@
20pm
215-576-3@@
215-65@@
215-740-737@@
22.@@
22@@
24.99
26.@@
281-330-8004
2nd
313-673-4855
31@@
33.@@
33.is
333
33@@
356
35pm
37
37.23
4-@@
4.
4.5
4.7
41
42@@
43
441-@@
447-4040
45.92
4@@
51@@
530@@
5386
555-123-456@@
555-143-2614
555-212-36@@
555-217-1356
555-217-38@@
555-666-1212
557-232-4465
56
570-1920@@
582-672-1234
59th
5a5
6-@@
6.@@
60
60@@
6212
65.9@@
6566
67
68.@@
6991
69@@
7-86@@
707
73@@
77
775-475-7433
8.@@
80
80@@
850
9-@@
9.
9.45
900
907
908-788-7@@
90@@
916-921-@@
916-@@
974
97@@
9am
a.@@
ab@@
acc@@
accept
acco@@
action
actual
ad
adama
adams
adler
adults
af@@
afterno@@
al
al-@@
alignment
alioto
almon@@
alongside
alright.@@
ance
ancho@@
and.@@
appoint@@
approximately
ar@@
arclight
are@@
arguello
arrival
art-@@
artisan
artists
ating
atlanta
atlantic
atmosphere
au@@
auth@@
av@@
avengers
aware
back@@
baltimore
battery
beach
beacon
beam
bell
belt
biba
bio@@
blin@@
blind
blonde
boat
booths
botan@@
breadsticks
brien
bright
bro@@
broadway
bulls
burritos
bustling
bye-bye
ca
calculating
cards
cast
center.@@
ces
ch@@
chambers
changed
charles
cheaper
cheese@@
chestnut
chick@@
cho@@
choices
chris
ciccia
cineplex
clas@@
closing
cloud
co
cole
color
colorado
comedy
comp@@
conditions
confirming
confirming.
continental
converted
correc@@
correct.@@
cotogna
counter
counter-serve
cozy
cra@@
creole
crispy
crust.
crust.@@
crust.did
ct
culinary
currently
d.i
da@@
daily
dan
dare
dave
david
day.great
dec@@
deep-dish
delicious.
depend
der
desired
destination.should
dev@@
device.did
devin
digital
digits
director
distrito
do.
do@@
doe
dolce
drama
dream
dresher
drop-off
e.@@
e.it
eas@@
ed.@@
ed@@
elsewhere
emailed
ens
ent
entire@@
entr@@
environment
ers
ess
even
every
ex@@
excited
experience
exterior
ey
ez
fa@@
fairly
family-@@
farms
fe@@
filled
fin@@
fino
fire
firehouse
fixing
focused
fog
food.@@
friend
front
ful@@
funeral
further
g@@
galleria
gardens
gate
gathered
ge
ge@@
ged
georgia
ger
glitzy
glu@@
go@@
gourmet
grab
great.i
great.thank
great@@
greek
greenway
grilled
grub
half.
hamburger
hamburgers
harbor
harrisburg
harrisonburg
hawaiin
he@@
hell
hello.
hello.i
help.
hi.@@
hi.i
hi@@
highway
hillstone
hip
his
historic
ho@@
hollywood
honey
horse
horseshoe-shaped
hospital
hour@@
however
huntington
i-35
ian
ideal
ie
immediately
imperial
in@@
includes
influenced
ing.
ingredi@@
ingredients
institution
intelligence
intimate
inventive
ipic
ise
it.let
it.yes
it@@
jalapenos
james
january
jazz
jim
joint
kers
kid
kiss
kitchen.@@
known
la@@
laid-back
lar@@
lat@@
late
le
legacy
lets
ley
li@@
lights.
like@@
link
liqu@@
list@@
ll
lo@@
loc@@
locale
logan
lompoc
long@@
lourdes
lovely
low
luna.@@
ly.
m.
ma@@
madea
major
mana
mandarin
margaritas
margerita
marketplace
maz@@
means.
meet
melvyn
ment.@@
mentions
mexquite
mic
mice
microphone
milk.is
mini
mins.
mis@@
mo@@
modates
moder@@
moment.
moment.it
moment.ok
moment.that
mount
much.
much.@@
mule
multi-course
music
myself
n@@
na@@
napa
national
ne@@
neapolitan
need@@
needing
neighborhood
nevada
nick
night
night.@@
no.
noises
noisy
noon
normal
now.you
nugget
oakdale
oakland
oakridge
offers
ok.what
ok@@
okay.all
okay.are
okay.can
okay.thank
oliv@@
omakase
on.
on.@@
on@@
once
option@@
oracle
orders
oregon
osso
over@@
owned
p.
pa
pacific
palmer
par@@
parker
particular@@
pay
peet
peets
people@@
pepperoni.one
per@@
pineapples
pizzeri@@
plan
plated
played
plaza
please.for
pool@@
portia
pping
pratt
pre@@
preferences.
preferences.@@
pric@@
princeton
problem.@@
produces
prussia
ps
pulls
puntz
purisima
purple
qu@@
quarters
quiet
quiet@@
r.p.
rapid
raw
rdx
re
received
recieve
recommended
relatively
remember
reno
restaurant.
rice
riding
right.
river
robert
rock@@
rockefeller
rodriguez
roger
rotating
ru@@
run
rustic-chic
rx350
s.got
s.ok
s.the
sa@@
said.@@
salmon
salted
sam
sausage@@
sbarro
sc@@
se.@@
se@@
sea@@
see.@@
serenity
setting.the
sha@@
shanghai
short
shouldn
showtimes.i
sig@@
signature
sing
sitting
sizes
skinny
slot
snacks
so@@
soaring
son
sooner
sort
sortment
sou@@
sourced
speakeasy
speci@@
specials
specif@@
spider@@
sports
st
st@@
starbucks.@@
start
steamed
steering
ster
stick
stop@@
store
strange
street@@
studio
submit
subst@@
sugar-free
suggestions
sunday
super
supplying
support
supposed
sure.when
sutter
sweet
sweet@@
swift
ta
table.@@
talking
tapas
tataki
tavern
te@@
ted
ten
teriyaki
thanks.@@
themed
ther
thick-crust
thing.what
ti@@
tiful
tile
tiny
to@@
today.sometime
ton
tonight.@@
tori
totally
towne
tra@@
traveling
trending
trouble
turning
turns
two@@
types
typically
u.
uberx.
uh
um
un@@
understan@@
understand
up-close
up.
upd@@
ure
valley
vers
versus
vi@@
vies
vine
wanna
wanting
warrington
washington
waterboy
waynesboro
we@@
website
week.
well.
whatever
wheelchair
who@@
wi-fi
william
won
wonderful.
worries
y-@@
y.
yeah.@@
yes.yes
you.4
you.and
you.did
you.do
you.for
you.their
you.what
you.yes
you@@
zeus
zip
’
+
-
-4@@
-7@@
-down
..
.00
.73
.79
.89
.that
.there
/
0-@@
000
00@@
07
10.@@
1000
108
11.
12.33
12.@@
123-456-7@@
13.@@
16@@
17.@@
18.44
19@@
1st
20.@@
201@@
202
202-456-@@
21.@@
215-57@@
22.79
23@@
24.
25.
28
28.@@
281-330-800@@
29
2h
2u
3-@@
3-series
300
30am.
30am.should
31
33
331
34.@@
36.@@
38.@@
4.1
4.50.
40-737@@
400
400@@
41@@
42.@@
44.@@
447-8646
456
469-9720
46@@
470-69@@
48@@
5-8
5-@@
54.@@
555-113-4249
555-113-424@@
555-11@@
555-123-4567
555-212-3614
555-217-13@@
555-@@
55@@
564-@@
58@@
59
601
63@@
649-@@
65.44.@@
65.@@
66@@
67@@
68
7-57@@
7-8646
70@@
74@@
76@@
789
81
85
850-2@@
850-@@
855
867-@@
87
89-4@@
89@@
9-97@@
908-788@@
908@@
916-44@@
92
921-@@
927-0@@
94@@
99.
a-@@
accom@@
according
ach
acura
adult
after@@
ah
ah.
air@@
alcohol
alegri@@
ali@@
all-you-can-eat
alle@@
aller@@
alley
ally
along
already
amber
americanos
anc@@
ange@@
ank
ant
any@@
anyone
anyway
anywhere
apologies
apple
appointment.
appointment.would
appointments
appreci@@
arab@@
ard@@
arizona
arn@@
arri@@
art@@
artist
assist@@
assistant
assuming
ast
asy
ate
ation
ations
austin
available.@@
aven@@
aw@@
awesome.@@
ay
bac@@
baked
band
barbecu@@
bas@@
basic
bble
be.@@
big@@
bigger
bistro
bites
blvd
board
bob
book@@
border
bot@@
bow@@
bre@@
breakfast
brew@@
brid@@
broad
broadstreet
broc@@
brown
bru@@
bs
buc@@
buffal@@
bul@@
bull@@
bummer
bummer.
bun@@
bur@@
cajun-@@
calexico
californi@@
canadian
canc@@
candlelit
cannot
capitol
car.@@
care@@
carolina
cars
casu@@
cathay
celebr@@
celebrated
cent@@
center@@
centra
centre
centrium
centry
certainly
cgv
cha
chan@@
chance
char@@
charac@@
chat
cheap@@
check.@@
checking
cheeseca@@
chi@@
chiarello
chicago@@
chika
chila
child
child-friendly
children
chill
choice.@@
choose.is
chris.parker
christmas
christopher
ciccia.@@
cinebistro
cinnabon
cinébistro
cke
clemen@@
clinton
close@@
coast
coca-colas
cockta@@
cocktail@@
coke
color@@
come@@
comfort
commerce
con@@
condition@@
confirming@@
connecticut
cool.@@
correctly
costs
coun@@
country
courtyard
coyotes
crescent
cruise
crust@@
crusts
cul@@
cur@@
cut
d-@@
d.
d.is
dates
day.@@
dc
de
death
del
del@@
deli
delicious
deluxe
den
des
descri@@
describe
description
desserts
desserts.@@
destin@@
destination.
destination.the
destination@@
deta@@
device.
devine
di@@
diagnostic
dick
dies
dig@@
diner
direc@@
directors
dis@@
discu@@
dished
dog
dolby
don@@
dormont
dos
downstairs
dr@@
dragon
driving
dropping
ds
dungen@@
dyke
ea@@
ear@@
early
eastroyce
eater@@
eating
eclectic
el
el@@
electrical
elk
elled
em@@
embarcader@@
emily
en.
enc@@
ence
end@@
ene
eni@@
enter@@
entire
entrees
envir@@
er@@
es.@@
es.i
es@@
espressos
essen@@
esspresso
est
establish@@
et
ets
everything.@@
evil
exactly
excel
excell@@
experienc@@
exposed-@@
expres@@
fac@@
fan
fang
fare.
fare@@
fas@@
fast-@@
fast.
featu@@
feeling
ffer@@
fi@@
fied
finalize
finos
fir@@
fire@@
fired
fisherman
fits
five-@@
fix@@
fla@@
flavor@@
flavors
fli@@
florida@@
flu@@
fo@@
focus
fol@@
food-@@
foods
for@@
form@@
four.@@
four@@
freddie
freddy
freshly
friday.@@
fried
fu@@
ful
funny
gar@@
garden.@@
garfield
garry
gary
gary.
gateway
genre
german
germantown
ges
gh@@
gi@@
giant
gic
gladly
glas@@
glen
glendale
goat
good.i
gracious
gran@@
granada
gre@@
greenbook
grill.@@
grill.in
ground
gs
guardia
gurnet
guys
ha
haddish
hagen
hang
hare
harr@@
hazelnut
head
headlights
headphones
heavy
heights
hel@@
hello.how
help.@@
help@@
hemsworth
hen@@
higgins
high-@@
highest
highly
hm.
hmmm
hoboken
holding.
home@@
homemade
house-made
house.@@
housemade
hu@@
huber
hunt
husband
hwy
i-40
ian@@
ic.@@
ical
ically
ications
ices
ich@@
ick
ick@@
ies
il
ilian@@
ill
illi@@
illin@@
ily
im
imagine
in-n-out
in.it
included
increase
indoors
industrial-chic
ine
informa@@
ing.i
ing@@
inghamton
ings
innovation
innovative
ins
inspec@@
inspect
institute
int
int@@
intellect
interest@@
iowa
ir@@
irish
is.@@
is@@
ish
ish@@
issu@@
it.alright
it.anything
it.did
it.ok
it.one
it.you
ite
ited
items
ities
ittle
itu@@
itute
jackson
jalapeno
jalapeno@@
jalapenos.@@
je@@
jer@@
jeremy
john@@
johnson
jones.
joynt
jr
ju@@
jude
k.
k@@
kara@@
karen
karyn
ke
ke@@
kent
kid-friendly
kids
kim
kin@@
kinds
king.how
kitsch@@
kris
l.
l.a.
lab@@
lakeshore
land@@
landmark
landon
lane
lanning
large@@
larson
lass
law@@
lc
le@@
led
lee
lef@@
lenox
ler
level
liam
life
lights.@@
like.
lin
lin@@
line
lit@@
live.@@
lla
look.@@
look@@
lovers.
lt
lunt
ly@@
m.@@
m@@
macchiatos
macchiatto
machiato
made.@@
maine
man
man@@
mandalay
manuel
mar@@
margherita
margot
marinara
mark@@
marketfair
massa
massachusetts.@@
matad@@
maximum
mayeda
mcclean
mccor@@
mccormick
mccoy
mcdonald
mcqueen
me.@@
me@@
meatlover
medi@@
mel
men@@
mention@@
mer@@
merced@@
merchant
mercury
message.would
metador
metn
metropolitan
mhm
mhm.@@
mick@@
mickanny
mickley
middlefield
mike.
mil@@
milk.and
milk@@
min.@@
min.you
min@@
miniat@@
mins.@@
minu@@
minutes.can
miranda
miscoi
mitchell
mobile.have
modate
moines
moment.okay
moment.please
moment.yes
morgan
morn@@
mountain
move
much@@
mud@@
multnomah
mus@@
mushroo@@
my@@
n.@@
names
nar@@
nashville
nathan
nau@@
nd
ne
neapolitan@@
nearest
neason
nei@@
neo@@
ner
ners
nevad@@
newark
ni@@
ning
no-frills
nopalito
northpark
noticed
notification
now.the
nut@@
ny
nyc
o-@@
o.@@
oc@@
of@@
oh@@
ohi@@
oil@@
ok.arden
ok.i
ok.you
okay.does
okay.i
okay.okay.
okay.yes
oke
ol@@
old-@@
on.how
one.and
ong
onion@@
online
opics
option.
or.
ored
organ@@
original
orize
os
os@@
ose@@
oth@@
own
p@@
pa@@
paella
paellas
paisano
palace
palmetto
park.p
parker.
parkland
parkway
parsley
particular
paso
pasta.the
pati@@
patio.
paweł
pawlikowski
paxton
pay@@
pear
pec@@
pen@@
penn
people.would
pepper@@
perbacco@@
perisichetti
persichetti
pete
peter
philip
phipps
phitheater
pic
pick@@
piedmont-influenced
pike
pikeway
pilot.
pine
ping
pinnacle
pioneer
pisto
pistos
pizanos
pizza.@@
pizza@@
pizzas@@
pla@@
plain
plainville
plan@@
plaz@@
pleasant
please.i
please.regal
pleasure
plebee
pm.@@
pm.can
pm.did
pm.do
pm.does
pm.is
pm.you
po@@
point@@
pointe
politan
poplar
popolo
por@@
porch
port.
posh
possible@@
pots
power
pr@@
preferably
preferences.i
prepa@@
pres@@
pret@@
pri@@
prices
private
problem.
proce@@
proceed
process.your
provi@@
provol@@
pti@@
pu@@
pub@@
pumpkin
pursuit
py
que@@
querello
quet@@
quite
r@@
ramsey
ratings
reasonable
recommen@@
referen@@
regency
reginald
regional
regu@@
ren@@
repair.@@
repair.appointment
repair.is
repair@@
repaired
report
reser@@
resort
restuarant
resu@@
rews
rick
ride@@
riders
rides@@
ried
ries
rio
ristorante
rit@@
riverside
riverview
road.in
rob@@
robat@@
robbie
roberto
rodney
rodrick
rodrigo
roid
rolls
roman
roman@@
roo@@
room.
room.@@
rothman
rou@@
row
rowhead
rows
ruby
running
runtime
ry
ryan
s.and
s.hello
s.is
sac@@
sacramen@@
sahara
samuel
sand@@
sandwich
sangria
saratoga
sardin@@
saru
sau@@
schedu@@
schind@@
school
schwarzenegger
se
sear@@
searching
seas@@
seat@@
seating.@@
second.@@
second.i
seeing
selec@@
selected
sen@@
ser@@
seri@@
services
services.@@
sessi@@
set.@@
setting.
setting.@@
setting.did
seven
sh
shakes
share
shead
sherry
sho@@
shortly.@@
shortly.did
show@@
showing.
showing.is
showtime@@
si@@
sides
silvercity
sim@@
similar
simpson
simpson@@
simpsons
siz@@
sl@@
slap@@
sley
smoothies
sn@@
soaked
soda
solu@@
some@@
son@@
soon.did
sorr@@
southington
southwest
spac@@
spaghetti
spe@@
speak
special@@
specialist
specialty
spice
spirit@@
spit-roasted
splas@@
split
spo@@
ss
st.
sta@@
stake
staples
starbuc@@
starbucks.the
stars.@@
started
stat@@
state
stations
ste@@
stea@@
steak@@
steam
stephen
ster@@
sti@@
stic
stonefield
stooges
stops
stre@@
street.
su@@
sub@@
sun@@
sundays
sure.how
sure.looks
sure.uber
sure.where
sure@@
surf
sustain@@
suv
swamp
sy
syrups
t.can
t.walker@@
tab@@
table@@
taco@@
taken
tal@@
tall@@
talula
taxi
te
te.@@
teas
tele@@
tely
temperat@@
temple
tennessee
tequila-@@
ter
terminator
tes
tex@@
thai@@
that.how
that.i
that.please
that.what
thats
the.@@
theat@@
theatre
theatres
them.@@
ther@@
there.
there.@@
thin@@
thurs@@
tic
tic@@
tickets.@@
tie
ties
tiffany
tim
time.@@
time@@
tinseltown
tinsletown
tion.
tion.the
tions
tiramisu
tl@@
to.i
tomato@@
tommy
tomorrow.@@
tomorrow@@
tonight.
tonight.can
tonight.do
top@@
topp@@
tori.
tors
torti@@
total@@
toward
township
tr@@
train
tran@@
trattoria
tren@@
tululu
tuneup
turned
twist
twist@@
ty
typical
ubers
uberxl@@
ue
uld
ulé@@
um@@
under@@
underdog
union
unique
up.do
up.you
update
upside
upstairs
ura
urban
uring
usa
valencia
value
van
vari@@
ved
vegas@@
vegg@@
vel
ven
venti@@
ver
ver@@
verage
verages
verse
version
vibe
vibe.i
vice
vin@@
ving
vis@@
vol@@
vor
wagyu
waiting
waived
wal@@
walker
wan
wan@@
wants
ward
warm
was@@
watching
way.
way.@@
ways
weburger
week.is
week@@
welcome.@@
well@@
went
wer
wery
wes
whats
which@@
whichever
wide
wilson
win
win@@
windsor
wines.@@
winnsboro
without
wn@@
wonderful@@
woo@@
wood-fired
woodber@@
working
wr@@
ws
x.
xl.
xl@@
xll
ye@@
yeah@@
yelp
yep.
yes.yeah
ying
you.it
you.ok
you.so
you.unfortunately
your-own
youu
ys
z
z@@
zel@@
zer@@
zero.@@
zingari
zokulu
zumbo
–
