.
concat
&gt;
&lt;
,
?
sie
you
i
ich
the
in
to
das
that
for
a
ist
and
okay
und
für
is
it
ok
:
die
your
es
&apos;s
can
ja
like
at
what
wie
kann
der
be
!
eine
uhr
how
einen
hallo
have
me
ihnen
an
of
want
yes
$
with
would
help
mit
um
do
ein
will
was
great
hi
möchten
need
haben
sure
one
so
ihre
helfen
did
bitte
order
tickets
are
restaurant
00
habe
2
möchte
von
there
heute
auto
please
mir
all
zu
on
thank
termin
bei
they
let
wird
auf
mich
den
&apos;ll
lassen
appointment
richtig
können
anything
no
uber
yeah
got
ordnung
sind
else
noch
30
dank
up
&apos;m
sein
nein
book
right
vielen
pizza
gerne
get
also
sicher
pizzas
alles
ihr
8
name
oder
moment
welche
gut
or
etwas
im
1
pizzen
from
correct
werden
movie
my
number
bella
this
bestellen
großartig
sich
starbucks
ihren
3
s
minuten
good
luna
people
car
dass
today
4
bestellung
film
verstanden
am
intelligent
see
as
when
&apos;d
abend
nach
danke
where
als
go
9
21
imports
has
about
5
tonight
buchen
&amp;
any
&apos;
fahrt
place
take
essen
san
20
time
phone
make
&apos;re
89
wann
personen
street
two
now
hat
extra
10
gibt
wir
could
wo
food
15
jetzt
telefonnummer
&apos;ve
many
zwei
xl
pick
nur
viele
nicht
francisco
klar
ride
werde
just
if
sehen
looking
know
ready
booked
wollen
wäre
total
zum
dem
wollten
7
6
war
geben
available
problem
we
super
aus
art
tag
should
hello
does
wenn
out
reservation
milk
alright
much
bar
diese
soll
minutes
einem
p.m.
bin
reservierung
fine
crust
muss
mall
brauche
thanks
next
showing
kind
behilflich
not
morgen
toll
kruste
&apos;t
19
day
sounds
suche
which
auch
some
lautet
but
brauchen
18
find
new
going
shop
chicken
wissen
work
u
sorry
them
gebucht
lyft
perfekt
amc
perfect
both
set
40
würde
r
e
other
vereinbaren
sonst
könnten
geht
nummer
per
guten
check
oh
t
looks
beide
hätte
tomorrow
aber
zur
their
enjoy
.@@
hilfe
pickup
found
mein
)
cost
sieht
fee
type
dann
medium
(
sacramento
california
l
first
16
lovers
andere
gern
cheese
give
alle
city
three
916
more
ihrer
“
fertig
grande
very
ob
tell
möglich
coffee
anderem
theater
vorstellung
35
einer
o
kosten
regal
subaru
drei
ihrem
zeit
uns
„
outback
kein
look
restaurants
käse
machen
welcher
des
irgendetwas
you.thank
driver
option
ort
abholen
leute
cinemas
namen
john
2010
hey
bbq
klingt
nissan
four
confirm
inspection
pepperoni
kaffee
second
kalifornien
45
bmw
veggie
repair
25
trip
abgeholt
rogue
vier
awesome
mobile
small
well
long
address
gefunden
30am
adresse
fahrer
welches
natürlich
bekommen
been
welcome
table
vom
dank.vielen
glass
ticket
gehen
tut
pm
meine
size
genießen
assist
hört
nächste
cream
nope
welchen
optionen
think
monday
regular
those
while
york
keine
uberxl
finden
viel
schedule
%
würden
schlagsahne
party
latte
smith
said
large
options
then
-@@
größe
nähe
pool
kleine
diesen
sollte
whipped
show
er
22
sagen
kino
tisch
don
geschehen
another
welchem
cool
meat
picked
receipt
b
paar
price
n
soon
2009
vor
bye
bis
2011
während
über
seating
drink
off
verfügbar
17
yep
denke
gruppe
kostet
venti
suchen
14
friday
quittung
9pm
schönen
reparatur
schnell
pizzeria
spell
possible
abholung
location
milch
oil
tun
bestätigen
before
leid
peperoni
werkstatt
dauert
gute
sehr
montag
via
große
m
nice
freitag
honda
nächsten
mittelgroße
eat
fare
anderen
summe
grill
passt
sms
only
thick
pilot
sent
hätten
center
wiederholen
hot
lange
repeat
fair
thin
near
x
.i
arden
bringen
wurde
iced
dort
ansehen
entschuldigung
uberx
road
dieser
lights
mehr
outdoor
irgendwelche
way
freien
airport
barbecue
aquaman
bring
wollte
having
imax
menu
standard
buche
bereit
50
stars
2013
ihres
reviews
weiß
wohin
ihn
beträgt
something
&quot;
beim
mocha
really
müssen
mobilgerät
getränk
da
unter
okay.@@
womit
erhalten
green
wünsche
too
2008
texas
watch
buchstabieren
zweite
thing
may
north
traffic
morning
free
benötigen
reservieren
en
whole
wanted
.ich
gesagt
gesamtsumme
gebühr
open
rating
preferences
sausage
ungefähr
erste
add
shared
tschüss
stadt
c
chinese
repairs
last
weitere
note
italian
k
hear
ahead
serve
stimmt
lexus
black
korrekt
philadelphia
bewertungen
man
by
inspektionsgebühr
damit
choose
located
texted
drop
fahrzeug
fahren
an@@
placed
showtime
into
actually
d
toppings
person
p.m
p
midtown
google
j
lunch
down
mag
model
bj
moment.@@
3d
booking
befindet
wiedersehen
überprüfen
house
status
south
nehmen
sound
after
könnte
weiterhelfen
garden
eines
say
kürze
passengers
t@@
vehicle
search
aufgegeben
preis
darf
350
passagiere
dollars
19th
who
probleme
around
55
chicago
sitzgelegenheiten
dollar
text
preference
karten
diesem
rest
be@@
leider
einmal
rated
sold
bietet
wirklich
aufgeben
2015
rx
mittagessen
prefer
erfahren
jeff
ver@@
dauern
scheduled
beachten
mind
five
arrive
serviert
bacon
wunderbar
bewertung
vollmilch
average
information
ok.
inspektion
theaters
nehme
dies
doe
buffet
er@@
either
anderes
wurst
caramel
s@@
gluten
informationen
dicker
seafood
delivered
boston
hoping
30pm
described
jack
six
prima
los
live
stehen
ausverkauft
stalling
dinner
wer
scheint
avenue
hinzufügen
mins
sternen
cancel
platz
dabei
device
cafe
jedoch
abholbereit
12
macht
works
passen
bald
mike
details
ausgebucht
lover
booth
duration
afternoon
sagten
century
unfortunately
s.
h
g
full
handy
needs
jones
bewertet
vorführung
modell
drive
freie
again
little
abendessen
special
en@@
meinen
service
st@@
3er
towards
ein@@
cinema
7pm
fast
steakhouse
bräuchten
beläge
express
you.@@
sushi
pro
...
needed
care
hatte
beiden
fleischliebhaber
each
13
seems
einkaufszentrum
called
area
sechs
verfügbarkeit
bestätigung
einfach
dankvielen
kaufen
t.@@
sit-down
provide
nun
la
spaß
mal
mögen
issue
küche
international
maybe
bevorzugen
zu@@
characteristics
dining
sehe
golden
additional
angerechnet
star
wine
appreciate
china
us
series
thinking
mercedes
2014
cappuccino
james
tall
shopping
re@@
applied
etwa
ten
problems
einige
fünf
24
wünschen
directed
main
dog
soy
zwischen
h@@
lincoln
te
dafür
-
it.@@
estimate
mechanic
american
f@@
over
family
hatten
sauce
availability
change
categorize
confirmed
alita
send
mercedes-benz
termins
eta
tune
8th
gehofft
angel
flughafen
vor@@
bitte.@@
houston
few
trying
kinokarten
colorado
buchung
pennsylvania
vorstellungen
same
meiner
ge@@
hotel
purchase
o@@
you.can
speisekarte
bestätigt
e@@
geöffnet
y
denver
burger
mins.did
west
verstanden.@@
hier
warten
perbacco
autos
showtimes
später
vorlieben
bit
left
dünne
genial
123
servieren
here
try
heiß
k@@
öl
acura
you.i
funktioniert
park
ed
00pm
normale
sitzen
between
why
please.@@
f
mary
liefern
thai
las
later
ab
doesn
nachnamen
beschrieben
most
reparaturkosten
schon
espresso
harbor
bestellt
.und
betragen
bay
gesendet
hören
sch@@
c@@
u@@
mexican
bleibt
indoor
glutenfreie
ordering
.and
probably
dünner
in@@
hawaiian
se@@
white
year
vielleicht
befinden
sein.@@
heiße
vegas
buckhorn
hawaii
jason
wegbeschreibung
meinem
woche
leaking
wonderful
downtown
baujahr
wären
kitchen
links
februar
a@@
l@@
dieses
.the
list
directions
preise
february
help.thank
bestellen.ich
best
g@@
kommen
pretty
excellent
un@@
mitteilen
ölleck
shops
ab@@
c-klasse
japanese
warum
stornieren
come
done
vorbeibringen
week
telefon
home
8pm
spider-man
sowie
rdx
heading
sollen
than
bieten
boulevard
bevor
11
steak
happy
d@@
en.@@
showings
hoffe
immer
heißen
much.thank
times
davon
reach
beer
dicke
playing
funktionieren
zweiten
ersten
these
gegen
wahrscheinlich
verstehe
ganz
vanilla
besten
52
nachsehen
sinn
wartung
steht
fortfahren
battle
versuche
safe
comes
fahrers
able
555
close
gen
uhrzeit
laden
lane
plätze
frank
gesamtbetrag
erreichen
zeiten
le@@
hope
min
ziemlich
seats
lego
picking
vornehmen
zieht
keeps
s.@@
nennen
put
engine
eigentlich
spielt
fun
room
sit
aus@@
light
geräusch
m@@
kinos
glaube
e.@@
captain
estimated
offer
were
appointment.@@
mechaniker
turn
poppins
reparieren
mikuni
gerichte
under
ordered
zwiebeln
.did
accommodate
sache
supreme
marke
noise
wondering
ch@@
auf@@
sojamilch
hm
.ist
oliven
buchstabiert
olives
8.
früh
night
insgesamt
i@@
fand
leak
chain
kommt
45pm
priced
cinnamon
meeresfrüchte
abholort
inside
ok.@@
bier
dishes
busy
mokka
tom
sandwiches
arizona
cuisine
.möchten
station
updates
piatti
terms
wurden
verfügbare
ausgezeichnet
0
4.4
cinemark
reason
use
bob
sotto
hühnchen
hour
mare
zero
submitted
drinnen
buffalo
333
king
italienisches
half
langen
cotogna
macchiato
please.i
abholt
meal
united
lot
frei
opening
geschäft
cold
select
local
ent@@
26
mission
voll
jahr
w@@
ist.@@
r@@
part
that.@@
course
knoxville
rides
heißt
square
fresh
making
florida
1@@
schön
grund
marvel
planen
4,@@
beläuft
code
onions
ge
paesanos
assistance
gluten-free
großen
added
54
ankommen
hill
definitely
chinesisches
returns
gedreht
42
sterne
roadhouse
plus
fish
different
hmm
moment.i
western
illinois
dropped
15pm
dachte
fahrpreis
hills
tomaten
saigon
zusätzlichen
seasons
ziel
6pm
sollten
request
lichter
reise
en.ich
casual
guess
läuft
asap
durchschnittspreis
drivers
stellen
class
continue
available.@@
mushrooms
expensive
raum
mechanical
denn
tomatoes
cool.@@
wählen
goes
4th
high
nichts
555-555-5555
serving
uhr.@@
derzeit
n@@
nathan
logan
state
pier
mitnehmen
miss
serenity
east
drauf
40pm
tune-up
fighting
oakland
momoa
olive
99
ankunftszeit
de@@
ordung
z@@
almond
4pm
michael
gleichfalls
kid
es.@@
escape
abgesetzt
glutenfreier
americano
gerade
namens
w
benz
charge
metreon
fahrten
choice
good.@@
ar@@
verfügung
everything
verkehr
th@@
several
auswählen
ing
al@@
kalt
serves
abgeschickt
quick
zusätzliche
nee
stadium
one.@@
shall
heard
burgers
waterfront
39
werden.@@
now.@@
lokal
normalen
somewhere
mechanische
brewhouse
entscheiden
t.ich
style
8.30
madison
portland
ter
moline
soonest
peppers
nochmal
university
gemacht
mandelmilch
wahl
b@@
genau
123-456-7890
info
karte
club
darüber
anbietet
epic
.das
dallas
joey
ca
spider-verse
111-222-3333
ange@@
selbstverständlich
appetit
38
at@@
review
blick
hollywood
parking
groß
michigan
2@@
au@@
dauer
store
ampeln
stalls
looked
jim
view
fully
isches
wrong
auto@@
dragon
bestellen.@@
.is
makes
ave
it.i
within
gefragt
gegend
15.
french
buchen.@@
bescheid
fantastic
fragen
merkmale
ins
speck
-pizza
el@@
instead
town
bestelle
darauf
mood
problem.@@
rpx
m.
because
ere
.it
depending
couple
gut.@@
ranch
specific
artists
idle
village
oyster
ted
sam
v
gedacht
ice
.okay
st
scheduling
factory
whenever
5pm
ne@@
hilfe.vielen
massachusetts
boy
angeles
harris
patxi
hilton
confirming
prüfen
irgendwo
broderick
cocktails
9@@
fen
cheap
waterbar
horsham
aufnehmen
tacos
p.m.@@
spaghetti
ische
flint
up.@@
gutes
.die
hours
4,4
virginia
allow
jersey
versuchen
extensive
ro@@
fat
gehe
david
liegt
old
am@@
fantastisch
ohne
urban
okay.okay.
21.00
goodbye
weil
vollständigen
eatery
überprüfen.es
überprüfen.@@
nothing
offering
p@@
zusätzlichem
nach@@
ma@@
pm.@@
dine-in
spielzeiten
montagmorgen
ly
v@@
23
bitte.ich
finden.ich
verrechnet
places
ampel
weinkarte
auswahl
kauf
neuen
kriterien
80
ja.@@
reparaturen
so@@
closer
ischer
doing
lang
nachmittag
sten
services
denen
geräusche
höhe
prices
vegan
,@@
made
mins.do
hallo.@@
meatlovers
co@@
ts
oracle
10pm
präferenz
wein
bisschen
36
affordable
5@@
vinoteca
santa
24.@@
leerlauf
früheste
ananas
tatsächlich
pizza.@@
holen
ja.ja.
caffè
court
phoenix
lepic
rue
lich@@
mitfahrgelegenheit
tori
kong
el
getränke
fort
card
märz
tr@@
ölwechsel
15th
sofort
rechnung
march
erzählen
.soll
online
earliest
message
ti@@
and@@
museum
however
.sie
azul
de
schönes
fall
voraussichtliche
ung
space
fix
pasta
wait
pot
hong
boden
ändern
y.@@
file
fine.@@
preis@@
ho@@
waterboy
.in
destination
eins
großer
mittlere
liegen
gut.das
ambiente
jalapenos
meines
buchen.ich
klare
br@@
right.@@
besuchen
eintrittskarten
chinesisch
cuz
wer@@
as@@
pilzen
ste
highway
innenstadt
still
films
05
2pm
d.@@
.you
reservations
me@@
zimt
.do
an.@@
zusammen
geliefert
normal
tages
mushroom
mean
end
riders
slanted
love
sitzplätze
ah
stunde
burma
dankeschön
pad
questions
lux
curry
draußen
tung
on@@
policy
field
or@@
squeeze
abgeben
.es
456
bezug
lake
miami
ozumo
theatre
fahre
lauten
villa
krusten
buy
kindermenü
stattdessen
deep
outside
cup
minute
y@@
all@@
cheesecake
mit@@
10@@
shortbread
eats
greek
teriyaki
anfordern
baltimore
paisano
sun
xd
allen
34
2019
schätzen
sa@@
market
ich@@
28
drizzle
sunflower
rock
star@@
nachname
indianapolis
penn
canyon
mums
1.
5-8
entweder
da@@
mark
sports
call
angeben
vice
tavern
third
movies
beach
empire
vegetarische
yup
keep
korean
burritos
gebraucht
back
zeitpunkt
seen
laut
erledigt
pulls
venue
se
sicher.@@
stunden
zocalo
3pm
nutzen
ordnung.@@
accurate
gleichen
di@@
sf
la@@
hauptrolle
ger
kette
einrichten
evening
range
je
hello.@@
zugestellt
hälfte
kritiken
geschätzte
friends
alles.das
popular
features
it.that
falls
bro@@
criteria
dish
weiter
wofür
40@@
champignons
mehrere
rates
date
ad@@
kann.@@
grillhähnchen
zeigt
tea
people.@@
kids
byebye
kruste.@@
zuerst
.would
wiedersehen.auf
menü
suggestions
finden.@@
motor
teil
magermilch
maryland
sind.@@
.ja
waren
yes.@@
eisgekühlt
ha@@
caffe
bestimmte
salads
fixed
durchschnittliche
didn
termine
25.@@
gezeigt
it.let
preferred
then.@@
na
pineapple
her@@
schinken
romantic
näher
the@@
frischen
family-friendly
jederzeit
peets
teuer
example
recommend
isn
delivery
dritte
fahrerstatus
300
sie.@@
anscheinend
ist.es
zugeschickt.kann
zugesandt.kann
ben
spritzer
pulling
kategorisiere
und@@
spelling
kommen@@
4.5
es@@
a.m.
started
wieviele
complete
ri@@
no@@
detroit
you.are
außerdem
dayton
der@@
sobald
50pm
honey
gerichten
process
war@@
it.and
barbara
gogi
tickets.@@
kogi
onion
napoletana
ganze
minuten.@@
until
termin@@
galleria
unterwegs
coconut
klein
credit
modern
tarif
tes
pay
jeden
amerikanisches
kinderfreundlich
eigenschaften
koja
session
hin@@
entfernt
tion
empfehlen
bridge
intelligence
patio
terrasse
3@@
ck
zahlung
dank@@
braucht
ac@@
benachrichtigt
sure.@@
tischecke
door
18.@@
imports.i
assistant
luna.i
minutes.@@
freund
matador
grove
evaluation
ausprobieren
glutenfrei
reciept
grade
arrival
sekunde
italienische
tschüss.tschüss.
beverages
müsste
drinks
beispiel
gesucht
benötigten
dessert
placing
-pizzen
eren
schauen
pub
death
innerhalb
benötigt
hallo.ich
firestone
klasse
civic
train
alexander
closest
dorthin
möglichkeiten
yo
2.@@
welcome.have
reservierungen
views
ham
88
35pm
jalapeños
standort
großes
ca.
ed@@
wings
syrup
gäbe
48
kurz
end@@
sicher@@
goodbye.goodbye.
1st
ambiance
lunas
side
45@@
.so
orlando
bad
30@@
hi@@
moderately
erwachsene
eintreffen
men@@
60
normaler
haus
.that
restauranteigenschaften
device.@@
lovers.@@
ta@@
besser
hoch
quad
honig
hin
281-330-8004
that.i
using
ä@@
skim
car@@
paprika
stadtteil
being
senden
vorbei
25pm
cheese@@
narrow
mills
einstufen
big
daran
gebracht
sitting
availability.it
beef
halb
örtlichen
gebucht.@@
besorgen
12@@
se.@@
friendly
chocolate
asian
thanks.thanks.
klar.@@
red
issues
traditional
chen
restaurantmerkmale
time.@@
bye.bye.
fit
benefits
fine.that
c-class
top
ap@@
eher
higher
upside
mon@@
moment.ich
anchor
folie
li@@
seven
s.i
notified
gratiot
jose
panda
44
include
lich
pa
gets
sterne-bewertung
susan
nashville
regisseur
washington
contact
pm.which
bartlow
um@@
abzuholen
tony
philly
mint
abenteuer
neue
unglaublichen
school
machiatto
elephant
akiko
inventive
joseph
birchwood
aware
spice
pumpkin
thursday
culver
nopa
january
ma
arena
shortly.@@
automodell
par@@
bar@@
75
shortly
danke.@@
charleston
see.@@
rutgers
shyamalan
ischen
kevin
manchester
henry
coming
larry
wunderbaren
welcome.@@
studio
neu@@
interested
est
contemporary
topping
read
zoo
gehört
bekannt
schließen
sarah
20pm
bar-b-que
schließt
bohemian
rhapsody
daniels
rob
public
plaza
heritage
richtige
to@@
dominick
nevada
hunan
autowerkstatt
brunswick
a.@@
air
+
415-732-9973
charlotte
carolina
rich
8.@@
id
33
days
setting
pilze
raw
baby
ausgestattete
ing.@@
suchen.ich
we@@
e-@@
lift
mano
ipic
januar
berkeley
215
peet
sp@@
885
might
geschehen.ich
kathy
wor@@
playground
belag
william
erlaubt
had
90
bar.@@
ryan
getting
waltham
preisspanne
wagen
it.what
ers
beschäftigt
.can
checked
whip
fahr@@
lust
arielle
closes
pick-up
exactly
sehen.@@
arriving
show@@
lieferung
geteilte
3.@@
edwards
.ok
en.es
fiery
gendreau
letzte
reservier@@
min@@
453
lieber
;
vereinbaren.ich
dale
already
restaurant.@@
alfredo
cineplex
featuring
billig
me.@@
uhr@@
finding
890
32
cheddar
36,@@
umfangreiche
tet
much.@@
4,50
ok@@
qu@@
gefunden.@@
bereits
lo@@
ak@@
erhoben
spot
k.@@
umfangreichen
ste@@
fa@@
things
friend
bereit@@
speisen
liste
out.@@
den@@
vorstellungszeit
familiar
openings
wheel
x@@
payment
sternebewertung
great.@@
atmosphäre
ent
20@@
donnerstag
schätze
asking
selected
4.50
meisten
4.@@
accessible
kleinen
springs
zugeschickt
ting
gleich
nacht
isch@@
din@@
seasonal
needing
fisch
72
blockiert
upscale
af@@
vereinbart
gefällt
21.
us-dollar
valley
ähnliches
buche.@@
cannot
kl@@
delicious
gebucht.ich
e.i
completely
ger@@
good.that
moment.the
won
mentioned
kenne
fe@@
komme
bryant
pizz@@
crust.@@
em
bestell@@
yes.yes.
36.@@
stadion
too.you
wunsch
gen@@
hamburger
japanisch
gefallen
blvd
director
clay
lax
ur
salate
he@@
correct.@@
though
erst
it@@
&apos;@@
jede
headed
mai
tren@@
47
lively
zucker
wen@@
bereich
woher
orten
#
ten@@
deshalb
suchen.@@
gh@@
&#124;
tampa
parkplätze
starbucks.@@
auge
gemein@@
standard@@
wednesday
&apos;am
center.@@
okay.okay
maximal
33.@@
26.@@
einzige
stuff
talula
3,@@
ball
broly
souvla
14.33
spät
21st
ic@@
servicegebühr
ing@@
su@@
erlauben
sizes
jeweils
wines
rate
ampelphasen
fahrtart
227-477-4546
liches
purchased
1212
own
beste
gekauft
night.@@
gt.@@
1939
chinesische
präferenzen
italienisch
film@@
okay.no
belegt
mittelgroß
größen
immediate
real
921-2500
.should
gi@@
filme
ell
thing.@@
regency
zwiebel
abhängig
order@@
uhr.passt
13.@@
bereit.@@
cken
pm.do
feta
48.@@
gab
pricing
lounge
tuneup
18.30
gt
trouble
erschwinglich
notieren
cu@@
pe@@
weitermachen
today.@@
parkplatz
battlefield
ern
straße
könn@@
since
trinkgeld
arbeit
wanting
21.@@
tuesday
sirup
weinen
mexikanisches
anzusehen
sichere
karamell
annehmen
california.i
go@@
si@@
peperoni-pizzen
nische
set.you
ell@@
minutes.do
laufzeit
trinken
möglicherweise
mexikanische
e.
gs@@
specials
moder@@
che@@
56
tip
least
555-1212
angezeigt
ungefähre
gleiche
hähnchen
similar
shake
anytime
shack
there.how
gesendet.brauchen
is@@
ö@@
moment.it
desired
addiert
keinen
following
entschuldigen
chando
steve
t.brauchen
mittwoch
superstar
do@@
564-2114
madea
dos
benötige
funeral
personen.@@
brim
ens
parker
bucht
greenbook
amarillo
abholadresse
ung.@@
sowohl
ur@@
sure.what
cobble
tageszeit
milchpräferenz
normalerweise
dienstag
abzu@@
eingrenzen
bistro
stil
harbour
dank.@@
deren
belt
ausmachen
k.
te@@
ser@@
wegen
s.and
geplant
mittlerer
wood
brauchte
ankunft
bel
vorschläge
verfügbar@@
hallo.womit
sicherstellen
guter
sen
company
far
jemand
internationalen
gesendet.@@
desserts
4.3
tig
machen.@@
devin
ag@@
asiatisches
4,2
55pm
wasser
meinten
klappen
folgendes
till
ungen
7@@
selection
h.
9.
sms.@@
bummer
zen
ck@@
bestimmtes
14.
sitzplätzen
entsprechen
ellen
karamell-@@
wei@@
ende
food.@@
finish
durchschnittlichen
working
vi@@
elegant
sometime
chinesischen
4.
ch
00@@
gesamtpreis
sehen.ich
ru@@
schicken
teilen
m.@@
umgebung
abholen.@@
keinem
hallowomit
abbiege
crust@@
verwenden
ist.ich
frau
.vielen
fahrgemeinschaft
amerikanische
abbiegen
n.@@
30am@@
seat
irgendwie
water
richtig.@@
lecker
lan@@
dar@@
570-1920
kalifornien.ich
men
lau@@
schlecht
moment.es
ier@@
second.@@
separate
danach
anbietet.@@
15.00
royal
untersuchen
row
campana
dine
alright.@@
festgelegt
dinge
share
ges
late
grab
thanks.@@
yourself
datum
..
takeout
voraussichtlich
inspect
fügen
ieren
4.2
natürlich.@@
salted
vegetarian
5th
thats
counter-serve
pull
tische
mo@@
pa@@
grill@@
nett
room.@@
ally
its
children
earlier
habs
charges
quiet
ne
zeigen
hähnchen@@
stop
ert
orte
2nd
seem
yeah.yeah.
bbq@@
68
roger
324
sunset
jess
through
speziellen
brau@@
inner
reserve
555-143-2614
abge@@
peter
ke
rec@@
steaks
skinny
11am
pairs
portionen
alioto
447-8646
vanille
.brauchen
fisherman
bevorzugte
perfect.@@
college
portia
37.23
ch.@@
pork
zutaten
9.45
falsch
merced
ou@@
chris
pratt
fre@@
robert
das@@
rodriguez
lat@@
windsor
wal@@
bunch
abholbereit.brauchen
denken
warrington
paprikaschoten
sake
2020
outpost
moment.das
557-232-4465
intellect
palmer
mkay
favorite
blues
interior
tasty
oakridge
billiger
national
whatever
regel
website
courtyard
szechuan
exterior
italienischen
lun@@
samuel
89@@
moment.please
nachmittags
sitzplatz
specialist
prussia
saturday
eisgekühlten
americanos
321
210
digital
extras
850
freue
hol@@
ungs@@
brokkoli
kinder@@
999-555-6669
14.@@
union
dressing
lyft.@@
durchgeführt
mililani
lynn
kalifornische
richtig.das
6.7
7.@@
vorwahl
20.@@
70@@
budget
215-884-2048
danke.danke.
crystal
amber
brook
bowling
zielort
walnut
vernick
altogether
seite
prüfen.@@
schaf@@
1317-929-7813
ab.möchten
gen.ich
9.@@
odeon
springdale
mabry
moment.okay
scratch
requests
helfen.@@
moment.ok
ramirez
115-150-1246
calculate
stanley
frisch
devonshire
mule
100
nimmt
melvyn
klar@@
ü@@
verstanden.und
i-35
pizzas@@
table.@@
schn@@
fog
hi.how
1050
ja.
tequila
50@@
mexico
alamos
22.@@
classic
ad
gr@@
guys
555-555-1210
hanover
jingle
castleton
518-850-2950
subs
coyote
gate
approximately
fällt
57
prü@@
schwarzen
abholzeit
processed
rapid
33,@@
e-mail
91
anfrage
her
soweit
understand
halte
805-555-3343
555-123-4567
sofortige
instructions
irgendeine
sau@@
austin
receive
message@@
dropoff
chen.@@
abbrechen
swift
gehen.@@
abholbereit.es
brunch
ubers
margaritas
bestätige
based
cor@@
final
bezüglich
karamell-macchiato
tu@@
wars
huntington
noticed
you.what
specifications
alignment
bottom
37
ing.i
steering
macchiatos
582-672-1234
x.
morgen.@@
riverview
gebucht.benötigen
nugget
es.i
actual
chambers
775-475-7433
bor@@
lets
400
well@@
street.@@
harrisonburg
legacy
abholbereit.@@
knoblauch
jeremy
folgenden
me.i
tickets.i
moment.so
würgt
typ
nearby
includes
9th
6566
beacon
einplanen
formal
noises
ely
tran@@
frischem
characteristic
imperial
vers
.which
saisonalen
types
mahlzeit
now.i
set.@@
abgesehen
mhm
speci@@
broadstreet
dave
555-666-1212
stylish
purisima
californian
lompoc
ic
lasalle
cole
anfangen
offene
fr@@
überhaupt
789
crust.is
wheelchair
hell
18,@@
avengers
angeschaut
atlanta
margerita
normales
kundenverkehr
anyone
including
maine
day.@@
sahne
riding
ene
31
christopher
landon
harrisburg
hakkasan
unten
salad
907
verfügbaren
river
.does
soja
ft
broccoli
gewünschten
creative
customer
legen
dünnem
hinzu
shanghai
re
georgia
mandarin
eye
kan@@
vorliebe
isch
weekend
dresher
43
101
chestnut
glad
emailed
slot
there.@@
moment.die
ish
typically
e.and
continental
sein.brauchen
fleisch
pluto
laufen
pl@@
blind
höre
vor-
broadway
termin.@@
nearest
ratings
geschehen.@@
best@@
mice
traditionelle
vorführ@@
princeton
las@@
kruste.ist
uhr.ist
offers
form
dress
ko@@
alegrias
mac
adama
900
oakdale
japanische
gem
handelt
nick
crispy
enough
soldiers
41
soldier
experiencing
midway
leicht
okay.nein
34.16
910-442-6345
greenway
gen.@@
calhoun
currently
orland
fahrpreise
skirt
ise
maximum
arlington
beleg
123-555-0123
reihe
silverspot
hotdogs
5.
kü@@
813-697-4154
202
nonfat
202-456-2121
teller
tonight.@@
ter@@
worth
fi@@
le
mockingbird
jo@@
kon@@
reno
better
361-254-4537
1000
horse
ride.@@
flu@@
geteilt
tätigen
vorbeizubringen
blue
behalten
ding
sara
hearing
liberty
315-623-4942
sushi-@@
arbeiten
starbucks-kaffee
reserviert
bulls
sugarhouse
for@@
johnson
plan@@
123-456-1212
bre@@
bester
usually
scottsdale
wisconsin
vergnügen
t.und
ten.@@
komplett
por@@
restaurantwünsche
hillstone
downs
12.33
215-389-4040
4.6
jake
stop@@
8.45
79
espressos
außerhalb
dolce
hospital
angewendet
6.
theke
6.@@
spe@@
2008er
sha@@
317-479-6369
212-555-8873
450
indian
soul
57th
mana
über@@
interessiert
fertig.brauchen
kre@@
dr@@
carry
haben.@@
313-673-4855
import
bevorzuge
winding
joyce
spruce
brenda
dark
mcdonald
59th
02
lloyd
ja.ja
nen
ons
tables
45.@@
ßen
ther
t.ihre
said.@@
würstchen
point
bestätigen.@@
einverstanden
man@@
99@@
received
noti@@
xl-@@
week@@
zi@@
gehobener
kostenlosen
unter@@
means
ze@@
nachsehen.@@
irgendwann
elevated
farbe
drachenzähmen
bearbeiten
breakfast
crust.did
taxi
das.@@
you.one
vorstellungszeiten
sam@@
care.take
color
ous
tly
’
mall.i
nt
four@@
sed
früh@@
zugesandt
200
an.das
bewer@@
54.@@
stan@@
lichen
ok.what
aussicht
roast
abhol@@
ul@@
.der
fe
awesome.@@
californios
mitfahren
y.i
dienste
on.@@
fin@@
.all
ale
sen@@
mann
seeing
tomorrow.@@
option@@
ig
lyfts
oregon
starten
schätzen.vielen
e.it
vier@@
indoors
minutes.the
fü@@
hi.i
arrangi@@
201@@
ie
per@@
finde
sitz@@
was@@
conditions
stand
day.have
start
kreditkarten
herausfinden
29
geschick@@
great.that
counter
geb@@
mins.the
a-@@
regie
größere
loud
fahrzeugs
gro@@
correct.that
hinsetzen
reminder
35@@
locations
cards
pro@@
accept
kategorisieren
et
ed.@@
vil@@
mexikanisch
kochen
dim
tonight.i
haben.und
sechst
erinnerung
ated
454
series.@@
mittelgroßen
weit
egal
dazu
geschäfts
verstanden@@
lu@@
ner
bestätigung.@@
direkt
cheaper
selbst
mulvaney
it.you
taco
durchschnittlich
möglichkeit
fancy
weg
bean
hieß
nachfrage
familienfreundliche
p.@@
3er.@@
ausge@@
stell@@
erstes
tennessee
.yes
it.no
tag.ich
preisen
heute.@@
geschrieben
.alright
morn@@
rück@@
uhr.sie
notiert
le.@@
601
n.ich
book@@
j@@
off@@
fünft
early
kokosmilch
highly
dauern.@@
mer@@
garlic
uber.i
richtlinie
some@@
.wie
gut.gut.
feta-käse
student
samstag
description
destination.did
überprüft
gesehen
okay.das
augenblick
t.
device.anything
to.@@
mount
vornehme
555-630-8532
waived
run
anweisungen
46.@@
pumps
road@@
trendy
menge
9898
st.
dri@@
dolby
d-@@
mich@@
hello.i
toward
natürlich@@
universität
spezielle
genau@@
mittel@@
ber@@
irgend@@
coke
turn@@
tritt
aus.@@
vegane
sig@@
sbarro
environment
33.is
heraus
live-@@
reisedauer
problem.that
metro
dried
diagnosegebühr
kinder
confirmation
traffic@@
nachschlagen
drama
moderne
nächstes
honda-pilot
spicy
bu@@
bräuchte
zeitpräferenz
gene
verfügung.@@
ged@@
17.00
overhe@@
05pm
it.so
diagnostic
erledigen
9am
help.i
tit@@
sto@@
/
appointments
innenbestuhlung
restaurantvorlieben
fire
22.45
2-@@
sl@@
viel@@
appointment.would
exact
lokale
sport
kar@@
wieviel
514-217-6813
än@@
haben.es
kreati@@
ven
sc@@
specialty
oh@@
8@@
sal@@
personen.möchten
reis@@
strange
oysters
submit
ordnung.ich
good.i
pool@@
mins.it
20.00
11.
trotzdem
way.@@
gesendet.benötigen
k-elements
.how
tic@@
gardens
gu@@
postleitzahl
erst@@
rockefeller
.was
okay.that
wochenende
griech@@
personen.ist
quality
immediately
inn
okay.can
ele@@
gemüse
berechnen
einschließlich
aw
bevorzugtes
elle
beil@@
10.@@
variety
21.30
carbon
lyft-@@
adults
zeus
seltsames
gebiet
ful
1h
ye@@
fertig.@@
venti-kaffee
waynesboro
eis
aufgebe
4,5
richtung
fahrttyp
bringen.ich
wird.@@
ing.is
schöne
skool
län@@
sense
lampen
a.ich
55pm.@@
6th
headlights
gut.ich
gesalzenen
absetzen
karamellmokka
habe.@@
s.is
447-4040
liebe
yorker
vollkommen
correc@@
probieren
jedes
starbucks-@@
flavoring
sportstätte
morgens
überprüfen.sie
scheinwerfer
sorge
ok.you
industrial-chic
19.30
wonderful@@
ja@@
öffnet
überprüfung
lyft-fahrt
shouldn
11.@@
ps
schuss
zentrums
selber
columbia
hear@@
mid-@@
scale
back@@
oben
parkway
spezialitäten
bright
suche.@@
erwähnt
list@@
lie@@
you.did
general
check@@
volle
depend
moment.hm
cocktail@@
watching
yeah.@@
look.@@
dern
hello.
tonight.do
hinterlegte
drop-off
buchen.und
entscheide
th
grub
aufführungszeit
richtlinien
head
ebenso
fahrtdauer
meeresfrüchte-@@
dan
arrange
5a5
update
idea
beam
stirbt
sicherlich
vorlesen
availability.@@
ß
ve@@
eight
hellen
thin@@
bekommen@@
restaurant@@
ach
fahren@@
ig@@
two@@
people.is
18.44
petes
included
icht
ess@@
s.ich
bestimmt
once
pping
e.ich
555-2136
555-21@@
beschreibung
hou@@
rohkostbar
suv
look@@
known
rice
lar@@
ciccia.@@
ciccia
signature
diablo
ruhig
belägen
staat
707
käse@@
you.it
schätzen.ich
austern
gesamte
beför@@
bridge@@
wa@@
albuquerque
ist.ist
212-946-4283
choice.@@
reparaturwerkstatt
parts
sonntags
4.1
milchsorte
tions
meat-lover
pacific
theatres
sein.und
sundays
abend@@
berücksichtigen
frühstück
pool-@@
nachzuschla@@
inszeniert
ask
there.i
konnte
sardin@@
16.@@
hab
sich@@
nettes
kostenvoranschlag
wi@@
value
öffnungszeiten
di
motors
gesagt.ist
informiert
steakhaus
tschüs
treten
aufzugeben
lattes
rock@@
t.bräuchten
spielen
genommen
iten
12.
ys
il@@
24.99
im@@
inspizieren
autoreparatur
chance
koreanisches
plate
major
mitte
hare
möglich@@
nis@@
vornamen
uber-@@
sutter
ve
59
besides
ges@@
homemade
ra@@
portions
verkehrsbedingungen
cook
according
dicken
studentenzentrum
okay.und
588-4117
gang
555-217-1356
board
ite
eating
gericht
t-@@
fahrzeugtyp
sein.sie
cho@@
smithson
even
775-400-3258
eis@@
sin@@
appointment.just
ie@@
min.@@
people.would
gilt
fees
idee
middle
bemerkt
breadsticks
definitiv
bitte.okay
belasten
blei@@
raussuchen
cur@@
private
rauchen
lenkung
wenig
thing.what
sec
tal@@
chair
ram@@
867-3549
klass@@
2219
barbecue-@@
chick@@
geplan@@
anrufen
215-896-5712
außenbeleuchtung
offen
bringt
son@@
kin@@
ticket@@
ahorn
minuten.möchten
story
cool@@
bela
maple
t.es
fo@@
8,@@
froh
801-714-3310
ds
nten
leid.es
ständig
mus@@
grupp@@
enti@@
ef@@
sir
net
202-456-6213
stly
coast
atlantic
bros.
77
reparaturtermin
anfällt
defekt
kost@@
possible.@@
mitchell.@@
ine
krusten@@
.also
okay.and
seating.@@
informieren
chan@@
made.@@
7798
device.did
hilfe.danke
pizzabestellung
innen@@
zip
innen
pastagerichte
mainstream
sei
mozzarella
uhr.was
501-213-45@@
eis-vanille-latte
acht
alcohol
son
ken
please.and
gespielt
bell
arten
t.kann
tun@@
brauchten
mccormick
choices
rio
wieder
ries
you.the
ton
k-@@
betrag
anderweitig
agen
ones
pies
grüne
twist
hel@@
besch@@
17.30
akzeptiert
umfasst
erhebt
steak@@
increase
lock@@
mi
today.thank
worauf
distrito
letting
brauche.das
basic
kom@@
en.ok
comfort
vegetarisch
tha@@
2356
luna.@@
textnachricht
glutenfreien
gerne.@@
zugeschick@@
10am
ying
napa
besetzung
com@@
sausage@@
ant
470-691-2141
bevorzugten
schwarz
ige
alkohol
preisschätzung
auth@@
of@@
kt
hu@@
glas@@
2u
49
ast
child
zusätzliches
gebühren
kid-friendly
spielzeit
digen
angesehen
überprüfen.ja
craving
pastas
käsekuchen
mittags
stopped
leid.@@
schätzung
sein.das
schwarzer
wanna
worries
19.
lourdes
sondern
käse.@@
günsti@@
less
access
gesch@@
etwas@@
original
sir@@
.yeah
suchen.lassen
turns
führ@@
früher
s.es
thailändische
469-9720
frage
gegen@@
bearbeit@@
changed
schade
fra@@
kosten.@@
moana
minutes.it
ken@@
ach@@
japanisches
service-gebühr
00pm.@@
fen.@@
möchten.@@
aloha
uhr.ich
yor@@
lage
36.99
gre@@
ala
uber@@
help.@@
eine.@@
zahlen
ish@@
hamburgers
vier.@@
bo@@
age
tischecken
hinzugefügt
crusts
you.so
kreditkarte
tisch@@
place.@@
our
is.i
handy.@@
street.i
tlich
rob@@
weiteren
re.@@
up@@
confirming.@@
bet@@
0@@
super@@
adult
ziehen
frühere
uhr-vorstellung
rollstuhlfahrer
bites
cut
zugänglich
okay.all
text.@@
sugar
hn@@
kte
betr@@
ating
alexanders
apologies
ves
verlangt
9pm.@@
g.@@
woll@@
starbucks.i
m-@@
perfekt.@@
verstanden.lassen
quadratisch
milk.@@
besondere
sum@@
ver
veggie@@
spezialität
übrigens
pas@@
leakage
confir@@
city.@@
great.i
an.hört
heute.vielen
ride.how
auswählen.ich
nein.nein.
18.45
group
speakeasy
eren.@@
55@@
pr@@
ning
essenswünsche
teten
französischen
soaring
42.@@
chicago@@
evening.good
gewählte
roberts
a.
runtime
uber.@@
chte
tag.@@
everything.@@
bringen.@@
california.@@
booths
sweet@@
geh@@
street.ich
okay.what
ces
sh@@
stimmung
poolfahrt
regulären
200@@
popcorn
recht
.alle
take-out
uberxl@@
direc@@
ick@@
landmark
japanischen
simpson
stars.@@
inexpensive
hilfreich
correctly
besorgen.@@
rd
besonders
auf.passen
angeboten
ungszeit
gleichfalls.gleichfalls.
right.all
vorbereitet
zugesand@@
driving
toll@@
righty
großartig.@@
2h
letzten
5386
e.the
foods
moment.hmm
zen@@
no.no.
ks
na@@
believe
biba
zeit@@
hause
ton@@
mall.ich
erhalten.@@
keiten
liebsten
gesendet.die
kauf@@
sein.der
chen.ich
beides
3.
francisco@@
gehoben@@
günstige
afterwards
brews
a.m
570-1920@@
sho@@
tickets.ich
t.sie
vegetar@@
genug
25.
geführt
hallo.wie
fahrzeug@@
check.@@
einfachen
kombiniert
tt
pub-gerichte
bekannte
alles.nein
quad-espresso-campana
a.i
zeitplan
te.@@
et@@
tur@@
schwarze
latte.@@
rollstuhlgerechten
focus
lassen.@@
gehobene
so.@@
plates
ordnung.und
high@@
aufgeben.ich
elt
10.
eg@@
please.yes
gelangen.@@
xl@@
pen@@
mall@@
tasse
mittel
wife
großartig.ich
ick
xl.@@
such@@
helpful
nächst@@
metrocenter
atmosphere
texas@@
spezifischen
preisgünstig
2014er
hal@@
av@@
pizza-bestellung
g.
movie.@@
rote
fixing
garden.@@
3-series
normal@@
les
suche.ich
ät@@
tischreservierung
gave
.just
moment.bitte
ebenfalls
fol@@
präferenz@@
destination@@
arrangieren
tagen
ation
bigger
schicke
milch.@@
familienfreund@@
finalize
ankommen@@
leichte
philadelphi@@
zwei.@@
soße
elegantes
at.@@
dor@@
chen@@
11th
win
jude
fahrgemeinschaften
gary
teuerste
beardsley
great.thank
müssten
genan@@
555-113.4249
venti@@
boat
tall@@
hr@@
uhr-vorführung
22nd
jaja
kontakti@@
tungen
erwähnten
bn@@
geschmacksrich@@
441-60@@
22.40
berech@@
jackson
ham@@
jun@@
kokos
7,@@
getrocknete
elk
süß@@
stra@@
then.that
555-113-424@@
warte
meilen
mor@@
ciné@@
brie
dc
ankommen.@@
cajun
pointe
inspektion@@
6991
excel
larson
fettfrei
vine
glen
15.ok
battery
eingeplant
zahl
verstehen
soja-
aufgeben.@@
menüs
s.das
dollars.@@
großartige
arrowhead
malfunctions
dessert@@
65.93@@
65.93
future
fettfreie
law.@@
guardia
4840
s.nein
bestellungen
unterbringen
cinebistro
ca@@
applebee
bezahl@@
7314
high-@@
fünf-@@
gehoben
compartment
location@@
schöner
sein.haben
mil@@
22.00
moment.your
eigen@@
glü@@
cklich@@
pizanos
tax
fan
chicago-@@
ve.@@
ak
genaue
6-4
7-8
916-447-8646
pleasure
kostenlose
embarcad@@
-steakhouse
know.@@
meinung
4,5-sterne-bewertung
move
sugars
weiterhin
ah@@
verstanden.was
ieren.@@
aussen@@
ligh@@
flavors
des@@
bestimmten
particular
mayeda
park.p
867-@@
435
2520
middlefield
mountain
94043
down@@
357-867-5309.@@
geben.@@
abzugeben
ities
drüben
fertig.kann
now.the
diges
wagyu
568
salatbar
215-659.@@
bridget
walker
215-659-2008
reservation.ok
open@@
austritt
zlich
willkommen
orders
meals
great@@
12th
expres@@
need@@
reis
bedien@@
güte
i-@@
schle@@
es.ich
927-07@@
taxis
feeling
unique
aufzu@@
quite
bridget.walk@@
autoreparaturtermin
hinzufügen.@@
total@@
eller
freil@@
huhn
entire
fleischliebhaber@@
geändert
reparatur.@@
ross
shoot
313
6734
855
almond.@@
esspresso
selec@@
französisches
heraus@@
besonderes
täglich
wechsel@@
französische
ile
schreiben
pine
94108
moment.einen
sugar-free
ten.ich
bestätigt.@@
myself
finde.@@
hm@@
mm
pioneer
sure.in
28.@@
1510
multnomah
tuscan
97232
22.15
vis@@
hält
wan
spre@@
filmen
biogr@@
mö@@
biopics
fak@@
bas@@
menschen
14th
gourmet
ats
.paesanos
ll
now.you
pink
fino
work.that
wifi
the.@@
555-217-3841
555-217-3824
wi-fi
hold
perfectly
accura
wenden
prüfen.es
hwy
30am.you
spider-@@
bumper
tabletop
test
3d-vorführung
uhr.welche
bitte.zwei
45.do
sticker
25.32
hier@@
medium@@
all.that
finos
il
fahrpreisvoranschlag
music
beginnen
milch@@
28.59
estim@@
stu@@
excited
gerne@@
sweet
brulee
you.ok
18.67
address.@@
fischrestaurant
soda
overall
zuletzt
ersetzen
1977
nau@@
lovely
20-25
moderaten
lachs
headphones
steinfisch
ground
ecke
moment.how
mageren
clum@@
salami
action
schind@@
mei@@
ster@@
setting.@@
zy
ill@@
sub@@
portr@@
äti@@
shrimp
chat
grü@@
support
nem
neason
yankee
pre@@
oper@@
sanitary
34.@@
recommended
shaking
comp@@
alcoholic
welco@@
supposed
newark
feel
ong
farms
road.in
36.66
food.i
northpark
hallo.
komödie
mir@@
san@@
reasonable
hohen
eleganter
aufstrebenden
afternoon.@@
margherita
ses
4,0
stations
entspannten
446-6688
fragte
that.where
erreicht
great.great.
reserved
outdoors
birthday
dream
dare
trop@@
plenty
assortment
entschuldige
imagine
lakeshore
13,@@
später@@
nachmitta@@
wilson
liam
hemsworth
adam
devine
site
flüs@@
valencia
country
mittags@@
granada
4,88
39.87
213-850-9081
213
81
ern@@
neo@@
drin@@
schauen.@@
günstigste
916-921-25
film.@@
grissini
sonderwünsche
tstan@@
smith@@
123-456-78-90
herstellungsjahr
hersteller
vereinbaren.nur
cast
esti@@
soon.did
woanders
miscoi
näch@@
einzigartig
gefühl
erhältlich
solange
artist
bedanke
ße
nischen@@
gebucht.brauchen
312-568-7134
tim
312
gemüsepizza
gung
2055
liqu@@
916-921-2055
921
916-@@
außer
komplet@@
geträn@@
pistos
lebhaften
stein@@
pisto
empfe@@
omakase
fs
65.44.@@
kiss
kitchen.@@
xl-fahrt
vorziehen
mache
gelän@@
seri@@
70
07
t.der
15@@
noon
silvercity
abschli@@
nicht.@@
4.0
hoher
tommy
joynt
51.89
amerikanischem
fort@@
inter@@
available.it
midnight
beautiful
234-567-8090
whats
angehalten
notification
traveling
kalten
aufgegeben.@@
vermute
heimweg
oliv@@
rx350
hunt
puntz
schalldämpfer
tatsächlichen
peperoni.eine
gebacken
tonight.can
elsewhere
organis@@
senden.brauchen
higgins
hingehen
behalf
hagen
14.19
dogs
saison
minutes.your
schokolade
größte
nevada.@@
3.50
rustikal@@
hallo.hallo.
len
robat@@
iches
sake-@@
zeitgenöss@@
zumbo
woodber@@
ry@@
holt
bank
17.19
interessi@@
gewesen
sein@@
berechnet
koreanische
special@@
en.ja
fir@@
area.@@
exposed-@@
gesagt.@@
fertig.ich
ribs
bestellt.ich
concerning
suchen.einen
68.42
lässig
sun@@
untersuchen.@@
understood
120
freitag.@@
doch
spezialisiert
weniger
grillhähnchen-pizzen
locale
30th
reisen
w.
ties
glendale
meatlover
bedarf
appear
wants
moines
iowa
verwendet
schli@@
tollen
r.
215-5763974
2018
hlen
besonderen
den.@@
appointment.i
jedem
weiter@@
arclight
terr@@
bestuhlung
perfekt.perfekt.
stilvoller
hufeisenförmigen
direktem
ausblick
kalifornischen
sekunde.@@
zuckerfreie
recieve
schauen.einen
7675
ure
cab
caby
ztes
usa
blocks
wendekreis
ren@@
johnson@@
nuss
schließen.okay
bezeichnen
mcclean
silver
tinsletown
bremsen
112.chestnut
wall
132
61
pool-option
daily
uberx-@@
6.4
4,3
bombay
toskana-liebhaber
28,@@
gest
28.42
hobby
sitze
natürlich.in
smoking
boulevard.@@
21.45
circle
columbus
weg.haben
diego
67
22,@@
uberpool
329-8678.@@
spezi@@
familienrestaurant
lass
7654
consolidated
lincoln.@@
meheula
kunden
breaks
244
719
standard-
719244.@@
lux-vorführungen
hle
radius
not@@
jacksonville
hana
491
östliches
765
ohe.@@
4321
fusion@@
waipahu
einfallsreichen
industri@@
ward
46-056
kamehameha
et.@@
shortly.did
poke
bmws
kay
mah
sawasdee
serviert.und
buffet.@@
fehler
noisy
sagt
916-446-7261
oni
.for
menomonee
requires
kinderkarte
customers
shabu-shabu
toren
interessan@@
yakiniq
buchen.wie
nehmen.kann
gängigen
hotpot
punkt
hießen
bree@@
buffets
76
492-2499
einzigen
preisleistung
marcus
916-564-2114
out@@
twisted
brian
wieder@@
shrimp@@
lin@@
menüauswahl
möglich.@@
garnel@@
yaris
toyota
4011
600
siana
okay.oh
tue
31.87
gefall@@
315-623-4942@@
getrennte
koreanischem
em@@
smok@@
basierend
361-254-4537.@@
frappuccino
fusion
zeichen
frapuccino
37.@@
hinfahren
10002
gewis@@
4567
autowork
33618
1002
netten
chelse@@
cinepolis
7427
483-7427
916-483-7127
483-7427.@@
10,18
höhere
wow
e.would
impul@@
talking
erteile
fleischliebhaber-pizzen
4.50@@
forth
sorte
mom
40.45
nah@@
813-697-4154.@@
james.2009
al.@@
einstellung
10-@@
imports.2009
23.75
nebeneinander
wells
salsas
lego-film
außenbestuhlung
petersilie
arabische
ih@@
hotdog
palmetto
eastridge
dig
without
directors
roth@@
rodney
perisichetti
jr
persichetti
roberto
ramsey
towne
esth@@
charles
gerne.welche
cathead
genial@@
4505
bezahlen
wo@@
212-9464283
gendreau@@
vereinbaren.können
tischplat@@
solutions
freitagabend
intelligente
ja.das
veggie-lover
-lover-
slices
hesperia
report
antico
vin
way.do
11pm
23.55
gän@@
tionen
ss
rosamunde
brioche
waf@@
repaired
kostenloses
sum
stadt@@
kurve
555-555-55@@
9.95
geschnit@@
itute
wlan
916-570-1920
frühestens
öffnen
kettenrestaurant
bobo
hühnchensandwiches
figured
traditionellen
klassik@@
filled
ischem
jin
ilian@@
gelangen.wollten
siz@@
beschrieben.@@
hat@@
repeating
espresso@@
chika
jeder
ored
wlan-zugang
ry
6212
448-6212
gracious
palace
herauszufinden
marriott
orange
malpaso
southpark
möglichen
68.55
grilled
215-885-24@@
indiana
broaderpool
65.45
ausgewähl@@
au
stück
215-885-2420
rd@@
mod@@
hervorragen@@
815
10.73
farrelly
2420
fällig
lieblingsessen
perbacco@@
bohne
blanding
7779
.00
2000
3d-show
20th
rosa
aufkleber
enden
ok.sie
manchmal
minutes.is
heits@@
gesund@@
that.please
916-588-4117
tau@@
unterstützung
personal
marketplace
natomas
get@@
derselbe
sabeiro
santos
arnaldo
ronaldo
mechaniker@@
autominuten
513-472-1234
2-1
513.4
verliert
drafthouse
alamo
25,@@
now.alright
neue@@
13.21
649-8885
jetport
southborough
kontakt
205
98
1285
sushi.@@
otoro
510-555-121@@
angezeigt.brauchen
fahrer@@
genial.und
tapas
69.99
1474
564-871.@@
dru
option.@@
trattoria
ener
aqua
audio
49601564871
ada
fancisco
pitz
verstanden.irgendein
6564
ähnliche
centre
höher
hillside
6465
&apos;s.@@
to.i
imm@@
studios
universal
cristano
cristiano
schreibt
christiano
644-6887
677-4887
christero
figure
gyros
wert
preston
rau@@
6025
dominick.@@
45-60
tower
yes.that
ord@@
hängt
sportstadion
schätzungen
clement
908
850-@@
28,59
745
fastfood-@@
916-444-0307
444-0307
3.is
amerikan@@
elm
petra
492-1960.@@
angebot
15l
zunächst
8.37
copland
924
chili
446-0888
t-bone-steak
er.@@
rippchen
denny
jim-denny
sehr.ich
vorschlägen
augenblick.@@
312-754-9991
42,@@
honolulu
1400
ride.ok
weshalb
besitze
nc
706-1331
cafeteria
mamoa
vilagio
darfs
finden.okay
augustine
alley
fireworks
mitternacht
statesville
513-912-1100
uld
513-912-9100
5687
mask
555-321-5687
musk
513-912-9100.
teriyaki-restaurant
pawlikowski
aroma
wood-@@
imax-aufführung
pursuit
starndar@@
d-vorführungen
800
9181
221
abholbereit.bräuchten
513
entr@@
513-221-9181
mike.@@
sic@@
bes@@
jaime
smyth
jamie
parsley
ali
generalinspektion
gs
paweł
6933
ambiente.@@
lusk.@@
land@@
went
repariert
einflie@@
zeitfenster
anc@@
pe
fake
ance
josephcarrie
wel@@
ncg
blond
starbucks.the
dunkle
arabian
fuer
mahershala
mortensen
moment.viggo
5555
fel
sicherheit
unternehmen@@
0086
415
415-555-0086
kruste.habe
hingebracht
dean
buche.ok
deblois
preislich
4,6
entspre@@
nen@@
unge@@
mat@@
terreto
direktor
premi@@
teu@@
geschickt
hafens
webster
taken
chops.@@
motor@@
kips
alissa
24.39
berlin
japantown
aktuell
gesamt@@
abends
nähe.@@
mögliche
mexico.@@
chops
bundesstaat
cappuccinos
observatory
griffith
monica
aufweisen
mesa
letz@@
eastern
cullen
hall
lucile
leroy
schie@@
doppio
claude
ay
ear@@
ley
cutler
nut@@
warme
mode
yankee-stadium
haupt@@
buchen.es
hygiene
nachträglich
zwischen@@
beppo
buca
buppa
baba
pietary
dino
veganes
nope@@
pho
8,45
150
clo@@
utah
orchi@@
salt
okay.do
15pm.@@
snacks
in.it
dert
m.i
common
7,0,9,@@
ausrichtung
fährt
ja.mein
tent
carla
tate
connor
echo
sein.kann
pepperoni-pizzen
92
apostrophe
veran@@
stal@@
tungs@@
4-@@
927-03@@
haben.ich
en-pizzen
53
angenommen
paso
alta
9,1,6
coiler
stilvoll@@
café@@
establishment
warm
urb@@
rind
74
entsprechen@@
abgedeckt
näher@@
ffer@@
86
convention
besteht
ler
durch@@
schwarz-weiß-mokka
diät
8591
geburt@@
916-737-5767
7.5
privaten
prompt
sake.@@
centry
ähn@@
tacos.@@
863
london
956@@
641-8226
preises
eria
garibaldi
48m
brenden
nachsehen.das
alkoholische
lexington
kentucky
els
214.98
coyoyes
problem.das
ausgetreten
4789
border
6321
894
946-321-4789
12348
francisco.@@
280
tar@@
abgezogen
hinein
absagen
can@@
kico
awesome.and
pm.does
924-0108
medicine
reser@@
17.88.@@
benchmark
mcdonald.m
sportbar
angesetzt
arundel
hasham
vanille-latte
49.99
zittert
every
sriacha
mediterrane
ir@@
health
64503
reih@@
medical
perelman
neh@@
roasted
pie@@
wär@@
barmer
mindestens
hello.how
fahrgäste
zung
48,@@
19.@@
kimchi
mark@@
aten
elements
schokoladensirup
motorprobleme
salat
ey
123-456-99@@
36.90
rpx@@
party@@
lok@@
kinds
dyke
2010er
betracht
winnsboro
gelegen@@
pi@@
miranda
manuel
lin
van
hint@@
dick
blunt
emily
diejenige
anywhere
stonefield
5.1233
8.5
preferably
anfallen
ical
ganzen
570-1920.@@
rahmen
amerikanischen
internation@@
interest@@
names
message.would
hm.
car.yeah
sorry.sorry.
belaufen
ind@@
bela@@
it.any
soll@@
filiale
nächster
splash
24,50
accomodate
metropolitan
5.@@
22.79
alongside
rotating
allegiant
einreichen
statt
notiz
gedämpft
temperat@@
dormont
mel@@
macchiatto
el-@@
gere@@
away
haben.wie
merchant
stephen
enjoy.
valet
helfe
5,@@
vegas@@
accomodates
perfect.perfect.
rodrigo
os@@
okay.thank
roman@@
dung
form@@
33@@
short
etc.for
einfa@@
etc
amc-@@
amphitheater
uber-taxi
good.sounds
alcentra
calexico
up.do
sure.looks
5.740-7374
chris.parker
reparatur@@
bei@@
tol@@
bringing
cloud
blonde
searching
bewusst
hilfevielen
haddish
tiffany
metador
bowtie
hnen
sur@@
gladly
215-740-7374.@@
4.7
wochenend@@
findet
ment
markt@@
that.how
bereich@@
schickes
goldenen
afternoon.how
enc@@
ausgeht
nopalito
ian
oc@@
stehe
pati@@
scheinen
speis@@
bio@@
beliebtes
hoboken
five-@@
choose.is
2.99@@
services.@@
upd@@
botan@@
34.82
teurer
eastroyce
yes.yeah
enthal@@
massachusetts.@@
botanic
555-212-3614.@@
555-212-3614
regional
mickanny
zusätze
mickley
now.did
abholauftrag
poplar
1007
40.00
brown
anfahrt
möchten.ist
ungsprobleme
hören@@
uhr.funktioniert
ordnung.das
555-123-4567.@@
ly@@
85
ß@@
philip
lenox
ägt
ates.@@
zeit.@@
aktu@@
3d.@@
out.it
auftrag
ast@@
bel@@
vinta@@
séparé@@
gewünsch@@
stock@@
leben@@
please.for
seine
preferenc@@
auswahl@@
gemü@@
musik
and.good
preferences.@@
mandalay
ary
rodrick
empfo@@
unternehmen
spelled
discu@@
milk.is
apple
fic@@
geöffnet.@@
resu@@
fern@@
bye-bye
version
bubble
737-5777
erste.@@
wartezeit
48.44
bar-
gourmet@@
lässiges
whichever
dekor
til@@
you.and
dige
roadhou@@
android
horseshoe-shaped
massa
ants
size@@
needed.that
wunderbar@@
wunder@@
sekunde.okay
fahrpreis@@
passagieren
friday.@@
german
setzen
kopfhörer
hinter@@
verstandenund
sure.uber
bun@@
cinnabon
sure.when
germantown
4.50.would
unterstützt
18,67
plat@@
front
ür@@
thought
passend
verfügt
tigen
and.@@
geschehen.haben
hang
schicke.in
garry
er-@@
lit@@
coca-colas
glu@@
ingredi@@
cream@@
tags
eine@@
typ@@
mitchell
salmon
supreme@@
pepperoni@@
12.34
benutzen
6161
halten
bein@@
dec@@
alfredo@@
33.38
showtimes.i
lugg@@
draw
themed
t.die
totally
institution
certainly
marinara
2-tortil@@
bier@@
you.let
commerce
marketfair
way.i
up-close
vorzugsweise
sieben
weinsorten
first@@
centrium
vorführungen
ingredients
rows
nar@@
yes.my
genre
nähe@@
spass
de.@@
finden.sind
ta
r.p
1111
202-456-1111
größer
vergleich
xll
grill.in
adler
p.
.what
atalan@@
gnädige
mobile.have
seat@@
soon.your
grillhänchen
zwe@@
sprechen
billardtische
along
subst@@
korrigi@@
leckt
turning
ab.@@
brechen
bin@@
soon.@@
sendezeiten
parkland
southington
plainville
connecticut
expected
15.@@
heights
huber
suchen.sind
ohi@@
requested
serv@@
34th
licht
lässi@@
margot
cathay
mhm.@@
eventu@@
trending
4512
555-789-4512
pepperoni.one
kim
nyc
upstairs
minuten.wollten
thick-crust
gesetzt
pizzeria.@@
one.have
you.yes
&apos;brien
checking
solche
908-7887
obwohl
zentrum
dished
apologize
42.44
en.und
downstairs
it.anything
ück@@
pepper@@
weburger
überprüfen@@
10.18
wähle
650
townshi@@
week.is
geschäf@@
freshly
baked
you.unfortunately
kinderfreundliche
repair.is
5-@@
nenne
dadurch
ab.bitte
woche.ist
prepa@@
überprüfen.leider
abend.guten
515
cre@@
d.i
1500
desserts.@@
brien
turned
moment.yes
ce
dre@@
837-9068.@@
karen
child-friendly
562-555-1212
i-40
husband
karyn
562
rick
lauf@@
rech@@
lc
band
paxton
underdog
one.and
cgv
covered
jalapeno
always
formelleren
that.what
thin-crust
kantones@@
hilfe.ich
okay.vielen
min.it
telephone
,99
3100
331
908-788-7000
gesendet.kann
müssen.@@
mitbringen
da.brauchen
regulärer
stam@@
gut.vielen
hinterle@@
€
deluxe
deli
one-@@
provol@@
11,@@
christmas
crescent
22.30
ausgewählten
sorry.i
568-0932
restaurantspezifikationen
endgültige
weiß@@
setzt
ex@@
gurnet
weißer
klären
cantonese
abzuschließen
verzichtet
muffler
überhitzt
tnis
robbie
plated
4.57
sicherzustellen
tun.@@
is.@@
zimt-shortbread-latte
vollmilch.und
mu@@
it.alright
abendessens
erfinder@@
servier@@
sk@@
hausgebräuen
fer
celebrated
außenposten
familienfreundlicher
grobe
arti@@
clinton
ate
tiramisu
moment.you
6,@@
you.their
wein@@
gel@@
zel@@
pike
machiato
parkservice
kun@@
genial.@@
hello.hello.
loc@@
56.44
res
1806
capitol
958@@
447-8646@@
564-2526
moderat
life
purple
lokal@@
leiten
merkmalen
würzi@@
appointmetn
salzi@@
verstanden.welche
asiatische
ok.arden
reviewed
93
regelmäß@@
wä@@
762-349-9710
int@@
repair@@
zokulu
ic-@@
arguello
lige
sard@@
top@@
hausgemachte
geteiltes
anstelle
690
leu@@
4,7
691
long.@@
acquerello
470-690-2141@@
sicht
s.ok
google-@@
plane
iti@@
salty
menu@@
weise
pric@@
45.92
holen.@@
pikeway
automechaniker
tag.womit
safeway
simpsons
folgende
441-0303
mcqueen
niedri@@
749-1426-4534
reservation@@
hühnchen-speck-ranch
sein.ist
yes.
process.your
kinokarte
31.77
milk.and
716
showing.is
wheelchair-accessible
999
749
nte
bericht
fünf@@
fein
ser
sou@@
enthält
garfield
40000
freddy
clemens.@@
moment.that
it.did
irish
beliebte@@
nein.könnten
hauptsächlich
asking.how
tatak@@
waiting
649-8305
lagen
08
erhöhen
13.
39.78
descri@@
span@@
nei@@
kleiderordnung
okay.does
riverside
repair.@@
13th
restaurantpräferenzen
allerdings
okay.
veganen
48.49
hl@@
lila
alegria
pleasant
chill
pp@@
1236
fahrten.@@
rückkehr
kombiangebot
s.there
funny
combo
moment.wie
okay.when
ausgezeichnet.
stake
fix@@
krustenpizzas
ws
9pm.your
excell@@
gluten@@
o.@@
deal
sure.how
o.i
fantastic@@
like@@
geplant.@@
ok.i
liked
bevorzu@@
gut.und
stick
ensoll
passt.das
pizza.and
typical
meet
hähnchen-@@
gables
ere.@@
quet@@
u.
wiedersehenauf
you.do
me.that
accessib@@
bit@@
restaurant.that
sure.where
relaxed
car.@@
sing
yeah.
table.i
fahrt@@
information.@@
guess.@@
hawaiin
thema
blinkers
tischservice
good@@
day.i
weekend.@@
possib@@
mov@@
you.for
bekommen.ich
it.got
chen.also
herr@@
it.one
hohe
right.i
hinzu@@
you.4
elles
fine.all
calculating
65
brews.@@
sooner
syrups
outback.@@
hähnchen-pizzen
low
lovers.one
camino
del
amazing
clas@@
ct
politan
chte.@@
imports.@@
inspection@@
eintreff@@
done.@@
verarbeitet
pineapples
sion@@
s.do
885-2420
thing.the
plain
relatively
proceed
out.i
time.i
you.all
bread
californi@@
eingestell@@
sein.es
begutachtung
spureinstellung
mins.@@
wheat
bye@@
heit
two.@@
regular@@
ics
kaffee@@
ben@@
remember
adding
canc@@
ited
venti-schwarz-weiß-mokka
bar.and
ty.@@
lights.@@
frühstück@@
bestätigen.lassen
righ@@
typisch
match
bye-bye.bye-bye.
1-@@
min.you
brot
67.@@
okay.i
voll@@
after@@
has@@
bal@@
raus@@
rollstuhlgere@@
eclectic
he
nehmen@@
moment.one
comedy
teures
kosten@@
mic
abbie@@
ably
verste@@
it.thank
erschwing@@
et.ich
biet@@
äten
sere
23@@
chila
hen.ich
wahl.@@
wurst@@
55.42
theater.@@
sogar
kompli@@
ierte
hab@@
sel@@
pizzen.ich
gibt.@@
mitteldünne
zwiebeln.@@
oberen
ice.@@
win@@
geräum@@
mexikan@@
besser@@
uber-fahrt
kr@@
geteilten
erreichen.@@
shop@@
überprüfen.einen
gä@@
dates
ien
bearbeitung
hand@@
addresses
haus@@
dev@@
usw.
berechne@@
großarti@@
beliebt
zweit
bucks
g.vielen
ein.@@
zunehmen
ziffern
restuarant
reich@@
beiden.@@
vereinbaren.@@
geänder@@
blink@@
kategoris@@
k.i
phone.@@
ruhiger
äre
sie@@
particularly
you.okay
tor@@
p.m.i
uhr.das
auflisten
planen.@@
abgeben.sie
ausgehen
handy.ich
fertig.sie
usw.zum
helfen.ich
politane
ga@@
zt.@@
bitteja
schlagsah@@
che
mins.i
pizza.und
zwanglosen
hotel@@
erdgeschoss
obergeschoss
vornehmen.ich
viert
65@@
aufgegeben.ich
sicher.wie
irgendwas
sachen
bedeutet
vibe
split
habe@@
gegeben
mandelmilch.@@
erledig@@
gebe
condition@@
funktionieren.@@
adams
gestellt
ön@@
wird.ich
x-@@
fün@@
w.@@
southwest
kent
power
eingestellt
en.eigentlich
ster
mulvaneys
garten@@
lik@@
zugestell@@
richtig.ja
vegetarier@@
you@@
ft.@@
mittelgroß@@
anzu@@
digits
m.that
schokoladensauce
gemach@@
regulär
up.it
cream.i
second.i
sagte
bbq.noch
rollstuhlgerecht
grill-@@
essen.@@
wan@@
ändern.@@
verarbeit@@
kalifornischer
nachschlagen.ich
marvel-film
unbedingt
hat.es
aweso@@
heran@@
gelan@@
come@@
provided
eingestuft
kokos@@
rückt
vegetarier
mehreren
klapp@@
you.first
schneller
relativ
hause@@
driveway
klingen
gut.wie
wechselndes
uhr-vorstellung.@@
nachschauen
warten.@@
enden.@@
erwarten
festgelegt.@@
sagten.@@
che.@@
richti@@
gucken
jet@@
n.
einstu@@
tlicher
sein.bräuchten
blin@@
preferred.@@
device.the
26@@
vornehmen.@@
mis@@
burger@@
sind.ich
gebr@@
dienst
mccoy
florida.ich
street.es
ca.@@
moment@@
senden.@@
dollar.@@
helfen.wo
möchte.@@
nachschlagen.@@
ose.@@
fas@@
okay.ich
buch@@
fantastisch.@@
schneiden
stern@@
all-you-can-eat@@
pots
num@@
men.@@
einfahrt
einander
gesam@@
d.and
innenbereich
aufgabe
an.ich
ff@@
preference.i
4@@
o-@@
abgewürgt
heraussuchen
ist.sieht
fahrt.@@
freier
erster
angeboten.@@
s.und
sta@@
ier
ient
quittung.@@
grün@@
sanraku
bzw.
ts@@
warriors
ähnliches.@@
center@@
hen.@@
ok.wie
mes@@
f.
i.@@
hole
tast@@
ei
thing.and
mitfahr@@
holding
order.should
aufteilen
uberxl.yes
neben
that.one
überprüfen.ich
tain@@
thailänd@@
was.ich
dat@@
gefeiertes
abgeschlossen
reserviert.@@
wohl
ize
frei.@@
steh@@
langsam@@
geres
ausverkauf@@
barbecu@@
payment.@@
tion@@
hawaiianer
ed.i
cru@@
tages@@
florida.i
hi.hi.
friend@@
iced-@@
prochen
you.sure
s.let
kann.haben
bohnen
purchas@@
stelle
vereinbaren.bitte
ferti@@
langsam
okay.was
wrong.@@
awesome.you
änder@@
con@@
verstanden.ich
zweite.@@
steamed
46@@
rindfleisch
ruhi@@
cool.ich
hat.ich
problem.ich
igen
gut.alles
ns@@
bringe
kor@@
fast-food-@@
anyway
richtig.ich
lane.@@
gut.ja
buchen.sie
avenue.@@
gewartet
rad
messen
problem.i
allge@@
okay.wie
uber.ich
werden.diese
köstlich
rei@@
wochen@@
auto.ja
aufge@@
cool.i
verfügbar.@@
olivengarten
essens@@
king.@@
onion@@
oliven.@@
peperoni@@
3-@@
squeaking
low.@@
ordnung.in
gesendet.ich
kaufen.ich
nudeln
mikrofon
sea@@
ku@@
vierköpfige
wait.@@
6-3@@
215-57@@
verwen@@
ziel@@
information@@
stimm@@
macht.ist
vorstellung.@@
t.i
55.@@
assistent
werden.ist
chten
tomorrow.i
unde
pri@@
adressen
ge.@@
ziele
geschäfts@@
eingebe.@@
l.
aww
einrichten.@@
groß@@
fen.ich
meeresfrüchte.@@
verzeihen
infor@@
season
dollar@@
seas@@
saison@@
heiten
served
zer@@
city.it
spät@@
häppchen
mittelpunkt
chill-counter-serve-kette
under@@
momentan
schmecken
ride.i
kitschi@@
stat@@
akzeptieren
ts.@@
area.i
haustiere
gleich@@
okay.alles
offered
quietschen
bieren
quiet@@
pets
kitsch@@
vielmal@@
wahl@@
vielmals
auswählen.@@
meat@@
anforder@@
iert
äge
abel@@
grossartig
komple@@
tter
mccor@@
unden
.kann
fan@@
col@@
zusätzlich@@
klas@@
öff@@
nung
erer
emp@@
schicke.@@
cinemar@@
tschü@@
repar@@
51@@
mittl@@
japan@@
anan@@
joh@@
getrock@@
abhän@@
geni@@
564-21@@
hau@@
gall@@
eri@@
mick@@
fet@@
-film
gig
gefü@@
frü@@
kol@@
alko@@
hoff@@
ju@@
soj@@
freitag@@
genom@@
tei@@
sport@@
erwach@@
heim@@
sit@@
sitzgelegenhe@@
ping
po@@
ny
questi@@
mobil@@
spider@@
yes@@
pic
illi@@
beste@@
tto
besonder@@
tige
kop@@
gren@@
ol@@
000
toskan@@
uhr-@@
ßt
imax-aufführ@@
aufführ@@
.eine
esch@@
wind@@
ā@@
ʻ@@
ungszeiten
getr@@
vorlie@@
6-@@
rollstu@@
hl
verfü@@
entfer@@
ün@@
rit@@
rid@@
verage
ute
casu@@
ali@@
no.
minu@@
sear@@
nam@@
dro@@
ices
provi@@
uring
sup@@
cheap@@
recommen@@
accom@@
modates
sac@@
mex@@
all-you-can-@@
stre@@
ets
appreci@@
hi.@@
ting.@@
lt
56@@
-down
555-217-13@@
al-@@
ue
issu@@
coun@@
ving
cen@@
os.@@
hour@@
wr@@
bever@@
sacramen@@
pret@@
fied
big@@
chic
lls
ems
od
milk@@
destin@@
ations
revie@@
vie@@
hö@@
tliche
appl@@
6@@
gendes
gte
gut.
514-217-6@@
ramen@@
zusam@@
lan
d.ich
bur@@
ass@@
916-4@@
9-9720
ör@@
wes@@
jac@@
ks.@@
74@@
123@@
tatsäch@@
mon
geschma@@
g.ich
zw@@
kür@@
klich
ε@@
ente@@
ölle@@
diab@@
sorten
papri@@
cht
pizza-@@
erle@@
dies@@
erzä@@
sag@@
tre@@
unglaub@@
schme@@
ckt
elly
sech@@
stag
abend.@@
angezeig@@
sene
21-@@
10,@@
will@@
deckt
19@@
111-222-33@@
zz@@
marvel@@
fleisch@@
interes@@
schließen.@@
spor@@
getren@@
schau@@
91@@
schön@@
bi@@
mozzar@@
46
t.ist
801-714-33@@
hü@@
spec@@
wun@@
restau@@
blu@@
wash@@
zogen
2950
2010@@
qui@@
vereinbaren@@
eintr@@
jed@@
ke@@
univer@@
hawaiian@@
sive
vereinb@@
ms
rek@@
vornehmen@@
selbstverständ@@
lege
gessen
verarbe@@
he.@@
trolle
wie@@
holly@@
kaf@@
hei@@
öst@@
frühest@@
gedämp@@
tradition@@
hr
zugän@@
which@@
sn@@
größ@@
post
gur@@
instru@@
mation
rou@@
proces@@
process.@@
reason@@
cour@@
asi@@
ends
ically
t-b@@
74.@@
wait@@
fac@@
bye.
gree@@
draf@@
lower
low@@
us@@
23.@@
bed
actu@@
yo@@
souv@@
pennsylvan@@
horsha@@
fast@@
dig@@
simp@@
near@@
123-456-7@@
mail
factor@@
midd@@
oll@@
asu@@
restuar@@
sides
ane
ings
aring
tri@@
cul@@
mul@@
tis@@
wednes@@
americ@@
mediterran@@
mediter@@
alize
characterist@@
servic@@
ree
led
allo@@
202-456-621@@
tie
ace
dol@@
ar
pk@@
wy
nec@@
pres@@
sion
exc@@
ept
mi@@
feat@@
stance
ik@@
table@@
work@@
alco@@
ough
peop@@
pul@@
flower
certain@@
does@@
assi@@
momen@@
ily
cof@@
gan@@
ld
215-896-57@@
ams
cuis@@
ity.@@
ity
definit@@
contac@@
86@@
wood@@
sy
ambi@@
main@@
throu@@
ates
q@@
40.@@
stall@@
gn@@
shoul@@
celebr@@
ssi@@
ved
supre@@
art@@
mate
pu@@
trav@@
ending
theat@@
yeah@@
your@@
tors
vegg@@
11@@
curren@@
plaz@@
bye.@@
tly.@@
organ@@
sorry.@@
ty
stic
my@@
roo@@
py
arri@@
schedu@@
ittle
red.@@
asy
starbuc@@
specif@@
fla@@
flavor@@
nut
vol@@
cha
bbq.@@
bot@@
tl@@
cke
44.@@
establish@@
ment.@@
sts
ications
cockta@@
–
tele@@
char@@
ged
elled
color@@
ow@@
del@@
ori@@
acc@@
ts.i
212-946-428@@
leak@@
aw@@
conven@@
ket@@
far@@
let@@
mitchell@@
boo@@
sters
airs
mitted
one@@
tab@@
proc@@
with@@
illino@@
42@@
deliver@@
tim@@
soon@@
tomato@@
sand@@
je@@
orize
ez
no.@@
pub@@
expe@@
assist@@
experien@@
ose@@
itu@@
fast-@@
proce@@
enjo@@
thurs@@
60.@@
65.@@
pti@@
tic
pla@@
run@@
inspec@@
pick@@
plan
buc@@
any@@
gabe
albuquer@@
schwarz-@@
67@@
17.@@
bearbe@@
den.ich
dra@@
komö@@
irgendein
venti-@@
caram@@
spezifikationen
klei@@
durchschn@@
itt
geschn@@
itt@@
zeu@@
s-@@
waynes@@
dere
rein@@
defe@@
mand@@
dün@@
übri@@
wus@@
sü@@
gar
werk@@
sofor@@
sitzpl@@
ätz@@
bed@@
z-@@
kredit@@
kationen
fischen
ausgestat@@
ative
alkohol@@
storn@@
ank
roll@@
musi@@
feren@@
köst@@
imal
wiscon@@
öl@@
frühe@@
gestell@@
76@@
pub-@@
-latte
behilf@@
überprü@@
pol@@
lesen
oll
zusätz@@
besor@@
spru@@
gem@@
atur@@
ella
warte@@
reib@@
einrich@@
adul@@
freund@@
pizzeri@@
phoeni@@
quit@@
einkaufs@@
einkauf@@
tsch@@
reibung
auß@@
origin@@
hm.@@
verzeih@@
kau@@
anders
garten
3d-@@
entschuldi@@
verz@@
kur@@
ze
ì@@
schlie@@
lak@@
industrial-@@
tos@@
tlichen
al
555-@@
121@@
famil@@
tete
fisch@@
zä@@
spezialit@@
ordnun@@
karamell@@
schokoladen@@
alles.@@
eln
thailän@@
dis@@
geben.ich
beson@@
verkehrs@@
ht
funktion@@
umfangre@@
hall@@
ann
are@@
itution
kal@@
weisen
974
sterne@@
mer
ech@@
bedingungen
ersch@@
nis
lä@@
food-@@
außen
sicherzu@@
5309.@@
alle@@
hühnchen@@
haf@@
til
ausgezeich@@
net.@@
gle@@
zweit@@
gäste
zeich@@
530@@
att@@
hör@@
tschüss.
caf@@
é
bl@@
5-sterne-bewertung
erweise
ero@@
woche.@@
klassi@@
9-@@
cker@@
nein.
umgeb@@
pizza@@
durchschnitts@@
vollstän@@
fun@@
won@@
hallo@@
hun@@
mandel@@
sojamil@@
sar@@
gel
mal@@
gan
los@@
belie@@
ente
achten
bist@@
starbuck@@
geschmacks@@
hörer
är@@
.danke
ktion
namen@@
stil@@
zune@@
keit
kaliforni@@
ari@@
voranschlag
mobilger@@
zwanglo@@
bekan@@
clu@@
b-@@
park@@
p-@@
flugha@@
921-25@@
tem
sushi@@
belieb@@
sonn@@
hlung
liche
drit@@
benachrichti@@
überhit@@
bräuen
block@@
fasst
77@@
.89
28@@
gl@@
ppchen
brem@@
telefon@@
äu@@
beset@@
liefer@@
han@@
stück@@
mak@@
bitte@@
nachricht
maxim@@
weit@@
sprit@@
auf.@@
mid@@
stü@@
korean@@
frei@@
vereinbar@@
gnä@@
gten
tomat@@
kreis
portl@@
gele@@
weni@@
775-400-325@@
vorsch@@
lebhaf@@
boulevar@@
bau@@
spi@@
zo@@
bri@@
vanille@@
scho@@
basier@@
vorstell@@
32@@
town@@
bietet.@@
que
555-630-853@@
its@@
zentr@@
ren
unds
espresso-@@
y.
inar@@
mehr@@
gängi@@
amp@@
ahr@@
mittwo@@
rufen
rü@@
fantast@@
aro@@
ran@@
glich
jenige
ο@@
mitfahrgelegenhe@@
zt
gefä@@
angebo@@
y-@@
alen
mail@@
erledi@@
ve-@@
statt@@
bezeich@@
mach@@
mol@@
202-456-@@
zim@@
air@@
mals
proble@@
rest@@
regul@@
chines@@
atmosph@@
diese@@
stor@@
227-477-45@@
äfti@@
geschä@@
470-691-21@@
ron@@
om@@
pac@@
standar@@
bere@@
hühnchen-@@
vorzu@@
geschlossen
täti@@
alisiert
licher
kinderfreund@@
73
73@@
gab@@
fti@@
hän@@
-mokka
gran@@
erwäh@@
ll@@
defin@@
endgül@@
fest@@
dau@@
sage@@
äch@@
zieren
zah@@
41@@
donnerst@@
leist@@
ketten@@
häl@@
bart@@
inst@@
erien
kombin@@
entspan@@
ei@@
zeig@@
stick@@
meeresfrü@@
ill
apologi@@
schick@@
ghts
zü@@
9-97@@
tschüss.@@
chill-@@
hmen
acious
hilfe@@
12.@@
sti@@
avenu@@
schein@@
29@@
nich@@
88.@@
incre@@
ist@@
ni@@
water@@
tung.@@
kle@@
kategor@@
nein.@@
every@@
drive@@
921-@@
movi@@
thou@@
needed@@
erlau@@
sanra@@
22@@
acces@@
suggesti@@
jal@@
78.@@
97@@
foo@@
z
tax@@
aussich@@
febru@@
fron@@
medi@@
ase
moun@@
spring@@
ums
ess
ing.good
cl@@
remem@@
vehic@@
warri@@
too@@
care@@
stellung
ful@@
.one
help@@
lyf@@
rieben.@@
appoint@@
ben.@@
erho@@
wir@@
zie@@
accur@@
vollmilch.@@
asking.@@
é@@
italien@@
wiedersehen.@@
spurein@@
folgen@@
dan@@
sehen@@
ling
pine@@
apple@@
liebhaber
ation@@
hä@@
interi@@
wat@@
gru@@
885-24@@
schließ@@
weg.@@
blv@@
passen@@
roast@@
paes@@
honi@@
break@@
oreg@@
bread@@
illin@@
jalapeñ@@
zus@@
sh
eingren@@
hilfre@@
restauran@@
jewe@@
maryl@@
gung.@@
vanil@@
point@@
wür@@
ned
schätzen.@@
spr@@
jen@@
amaz@@
chi@@
person@@
mittag
short@@
benöti@@
request@@
goodbye.
rat@@
908-788-7@@
os
fahrgemeinschaf@@
zucker@@
fire@@
erinn@@
find@@
erinner@@
essen@@
tennes@@
knox@@
plac@@
ker
inform@@
ven@@
fantastisch@@
atmo@@
dle
möch@@
alit@@
mobile.@@
-lover@@
eingestu@@
oliven@@
steam@@
gar@@
geräusch@@
tac@@
teil@@
ages
komm@@
wähl@@
sty@@
fer@@
ute.@@
rp@@
bele@@
281-330-800@@
billi@@
mention@@
dankesch@@
asse
vari@@
sen.@@
gef@@
spiel@@
pil@@
bum@@
nudel@@
voraussich@@
78
chil@@
regisse@@
syru@@
goodbye.@@
hen@@
mitta@@
dämp@@
öp@@
dist@@
bry@@
wendet
afternoon@@
be.@@
ätzen
hät@@
schlag
lieb@@
schla@@
brauche.@@
head@@
wee@@
sandw@@
60@@
squeak@@
nois@@
eat@@
cap@@
vorbei@@
mechan@@
nete
way@@
ways
altoge@@
popcor@@
mushroo@@
317-479-636@@
fl@@
iertes
aked
ien@@
adres@@
prä@@
delic@@
gener@@
genu@@
gri@@
80@@
mar@@
vorbereit@@
fresh@@
inste@@
experienc@@
