<unk>
<pad>
<s>
</s>
,
.
the
and
in
und
to
die
of
a
that
i
sie
das
der
it
ich
&quot;
you
ist
es
we
is
wir
zu
&apos;s
so
was
this
?
ein
--
von
eine
dass
:
nicht
an
they
den
mit
for
wie
are
on
have
what
auf
but
with
man
sich
can
sind
aber
für
all
haben
wenn
&apos;t
about
there
also
als
er
be
as
at
war
diese
do
um
not
one
&apos;re
im
my
people
if
dem
like
from
he
einen
uns
now
these
können
just
or
hier
oder
our
werden
des
hat
because
when
aus
very
über
out
how
me
by
einer
auch
–
know
kann
up
them
going
einem
dann
sehr
which
here
more
nur
see
wird
think
had
your
who
gibt
really
ihnen
menschen
their
will
get
mich
then
would
were
us
sein
sehen
&apos;ve
world
dieser
etwas
some
&apos;m
time
noch
nach
habe
has
actually
don
into
mir
way
things
where
years
bei
vor
;
mehr
alle
welt
go
am
other
no
-
well
could
want
ihre
make
meine
leben
zum
said
been
machen
weil
new
nun
da
wirklich
wurde
dies
right
something
dieses
she
kind
-@@
first
two
look
durch
those
immer
tun
art
than
his
unsere
little
jetzt
ihr
wissen
thing
got
much
&apos;
back
zeit
hatte
say
life
keine
leute
most
viel
over
problem
viele
only
diesem
work
even
denn
sagte
sagen
take
un@@
eines
dinge
du
diesen
zwei
many
einfach
waren
alles
did
need
her
jahren
good
müssen
bin
why
andere
around
lot
ver@@
wo
&apos;ll
anderen
down
würde
damit
different
bis
let
mein
vielleicht
system
every
zur
through
an@@
gut
selbst
!
geht
come
mal
ge@@
er@@
same
ab@@
use
jahre
doing
being
put
heute
warum
three
day
muss
schon
geschichte
any
einige
called
10
percent
ja
be@@
person
möchte
tatsächlich
made
&apos;d
great
talk
today
able
wieder
macht
s
after
tell
big
gehen
davon
its
end
dort
kinder
denken
ein@@
year
human
ganz
ten
drei
last
another
genau
fact
aus@@
find
hatten
lassen
seine
re@@
darüber
own
land
ihn
paar
könnte
change
ob
idea
wollen
before
didn
jahr
went
should
thought
werde
started
show
in@@
give
kommen
meiner
te
story
design
20
better
never
ihren
wurden
off
course
start
important
auf@@
still
moment
again
während
weg
gab
teil
him
does
beispiel
jeder
next
geben
ago
denke
dazu
ende
gemacht
might
each
vom
part
brain
unserer
thank
technology
neue
denen
wäre
finden
frage
ted
together
en@@
sondern
sogar
...
unser
okay
came
glaube
doch
tag
place
bit
kein
form
computer
long
million
kommt
natürlich
water
ohne
arbeit
few
ihrer
between
used
weiter
zwischen
einmal
zeigen
looking
gerade
weiß
nichts
mean
stellen
würden
too
vor@@
school
information
dafür
s@@
ok
hand
maybe
prozent
passiert
love
done
sort
ging
point
found
verstehen
erste
data
nie
zurück
children
question
unter
doesn
sieht
live
example
über@@
ersten
millionen
vielen
whole
nehmen
konnte
understand
daran
real
30
wanted
four
große
o@@
dollar
k@@
sagt
oh
ed
idee
ganze
bild
may
arbeiten
fragen
letzten
try
etwa
times
bekommen
dabei
women
away
50
ent@@
könnten
everything
trying
working
call
e@@
believe
bringen
kids
internet
fast
sollten
sollte
t@@
ziemlich
de@@
ever
ing
frauen
always
sprechen
money
less
five
wollte
meisten
using
feel
welche
fall
space
power
100
en
geld
kam
country
meinen
a@@
help
meinem
ma@@
food
second
number
d@@
daten
t
wasser
kleinen
thinking
took
seite
weise
wichtig
light
darauf
old
china
technologie
create
sache
video
city
eigentlich
besser
zusammen
future
means
o
getting
weniger
energy
become
quite
making
ins
sense
men
e
enough
probably
vier
small
best
großen
says
without
i@@
gesehen
g@@
building
di@@
ganzen
comes
social
se@@
glauben
li@@
bedeutet
ihm
play
left
dachte
interesting
menge
jemand
lernen
raum
body
kleine
science
earth
home
brauchen
unseren
africa
dollars
ihrem
danke
ter
15
gehirn
zeigt
stuff
talking
happened
gen
coming
versuchen
um@@
half
ask
mann
nein
&#91;
ro@@
jedes
&#93;
p@@
anything
ti@@
pretty
jeden
simple
side
seit
ort
indem
zu@@
de
room
goes
planet
project
ar@@
z@@
ab
ung
zukunft
lives
frau
wer
grund
high
makes
al@@
ways
film
ch@@
york
bad
seen
across
such
problems
living
told
happen
schauen
beim
else
gesagt
job
health
saw
nutzen
m@@
imagine
fünf
eigenen
build
essen
sch@@
keinen
seiner
basically
once
gute
happens
y
countries
global
days
später
yet
schaffen
spielen
erde
allen
picture
sten
y@@
hätte
business
ge
case
b@@
los
team
care
n@@
gegen
hard
jede
book
while
heraus
later
experience
asked
having
move
wahrscheinlich
ungefähr
ra@@
c@@
learn
ideas
al
u@@
probleme
family
pro
bauen
k
funktioniert
dis@@
name
young
age
ts
reason
inside
set
process
konnten
sicher
everybody
st@@
states
erzählen
le@@
per
arten
car
six
wenig
richtig
mutter
open
child
m
line
both
neuen
nothing
billion
em
l@@
history
oft
heißt
single
within
almost
liebe
lange
co@@
helfen
rest
b
g
mind
genug
unter@@
schnell
gt
möglich
stand
looks
40
material
punkt
ri@@
nächsten
cancer
halten
whether
nature
saying
far
top
bring
f@@
schule
cells
music
level
already
ideen
%
körper
bisschen
remember
wrong
true
gruppe
lang
stadt
keep
erst
possible
ated
begann
hope
sah
reden
seinen
dank
unserem
guy
r@@
afrika
überall
beautiful
el@@
planeten
ding
heard
buch
yes
often
sure
d
looked
euch
manchmal
stehen
projekt
research
ers
darum
licht
face
energie
community
je
answer
matter
hin
teilen
anders
st
leuten
bevor
under
piece
read
group
united
months
built
sei
am@@
&amp;
india
amazing
h@@
ungs@@
or@@
entwickelt
liegt
god
eren
hören
taking
ische
milliarden
universe
works
sagten
someone
words
systems
usa
situation
stories
seinem
kennen
ate
education
instead
nennen
test
state
until
places
since
dna
liche
yeah
anderes
myself
tes
gehört
ern
isn
government
ischen
species
order
informationen
sometimes
generation
unternehmen
besonders
decided
weit
control
mädchen
steht
revolution
language
public
2
deshalb
couple
natur
somebody
chen
kinds
exactly
c
machte
house
middle
news
stop
ni@@
turn
le
verändern
ungen
enden
minuten
word
wissenschaft
tat
durch@@
rather
/
front
la@@
bilder
oben
model
namens
everyone
bereits
heart
company
n
though
gar
geschichten
ourselves
con@@
woman
lichen
ation
po@@
head
lo@@
evolution
te@@
completely
lebens
red
itself
erkennen
erreichen
game
minutes
mother
verschiedene
students
share
became
wasn
antwort
führen
lage
familie
es@@
musste
25
benutzen
animals
indien
sprache
must
run
ert
spiel
nach@@
society
gefühl
sechs
darin
wert
happy
experiment
themselves
turns
america
hätten
gerne
—
large
innovation
learned
dich
gets
mit@@
musik
ating
si@@
12
ere
created
environment
ones
möglichkeit
ting
gesellschaft
study
ie
her@@
hours
hear
happening
air
bar
shows
huge
friends
oil
verhalten
klar
sound
guys
sage
perhaps
einzige
braucht
on@@
e-@@
mo@@
population
stunden
th@@
stellt
haus
augen
falls
ta@@
v@@
disease
innerhalb
recht
me@@
treffen
eins
ha@@
wegen
american
along
natural
night
won
worked
pro@@
third
1
couldn
gen@@
ste
h
jedem
gott
gleich
se
niemand
au@@
besten
bewegen
irgendwie
questions
ocean
l
soll
knew
figure
sachen
regierung
lots
machine
gebäude
obwohl
particular
verschiedenen
kopf
early
kindern
vater
stück
vorstellen
schreiben
center
entwickeln
lich
learning
zellen
erhalten
mi@@
area
others
son
bo@@
at@@
moving
zusammen@@
national
past
menschlichen
einigen
against
mon@@
ability
gene
verwenden
gleiche
tiere
im@@
century
least
king
gave
pa@@
finally
takes
u
beiden
z
during
bu@@
wonderful
ger
rate
culture
market
seven
sa@@
bitte
gleichen
männer
60
ziehen
ändern
80
media
close
nämlich
needs
unglaublich
schwer
david
länder
patienten
beginnen
wollten
image
alt
ru@@
mar@@
online
entire
outside
as@@
based
bringt
version
whatever
p
thousands
200
difference
green
google
kamen
dir
cell
lässt
taken
kunst
free
hoch
fand
du@@
versucht
ne@@
chance
daher
parts
arm
überhaupt
damals
lesen
isch
per@@
universum
so@@
patient
software
changed
gern
hin@@
view
he@@
kultur
aller
wohl
auto
3
yourself
hiv
beginning
möglichkeiten
ten@@
hilfe
powerful
herum
nächste
turned
5
führt
tage
tut
audience
cool
hause
groß
fähigkeit
given
bi@@
eltern
ken
sinn
seeing
baby
interested
getan
certain
wirtschaft
terms
black
ch
allem
staaten
angst
nachdem
size
leave
ans
zwar
verändert
ei@@
menschliche
pe@@
fühlen
entwicklung
full
zurück@@
street
cannot
glück
grow
ko@@
dessen
eyes
bewegung
ous
difficult
plan
economic
eight
to@@
ger@@
kurz
walk
sen
junge
region
labor
easy
letzte
behind
began
web
spend
stelle
hand@@
wort
buy
zahlen
value
vision
ho@@
ds
inter@@
dingen
unten
ly
worden
death
led
lösung
force
man@@
common
setzen
amount
eher
j@@
fish
s-@@
gone
ter@@
lösen
den@@
self-@@
deren
weitere
paper
week
hoch@@
normal
meines
ze
fahren
hands
local
teile
erfahrung
field
scale
cost
lehrer
deal
blue
humans
ck@@
needed
kosten
south
nimmt
jedoch
sh@@
simply
kraft
cities
vi@@
welches
car@@
neu
muster
longer
step
unterschied
born
mu@@
father
betrachten
tried
anfang
r
stage
18
fa@@
parents
eigene
roboter
prozess
ausge@@
position
modell
erte
wind
500
solche
sp@@
erten
feet
jungen
either
virus
schön
lose
growth
realized
is@@
erinnern
complex
code
interessant
direkt
surface
x
publikum
minute
wasser@@
beste
autos
krebs
spent
ziel
lost
ses
mussten
books
falsch
tragen
incredible
u.s.
wissenschaftler
schließlich
genauso
fi@@
white
personal
d-@@
sitting
watch
ac@@
fragte
companies
quickly
grunde
fliegen
mag
bleiben
thema
behavior
box
zer@@
su@@
verbindung
structure
ur@@
w@@
namen
jobs
gi@@
maschine
known
laufen
kaufen
nahm
sieben
woche
2@@
do@@
wahr
act
gedanken
ground
ton
girl
john
na@@
zweite
reality
sex
stellte
felt
vortrag
sollen
eat
boden
freunde
sterben
wouldn
university
fly
bar@@
for@@
wären
growing
pay
meter
ks
met
monate
bereich
danach
friend
op@@
neues
opportunity
brought
formen
hast
t-@@
technologies
animal
guten
licher
wi@@
super@@
wa@@
sea
alter
developed
economy
zahl
ates
90
miles
besteht
feeling
plötzlich
weeks
4
fun
da@@
aren
changes
richtung
11
gu@@
zuvor
hey
ens
struktur
suchen
erschaffen
political
lt
wusste
anderer
hinter
reise
potential
technologien
größte
sk@@
poor
zi@@
ar
platz
ster
genommen
tra@@
ad@@
lebens@@
ka@@
positive
theory
ihres
lab
anyone
write
wrote
starting
west
alen
nice
wall
forschung
völlig
short
religion
college
bildung
ale
tools
areas
sun
fe@@
technik
morning
ben
zehn
climate
wochen
ange@@
tages
draußen
general
images
scientists
museum
patients
par@@
luft
designer
ste@@
program
gebaut
ber@@
manche
map
attention
forward
18@@
giving
funktionieren
average
gives
zuerst
deep
gefunden
reihe
modern
links
knowledge
gemeinschaft
markt
discovered
ländern
scheint
geworden
möchten
gewesen
ded
aussehen
ine
ice
fest
digital
movement
ex@@
it@@
anzahl
cut
cars
schul@@
pi@@
speak
studenten
16
unseres
sehe
erklären
krieg
understanding
ke
ms
gelernt
north
en-@@
playing
student
over@@
alten
beginnt
literally
challenge
acht
phone
numbers
mache
firma
bereit
schritt
bottom
brachte
ons
mars
pre@@
shape
dr.
moral
daraus
materials
seems
access
ischer
key
aufgabe
y-@@
anstatt
größe
mis@@
beide
passieren
physical
computers
schwierig
tatsache
ä@@
jahrhundert
miteinander
creating
running
ck
erzählt
individual
hal@@
morgen
anfangen
pu@@
300
english
absolutely
wachsen
glücklich
ent
bau@@
findet
designed
nachdenken
chris
genannt
tieren
sen@@
gruppen
bist
mensch
table
late
hold
jemals
law
realize
result
kleines
chinese
recently
medical
gas
compassion
bekommt
wahrheit
fanden
relationship
ges
solution
mor@@
gingen
millions
bewusst
ak@@
größten
developing
nobody
3@@
focus
hi@@
sts
krankheit
6
soziale
changing
amerika
product
telling
verwendet
niemals
alone
wei@@
umgebung
girls
save
egal
hundreds
gesundheit
incredibly
ant
haven
ben@@
knows
listen
seem
afghanistan
gra@@
f
development
vorstellung
benutzt
der@@
dark
industry
politik
stimme
gezeigt
gerät
ings
el
gebiet
ser@@
ja@@
blood
anzu@@
anybody
no@@
ps
kid
liches
tu@@
available
issue
bücher
mer@@
showed
london
oberfläche
schulen
w
gegeben
allein
obviously
especially
died
rolle
verbunden
bekannt
schrieb
karte
go@@
straße
richtige
entfernt
kleiner
clear
hour
welt@@
bank
hälfte
solve
grund@@
major
ot@@
bio@@
talked
jemanden
geschrieben
war@@
bedeutung
hu@@
com@@
finger
schlecht
ca@@
perfect
games
foto
ba@@
meinung
sub@@
beyond
kontrolle
security
we@@
support
sicherheit
fl@@
spricht
allow
tiny
lived
bigger
type
network
mittel
einfache
beziehung
please
action
theorie
na
produce
present
systeme
becomes
70
east
qu@@
leicht
office
park
städte
gegenüber
drive
veränderung
heraus@@
har@@
x@@
impact
che
geboren
nacht
erreicht
stark
writing
fähigkeiten
richard
begin
tri@@
ve
mitte
kan@@
guess
scientific
reasons
happiness
color
kon@@
explain
hoffe
interessiert
pictures
auszu@@
mission
preis
special
international
resources
8
teach
effect
dead
br@@
freund
europe
schools
ic
groups
under@@
mögen
device
basis
out@@
bill
einzelne
us@@
folgen
gebracht
verloren
nation
fehler
low
14
pflanzen
regeln
fallen
worth
mine
sta@@
versuche
zen
isches
voice
ker
sc@@
os
absolut
legen
stimmt
rules
robot
training
soon
gesicht
send
voll
similar
meet
erfolg
aids
asking
sonne
bewegt
uses
putting
involved
activity
boy
men@@
bekam
basic
teachers
offensichtlich
towards
website
komplett
kt
dachten
sonst
projects
voller
arbeitet
ansehen
heutzutage
vereinigten
tisch
zeige
finde
quality
issues
dar@@
seiten
taten
sofort
selbst@@
a-@@
herausforderung
risk
tells
liegen
suddenly
ku@@
nennt
truth
einge@@
gekommen
solar
herauszufinden
village
ähnlich
mass
mitgefühl
several
studie
eye
ches
bald
board
fear
sorgen
certainly
normalerweise
lei@@
japan
blick
machten
nine
page
smart
sounds
ig@@
tier
class
particularly
entscheidungen
geschieht
non-@@
total
month
gesamte
hundred
möglichen
ne
statt
ständig
trotzdem
everywhere
all@@
wann
indeed
wichtige
ergebnis
haupt@@
24
lieben
object
evidence
einander
wants
pen@@
hei@@
bed
starts
tion
ir@@
em@@
tod
bei@@
walking
wish
hit
europa
bilden
künstler
choice
gesch@@
mal@@
ber
examples
bevölkerung
gewinnen
notice
hoffnung
tagen
größer
anyway
linie
om@@
hospital
bare
wieder@@
weg@@
$
skin
message
ner
orte
showing
schen
neu@@
land@@
pattern
hält
ah
ready
aufmerksamkeit
sicht
reach
wait
nuclear
carbon
service
professor
monaten
sobald
länger
begannen
medicine
gemeinsam
totally
erung
zeit@@
programm
kannst
gearbeitet
moved
stay
ma
journey
wesen
further
anschauen
democracy
th
exciting
san
grenzen
sitzen
connected
period
sit
vergessen
source
grew
measure
onto
biggest
square
creative
sozialen
forms
weltweit
denkt
zelle
punkte
ler
400
realität
ol@@
add
rede
überleben
passierte
et@@
speed
einzelnen
bewusstsein
großer
tet
follow
videos
pick
il@@
schneller
verlieren
nachrichten
richtigen
produkt
fire
gesprochen
ended
gleichzeitig
talks
ci@@
bleibt
bessere
ty
langsam
re
beobachten
aufzu@@
largest
medien
gel@@
road
sand
firmen
öl
übrigens
ke@@
ft
abzu@@
fu@@
rei@@
9
sahen
babies
beispiele
teacher
screen
demokratie
gl@@
vorher
deine
iran
stars
extraordinary
develop
bestimmten
13
versuchte
wichtiger
gang
interessante
peace
est
success
tions
named
poverty
ged
wer@@
mental
likely
list
amerikanischen
lead
wahl
strong
klein
bestimmt
fangen
spaß
krankheiten
serious
buildings
song
washington
ga@@
hab
führte
watching
gutes
visual
ebene
rich
among
tausende
break
end@@
einfluss
continue
bri@@
tier@@
orten
großes
industrie
trees
approach
ling
tan@@
strom
partner
medizin
tend
sprachen
außer
zentrum
zeiten
points
plants
wussten
zumindest
aufge@@
cht
products
zero
elle
bal@@
dadurch
co2
island
4@@
results
sti@@
star
organization
arbeitete
spiele
cu@@
17
brains
umwelt
door
objects
impossible
safe
ally
african
v
eln
wow
standing
meaning
verlassen
electricity
geschehen
7
essentially
laden
definition
series
sent
usually
ö@@
eventually
cause
computer@@
ing@@
paul
zweiten
nachzudenken
messen
ce
biology
spiel@@
spezies
elt
alte
ki@@
verbessern
except
fer@@
grad
entdecken
movie
methode
sprach
gte
cks
tischen
somewhere
spread
mathematik
doctor
tr@@
star@@
tische
mom
zustand
bühne
extremely
ordnung
wand
traditional
ff@@
wieso
allowed
toll
facebook
sky
gestellt
menschheit
farbe
fen
außerdem
erzeugen
expect
studies
camera
aussieht
architecture
upon
crisis
site
geist
dad
higher
erlaubt
tic
lines
warten
studien
larger
kar@@
tree
thousand
sowohl
models
somehow
fing
ball
private
reading
nachricht
sekunden
foot
truly
the@@
papier
individuals
frei@@
tool
taught
materialien
por@@
written
tive
herstellen
conditions
tung
sorts
fundamental
beauty
ment
vergangenheit
finding
verständnis
lu@@
fällt
cher
sammeln
band
cor@@
les
mer
ters
nen
older
prinzip
zugang
killed
shown
baren
nenne
gründe
handelt
shot
bs
bacteria
crazy
tv
zeug
fine
himself
fotos
früher
fantastic
ene
above
drug
interest
produzieren
wife
ell
dr@@
leaders
text
läuft
nahmen
schüler
einzu@@
großartige
party
diejenigen
35
trust
testen
dorf
kom@@
therefore
communities
bra@@
treten
auto@@
gewalt
schaut
befinden
rein@@
goal
ou@@
worse
je@@
konzept
charles
seconds
blind
ges@@
frei
suche
perspective
spielt
wirklichkeit
zwei@@
sal@@
lebt
universität
treatment
complicated
monat
versuch
neben
artikel
dream
aufgrund
.@@
massive
verstanden
england
genes
organisation
tiert
werte
western
fort@@
drugs
famous
flow
stri@@
excited
supposed
content
produkte
physics
favorite
hinaus
des@@
lichkeit
amerikaner
19@@
nummer
bur@@
personen
successful
israel
berg
freiheit
details
ator
irgendwo
ozean
role
hole
entweder
ran
behandlung
san@@
haut
stunde
expensive
welcher
innen
ag@@
town
ph@@
interesse
armut
feld
hot
wachstum
zed
bl@@
rise
sell
worte
humanity
engineering
central
unmöglich
entdeckt
globalen
military
neurons
meant
sohn
theater
faster
leisten
weiter@@
main
2000
plant
ung@@
»
cases
typ
familien
fest@@
betrachtet
response
kept
klasse
ster@@
gegangen
radio
gs
hilft
150
throughout
including
kill
original
pain
tigen
ders
freedom
sinne
alive
math
arzt
aid
pri@@
riesige
smaller
fight
gründen
geschäft
dra@@
price
families
tre@@
«
pal@@
entschieden
ties
ergebnisse
schicken
extra
pieces
bunch
verbinden
genome
slow
pan@@
antworten
vertrauen
arbeits@@
dritte
high-@@
projekte
che@@
patterns
selben
dasselbe
fully
öl@@
wo@@
argument
touch
ley
meeting
maschinen
netz
bestimmte
einstein
rechts
dog
context
george
chten
teaching
ul@@
objekt
male
bel@@
gefragt
actual
herum@@
himmel
liste
beginn
violence
james
architektur
rück@@
although
recognize
tumor
etc
arbeite
us-@@
stellten
skills
policy
stimmen
dance
lösungen
clearly
signal
holen
ermöglicht
fällen
kollegen
eis
neun
earlier
handeln
connect
biologie
greater
progress
waiting
tz@@
nahrung
dan
active
voll@@
concept
store
listening
eben
ebenso
bakterien
choose
ity
thanks
zing
glass
michael
solchen
stre@@
medi@@
näher
fin@@
gten
costs
strange
remarkable
magic
tor@@
erklärt
and@@
tur@@
invented
president
ju@@
cken
traf
naja
wonder
zunächst
untersuchen
sing
connection
dung
fertig
satz
healthy
beings
familiar
machines
ban@@
record
balance
solutions
setzt
september
rights
americans
werfen
gung
entscheiden
income
chte
operation
anywhere
performance
ness
heit
production
tige
zeigte
schönheit
raus
increase
umwelt@@
however
ums
provide
hört
surgery
re-@@
artist
driving
kaum
geschwindigkeit
press
gesetz
lie@@
leider
waste
direction
km
exist
tt@@
befindet
decisions
1@@
neuro@@
hörte
gesamten
hände
ressourcen
freude
2008
schlechte
protect
lan@@
legs
politics
consider
draw
travel
hundert
bezug
spitze
ce@@
bodies
malaria
meer
flu@@
lower
außerhalb
allows
retten
600
geb@@
mobile
rund
hen
beziehungen
mikro@@
komme
services
kampf
seines
kl@@
plastic
auswirkungen
99
herz
foundation
robots
straßen
verkaufen
bus
sin@@
les@@
geschaffen
clean
tests
ehrlich
iert
lag
bedingungen
werkzeuge
ction
landes
dein
none
dangerous
feed
letztes
abge@@
unglaubliche
worten
forces
auge
rule
conference
fische
anymore
ts@@
one-@@
values
current
pass
effective
erfahren
deswegen
bisher
floor
traum
erstens
flying
ca.
conversation
hielt
specific
ves
win
leidenschaft
critical
ants
intelligence
ellen
block
thomas
ship
erfolgreich
lin@@
sorry
sche
self
herausfinden
gleich@@
getroffen
gel
mark
cra@@
function
nu@@
keiner
wege
standard
motor
train
studio
station
slide
trade
minds
verstand
practice
pat@@
geräte
min@@
ach@@
gar@@
environmental
erzählte
är@@
abend
bor@@
emotional
regierungen
lernte
nigeria
gehirns
greatest
far@@
wichtigste
understood
großartig
cultural
protein
armen
depression
druck
jo@@
subject
uhr
rechte
enen
rock
win@@
kilometer
rechten
held
masse
speaking
schließen
erwarten
cold
don@@
verrückt
trans@@
er-@@
becoming
doctors
raise
treat
z.b.
genetic
hunderte
immediately
erinnere
einfachen
fuel
useful
unterschiedliche
mr.
6@@
langen
einzigen
produced
can@@
typen
restaurant
eller
ebenfalls
lights
reaktion
range
ver
k-@@
ring
dern
konferenz
ian
experiments
strukturen
decade
kinder@@
chemical
whose
creativity
directly
evolved
wikipedia
bäume
passion
net
weren
ors
extrem
nasa
stein
angefangen
pull
eigenschaften
ell@@
nahe
walked
45
final
enormous
9@@
krankenhaus
cover
energie@@
drehen
institutions
ahnung
flugzeug
bt
financial
zeitpunkt
forth
ob@@
res@@
kamera
kor@@
unfortunately
forget
loved
mehrere
twitter
endlich
micro@@
gehe
kli@@
near
ations
my@@
fit
survive
consciousness
darwin
police
schlagen
westen
trifft
cker
tern
ism
photograph
status
schützen
networks
il
tiger
heutigen
tradition
levels
kal@@
gesellschaften
stick
following
negative
weisen
nehme
groß@@
netzwerk
daten@@
els
unterschiede
ken@@
jemandem
öffentlichen
focused
ve@@
stattdessen
o-@@
wichtigsten
behandeln
boys
dro@@
tem
veränderungen
types
ließ
tionen
element
detail
aware
str@@
hängt
governments
sha@@
fisch
gesundheits@@
bin@@
kern
shared
wal@@
globale
reichen
ess
various
television
birds
phase
ärzte
jene
herz@@
büro
sat
besch@@
75
kunst@@
medikamente
sustainable
ted-@@
fahr@@
herzen
et
teams
5@@
temperature
societies
000
gr@@
wohin
ars
search
dri@@
pl@@
organisationen
california
indian
ton@@
stra@@
career
verbindungen
drei@@
verantwortung
mostly
al-@@
gedacht
tion@@
ganzes
geschafft
sharing
obvious
ard
konzentrieren
gaben
sleep
dy
guter
inspired
erfunden
apple
son@@
laptop
zweitens
possibly
extreme
hinein
ancient
hinter@@
wor@@
mc@@
jahrhunderts
instrument
regel
alternative
englisch
markets
helped
2007
summer
instance
anti-@@
wider@@
event
sodass
designers
eating
moon
bits
wenige
karten
anti@@
lasst
natur@@
öffnen
körper@@
lief
tete
weiss
ha
tür
ces
brot
7@@
path
recent
capital
fälle
herzustellen
heat
push
character
unique
verbringen
farben
below
harvard
genden
ing-@@
secret
werk
produktion
größere
explore
diseases
daughter
institute
ys
wunsch
brauchte
erfahrungen
stecken
race
geführt
ahead
ther@@
ality
funny
tolle
spending
gebe
paid
wild
related
urban
winter
erleben
erzeugt
größeren
gehirn@@
zeichen
echte
nar@@
versch@@
entschied
mil@@
intelligent
1,@@
francisco
waffen
hy@@
budget
medium
pp@@
trick
complete
sicherlich
up@@
weight
luft@@
artists
gefühle
biological
sor@@
physik
bought
ernst
scientist
entscheidung
inspiration
challenges
birth
echt
decision
ü@@
bringing
ators
unterstützen
ked
discover
effects
islam
steve
cur@@
bitten
halte
bre@@
existiert
bat@@
capacity
industrial
robert
erstaunlich
loch
gold
fühlte
erstes
ß@@
kte
fähig
workers
sekunde
schöne
terrible
modernen
complexity
ct
schluss
tens
fra@@
eu@@
vorbei
gri@@
genutzt
slightly
straight
leistung
ess@@
carry
laws
note
popular
ance
track
neuronen
produziert
youtube
valley
wählen
kreativität
twice
desto
geschah
wagen
communication
dying
quick
ka
reich
han@@
devices
dreht
charge
tief
vier@@
amerikanische
eigenes
komplexität
wörter
steckt
steigen
mel@@
mond
gend
frühen
stern
nächstes
zes
degrees
folgendes
broken
fuß
molecules
worry
quote
drop
bildern
fe
fair
pla@@
beeinflusst
link
10,000
decide
seien
begonnen
bro@@
dig
atmosphere
endes
fragt
freunden
spieler
gro@@
runter
weiterhin
osten
amp
not@@
task
stem
conflict
ss
mt
purpose
ieren
check
zusammenhang
significant
hart
spreche
published
höhe
sto@@
ca
mountain
fühlt
zog
ze@@
1,000
graph
forest
gegen@@
memory
surprising
willing
fenster
played
closer
tochter
coffee
infrastructure
cher@@
spe@@
electric
causes
qualität
ansatz
ven@@
address
marketing
farm
ff
nähe
erlauben
citizens
ful
gende
dorthin
asia
ausdruck
feedback
ments
stone
offen
noticed
hearing
nicht-@@
lat@@
trial
daß
fluss
investieren
minister
verfügung
leads
magazine
grade
nor@@
universums
kriegen
differences
ford
oxygen
allerdings
somit
pressure
ani@@
in-@@
multi@@
ren@@
zieht
ausbildung
supply
zimmer
wirst
kostet
2010
bestehen
wissenschaftliche
designs
politischen
verursacht
materie
reisen
hotel
habt
decades
gewebe
gelegenheit
funktion
stücke
bat
aktivität
20@@
fühle
del@@
sting
corner
british
dan@@
verfolgen
erforschen
structures
natürliche
mittel@@
fernsehen
stolz
sign
communicate
riesigen
benötigt
co
pr@@
infrastruktur
sucht
frieden
giant
fli@@
fo@@
schutz
fort
sur@@
bau
begriff
ta
flight
indi@@
plus
ern@@
trouble
gh@@
bird
irgendwann
botschaft
calls
nations
tro@@
boston
trotz
apart
feuer
answers
tig
pakistan
kämpfen
cent
effekt
term
einkommen
risiko
erinnert
brown
tief@@
sterne
len@@
prize
kontrollieren
töten
haufen
farmers
discovery
river
highly
werkzeug
politische
planets
programs
filme
vielfalt
ermöglichen
zieren
worst
passed
tru@@
yellow
enter
haus@@
brilliant
laut
choices
kern@@
einfacher
großbritannien
männern
aufgenommen
8@@
chs
gestalten
davor
fix
kin@@
gotten
colleagues
entstehen
ige
improve
bridge
lehr@@
efficient
klingt
gener@@
seemed
entwickelten
verdienen
5,000
kräfte
beine
tremendous
bas@@
ad
era
gesetze
lich@@
vergleich
wiederum
possibility
prison
krise
condition
unbe@@
moments
schaft
roten
kommunikation
zei@@
2005
creates
sand@@
organisms
phenomenon
einsatz
onen
ages
kenne
zeichnen
organizations
eigen@@
easily
blu@@
benötigen
tional
feels
dennoch
ran@@
arme
quelle
report
grenze
helping
ute
sozusagen
ecke
hoffentlich
verkauft
ll@@
aufgaben
städten
gemeinde
ker@@
tissue
haiti
selber
fied
scher
ary
letztendlich
responsibility
return
schafft
golf
wächst
chicago
objekte
imagination
bone
reduce
gest@@
union
folge
brand
cal@@
va@@
respect
studying
stoff
ach
-year-old
landscape
leiden
soldaten
jährige
iraq
notion
nearly
legal
noise
problemen
diversity
reagieren
painting
gebiete
lebte
boat
flug@@
stische
sun@@
lautet
flo@@
ckt
card
gewonnen
ously
engage
particles
window
obama
lung
knowing
cal
fer
kur@@
leading
differently
än@@
vollkommen
stu@@
herausgefunden
pollen
schätzen
kr@@
ry
saß
gilt
gelangen
sam@@
agree
entlang
teilt
modelle
fellow
leid
bürger
fil@@
wood
gewicht
ide@@
möglicherweise
ant@@
civil
dor@@
elles
scheinen
achieve
linken
influence
hr@@
wide
core
mp@@
religious
necessarily
genen
beschäftigt
weiteren
turning
fy
fortschritt
cs
g-@@
ap@@
relationships
zug
hunger
wing
karriere
figured
beeinflussen
lebten
management
ändert
2009
hair
forever
engine
sonnen@@
gers
alität
sch
ology
bread
weiteres
kurzem
pen
mouse
polio
bewegungen
methoden
missing
behandelt
darf
kommunizieren
gan@@
hall
atmosphäre
wohn@@
opportunities
moleküle
ender
aging
throw
lucky
sitzt
setzte
senden
dagegen
sion
aler
wandel
interact
despite
ultimately
blog
staat
perspektive
fields
ismus
shift
zone
effort
meilen
lesson
jungs
dieselbe
besitzen
paris
len
21
welchen
steuern
faces
kraft@@
versus
base
wirtschafts@@
lied
entwerfen
umgehen
stopped
dh
foreign
forscher
det
hell
themen
klimawandel
buchstäblich
bezahlen
jahres
wahrscheinlichkeit
on-@@
bush
trained
titel
teten
ner@@
elements
fairly
ns
zuhause
schwarze
photo
uganda
kunden
besseren
1.@@
kontakt
interface
fehl@@
20.
gre@@
nochmal
chaos
arms
id
fleisch
tausend
zell@@
meistens
transformation
worüber
form@@
sommer
perfekt
phänomen
typical
durchgeführt
engineers
ien
fuhr
members
vollständig
temperatur
fragten
19
arbeiter
eis@@
erstellen
mexico
cre@@
hi
brings
plan@@
visit
10@@
gestern
streets
wirkung
year-old
ic@@
sir
peter
absolute
cy@@
unterstützung
vers
unbedingt
wesentlichen
boot
intelligenz
baum
kten
events
hinein@@
col@@
join
shares
organic
gras
hervor@@
wunderbare
benefit
competition
unterschiedlichen
raum@@
distance
gedanke
schwester
zusammenarbeit
ents
colors
sozial@@
post
slowly
apply
afraid
fashion
mathematics
norden
.com
attack
j
radi@@
gefängnis
brief
dar
benefits
kennt
experten
ia
suffering
lauf
veröffentlicht
french
licht@@
ends
stufe
hergestellt
ying
matters
circle
hohen
creatures
female
ft@@
digen
entsteht
hauptsächlich
dritten
virtual
edge
afford
tom
entwickelte
beschreiben
mögliche
traffic
lies
vermutlich
ment@@
aktiv
mitten
row
rat
names
easier
sau@@
degree
cloud
lation
laufe
wind@@
begins
justice
deutlich
milliarde
stischen
gender
gehalten
zufällig
van
falsche
fre@@
profound
bett
lö@@
lernt
identity
experimente
viren
schlag
factory
meters
weder
überzeugt
überzeugen
hohe
adults
sol@@
date
responsible
emotions
wohl@@
din@@
pres@@
ziert
igen
campaign
symbol
invest
präsident
flu
hopefully
berei@@
brother
irgendetwas
cheap
brachten
entirely
gelesen
investment
familien@@
organ
heads
neuer
reicht
engineer
cts
führung
fighting
coast
hel@@
breast
holding
tions@@
ziele
wisdom
behalten
fascinating
finished
creation
begeistert
seriously
jährigen
los@@
losen
22
sold
catch
rein
massen@@
tue
häuser
hund
opposite
crime
gefahr
buch@@
moves
spo@@
bildschirm
describe
handel
gift
interessieren
schutz@@
legt
necessary
starb
stress
raised
adam
stock
arbeiteten
wh@@
las
sick
tons
texas
gewissen
mütter
kümmern
prote@@
vergleichen
hü@@
basiert
leben@@
otherwise
wissenschaftlichen
helps
consumption
ließen
motivation
insekten
räume
chen@@
capable
billions
äu@@
camp
ali@@
trend
shouldn
uner@@
walls
stell@@
predict
rahmen
universal
loss
fell
woher
emotion
master
tten
tiefe
erster
passt
hirn@@
arts
verbreitet
verbracht
meat
volle
phones
ctions
offer
betrifft
gesetzt
insects
ved
lets
rot
sister
lack
übertragen
speech
print
statistics
glaubt
option
bemerkt
kurze
experiences
haft
ak
tin
count
bf
operating
morgens
sport
verhindern
klein@@
caught
babys
verlangen
chip
sive
chi@@
institution
zeitalter
pf@@
95
diabetes
spirit
lieber
lachen
relevant
echten
erzähle
spar@@
languages
aufnahmen
sei@@
bil@@
sparen
spot
aten
deeply
ris@@
alleine
sequence
principles
sowie
geburt
humor
zählen
drittel
photos
tricks
separate
fach@@
eli@@
schönen
klang
tt
hinweg
enjoy
derek
beach
elemente
affen
leaving
economics
fläche
aufnahme
importantly
versuchten
opened
angeles
perfectly
starke
invisible
sudden
ise
steigt
church
bauern
independent
article
führten
erstaunliche
fall@@
wunderbar
barkeit
schla@@
großteil
vast
desire
saving
civilization
la
wil@@
lau@@
sam
steps
ktion
email
anderem
lern@@
airplane
einsetzen
cting
kalifornien
uni@@
finanz@@
meeres@@
app@@
pping
3d
frank
spaces
bieten
damage
ari@@
val@@
ober@@
iphone
23
bild@@
schi@@
oceans
teil@@
netzwerke
mur@@
lady
cr@@
chair
cycle
dauert
ed@@
könnt
sters
kürzlich
hintergrund
mouth
korea
beat
2,000
ähnliche
fund
bereiche
warming
galaxy
kü@@
background
ang@@
hor@@
ies
normally
ren
tomorrow
desert
schwimmen
bees
institutionen
vo@@
blut
film@@
wahrnehmung
organismen
everyday
erkannte
viruses
fri@@
organized
praktisch
landschaft
stellung
gehabt
survival
majority
augen@@
eingesetzt
knochen
sli@@
ori@@
patent
passen
mach@@
cat@@
due
keeping
rural
normale
bekamen
sector
studied
atom@@
handy
stisch
fourth
stuck
wuchs
erwartet
according
bis@@
argue
herr
nannte
miss
bloß
analysis
wisst
driven
tischer
jump
motion
verwandeln
rücken
10.000
aufhören
concerned
wür@@
mas@@
electrical
believed
agriculture
drin
trägt
bildungs@@
brauchten
geschickt
dreams
nieder@@
älter
sä@@
deliver
fold
2004
herausforderungen
landwirtschaft
2003
failed
gegenteil
st-@@
nutzt
0@@
bedeuten
bestimmen
existieren
län@@
gehirne
wald
harder
ny
surprise
hate
zo@@
le-@@
wahre
poly@@
hoffen
cally
ec@@
verantwortlich
zen@@
verbreiten
joy
weißen
ameisen
childhood
ese
toward
puts
17@@
thinks
ser
trip
normalen
invited
molecule
schmerz
abhängig
metaphor
moderne
unternehmer
insel
bienen
ären
person@@
opfer
dahin
kenya
kurzen
leiten
irak
galaxies
journalist
gewisse
sted
inneren
husband
soil
tter
hang
vögel
gay
compared
grand
hidden
managed
commercial
chan@@
principle
hyper@@
27
2001
sel@@
paint
fiel
ced
designing
filled
erkenntnis
schaute
linien
sphere
mindestens
halt
gehören
profit
lebewesen
wahl@@
tives
player
generationen
häufig
elten
werbung
individuen
shapes
zogen
constantly
opening
bauten
getötet
cul@@
yesterday
whenever
wealth
fal@@
öffentliche
oni@@
to-@@
dürfen
oxford
bezahlt
überrascht
transform
eindruck
bares
händen
steel
muscle
plane
pun@@
sauerstoff
debate
zation
täglich
brauche
ßen
transition
gezogen
kat@@
interagieren
ving
direct
two-@@
kontext
poster
advantage
mothers
failure
microsoft
followed
standards
fern@@
sten@@
dimensions
european
rid
mach
ordinary
multiple
genauer
lam@@
random
zt
shoes
letter
brothers
tom@@
see@@
leg
treated
körpers
wearing
erscheinen
army
yo@@
weißt
tough
unless
whom
ash@@
n-@@
bürger@@
losing
voices
weile
covered
eure
rief
polizei
fisch@@
dinner
identität
menschen@@
corruption
gas@@
stands
drawing
16@@
signals
grün
affect
musst
ansicht
drüben
elektro@@
öffentlichkeit
illusion
wan@@
richten
2006
annehmen
warm
blo@@
26
compare
lehren
stanford
tel@@
gestorben
pages
om
nah
ning
generations
prevent
unterscheiden
artificial
erklärung
ence
cy
increasingly
entdeckung
tal@@
kurs
lie
mittleren
eri@@
leadership
paying
nationen
distribution
soviel
match
cap@@
producing
rätsel
tzen
aufbauen
schlechten
cht@@
wel@@
martin
stein@@
expression
continent
solch
fla@@
post@@
trends
cli@@
bot@@
emotionen
ingly
schau@@
char@@
fahrer
65
leaves
garten
sed
britain
professional
clip
sicherheits@@
wired
versorgung
ei
dly
pounds
represent
vorteil
bli@@
wunder
seat
gespräch
collective
ats
lin
weird
lieblings@@
va
belief
persönliche
hum@@
krank
exists
blin@@
planning
ie@@
schlimmer
definieren
märkte
ghana
currently
schlüssel
früh
relativ
meiste
bietet
probe
af@@
super
anwenden
interview
lager
holes
van@@
verbindet
wars
gol@@
ra
ernährung
signale
vehicle
hä@@
well-@@
equivalent
kreis
lä@@
cortex
angenommen
fol@@
double
sho@@
stream
250
stammt
regionen
verschwinden
scht
fis@@
einheit
mü@@
tour
galaxien
ably
schicht
library
abschluss
inspiriert
jack
markt@@
sieren
mengen
garden
tierte
kb
eric
fängt
enten
lass
classroom
hasn
bright
erhält
gates
denk@@
bell
tar@@
fü@@
wichtigen
businesses
gkeit
collect
fr@@
leader
notwendig
honest
bear
mortality
pleasure
rau@@
copy
highest
weapons
starten
stan@@
described
verhältnis
mile
launched
associated
disaster
worried
evil
gam@@
dry
proud
vorfahren
experts
mentioned
&apos;@@
20th
dinosaurs
standen
japanese
wobei
worldwide
suppose
ase
ften
grandmother
flies
mus@@
erfinden
holz
arbeit@@
drink
lunch
regen@@
strei@@
gegensatz
quellen
heben
strategie
smell
feelings
respond
kn@@
äre
gefahren
houses
roll
neighborhood
caused
ray
fat
strategy
appear
chemicals
gsten
mountains
forced
deinen
faktor
programme
digitalen
limited
berührt
consequences
erungen
threat
gens
glas@@
baut
bruder
küste
blau
gefährlich
komplexe
spring
malen
layer
nest
organs
dach
blocks
surprised
pole
einiger
seitdem
bereichen
schuhe
daily
grown
canada
halbe
traditionellen
und@@
killing
kulturen
korruption
ales
cognitive
gelöst
lauf@@
essential
spielte
wert@@
roughly
mess@@
maus
scan
sm@@
kindheit
letters
ure
heisst
wir@@
fle@@
streben
aller@@
importance
thoughts
ned
chemistry
department
unge@@
conscious
besondere
bing
dinosaurier
wirtschaftlichen
einzel@@
hn@@
x-@@
blatt
ii
coral
hen@@
hil@@
schaden
pin@@
grundlegende
back@@
sad
awful
lessons
stuhl
charakter
teilchen
früh@@
trag@@
verfügbar
bru@@
beschlossen
schnitt
emerging
afrikanischen
chicken
rates
fantastisch
unterricht
medizinische
fire@@
mexiko
forschungs@@
tä@@
interaction
fill
pe
homes
ls
sexual
teeth
grundsätzlich
nervous
bes@@
elte
aspekt
manhattan
ras@@
comp@@
shop
construction
ß
wenigen
studieren
heavy
tausenden
bang
natürlichen
dran
ted@@
höher
democratic
strom@@
augenblick
reduzieren
tsch@@
fernseh@@
erd@@
pre-@@
treiben
clo@@
schien
equal
100,000
eng@@
waves
molecular
tor
inner
schw@@
gäbe
flü@@
springen
zeitung
hängen
wear
affected
tab@@
präsentation
müsste
fördern
schei@@
resource
innovative
entspricht
cambridge
spr@@
null
baute
westlichen
drücken
wave
spoke
nachbarn
bestand
trials
ative
prime
sel
vermitteln
gespielt
cla@@
clinical
soldiers
club
tony
howard
taste
persönlich
nt
cke
cro@@
hom@@
ast
cri@@
pil@@
closed
dots
700
married
5.000
fabrik
zerstören
sites
dogs
werten
einrichtungen
fication
three-@@
entstanden
beantworten
kit@@
contact
mehr@@
kam@@
ersetzen
persönlichen
gew@@
verbrachte
solar@@
erscheint
tail
ven
wire
erter
empty
gefallen
down@@
angesehen
rain
practical
raus@@
relative
rufen
politiker
prove
tungen
northern
remote
dynamic
windows
800
bon@@
wand@@
wunder@@
herunter@@
za@@
chtet
mag@@
ol
motor@@
folgende
teuer
cted
tedx@@
rand
beweisen
asien
lagen
stärke
rio
gravity
genom
mes
silicon
newspaper
hinsicht
fossil
lektion
gei@@
zweck
haltung
weather
australia
jedenfalls
konflikt
sprach@@
avoid
entworfen
ish
untersucht
accident
shi@@
ssen
effectively
aufzubauen
origami
vis@@
quasi
mm@@
alzheimer
technical
kerl
momente
users
träume
bein
gemeinden
fan@@
helden
lichsten
viertel
erkennt
junger
wechseln
müll
curious
equipment
schwer@@
sharks
liked
addition
kilometers
unabhängig
architekten
adult
berichten
specifically
kreieren
mathematical
restaurants
alize
beinahe
display
freien
14@@
fährt
finish
saturn
dealing
horse
facing
sinn@@
ping
feststellen
verteilt
erlebt
gap
kaffee
graduate
gelassen
unterrichten
galaxie
löcher
offen@@
researchers
simulation
spectrum
ically
hl@@
beweise
schwarzen
account
dat@@
photographs
whereas
maps
gesundheitswesen
underneath
movies
richtungen
verfahren
höre
ky
ev@@
zerstört
schwierigkeiten
druck@@
intellectual
intuition
120
setting
existence
rote
anhand
protection
user
statistiken
cultures
possibilities
raten
florida
fuß@@
selten
bekannten
initiative
round
aufgebaut
alized
fresh
wen
elektrizität
pac@@
talent
stärker
3,000
scene
situationen
rational
zivilisation
tele@@
cross
gem
hör@@
bit@@
gps
rechts@@
geändert
sources
klima@@
atmen
fern
ologie
wirk@@
solved
gebeten
wirkliche
kra@@
post-@@
orbit
notes
medikament
considered
führer
pur@@
techniques
demand
langer
falten
hadn
fro@@
long-term
sugar
battery
welchem
spiegel
nord@@
pacific
brechen
hau@@
deten
advanced
sees
bedürfnisse
1960
folie
homo
lichem
chain
kochen
proteins
liquid
beobachtet
dunkle
perception
telefon
sides
breath
testing
regular
comfortable
controlled
durchschnittliche
schlafen
glas
hydro@@
nötig
sätze
sum@@
besuchen
ble@@
erin
vote
ologen
zauber@@
selling
nis@@
komplex
deeper
gelegt
radical
kers
inhalt
brian
plat@@
ble
typically
barer
vorstellungen
fun@@
mul@@
sil@@
filter
suggest
pul@@
peak
gain
players
gegend
experienced
seh@@
picked
credit
human@@
weiße
ines
p-@@
kitchen
heißen
tors
stood
ils
nützlich
dimension
definitely
geld@@
blieb
mund
nutzung
kampagne
entdeckte
zugänglich
calling
introduced
marine
willst
generate
define
s.
method
agenda
diagramm
hinten
reaction
silk
express
großmutter
plans
saal
wesentlich
hol@@
ehe@@
cam@@
chemikalien
wen@@
kompliziert
centers
folgt
mitglieder
evolutionary
explosion
explains
schalten
teenager
therapy
sets
kopf@@
crash
ierte
grüne
pos@@
engagement
erstellt
folks
blauen
internationalen
vollen
grosse
goals
gegenwart
flat
lustig
exchange
identify
erfindung
geographic
target
wirken
architect
characters
pause
safety
hallo
ched
vorne
leistungs@@
diet
cents
gelebt
online-@@
lli@@
tation
convince
smith
metal
ham@@
personally
solange
gore
stupid
platform
lifetime
former
menschlicher
property
digitale
med
anteil
valuable
ep@@
load
verlust
mini@@
pop
variety
erwähnt
sowas
writer
autor
naturally
verbessert
arrived
brücke
effektiv
connections
siert
lediglich
efficiency
gs@@
geheimnis
tel
ht
grünen
erwachsene
entwicklungs@@
op
theme
insbesondere
las@@
illegal
cl@@
kriegs@@
herr@@
southern
übrig
non@@
zz@@
singen
diskussion
acts
q@@
generally
queen
stoßen
tin@@
gefällt
wieviel
vorhanden
radiation
seltsam
kes
transport
dienst
represents
gesund
schimpansen
click
lokalen
viel@@
büchern
toten
ecosystem
pool
derzeit
herren
video@@
prinzipien
heim@@
entwicklungsländern
epidemic
ina
ward
soci@@
zitat
bedarf
ertes
außen
maßstab
el-@@
atoms
vorhersagen
achten
primary
sentence
burn
geschäfts@@
computing
capture
metapher
buying
carrying
aufregend
joe
saved
innere
air@@
straßen@@
roll@@
mama
afrikas
stoffe
freundin
webseite
psycho@@
faith
tot
suggests
regierungs@@
moralische
fac@@
expected
ladies
bay
unterstützt
achse
85
hierher
schmerzen
flug
regen
versteht
beschäftigen
zuhören
carefully
illness
äußerst
struggle
molekül
replace
beinhaltet
driver
pilot
volk
tz
wenden
sy@@
behaviors
ig
physiker
dy@@
einiges
prä@@
liefern
mention
goods
vulnerable
factor
wüste
müssten
gemeinschaften
pra@@
exercise
wettbewerb
fte
serie
blogs
cas@@
formed
squ@@
films
co-@@
alism
beschloss
laboratory
politicians
mes@@
kapital
enorme
fischen
nden
hinzu@@
steven
gli@@
increasing
unglaublichen
glo@@
analyse
krebs@@
roots
eg@@
jim
depends
reward
kombination
anstelle
untersuchung
grundlage
ank@@
systemen
ur
orange
environments
brach
tiges
ical
appropriate
risks
geräusche
honor
string
erwachsenen
ba
previous
roads
trillion
applied
roof
swim
sum
clever
defined
cking
verbreitung
entstand
leb@@
felder
rare
senses
ear@@
situations
fusion
hab@@
cooking
strength
require
chemie
pack
destruction
henry
gulf
cutting
hnen
awareness
risiken
voraus
slo@@
milk
ching
vagina
hat@@
relatively
ths
bank@@
hielten
kurve
ffen
australien
marriage
nä@@
seht
stammzellen
broke
züge
rennen
piano
stro@@
rb
axis
speziellen
director
serve
proben
cked
beispielsweise
großartigen
glamour
ausmaß
location
log@@
schrift
hurt
mistake
ride
21.
received
unterschiedlich
convinced
uns@@
confidence
stic
entfernen
ple@@
gegründet
wed
diert
wondering
infected
crowd
mode
visible
gebieten
mut
introduce
allgemeinen
ente
invention
comfort
selbstverständlich
sending
bedenken
manage
wirtschaftliche
lincoln
veränderte
ausstellung
sektor
pped
sophisticated
enti@@
arm@@
mix
u.k.
zer
recorded
gesichter
accept
12@@
ppe
telefon@@
pollution
miss@@
lay
nachts
requires
passionate
überraschend
novel
que
tiven
discussion
neuron
fel@@
survey
runs
kanada
leiter
spezi@@
sms
setzten
teste
section
pas@@
stes
ws
taliban
eastern
cing
anwendung
solcher
grab
mitarbeiter
ancestors
verteilung
innen@@
kul@@
vertraut
gegenseitig
laptops
u.n.
heran@@
promise
schlechter
mirror
menschliches
channel
beweis
fail
schrecklich
grid
bezüglich
verwandelt
comics
bac@@
mistakes
thin
extra@@
unlike
kannte
emissions
nahrungs@@
ozeane
voraus@@
west@@
processes
wovon
vorzustellen
industri@@
psychology
tracking
damen
überlegen
trinken
hits
germany
worauf
tze
gekauft
consumer
switch
vorbei@@
sse
dur@@
irgendjemand
error
lächeln
strand
sa
encourage
medizinischen
fen@@
alist
schlägt
internationale
vaccine
katastrophe
1.000
versagen
beschreibt
gebraucht
ausgeben
may@@
cop@@
unit
ppen
ana
kirche
healthcare
therapie
füllen
properties
prepared
style
ely
five-@@
ours
schritte
unusual
tö@@
watched
wofür
kapitel
neighbors
acting
übernehmen
ah@@
hans
ohren
überwinden
est@@
cure
brazil
aufs
entrepreneurs
werke
ko
rollen
dauerte
tim
weiterer
gemeinsame
sal
ory
tac@@
battle
fying
clay
explanation
manufacturing
pm
witz
bemerken
anfing
top@@
movements
kenia
fan
darunter
di
ville
bob
meetings
schlüssel@@
quantum
sw
poetry
input
protected
sticks
instruments
grafik
presence
collaboration
32
empathy
grossen
zeigten
existing
arab
bronx
solving
interpretation
stin
zähne
percentage
ought
opinion
lang@@
employees
obje@@
exploration
gefähr@@
added
burning
reached
rechnen
continued
wine
cin@@
resultat
ished
willen
seid
hollywood
20-@@
shall
2011
aussage
curve
tics
technological
vermeiden
linked
ss@@
ph
presentation
smile
28
jesus
enz
nde
holz@@
tanz
meist
member
amy
lake
telescope
berg@@
fingen
farmer
court
freie
schreibt
musical
birthday
bling
penguins
components
sample
ore
jung
lar@@
durchschnitt
arti@@
darstellen
hö@@
koran
sensitive
ße
besseres
mittels
hill
mat@@
facts
chinesische
oren
wahrnehmen
schwieriger
fewer
logic
electronic
nicht@@
bike
erende
bomb
betrieben
golden
stand@@
geln
hrt
wechsel@@
transparent
combination
ideal
organe
recht@@
hoping
interests
2002
gal@@
pol@@
wein@@
annahme
physi@@
sport@@
flowers
ler@@
mau@@
mitteln
bo
armee
schuld
dre@@
kle@@
educational
zierte
nase
sher@@
literatur
hospitals
manager
wat@@
kriege
schauten
teilweise
ruf
absicht
existenz
hing
rec@@
occurred
asks
hörten
quiet
besessen
momentan
kontinent
accurate
kevin
jan@@
lying
süden
akzeptieren
ears
ey
parallel
einfaches
coal
dimensionen
bubble
religionen
dichte
haften
productive
gemälde
closely
kleidung
skill
deutschland
südafrika
15@@
congress
cards
erkrankungen
konzentriert
garage
süd@@
falling
besitzt
gold@@
cat
violent
wellen
shark
pfund
theit
nat@@
dge
dischen
0-@@
gemeinsamen
framework
lebenden
st.
ultimate
islands
interessantes
perfekte
gebäuden
un
mark@@
shoot
spro@@
hero
zy@@
materi@@
genetische
musik@@
glaubte
ics
heroes
zier@@
realen
schiff
zurückzu@@
literature
traveling
stehe
hardware
three-dimensional
ash
bottle
economists
verbrechen
wünschte
gerechtigkeit
ast@@
stronger
tsunami
lehre
einstellung
umfeld
emp@@
hydrogen
schneiden
grün@@
gebrochen
shake
shanghai
derer
benjamin
debatte
fakten
partners
spüren
automatisch
bag
erweitern
amounts
tritt
wake
dramatic
organisieren
konsequenzen
gdp
plastik
tam@@
unver@@
worum
weltweiten
tasche
lebe
larry
score
tiv
unterhaltung
cru@@
fishing
meinte
sitz
funding
chef
verstehe
jahrzehnt
sight
hot@@
all-@@
c.
ergibt
fed
blaue
enthält
enorm
enthalten
lifestyle
brust
woran
xi@@
büro@@
sar@@
joke
funktionen
author
pulled
kabel
zucker
aufnehmen
tonnen
hän@@
rü@@
todes@@
flächen
geholfen
farb@@
rapidly
songs
mechanical
stoff@@
inen
collapse
wirkt
dieselben
grain
head@@
bla@@
chancen
haup@@
geräusch
insight
stat@@
19.
initi@@
ologist
dropped
low-@@
ture
11.
rooms
presse
explo@@
performing
regions
soft
heim
tte
lea@@
soweit
technique
besagt
tube
kontrolliert
gun
mitglied
wohlstand
pt
mutter@@
sl@@
aktivitäten
psych@@
eggs
psychologie
reputation
samen
erkannt
zerstörung
tot@@
innovationen
irgendeine
magie
correct
fehlt
faktoren
treating
weshalb
include
actions
glücklicher
rie@@
behavioral
de-@@
ähnlichen
niveau
aufgeregt
tape
verlauf
outcome
clouds
erlebnis
auseinander
daniel
april
erhöhen
microbes
bericht
ya
cameras
smo@@
ansieht
shaped
böse
dame
jahr@@
ll
milli@@
nen@@
ausgaben
änderungen
statement
kameras
creature
tzt
satellite
sunlight
froh
sustainability
lügen
tanzen
schü@@
fake
iger
elektrische
respekt
schatten
ites
new@@
schlug
bildet
subjects
erforscht
factors
mangel
conventional
singing
ingenieure
epidemie
jeff
explained
tonight
bekomme
macht@@
decline
quar@@
rocket
relate
schl@@
flasche
lebensmittel
geschenk
beibringen
bones
shame
bert
trat
tank
sie@@
nis
amazon
fortschritte
welten
religions
folgenden
ursprünglich
collection
aspekte
nose
test@@
parks
conservation
100.000
programmieren
ernsthaft
schu@@
dam@@
transportation
topic
county
inzwischen
bio-@@
mehrheit
edi@@
0,@@
via
darstellung
keeps
wissenschaften
vari@@
demonstration
brand@@
spät
nachzu@@
fasziniert
tat@@
increased
ized
afternoon
offenen
aspect
button
reverse
gottes
measured
tü@@
vieles
hinzu
ty@@
musiker
raw
anschaut
wolken
attempt
val
1990
verglichen
ero@@
nelson
features
drives
architects
oc@@
oxytocin
genügend
é@@
remain
detect
10-@@
lokale
feynman
meaningful
batterie
55
gat@@
verkehr
sper@@
vierte
ereignis
feeding
entfernung
wä@@
activities
walks
wenigstens
generated
gentlemen
nor
kaufte
shor@@
magne@@
b.
combine
komplexen
cou@@
release
split
sicht@@
figures
komm
records
algorithms
behaupten
poli@@
fundamentally
sty
dargestellt
monkeys
length
puzzle
chips
super-@@
vielmehr
andrew
womit
fokus
mike
nebenbei
ited
matrix
gewinn
proteine
mol@@
lee
ge-@@
finance
medizin@@
gab@@
krieges
gesammelt
reference
deli@@
swimming
mikroben
au
effizienz
german
ischem
erinnerung
options
nie@@
dige
spektrum
nachgedacht
climb
analy@@
tic@@
ctive
tested
doubt
dün@@
trafen
hunde
optimi@@
phrase
ära
beschrieben
younger
regime
starben
eingeführt
dick
determine
vol@@
surgeon
gue
pizza
election
stil
johnson
challenging
engaged
narrative
retro@@
tea
defense
kop@@
noten
fach
upper
unfall
gericht
durchführen
exact
alisiert
expand
liefer@@
stieg
schen@@
fantastische
globe
eingeladen
lichkeiten
graben
pure
scheinbar
schau
zte
blase
hut
remains
dose
sauce
dest
eindeutig
mittlerweile
strahlung
bibliothek
preise
bus@@
evening
expedition
angeht
conclusion
betreiben
hervor
gespräche
trau@@
48
waffe
verfolgt
vorher@@
touched
wherever
vorteile
zusätzlich
sorge
tiefen
ologe
nan@@
jones
hof
lebende
13@@
stor@@
combined
paradigm
gedicht
spa@@
lichste
launch
unteren
33
gewählt
beenden
physically
definiert
interaktion
tale
mall
2,@@
ams
hong
kno@@
interviews
she@@
vehicles
starken
linear
dilemma
hung
wireless
feuer@@
pinguine
horrible
w-@@
prices
verursachen
marke
worlds
philosophy
vogel
tan
manchen
ron
merken
basierend
route
informations@@
stephen
suit
twi@@
indischen
processing
sweet
wurzeln
wände
tauchen
potenzial
m-@@
billionen
küche
sky@@
desk
lands
kümmert
tran@@
authority
such@@
tiefer
neither
shut
perform
by@@
ernähren
zusammenarbeiten
sichtbar
0.@@
del
title
pair
sicher@@
titan
laser
schließt
mitnehmen
instrumente
wunderbaren
poem
langsamer
blumen
fein@@
ball@@
obsessed
heiten
rad
brasilien
expert
boring
besorgt
ini@@
techniken
beteiligt
dd@@
frame
umzugehen
kti@@
underwater
villages
grundlegenden
ki
surely
ooh
frankly
clothes
zweimal
breaking
clinic
enable
bein@@
lebenserwartung
schild
signs
dense
weisheit
speziell
stable
remind
ausgesetzt
functions
interactive
glücklicherweise
plastik@@
divided
algorithmen
recording
ältere
aufgewachsen
binden
operate
applications
älteren
sons
bung
sü@@
50,000
inseln
schönes
solid
einst
somewhat
bemerkte
well-being
brust@@
bahn
maß@@
embrace
verschwunden
danger
wright
36
kulturelle
dozen
ye@@
maßnahmen
nett
connecting
schwarz
dete
gran@@
baseball
printing
netz@@
session
stadt@@
lg
dirty
eier
liebte
grand@@
stiftung
biologische
mate
ehe
circumstances
sis
staff
halb@@
flügel
überraschung
operationen
national@@
messages
selection
decken
verwendung
neben@@
bogen
privat@@
gefangen
copyright
stet
reform
spider
wise
quarter
boom
blut@@
kostenlos
killer
ill@@
artigen
erer
handle
wn
minus
leg@@
2050
unexpected
virginia
ambi@@
kurz@@
auff@@
sle@@
mystery
wondered
tiver
geschlagen
functional
träumen
branche
jane
gesamt@@
gabe
root
newton
halb
volume
außen@@
monitor
zierten
sozi@@
gewisser
sions
dert
haie
entertainment
räumen
derselben
william
fingers
i-@@
implications
stift
bet
bü@@
mischen
required
faszinierend
sex@@
wechsel
seele
transformed
isi@@
concrete
makers
wem
bee
paintings
mandela
tex@@
muslim
largely
buchstaben
geschäfte
dliche
feature
für@@
fs
ländlichen
collected
courage
cook
distributed
anischen
verliert
chinesen
soli@@
funk@@
sy
fliegt
joshua
tungs@@
acht@@
yer
ruhe
ming
kohle
lighting
darstellt
hieß
kei@@
auen
ähnliches
reg@@
höhere
könig
internet@@
zus@@
decke
palm
seltsame
greenhouse
niemanden
drogen
variation
kreativen
interessanter
chter
yed
alien
advice
diagnose
boxes
ppt
alismus
vorstellungskraft
grass
dna-@@
21st
abraham
stoffen
30-@@
atten@@
cm
tlich
watt
spi@@
herstellung
visuelle
schn@@
jener
clinton
abstract
ität
agency
lasse
umge@@
equation
cow
schä@@
ungsk@@
ai
ir
hr
jähriger
liber@@
simplicity
classic
berge
nahen
infinite
geteilt
deaths
latest
nutz@@
pel
wahlen
ander@@
participate
exploring
maß
heu@@
fürs
alter@@
schwierige
ägypten
ökosystem
resistance
metern
bezeichnet
suchte
dahinter
investitionen
released
ink
ziel@@
egypt
zufrieden
mid-@@
bezeichnen
ckte
bedeutete
africans
lieren
iges
water@@
weite
green@@
pie@@
dancing
flugzeuge
internal
1000
projekten
wär@@
genetischen
resultate
fahrzeuge
dot
schießen
component
vorbereitet
scott
ologists
afrikaner
flew
geleitet
genius
grenz@@
ass
nationale
mächtig
economist
entdeckungen
islam@@
beachten
fliege
empfin@@
alex
studium
maker
individu@@
tate
identical
odd
computern
hafte
fortune
trage
busy
staat@@
admit
voneinander
hne
schäd@@
unknown
wa
jahrzehnten
plate
concepts
bars
pon@@
anscheinend
anten
männchen
charlie
dlich
ek@@
physicist
glichen
kla@@
moore
bedrohung
tee
consumers
loop
sonnenlicht
sw@@
symmetry
charity
angel@@
60s
plattform
rat@@
ads
mad
mechanism
regi@@
kingdom
zentren
yorker
19th
tau@@
reduziert
meme
hinzufügen
jazz
fore@@
är
militär@@
journal
ski
umgeben
delhi
carolina
anlagen
störungen
chapter
schaue
slums
cup
schlussendlich
gate
housing
potentially
benden
inspiring
has@@
dolphins
cho@@
kreative
incentives
unclear
phot@@
scared
angle
anderson
te-@@
parking
greifen
victims
rose
versteckt
design-@@
obesity
zuschauer
leichter
trug
tisches
struck
wheel
feiern
präsidenten
joined
stayed
militär
29
begegnen
apo@@
computer-@@
packen
bles
deiner
hren
measuring
müll@@
technischen
späten
thin@@
gegenden
oran@@
arabischen
marks
para@@
t.
milch
zü@@
mo
gray
seti
proof
gewe@@
bricht
gras@@
circuit
dauern
welle
aktion
joseph
passing
öffnet
wunderschöne
sculpture
tech
flower
ökonomen
kre@@
severe
spuren
bibel
lebendig
tag@@
isieren
four-@@
pflanze
anzusehen
geistes@@
falschen
20,000
moral@@
landen
domin@@
atlantic
bias
inspirieren
aufbau
lift
shell
arguments
snow
mm
wu@@
flexible
work@@
breathe
rock@@
nachbarschaft
ly@@
pferd
actor
gram
organism
photo@@
lon@@
ine@@
kong
erhielt
mä@@
schwarz@@
nas@@
divide
careful
bekämpfen
chern
unterwegs
wissenschaftlern
fehlen
tie
klassenzimmer
schrieben
riesen@@
chose
cyber@@
existed
pregnant
powers
pläne
doppelt
antwortete
trennen
usw
steine
blicken
ped
pocket
powered
golf@@
jahrzehnte
depend
celebrate
ann
installation
tall
pile
romantic
asteroid
iled
causing
loses
zahn@@
tierten
vorzu@@
tigung
dient
dunkel
cies
vorgang
planen
hon@@
sches
automatically
1-@@
klinik
schicksal
everest
beruf
gru@@
mathematiker
bel
perfe@@
samkeit
lovely
hier@@
ai@@
anische
arbei@@
stei@@
dean
invent
wünsche
fei@@
grows
placed
hinterlassen
verdient
sche@@
machst
ships
ots
geburtstag
neuigkeiten
christ@@
design@@
shar@@
dische
france
ration
kun@@
web@@
neten
blätter
jay
gor@@
getrennt
verb@@
chemische
ham
density
70s
blei@@
ize
carried
sprung
zin@@
ereignisse
dinger
hip
whales
anlage
arthur
klima
tower
letzter
cken@@
russia
ter-@@
schweden
ware
christmas
ech@@
portrait
bende
november
gramm
lenken
kugel
zahl@@
bemerkenswert
directions
roman
funktionierte
forsch@@
stoppen
magnetic
pir@@
dig@@
auswahl
chinesischen
autism
versorgen
tasks
ade
relation
sahara
slides
vermögen
anstieg
dent
gleichung
ently
stru@@
spezielle
wichtiges
monkey
geruch
usual
elektrischen
schichten
meer@@
false
entscheidend
griff
digt
moralischen
habitat
tzte
terror
nowhere
liefert
awesome
highway
e-mail
virtually
heiß
wirft
claim
ets
funktion@@
multi-@@
drogen@@
translate
pink
vorhin
epidemi@@
nation@@
particle
biologischen
electro@@
script
komponenten
cry
um-@@
alisierung
schreib@@
synthetic
üben
occur
islamic
üb@@
aside
zeich@@
bers
papers
rever@@
insgesamt
constant
th-@@
lige
angriff
stock@@
drehte
tter@@
positiv
ursprung
intense
welcome
soul
schte
oma
irgendeinem
inner@@
ium
letztlich
tere
higgs
recovery
werbe@@
offene
march
hello
publi@@
genießen
abgesehen
appreciate
gefüllt
vorge@@
zeitraum
productivity
estimate
weltraum
bewohner
vorschlag
extinct
capit@@
kö@@
interestingly
72
ffs
optimistic
mei@@
toxic
hs
erhöht
schwere
zä@@
ear
tal
truck
3.@@
dungen
beigebracht
ngos
origin@@
opposed
selbe
vir@@
centuries
ür@@
quest
border
fahrzeug
pfer@@
matic
erenden
half-@@
legacy
neigen
betroffen
meister
bizarre
jun@@
tja
congo
agreed
kä@@
comedy
gründete
fau@@
dunkelheit
facial
schlu@@
begreifen
presented
sender
legte
mess
berechnen
august
happier
fressen
anger
open-source
u.s
ending
erneut
gemein@@
eigenschaft
kohlenstoff
erwärmung
weltkrieg
mö@@
geworfen
treibt
equally
höchsten
stadium
teufel
allo@@
dazwischen
ering
drittens
vergnügen
fifth
sweden
inten@@
distant
winzig
ette
bible
sech@@
net@@
stations
conver@@
nannten
dynamics
remove
var@@
populations
economies
symptoms
weak
output
philosophie
an-@@
gesundheit@@
übersetzen
drauf
energi@@
spiegel@@
scanner
shoulder
mainly
eres
depending
identifizieren
ef@@
elephant
haare
zoom
forming
bene
vessels
diger
echtzeit
viol@@
mumbai
knapp
infiziert
ausmachen
knee
represented
classes
hai@@
hnt
abed
erinnerungen
yu@@
pflege
leonardo
gesunde
beides
zunehmend
organisiert
secure
permanent
wander@@
photography
funded
pc
demo@@
din
till
einfachheit
studiert
furniture
filmen
verein@@
teure
2.@@
bun@@
mus
jenseits
dramatically
dienen
silence
savings
spiritual
faced
herunter
anwendungen
mensch@@
latin
painful
berühren
educated
wundervolle
scratch
strategien
organize
sogenannte
whale
fett
year-olds
balloon
mot@@
cast
wolke
übung
nets
identi@@
rwanda
interessanten
zufall
alpha
surrounded
judge
biologen
pfen
disorders
akt
dynamik
änderung
dunklen
sichtweise
iron
ered
zeichnungen
verschiedener
blasen
spoken
syn@@
laugh
muslims
drawn
konfrontiert
hiv-@@
zentrale
spreading
kosten@@
schlechtes
offered
federal
wälder
hassen
cell@@
positiven
wozu
besucht
handys
mic
boards
tenden
figur
architekt
brü@@
szene
resi@@
b-@@
veröffentlichen
.org
ain
kamer@@
long-@@
außergewöhnlich
liest
zugeben
shock
granted
samples
allowing
disorder
gebrauch
drucken
atory
institut
dun@@
vergangenen
disappeared
besonderen
investiert
app
hinblick
zwischen@@
se-@@
ausrüstung
bewahren
audi@@
streiten
wanting
0
gross
bab@@
vietnam
stille
drinking
köpfe
ater
dish
cartoon
aktuelle
teilung
kontroll@@
stam@@
conversations
konflikte
tively
gendes
präsentiert
stärken
posi@@
dutzend
sonder@@
erklärte
bie@@
stamm
hide
relations
z.
immune
bility
37
scary
parent
mehreren
herself
risiko@@
kalt
astro@@
proje@@
campus
sende
colle@@
bekannte
liver
visuellen
berichtet
attacks
hur@@
appeared
wü@@
gemüse
gleichgewicht
foie
flüssigkeit
apparently
kultur@@
suffer
tile
spots
sandwich
entered
circa
appears
verkehrs@@
vely
fas@@
sports
ehre
sylvia
ick
abhängigkeit
plätze
é
reaktionen
anpassen
stan
seed
fremden
nervös
headed
anz
provo@@
maße
beitragen
fahrt
abo@@
scho@@
pig
teren
providing
winkel
umständen
astonishing
behave
floating
psychological
fran@@
friendly
leuchten
chart
belohnung
disappear
wartet
limits
kreb@@
könne
advertising
uten
repair
tly
sexy
muskeln
3-@@
länge
digung
outcomes
ans@@
ther
reaching
ele@@
sla@@
limb
mutation
schlag@@
ßt
accessible
tax
ay
besuchte
altern
cha@@
traurig
dependent
rush
zeichnete
1999
ik
alisieren
angry
curiosity
tied
glück@@
schickte
rising
kni@@
dene
destroyed
gross@@
dating
chest
ethical
atoren
overall
x-ray
lig
98
moder@@
umso
spannung
ener
-like
wetter
bot
motors
chtes
tumors
poorest
gerettet
punkten
defini@@
fordern
scans
bul@@
overcome
kreislauf
tered
chemi@@
erdbeben
corporate
embedded
dem@@
trucks
commitment
regel@@
tende
hardly
wider
ures
krei@@
reiche
ame
riesiges
height
beitrag
den-@@
ridiculous
speakers
rech@@
symptome
assume
locked
kasten
schli@@
ierten
og@@
fiber
subje@@
by-@@
helium
vertrau@@
empfinden
eigentliche
britischen
verbrauch
winzigen
chocolate
russland
tedtalk
mung
shooting
tragedy
heaven
gandhi
berechnungen
ot
tically
kongo
emergency
emotionale
eit
ergeben
eth@@
zukünftigen
dignity
muscles
inspire
interessen
tunnel
afrikanische
lewis
figuring
diskutieren
expansion
supp@@
honey
stahl
0.000
memories
sat@@
asi@@
frankreich
eng
frozen
tures
recognition
rice
wings
bewirken
gewöhnt
dete@@
ration@@
teilnehmer
ao
lebensmittel@@
june
traditionelle
zie@@
physische
review
audio
santa
nte
shu@@
ens@@
füße
destroy
50.000
logik
gän@@
versprechen
cricket
footage
diverse
taucht
play@@
zehn@@
dialog
microscope
papier@@
zweifel
feind
vorträge
oberen
erfassen
,@@
codes
ang
jet
glaubten
extent
boundaries
heilen
kette
precisely
bes
terrorism
teri@@
collecting
poet
stirbt
borders
pit@@
increases
wirklichen
langweilig
saßen
cash
earthquake
season
adap@@
zig
zurückkehren
1994
recognized
andererseits
chter@@
letting
fordert
hlen
hoher
stum@@
diplo@@
wards
zugleich
repräsentiert
aut
effizient
ktoren
backwards
isierung
plays
nten
guide
dust
so-called
exhibition
telephone
medien@@
transparency
harm
connectome
nah@@
dienstleistungen
ep
continues
sensi@@
chirurgen
kir@@
logo
gestaltung
chimpanzees
l.a.
fasern
wild@@
handlungen
popul@@
aro@@
properly
errichten
cer@@
mail
toilet
council
frequenz
katastrophen
reporter
demonstrate
inst@@
raising
berlin
reli@@
kung
official
…
schaften
reduction
neulich
bom@@
affordable
bekann@@
monster
adapt
sammlung
ausdrücken
stufen
exakt
expertise
contra@@
bewegungs@@
intensive
keyboard
jenen
speaker
verließ
193@@
analysieren
globalisierung
interessanterweise
pers
yp@@
black@@
handlung
blow
stewart
fünf@@
animation
industries
glob@@
chti@@
geschmack
witness
globalization
elefanten
erwähnen
c-@@
uh
sheep
apartment
phy@@
erfüllen
igkeit
january
reichtum
bicycle
clock
block@@
tedtalks
zentral@@
onal
dä@@
erfinder
mmer
kranken@@
steuer@@
diagram
origin
tzu@@
der-@@
nachhaltige
350
inch
probability
succeed
achieved
insulin
schnelle
tis
tries
dollar-@@
football
sensor
ined
alization
alexander
frequency
konsumenten
weibliche
breathing
absor@@
application
brüder
schöner
bösen
foot@@
benutzte
recycling
airport
cham@@
ases
governance
schätzung
goo@@
qui@@
naked
ima@@
fixed
tting
bevölkerungs@@
dü@@
hawaii
rob@@
ax@@
fiction
stores
mid@@
personality
schwe@@
pushing
pointed
kaputt
wein
ignore
doppel@@
nete
robust
-up
regul@@
nobel
enemy
spur
maintain
implan@@
fres@@
organismus
spenden
ten-@@
flog
wale
irgendwelche
grandfather
vorsichtig
pp
sequenz
aufstieg
contrast
endet
höheren
determined
vulnerability
h-@@
involves
mation
senior
stämme
umzu@@
prototype
gestartet
verbesserung
co2-@@
cia
zufriedenheit
miert
zählt
intervention
tigkeit
zuzu@@
electronics
gste
attached
un-@@
umgang
architectural
afterwards
bly
offers
fließt
worker
salt
zit@@
academic
ticket
illu@@
anruf
sub-@@
nei@@
scheitern
adding
preis@@
gerufen
3d-@@
nam@@
radio@@
smoke
provided
forests
terin
denkweise
altes
rats
foods
drew
cour@@
kri@@
tu
historical
addi@@
rechner
signed
traveled
insi@@
capitalism
47
persönlichkeit
konsum
intelligente
ebenen
parti@@
rö@@
fluid
1998
magazin
mieren
weltbevölkerung
streit@@
kühl@@
aner
kel@@
mcdonald
stamm@@
shed
footprint
mechanismus
deinem
seats
erwartungen
rad@@
photographer
zurückgehen
gedanken@@
abstra@@
privilege
oldest
drill
liberal
ausschließlich
kindes
finger@@
paradox
enz@@
opera
cau@@
contribute
dia
ingenieur
güter
fuels
sprin@@
polar@@
calculate
balls
mand@@
keinem
ktionen
geh@@
provides
hearts
nerven
3,@@
vorwärts
verrückte
dioxide
colony
höchste
gene@@
50-@@
spre@@
katze
hn
erlangen
tun@@
usw.
apps
impf@@
cker@@
thrown
elsewhere
nick
ausnahme
aspects
gewann
units
inklusive
secondly
gedächtnis
gelt
früheren
lieder
arctic
ral
lecture
dominant
kongress
führ@@
stimulation
ski@@
breaks
kulturellen
plenty
hinunter
fascinated
ck-@@
nationalen
,000
erb@@
intuitive
tags
dieren
sey
väter
ations@@
fügen
bahn@@
silent
tik
zuge@@
uren
wahren
bemerkenswerte
faszinierende
englischen
includes
inhalte
ttert
alisierten
universitäten
anführer
rum
entstehung
soviet
1950
drückt
jeweils
ssi@@
wärme
hire
knie
underground
nung
ignorieren
deu@@
34
gert
sogenannten
sieb@@
chief
opens
80s
97
entgegen@@
wahr@@
millimeter
strecken
ursache
rob
fortunately
robotic
mri
hir@@
konzepte
autismus
band@@
autor@@
nerven@@
sicherer
höhepunkt
auftrag
theorien
gebildet
täuschung
währ@@
einrichtung
einheiten
nachhaltigkeit
dichter
weltweite
mein@@
geber
vin@@
stammen
figuren
elite
ora
ibm
smallpox
ney
verschmutzung
benutze
fache
mammals
denselben
landed
limit
technische
static
grippe
klo@@
bergen
clu@@
pyramid
gst
flip
integration
macher
umstände
pper
sheet
reparieren
ausgegeben
stop@@
shopping
suicide
mary
imagined
fä@@
lens
escape
geraten
high@@
begriffen
vogel@@
deckt
homosexu@@
prefer
pic@@
künstliche
winning
darkness
finds
describes
fabriken
ritual
ozean@@
native
discuss
symmetrie
ctor
willkommen
fur@@
gewöhnlich
produces
holds
geo@@
crying
thr@@
path@@
uni
ger-@@
blickwinkel
staats@@
spra@@
verschwindet
harry
pharma@@
kuchen
practices
likes
geri@@
rel@@
wiederholen
spin
strecke
temp@@
beer
portraits
irgend@@
za
counter@@
consequence
kap@@
orchestra
hea@@
atlanta
watts
regelmäßig
uss
ersetzt
reflect
morality
strategies
aliens
stages
jewish
transfer
articles
lac@@
cartoons
schlei@@
hoben
phantom
stag
grundlegend
owned
extract
sensoren
craig
dungs@@
angebot
dru@@
bescheid
musi@@
praxis
emissionen
alls
behörde
pace
positions
fließen
neuroscience
angesichts
han
sozialer
00@@
summe
beschä@@
1980
nurses
interactions
kreiert
lim@@
4,000
rou@@
chteten
photographed
besitz
focusing
wohnen
nachdenkt
passive
johnny
berühmt
wiederholt
dedicated
unds
accidents
ruhig
bol@@
vieler
conflicts
oll@@
knopf
chosen
amongst
license
löst
controlling
kohlenstoff@@
effekte
separated
repli@@
kas@@
tempo
lehrern
ehr@@
gelb
klu@@
corn
.000
od@@
bran@@
här@@
index
glasses
bedeckt
zukommen
gerung
glei@@
diesmal
rely
komplizierte
dinosaur
belt
lernten
capita
openness
investition
profitieren
selb@@
mochte
kanal
controls
hinauf
aku@@
januar
196@@
ore@@
lord
searching
schnell@@
aries
esen
hmen
ali
quer@@
köpfen
hit@@
festgestellt
jugend
kalten
tempor@@
industrie@@
writers
rescue
best@@
improvement
globally
0er
gezwungen
beijing
ruanda
wes@@
aff@@
kommunikations@@
flie@@
primitive
benutzten
sternen
top-@@
ratten
tanz@@
tzten
vable
rocks
erungs@@
inches
elections
reich@@
hinweise
hl
zucker@@
cooperation
physischen
ausgebildet
dauer
gemessen
milo
cen@@
meditation
fathers
zeitungen
chile
sitz@@
gon@@
hacker
ica
billig
2012
abends
ining
hun@@
sharp
irgendwas
lego
shakespeare
90s
wach@@
verschieden
42
garbage
gather
verbraucht
univers@@
alphabet
vital
erziehung
returned
shadow
excuse
sensors
spitzen
males
reef
äuß@@
mmen
memes
pot
50@@
aufre@@
hop@@
benen
fts
leistungen
communications
initial
hanging
energien
operations
parall@@
committed
schnitt@@
ingredients
bend
speci@@
schwerer
alan
schülern
removed
ärmsten
ful@@
volunteers
innovations
2020
mapping
häusern
anbieten
angetrieben
wunderschönen
käfer
teleskop
aircraft
empire
störung
130
entscheidende
schlimm
rop@@
efforts
echtes
mining
cute
sensory
precise
schein
losigkeit
spectacular
0,000
vel@@
privaten
fruit
videospiele
20.000
spinal
enormen
lichter
ace
exposed
life-@@
fabric
concern
hai
doktor
2030
rum@@
currency
vertical
ass@@
schlimmste
43
hre
voran@@
gesunden
begrenzt
jail
cheaper
encounter
gerü@@
wk
loud
rosling
letz@@
plot
ecosystems
berkeley
schafts@@
terrain
christian
aktu@@
contemporary
inn@@
erstaunlichen
policies
reported
researcher
sacred
ausmacht
messer
bir@@
werdet
impfstoff
kel
shirt
sarah
observation
politisch
mische
kleinere
real@@
tired
nachrichten@@
association
neural
ath@@
chil@@
motoren
grab@@
shots
1900
pump
elegant
reicher
aufrecht
gy
surfaces
diges
entwicklungsländer
kreativ
förder@@
terrorismus
fears
hitze
tas@@
nahezu
gewi@@
sions@@
produkten
verk@@
säu@@
excellent
meister@@
ent-@@
+
frie@@
pay@@
gewöhnliche
skraft
lawyers
bäumen
diver@@
frustration
000-@@
whit@@
1990s
micro-@@
freund@@
memor@@
contract
eien
cats
jupiter
tations
klassen@@
ony
laid
chemischen
tribes
antrieb
announced
consume
tlichen
biologists
außergewöhnliche
standard@@
kab@@
tedglobal
mice
glich
parties
l-@@
verletzungen
ethiopia
zunehmen
haut@@
bedürfnis
qualities
evolve
schulter
wohlbefinden
weltall
sechs@@
brei@@
graphic
fung
jung@@
sag
geno@@
verbrauchen
gegenüber@@
f-@@
streifen
harte
rover
jonathan
spiritu@@
falle
ire
verhaltens@@
underlying
einziges
neighbor
chung
fotografie
gegessen
neutr@@
grä@@
gebäudes
formation
emerge
conclude
founded
dlichen
picking
daughters
sozial
peers
sleeping
kommen@@
profile
fotografiert
revolution@@
besitzer
flash@@
hinweis
invite
blö@@
bags
carl
realm
wieviele
einzigartig
musicians
alle@@
extended
stones
neur@@
ktiv
bip
pflanzen@@
toilette
lü@@
hal
europäischen
untersuchungen
open-@@
mixed
explaining
artige
anfängt
kopieren
transparenz
kolonie
tuna
standpunkt
kuh
streit
discoveries
persi@@
eröffnet
ppen@@
expor@@
schwestern
rolling
frem@@
format
colleague
westliche
aussterben
dimensional
übertragung
erfüllt
teenagers
albert
ama@@
drove
eve
zweites
jagen
inger
erinnerte
contains
allgemein
2.000
unlikely
atom
cle@@
nes@@
customers
speicher
thick
hirn
kombinieren
abuse
ante
ego
layers
depressed
schlimmsten
zent@@
barely
tion-@@
interacting
loser
swe@@
alice
prakti@@
hersteller
korallen
kapitalismus
hormone
banjo
-to-@@
zwingen
storm
ministerium
dress
taschen
belie@@
gathering
phil@@
fabulous
beln
i.@@
teilte
angehen
beliefs
monterey
sierra
bold
viral
wodurch
circles
gipfel
sing@@
tropfen
historic
parkinson
befreien
marathon
refer@@
hh
sprecher
artistic
hard@@
glamorous
wissens
auswirkung
gelangt
no-@@
ugly
plum@@
ktes
schein@@
utili@@
pants
seil
glückliche
agricultural
stir@@
kurse
unterhalb
tip
verteilen
aring
bier
bangladesh
schlau
portion
engaging
ceo
menschlichkeit
abfall
ridge
zusätzliche
kation
vorn
nimm
crack
herauszu@@
seek
internets
reports
pulling
syndrome
gleichheit
knoten
ipod
surgeons
jh
surprisingly
futter
treatments
cave
dom@@
weiten
ut
hingehen
facility
subtle
ausgehen
esses
perceive
teilten
graphi@@
geschützt
smooth
vermittelt
shifting
swa@@
seeds
wol@@
array
reduced
ners
thailand
schreckliche
spä@@
injury
methods
anony@@
administration
probieren
bug
reagiert
gentleman
ga
will@@
integrated
stag@@
sisters
nerve
demon@@
gy@@
philip
fit@@
brenn@@
volles
bewe@@
sierung
brustkrebs
wundervoll
detection
entschuldigung
diagnosed
informed
host
receive
hinsichtlich
reminded
emerged
klingen
schaffte
unterscheidet
d.
gegenstand
kg
amerikas
transplant
prozesse
mati@@
cable
entwurf
erledigt
coloni@@
dumm
würdest
bord
eingehen
grace
stigen
tät
bond
misst
roman@@
ami
übersetzt
shrimp
nisse
flows
geni@@
chirurg
ältesten
someday
robotics
allgemeine
toes
jefferson
mechan@@
waschen
iness
seattle
vierten
atem
yours
armed
finanziert
inspiri@@
isch@@
statistik
gib
clever@@
cluster
buddha
tated
with@@
prototypen
symboli@@
stau@@
ohr
subway
sales
inmitten
mittelpunkt
comic
ky@@
ansichten
pft
tages@@
sich@@
sebastian
classical
wundervollen
190@@
tracks
views
occasionally
frog
forgotten
partei
pigs
ungsprozess
tigt
frag@@
hungry
unsichtbar
geräten
orchester
fett@@
papa
gründer
lebensqualität
spiels
soup
ban
favor
trieb
zurückkommen
lock
trajectory
urban@@
climbing
sach@@
warf
fahrrad
verlangt
ballon
sicherstellen
silly
protecting
missed
194@@
run@@
kreuz@@
miracle
originally
expectancy
schwarzes
volks@@
lungen
react
chtung
fabri@@
diagno@@
wünschen
pointing
vin
gesichts@@
crossing
raub@@
öffentlich
96
vorkommen
ups
bele@@
zukünftige
verse
krab@@
31
sputnik
tension
beschreibung
fernseher
loc@@
schlange
geblieben
märkten
briefly
ligen
nachhaltig
trainieren
besie@@
websites
agent
chin@@
royal
sang
ier@@
cap
jährlich
resilience
bauer
tolles
38
tap
ama
schreibe
beglei@@
meal
worthy
cake
kick
kiste
wilson
analyze
biop@@
kauft
geschlossen
bienen@@
landete
schieben
anonymous
off@@
bag@@
bruce
entdeckten
wolfram
delivered
optimismus
zusammenge@@
the-@@
legten
unbelievable
minim@@
ch-@@
proportion
rarely
luck
labs
ored
bären
proper
kapit@@
anreize
tent
kolle@@
pad
liter
vorgestellt
failing
citizen
thus
pfei@@
debt
polar
offenheit
moment@@
abendessen
betreten
pel@@
rent
überlebt
selektion
curriculum
lawyer
saudi
tote
burg
ogra@@
ill
zeichnung
heran
bedeutend
mannes
tesla
hmm
ordnen
ruft
simon
dens
rebuild
pose
wirtschaft@@
hall@@
beg@@
upset
barrel
predictions
richer
gall@@
2-@@
resolution
banks
shelf
actors
dive
predicted
outer
zusammenzu@@
buried
schafften
insurance
wissenschafts@@
cross-@@
dringen
becken
optimism
stahl@@
winds
durfte
experiment@@
mikroskop
atem@@
clients
julian
hauses
boss
religiöse
bomben
großvater
alisi@@
suggesting
instructions
wunderschön
diplomat
onkel
profits
körpern
bou@@
gerissen
quad@@
gged
aims
basierte
tragödie
1995
herein
führenden
pet
betrieb
abteilung
iting
durchmesser
computation
entrepreneur
finanzieren
meta@@
prozesses
archi@@
bandbreite
zuletzt
amed
skull
bahnen
lücke
graphics
respe@@
aktuellen
behaupte
hebt
sendung
cycles
youth
skeleton
characteristics
isiert
scales
merely
buches
weapon
lehrerin
befassen
tiv@@
regret
mischung
erfuhr
gelaufen
irgendein
kapital@@
une
essed
captured
mar
pazifik
served
susan
rechnung
einzigartige
ti
lese
halben
til@@
painted
heimat
chron@@
suspect
packt
nurse
suggested
runter@@
pro-@@
ading
aden
budgets
erkunden
home@@
getestet
schwanz
geh
sub-saharan
neutral
expectations
gewinnt
dr
disch
fischer
opti@@
frucht@@
fits
ids
feld@@
schienen
scre@@
fragile
indiens
bezieht
exam@@
jerusalem
neugierig
komm@@
domain
füßen
24@@
cheese
dozens
essence
coke
ursprüngliche
pitch
wütend
ately
archie
waters
ek
virtuellen
cord
domestic
dramatisch
beträgt
linke
danken
cations
buil@@
academy
backs
shit
dness
austausch
coca-cola
bats
1997
refle@@
hypothese
gefä@@
geöffnet
summit
güte
programming
external
propaganda
jellyfish
crops
soziales
atome
ord@@
sig@@
massen
bern
klassische
52
fda
genocide
erei
wildlife
keith
dear
tren@@
wissens@@
elderly
elf
hle
sciences
irgendeiner
stets
inse@@
kro@@
gotta
advis@@
struggling
kosovo
inv@@
redet
beginne
einblick
ists
dictionary
scra@@
dreimal
hoffnungs@@
vacuum
..
kooperation
raff@@
begun
fortunate
spu@@
selbst-@@
israeli@@
gemeinschaft@@
ationen
elegan@@
senken
bears
quadrat
potent
genetics
roh@@
wash
defi@@
sh
isten
free@@
bedro@@
theories
pursue
gestaltet
criminal
objekten
ologische
pandemic
verliebt
strahlen
neh@@
reserve
promote
bens
allgemein@@
86
scham
kelly
katzen
niedri@@
lle
meere
tes@@
skulptur
aufregende
gefängnis@@
auffassung
caring
stig
einschließlich
guns
insights
fting
norm
unendlich
som@@
grateful
blan@@
alb@@
komplexer
40@@
stroke
hilfsmittel
law@@
erledigen
hitting
heiraten
ktion@@
fires
reveal
canopy
erfindungen
änderte
weltbank
ological
richter
meint
scha@@
ängste
freu@@
überprüfen
belong
brooklyn
whatsoever
verfügen
suchten
neun@@
ack
october
it-@@
organis@@
verlor
ag
ebay
staatlichen
cosmic
liebt
jo
depth
cement
komisch
behandlungen
jamie
gallery
consciously
gle@@
verstän@@
traditions
alists
pound
deuten
expanding
rick
harvest
bart
symbols
erfordert
entering
kills
ack@@
handelte
berühmten
überqueren
extinction
drum
million@@
beinen
dolphin
nochmals
ances
beha@@
mines
gewissermaßen
leverage
religiösen
february
biologist
key@@
wandern
verarbeitung
greif@@
tent@@
silver
definitiv
brow@@
erzielen
beobachtung
measures
tiles
interviewer
investig@@
heil@@
leit@@
doktor@@
werken
gesetz@@
anzeige
puzzles
klettern
tafel
1980s
einstellen
aw@@
bewegte
gerüst
eness
entgegen
bound
netzwerken
browser
sentences
prepare
repeat
sign@@
verurteilt
schle@@
einwohner
tur
attract
nd
ausführen
programmiert
defe@@
ckten
bruch
flaschen
anzugehen
dankbar
mainstream
universities
draussen
auseinander@@
angepasst
airplanes
contain
instant
hypothesis
alities
erfand
vielzahl
redu@@
stin@@
erst@@
biodiversity
revenue
diving
vent@@
optimistisch
impor@@
kannten
tain
tables
ktiven
attitude
fru@@
dies@@
isolation
atomic
verarbeiten
ination
allzu
gesundheitssystem
teilnehmen
richtet
gerin
freuen
asse
pyramide
wirbel@@
auszudrücken
chairs
advance
tode
rela@@
flag
festival
evolution@@
crucial
plastics
verdammt
reminds
tränen
gangs
collaborative
muskel@@
matische
läu@@
amen
ome
echter
bedeuten@@
euer
unterhalten
verhindert
hem@@
dende
restore
transport@@
immun@@
produktivität
zentimeter
irgend
weibchen
angestellten
quer
hills
mayor
blü@@
lieb@@
seln
mechanisms
anzuschauen
italy
consistent
städtischen
stiegen
oktober
schrei@@
seide
lic
goliath
mist
scores
dropping
röntgen@@
erfol@@
übergang
covering
bowl
sely
königin
kil@@
ella
fantastischen
pushed
deserve
gelder
cotton
scheibe
perfekten
poesie
dopamine
woods
grades
erforschung
50s
fremde
aktiven
bewer@@
turkey
description
rab@@
gelände
was@@
owner
4,@@
empathie
änder
vereinten
ungeheuer
columbia
damn
imaging
heart@@
reliable
zentralen
realizing
cousins
kram
furcht@@
hte
fels
stry
industriellen
replicate
span@@
threw
egg
februar
skali@@
brau@@
penguin
skala
2015
pati@@
russian
immediate
reale
successfully
juni
moralisch
anhänger
earn
bürgermeister
bee@@
preserve
algorithm
anhalten
cont@@
strangers
blame
canyon
weh
rachel
republic
brad
mächtige
experimental
a.@@
proposed
diktat@@
brüche
hunt
sorgt
glad
mon
öfter
sab@@
bangalore
autoren
geburts@@
erschien
bedroht
prostate
dns
geschü@@
besonderes
zwanzig
bach
abel
imagery
rings
anstellen
phenomena
langwei@@
aufzeichnungen
auftreten
document
stops
gelehrt
stän@@
impacts
widerspruch
flowing
halt@@
huh
toy
labor@@
tears
zentr@@
emails
brain@@
mushroom
berühmte
fehler@@
partly
minimum
paralyzed
winzige
30,000
marken@@
algorithmus
angeschaut
werkzeugen
zel@@
spielten
kilo
zeu@@
hindurch
3.000
vermute
rt
hlt
verzweiflung
behörden
dustrie
übt
haw@@
schnee
rettung
boom@@
kohle@@
kredit@@
resistant
ungleichheit
dire@@
mysteri@@
pipeline
mithilfe
extend
manipulation
colored
emotionalen
ameise
rapid
kolonien
genaue
ausgabe
stabilität
jon@@
int
tendency
feu@@
bi
lations
uncle
verringern
passage
schmerz@@
shine
watson
shelter
holy
chor
unfair
lächerlich
kindersterblichkeit
forum
boo@@
iss
anzug
connects
anerkennung
kter
translation
schickten
strafe
gedreht
dreh@@
sauerstoff@@
accepted
steam
sixth
nathan
ce-@@
cus
weitermachen
initially
dicht
ethanol
tical
defen@@
langes
erhielten
lobby
adopted
strasse
rope
kennedy
heutige
gradually
schaf@@
discipline
grandchildren
umher@@
discovering
improving
projekts
beziehen
weinen
neuesten
part@@
eling
technisch
eless
leeren
zipcar
zur@@
1996
blick@@
tribe
conf@@
retina
holt
ungs-@@
zeugs
album
bam@@
abenteuer
smarter
platten
answered
haar
einfluss@@
konstruktion
louis
raumes
italien
ensure
consul@@
ausgewählt
lou@@
posing
dere
panels
washing
uncomfortable
straf@@
supported
fassen
sits
einführung
vortrags
anders@@
ungspro@@
kreise
mir@@
täglichen
beschei@@
spli@@
essen@@
‹
liert
sheets
genetisch
involviert
25@@
15-@@
vitamin
blau@@
tissues
francis
wut
getragen
mier@@
staying
›
durchschnitt@@
continuing
kin
stattfindet
high-tech
instantly
devil
titel@@
träger
zielen
eingeschlossen
platte
namibia
horizon
enes
adi@@
schreibtisch
and-@@
hear@@
worms
expecting
six-@@
sudan
demokratischen
asteroiden
mentor
tune
got@@
greift
gering@@
brett
schütteln
rhythmus
kenn@@
großartiges
trash
facilities
individuum
aufmerksam
sphäre
geredet
apollo
wollt
besides
vieren
staub
detailed
nahme
verdoppelt
signature
transplan@@
mobil@@
1970s
1984
wers
tätigkeit
negativ
schie@@
slavery
terribly
dio@@
mittagessen
ue
compli@@
käme
kopie
exponential
permission
visited
dawn
lust
maus@@
generating
konta@@
crew
tum@@
indische
alaska
werk@@
dvd
tubes
ener@@
odds
billi@@
unding
flut
eröffnen
schlaf
kindergarten
voraussagen
methane
bewerten
kreaturen
wheelchair
gang@@
passi@@
bow@@
geometry
elizabeth
bb@@
bottles
fraction
dave
produ@@
individuelle
ena
anda
mangel@@
alternativen
strahl@@
clear@@
translated
synchron@@
inevitable
stür@@
krie@@
geheimnisse
trei@@
zukunfts@@
hm@@
hm
nachfrage
yor@@
euro
wuchsen
nano@@
sus@@
iling
channels
wie@@
energieverbrauch
mern
gradu@@
nac@@
schriftsteller
tauschen
metall
passenger
dienst@@
tisch@@
-and-@@
ny@@
durchzuführen
gesucht
belast@@
impression
industrielle
serving
offenbar
dal
ungsp@@
powerpoint
kohlendioxid
gordon
zeichnet
präsentieren
mel
cab@@
bewirkt
schwierigen
gonna
deaf
drivers
aber@@
bedienen
matt
hell@@
homework
plug
schwerkraft
book@@
freundlich
gewinn@@
einkommens@@
fibers
affects
schätze
lers
metall@@
mount
konzep@@
capability
ries
überwachen
reiste
ele
mustern
remembered
extension
gehalt
alltag
charges
conducted
bombe
oo@@
shoots
elected
türkei
isst
warning
oms
genetically
hölle
nordamerika
berechnet
pretend
enables
oth@@
beschränkt
hawking
oberflächen
bedauern
cows
mobili@@
reducing
antarctica
linge
min
betracht
builds
mitt@@
motto
mac
haar@@
töchter
neat
ik@@
insect
wachsende
flughafen
stack
spei@@
untere
widmen
durcheinander
teu@@
ok@@
phoenix
gehör
armstrong
schwei@@
llen
impulse
sonnensystem
kan
dienste
conservative
mauer
tone
lärm
gefolgt
migr@@
bubbles
rep@@
schenken
darzustellen
rezept
effe@@
bucks
125
felsen
künstlerin
wheat
clubs
pockets
gen-@@
herrscht
aufgeben
umsetzen
magnet
cape
netze
hindernisse
warren
unglücklicherweise
restri@@
abilities
port
acted
segment
antly
lama
dest@@
experte
musician
eingestellt
programmierer
automobile
thir@@
tanzania
philosopher
maßen
2.0
briefe
glu@@
hybri@@
goldene
acy
psychologen
anzeichen
fastest
neil
führungs@@
gehend
refer
stad@@
einzusetzen
redwood
stab@@
wissenschaftlich
zusehen
demographic
rechen@@
clothing
founder
dialogue
elementary
thri@@
billiger
bewusstseins
reichweite
ins@@
fang
julia
nern
nike
maximum
bulb
trains
ungewöhnlich
experiencing
representation
verbrennen
stability
dn@@
comparison
steigern
ktor
mathematische
tendenz
schnei@@
vertrag
fantasie
schrecklichen
visi@@
hunderten
gegenstände
förderung
zung
alters@@
schlaf@@
district
lagern
stete
spin@@
zulassen
etc.
elled
doors
frühling
ushahidi
oned
merkmale
fotografieren
att@@
gele@@
amt
oliver
suppe
leaf
berechnung
herkunft
genom@@
sunday
smoking
arrive
verkaufte
fans
investing
mechanismen
schädel
kins
währung
attractive
sinken
established
breakfast
nerves
barry
kapazität
effizienter
gemäß
montana
gh
database
wheels
marken
inging
remained
toys
december
tokyo
geschäft@@
gewalt@@
wertvoll
chirurgie
luckily
ankommt
carpet
ubiquitous
natasha
verletz@@
tiker
terroristen
wette
sj
mende
scanning
indus
bindung
ecological
speichern
oel
rä@@
ownership
urknall
stunts
emily
korrekt
nowadays
cuts
kommenden
treppe
pollin@@
dist@@
fancy
miserable
überzeugung
unfälle
fokussieren
verstecken
infe@@
seas
formt
tho@@
großartiger
server
verkauf
wörtlich
alt@@
76
leber
kante
betra@@
fuhren
edinburgh
bringe
thei@@
thro@@
demo
entropy
wüssten
schmutz@@
überlebens@@
park@@
tötet
tragic
hinaus@@
kandidaten
statue
erkenntnisse
ata
visions
infection
edges
dezember
ma-@@
gorgeous
gener
ross
holte
uncertainty
umzusetzen
boats
wohnungen
elektronik
30@@
well@@
skelett
gent@@
startete
beten
erbe
luther
beruf@@
schauspieler
wachstums
eted
hinweisen
tends
inventor
bestes
gucken
heli@@
gram@@
whi@@
verb
agencies
technologische
gur@@
tail@@
tollen
inf@@
located
betonen
finanziellen
gestiegen
objective
accounts
banker
klimawandels
strings
kehr@@
ty-@@
elephants
os@@
suck
bereiten
kibera
ärzten
polizei@@
verrückten
cir@@
einziger
equ@@
bett@@
großeltern
195@@
pumpen
taschen@@
prüfen
1945
folgte
disney
strike
completed
label
räder
gained
ctors
museums
yves
umgebungen
camps
bad@@
muslime
hotels
frustrated
gelähmt
informa@@
obser@@
zir@@
identified
ologischen
hook
dp
flat@@
power@@
sac@@
berry
remaining
ehemann
ständige
reißen
hydr@@
voting
spezifische
erzählung
gut@@
appearance
profoundly
interven@@
shocking
dop@@
6,000
blogger
prü@@
annahmen
comment
coole
erzählten
elev@@
kauf@@
hierbei
minen
protest
gles
jur@@
leap
asthma
kombiniert
britische
supplies
händler
virgin
inequality
ör@@
trainiert
interior
ffel
mäßig
ausprobieren
matischen
max
market@@
aufeinander
stör@@
mitteilen
included
demands
harmony
finanzielle
gelegenheiten
inti@@
documents
narrow
pled
ausschnitt
unhappy
erwähnte
recover
verbreitete
geschnitten
uniform
neugier
gil@@
bmw
vielmals
needle
beschleunigen
convert
grandparents
are@@
supporting
belieb@@
nant
skulpturen
prisoners
navi@@
isolated
mom@@
dick@@
professionals
geheim@@
michigan
bren@@
git@@
differenti@@
beeindruckend
behälter
chtern
neck
deck
genie
burden
persu@@
geflogen
alisierte
hügel
behauptet
dalai
quit
bow
alarm
gewaltige
eye@@
ery
hör
tattoo
kognitive
gewöhnlichen
diskussionen
atu@@
aero@@
promised
ceiling
gation
leere
direktor
senti@@
das@@
rap@@
sustain
hunting
broad
bed@@
begleitet
formel
kts
wooden
planes
ungssystem
kis@@
sensation
anwälte
our@@
chee@@
blank
monat@@
anspruchs@@
verwandten
4.@@
laughing
lappen
sno@@
arch@@
altitude
fähi@@
substance
schokolade
konsumieren
innocent
engineered
deception
download
finan@@
breite
knochen@@
pittsburgh
loves
gaps
reser@@
presents
stab
mere
ratio
mauern
printer
jedesmal
balken
entropie
moma
confident
keln
gases
aussah
endangered
ketten
versions
panel
firm
cen
auswählen
fachen
techniker
sammelt
zelt
over-@@
setze
fertig@@
schulden
phosphorus
first-@@
geometrie
relev@@
venture
entwicklungen
züchten
waffen@@
wealthy
kluft
commons
assumptions
erectus
tos
id@@
besuch
rhythm
tia
endste
überraschende
lun@@
emergence
command
beliebt
unterbrochen
physician
antarktis
dutch
veränder@@
fotograf
spain
ane
barrier
zwölf
umgekehrt
tering
vegetables
gefährliche
esse
chtete
überlassen
erfasst
coach
gathered
brücken
entschlossen
poin@@
privacy
heiligen
bulbs
drinnen
intelligenten
stie@@
landes@@
earliest
vat@@
analogy
performed
fate
essing
kerin
es-@@
normales
nuts
dressed
kansas
mysterious
tedmed
darm
cousin
kriti@@
prevention
aquarium
greek
erfahr@@
venezuela
offices
approaching
mond@@
diana
80@@
verletzlichkeit
jihad
weit@@
vaters
elli@@
vas@@
bs@@
cer
estimated
weist
krea@@
anpassung
herrschaft
precious
schten
sitze
bewahr@@
büros
gewinne
gelang
seiden@@
zivili@@
veranstaltung
gänge
spec@@
zieh@@
sieben@@
rakete
smallest
geschlecht
1989
sierte
poses
erstaunt
closing
spanish
wortes
räum@@
drüber
plankton
threats
moses
herein@@
liberia
verdi@@
sale
exception
joel
transformative
tackle
eds
alters
compelling
städ@@
denkst
mix@@
oli@@
horizont
demokratische
ozeans
erend
slum
ursprünglichen
angelegenheit
arguing
zweiter
fäden
200-@@
1991
day@@
gelbe
origins
nutzten
walker
plu@@
hes
bewohn@@
hed
verhält
planung
renaissance
e.
gewiesen
auftauchen
reihenfolge
fairness
sendet
factories
wellen@@
atur
oning
omen
mck@@
verschwendung
kt@@
sydney
ghts
ständen
hammer
wasch@@
yn@@
dec@@
anweisungen
prophe@@
jumped
fuer
zwan@@
radikal
primarily
tem@@
alizing
mers
finanzierung
team@@
journalisten
notwendigkeit
termin@@
unrecht
q
ehren
trocken@@
compassionate
massachusetts
liegenden
delivery
einnahmen
neocortex
wett@@
gecko
verletzt
5-@@
herstellt
distances
ji@@
banking
unabhängige
pleasant
incentive
sprech@@
marker
logisch
frauen@@
stel
adoption
aggressive
eting
venti@@
chim@@
zueinander
andro@@
morph@@
gieren
chinas
mr@@
graham
häu@@
beri@@
ampli@@
pflege@@
schweine
beizubringen
agu@@
ands
obstacles
adapted
treasure
glue
counting
disziplin
ökonomischen
observe
throwing
ket@@
natürlicher
transi@@
continents
rivers
exc@@
simultaneously
attra@@
scri@@
widerstand
rehabilitation
fühlten
beu@@
simpler
kum@@
wachstums@@
itäten
audiences
gefü@@
terrorists
pocken
lett
wires
rüber
jackson
kühe
contrary
swi@@
1,5
koordin@@
tert
kol@@
red@@
infections
unmittelbar
oring
erreichte
durchschnittlich
überzeu@@
blog@@
dic@@
aktive
täuschen
englische
delta
variable
helpful
leather
sm
cus@@
satelliten
atomenergie
verste@@
komplette
konzentration
j.
hamburger
onstage
privileg
mates
carnegie
lege
steinen
gui@@
knife
gering
invested
trin@@
heits@@
kru@@
headlines
procedure
robo@@
mentally
cameron
gging
warte
cliff
eigentlichen
tamiflu
kreisen
bedeutungs@@
deutet
leitungen
4-@@
aufwand
namely
neighborhoods
tig@@
forschungen
meile
storage
klinische
180
reactor
judgment
leitet
similarly
horror
beneath
ignor@@
span
or-@@
elektronische
stö@@
predictable
cancers
marki@@
cratic
treib@@
ffer
wea@@
klug
sicherzustellen
anzunehmen
läch@@
reasonable
virtuelle
jar@@
loaded
flash
norman
constructed
repräsentieren
oten
anfingen
connectivity
graphy
menschlich
independence
spare
homeless
peri@@
ün@@
kiribati
ecology
pride
imp@@
symbole
studien@@
globaler
sty@@
annual
kategorien
solarenergie
aktiviert
gewä@@
doc@@
vertre@@
gesetzen
hilfreich
interpre@@
plain
occurs
mais
leihen
ox@@
unwahrscheinlich
gps-@@
sni@@
und-@@
construct
ye
klar@@
viertel@@
1.
portugal
gelingt
schuldig
ivan
unglaubliches
award
kurzer
poten@@
pris@@
bet@@
traits
gewinner
proposition
widely
threshold
konstruk@@
zutiefst
couch
stün@@
roy
beschützen
petro@@
ett
fungi
collapsed
mathematicians
anliegen
assemble
confused
pie
griffen
ani
geformt
magical
freely
ökonomie
v.
seal
autonomous
uk
gie@@
enter@@
branch
vaccin@@
chem@@
reefs
physicists
circuits
yards
säule
participants
gangs@@
chat@@
planetary
influenced
spannend
teppich
einnehmen
elektroden
ordnet
blume
feldern
niedrig
ddle
jenem
bono
á@@
unternehmer@@
pennsylvania
transforming
großem
denden
sicheren
eaten
dos
frontal
verzweifelt
muskel
baby@@
rainforest
bia
chens
assumption
kore@@
teils
trie@@
brille
hired
briga@@
full-@@
syste@@
colonies
limitations
cooper
grant
assi@@
activist
zehen
islamischen
simul@@
landschaften
stattfinden
yl@@
jill
dul@@
140
bath
nirgendwo
grave
nervenzellen
capabilities
grasp
farms
abstand
bakterium
wahrschein@@
belastung
despair
antibiotics
besserer
microbial
stens
mmt
client
fg
schlage
commit
versetzen
80ern
höhle
princeton
verbin@@
woke
tolerance
sb
nairobi
unklar
offering
bige
dial
sri
thes@@
expressions
urge
supermarkt
prior
deals
mie@@
deln
still@@
verletzung
ecken
skeletal
inge
additional
brilli@@
nutrients
chur@@
evan
package
folds
defining
spen@@
pau@@
17.
lowest
achievement
berichte
aufzunehmen
kim
oper
guinea
blieben
delicious
kleineren
°
khan
ingenieur@@
bombs
tibet
vermis@@
analogie
publishing
identifi@@
wettbewer@@
fleisch@@
packed
alli@@
verraten
bildschir@@
wasserstoff
illustrate
strongly
selfish
kas
adventure
philadelphia
civilizations
partnership
profession@@
branches
wichtigkeit
tliche
farming
lichts
concert
verdoppeln
klappt
spray
eti@@
big@@
beendet
bled
grau@@
engines
inder
downtown
lungs
größeres
investoren
leer
angeboten
relief
komplexes
suffered
entsprechend
brush
icon
gereist
jer@@
vielerlei
treff@@
lokal
crowd@@
tch@@
arbeitsplätze
d.c.
bble
harbor
abgeschlossen
alistic
handed
electron
pairs
ladung
strands
purposes
kolum@@
dol@@
customer
mathematician
dörfer
topo@@
freiwilligen
ari
wetter@@
betr@@
gestalt
guardian
programmier@@
biosphere
arabic
fought
healthier
erweitert
64
blogging
stig@@
fossilen
klassischen
ph.d.
wohnung
proven
löwen
wechselt
hlte
diagnostiziert
teszler
häufiger
rain@@
beteiligen
punk@@
arz@@
mam@@
öffnete
gear
fließ@@
wörterbuch
generous
infektionen
auslö@@
ankommen
20s
auflösung
targets
melt
ethnic
fat@@
verwirklichen
mud
intriguing
enceladus
zustimmen
migration
gravitation
foundations
ili@@
jan
previously
nette
scope
republik
visualization
troops
säulen
gkeiten
healing
integrate
gerecht
eingebaut
renewable
secrets
treibstoff
alig@@
explored
hoff@@
30.000
smartphone
draht
thers
substanz
vorder@@
unterrichtet
opfern
yale
ols
technically
höchst
1970
pills
myth
beizu@@
appar@@
meanwhile
toleranz
communic@@
lot@@
spill
logical
ington
ira@@
atur@@
trü@@
süchtig
bildungssystem
celsius
ro
immense
süß@@
teenage
riesiger
durchs
wirtschaftswachstum
gewachsen
berühm@@
erlaubnis
occurring
extrem@@
kräf@@
delfine
cian
keits@@
gesteuert
closest
ipad
integriert
stück@@
rand@@
inje@@
kreis@@
boy@@
retirement
bestäu@@
natürliches
marrow
empowered
improvisation
atz
realistic
quot@@
primi@@
pä@@
dough
wiegt
zudem
musli@@
bislang
ausser@@
vern@@
mor
verwaltung
sue
coo@@
classrooms
hyper-@@
angekommen
gesellschaftlichen
main@@
blown
lebensraum
spanien
terrifying
veri@@
cellular
fettleibigkeit
stä@@
basieren
matik
12-@@
regard
ernähr@@
nachmittag
rut@@
utes
ille
tized
wildnis
pus
ur-@@
zugehen
schäden
diameter
bridges
erstaun@@
nadel
approved
improved
ented
line@@
personalized
yield
significantly
dele@@
begab@@
propose
ay@@
unprecedented
thy
lists
swiss
drän@@
nigerian
bestandteil
individuellen
halfen
abschnitt
geor@@
sink
traditionen
corporation
wesentliche
spannen@@
abhängt
medikamenten
freue
zers
correctly
kilometern
kriegt
republikaner
yourselves
herangehensweise
entfernten
destiny
beleuchtung
zugän@@
keys
dutzende
unable
ausreichend
unsichtbaren
steal
believes
prozent@@
bohr@@
klassi@@
ttern
clon@@
täten
krankheits@@
versorgt
aufstellen
lektionen
brief@@
flogen
marschi@@
insu@@
human-@@
divi@@
frühe
autorität
disabled
transportieren
schuf
philanthropy
boden@@
tured
favor@@
marketplace
prin@@
qatar
attitudes
halbes
gestal@@
shocked
creator
nien
passes
threatened
deci@@
beating
vessel
lern
wachsenden
prof@@
leone
lampe
reiß@@
trä@@
cholera
leu@@
texte
normal@@
soldier
eight-@@
zoomen
mies
strip
verbraucher
masters
detroit
klei@@
europäische
seins
vergleich@@
ee
bundes@@
recipe
fox
zones
aters
roboter@@
konstruieren
aming
organ@@
unbekannte
iq
scenes
z-@@
experimentieren
foster
negativen
sym@@
ckers
bite
klinischen
berufs@@
jac@@
antibiotika
angesicht
construc@@
koch@@
sth@@
extraordinarily
sion@@
corporations
williams
endete
interviewed
verständlich
gä@@
hilfs@@
enabled
rus@@
flucht
formula
erschafft
leitung
motivieren
vice
olo@@
dylan
picks
ziehe
categories
scenario
temple
mai
mente
landet
ökosysteme
kurzes
controller
redner
worfen
schläge
affecting
heiße
zweieinhalb
kidney
problem@@
quanten@@
fluores@@
töne
größenordnung
cool@@
leds
navigate
prosthetic
motivated
erneu@@
rod
schuss
heilige
verblüffend
read@@
geeignet
mechanics
18.
fär@@
flach
blinde
denial
halluzinationen
unsicherheit
berührung
trick@@
ental
tür@@
bak@@
bela@@
verknüpft
irrational
durchbruch
radius
mari@@
44
errors
runden
burst
calories
1968
lehrt
krankenhäuser
schloss
blue@@
physikalischen
newspapers
trace
lingen
breeding
shei@@
authorities
sele@@
smiling
fakt
blicke
ex-@@
unterwasser@@
toronto
pandemie
literacy
nick@@
sichti@@
jenes
magnificent
äthiopien
insane
gerichtet
tatsächliche
pick@@
restlichen
produktions@@
spielzeug
lessly
vergleicht
gefühlen
telescopes
schlagzeilen
socially
tual
ernten
difficulty
mosquito
einerseits
competitive
vation
dependence
kanischen
straightforward
biologisch
meinungen
früchte
simu@@
wahrscheinlicher
terri@@
schöpf@@
zug@@
merkt
after@@
mio.
erlernen
inne@@
trugen
adver@@
eurer
replaced
bzw.
bewältigen
walmart
sible
file
juan
arizona
nahe@@
two-thirds
0ern
u-bahn
et-@@
stol@@
glaub@@
tasman@@
electrodes
gods
tik@@
shortly
burned
rollstuhl
anxiety
festhalten
tongue
electrons
komponente
aked
boot@@
niemandem
flüssi@@
näch@@
tioned
liefen
450
choir
gewaltigen
ements
ome@@
löschen
mating
gebunden
spacecraft
kalorien
60@@
mitgebracht
israeli
generell
wick@@
zun@@
choosing
than@@
four@@
wells
riecht
believing
benannt
symmetr@@
chop
compete
schwan@@
schließ@@
reflection
gere@@
digit
zurzeit
schweren
ethik
ausgedrückt
dominated
biosphäre
7.@@
stretch
stimm@@
dörfern
investors
forgot
distinct
geschle@@
guarantee
runde
transmission
theoretical
rauch
category
handels@@
stepped
rückwärts
radikale
outs
seeking
verschieben
premierminister
dschihad
verläuft
abschließen
gött@@
ald
charged
jason
stieß
schwein@@
einzig
arab@@
reactions
schachtel
teaches
july
communicating
confront
competing
sinnes@@
generieren
gyrus
gle
lager@@
hütte
coin
teen
einzigartigen
unsichtbare
klavier
vergrößern
clue
harm@@
redete
intention
rückseite
motiv@@
gelegentlich
babbage
fried@@
sars
mitleid
tide
erkenn@@
starbucks
challenged
mp
metaphern
you@@
junk
drag
sensing
wri@@
fundament@@
zettel
decrease
prediction
contribution
box@@
1993
arily
programmen
wörtern
sonde
locken
apartments
holi@@
bunker
philosophen
ular
pling
historically
spieler@@
wirtschaftlich
zustellen
reis
verwandt
daneben
actively
truths
profession
masses
wur@@
neurolog@@
tatsächlichen
erneuerbare
thi@@
joy@@
erlaubte
typische
squid
typischen
equality
anzuwenden
lottery
ongoing
alog@@
genannten
verleihen
59
chase
forma@@
nahrungsmittel
sank
lagos
drängt
proposal
bertie
exponenti@@
jugendlichen
wal
galapagos
60ern
schreck@@
gravi@@
wra@@
approaches
goodbye
tivi@@
ideo
badly
dation
woanders
bombar@@
einig
recession
dys@@
division
selves
fortschritt@@
modul@@
evolving
institutional
civili@@
ganz@@
applying
beschäftigte
dlicher
dosis
unglücklich
raketen
concentrated
nearby
zierung
bewaff@@
clips
ous@@
patent@@
heilung
formu@@
pflanzt
oper@@
plates
zivilisationen
hierfür
modifi@@
spruch
eventuell
encyclopedia
parteien
sections
renewables
freiwillige
akte
helicopter
beton
torture
karten@@
afrikan@@
sexuelle
kliniken
av
durchlaufen
schleife
mage
polizisten
skep@@
agieren
exposure
locations
impressive
afgh@@
authentic
intensity
tear
sinkt
encouraging
italian
versehen
indians
boote
haushalt
elling
gated
vorbild
missions
bie
ased
darwin@@
nonprofit
atheist
schöpfung
hero@@
pursuit
pill
coat
angestellte
keines
spezial@@
erkrankung
patho@@
beeindruckt
educate
künstlern
surrounding
lic@@
gelben
eben@@
schreien
praktische
dev@@
schwimmt
participation
wüsste
lux@@
text@@
resul@@
timing
parliament
attac@@
motiviert
willi@@
befand
ho
geschossen
hardest
schro@@
break@@
folded
epo@@
six@@
schalter
transportiert
heating
reveals
conser@@
investments
victim
regenwald
betrachtung
chromosome
mas
breit
200,000
follows
merkmal
graus@@
möchtest
minority
dding
verantwortungs@@
geringer
würdig
safer
panik
tionally
veröffentlichte
ency
camel
bezahl@@
stammes@@
kortex
ermutigen
selected
genehmi@@
captain
penis
kind@@
dür@@
lab@@
männ@@
ein-@@
bewiesen
marry
folding
assen
backyard
mobility
akzeptiert
fügt
symphony
dringend
bemühungen
beutel@@
spezifischen
mikroskop@@
arbeitsplatz
ander
sized
e-mails
kritische
ni
curves
radically
dallas
stung
gün@@
110
nee@@
ples
ansonsten
unt
anwalt
drawings
bigen
remarkably
experimenten
beispielen
cassini
aufstehen
eigentum
amerikan@@
aktivieren
schnellen
ints
decor@@
70ern
nes
costa
idiot
genetik
medicines
körperliche
90ern
verboten
schwamm
gletscher
wage
beschleunigt
demokraten
litt
beethoven
ram
bc
winter@@
kino
leinwand
mind@@
geplant
ungewöhnliche
household
vorlesen
tempest
glimpse
katrina
life@@
typisch
präzise
die@@
hob
schwung
intensiv
potenti@@
officer
4.000
eisen@@
grösse
auslösen
zoo
psychologist
sturm
dic
brasili@@
caltech
wag@@
kau@@
que@@
staatliche
cylinder
zö@@
ograph@@
voted
predators
männliche
preparing
gehst
übers
faltet
pier@@
nütz@@
elektronen
herausstellt
ple
enkel
sett@@
hektar
genau@@
compromise
vorschlagen
trigger
friday
geogra@@
banken
chamber
responses
dden
regardless
gige
horizontal
einführen
treu
gelen@@
ireland
liebsten
crows
infi@@
dynam@@
ökonomische
geschä@@
zuzuhören
controversial
honestly
94
psychologists
gewohnheiten
mythos
ungsweise
absichten
lunge
halfway
speaks
civic
blä@@
zehntausende
gründeten
desktop
auftritt
karen
horses
ultra-@@
of-@@
licherweise
spreads
krankenhäusern
passte
bst
bauch
but@@
suits
hypothe@@
hiding
anderswo
konzentrierte
renn@@
invasive
fix@@
klare
structural
6.000
tanks
systematically
alcohol
stände
texting
astrolab@@
courses
wunderbares
worrying
truppen
steh@@
chances
süß
politischer
frau@@
open@@
tauch@@
lakota
versagt
schlüsse
chts
sna@@
wachte
kapu@@
acid
blinden
volunteer
enjoying
kunde
bereitet
diskutiert
krähen
m.
steuert
intent
900
arrested
zimmer@@
verab@@
reagan
ignored
grippe@@
census
fasst
benötigte
irri@@
genomes
storytelling
ergebnissen
positionen
primaten
7,@@
rupt
introver@@
sop@@
interpretieren
streams
investi@@
verwendeten
endsten
ignoriert
ks@@
deck@@
mili@@
historischen
kindness
wartete
erhe@@
herbst
legislation
riechen
loads
lauter
würmer
forschern
landscapes
whoever
joint
dum@@
beam
heal@@
zunge
zealand
opo@@
gent
samer
geistes
wüsten@@
dj
1950s
stered
sapiens
elu@@
finanzi@@
algen
monitoring
inhi@@
sou@@
leise
schwanger
säugetiere
kleinste
rubber
manual
harmon@@
talen
butter@@
printed
dian
posted
amazed
blood@@
olympischen
agnes
führe
chin
nungen
sin
siehst
öff@@
schaffung
doug
rande
sinnvoll
mad@@
calculations
zugriff
contributed
kräften
statten
nitrogen
levi@@
surgeries
vaccines
jugend@@
pes
stimmte
organi@@
admi@@
einstellungen
assignment
schmerzhaft
tetes
verzerr@@
erre@@
claims
bali
trivial
positives
distra@@
thermal
trauma
pakistan@@
verbesserungen
elen
örtlichen
blowing
stabili@@
bedeutende
andy
paste
historische
steten
adjust
rest@@
liegende
murray
verbrei@@
woraus
interpret
bored
continuous
dence
verteidigung
narratives
springt
pille
filtern
pert
angewandt
ght-@@
surfing
erwä@@
prüfung
mushrooms
beantwortet
off-@@
organizing
pin
erfolgreiche
kletter@@
barack
drops
halten@@
large-scale
sprü@@
rs
enemies
ströme
gend@@
lows
sacrifice
anreiz
gleichungen
touri@@
heritage
schneidet
weiß@@
distanz
listened
manipulate
calm
ökologie
italien@@
gewohnt
jersey
advoc@@
cation
versionen
2.
ball-@@
stimul@@
klaren
tausend@@
deutschen
road@@
reserves
kriminalität
zutaten
8-@@
detektor
menschenrechte
auszusehen
eineinhalb
gescho@@
diplomacy
1973
mozart
verwand@@
bl
dacht
gan
measurements
si
luxury
stationen
linse
jeans
therapien
stern@@
saubere
strö@@
stürzen
hundert@@
integri@@
agen@@
taiwan
stischer
linux
anre@@
lear@@
keller
ops
sowjetunion
verwen@@
restor@@
mün@@
physisch
förmige
nungs@@
overhead
schritten
lined
eliminate
pros@@
kepler
mathematischen
hand-@@
demokra@@
batteries
com
gefühlt
duck
equations
stabil
poison
isierte
versicherung
kabel@@
dankeschön
weigh
hemisphere
verheiratet
steuer
höhlen
nepal
absurd
beseitigen
effektiver
verkehr@@
visualisierung
gig
nano-@@
umfrage
publish
außergewöhnlichen
schwellen@@
una
calculus
gegner
charaktere
peoples
secretary
rauchen
flossen
quadrat@@
boundary
anna
en.
venter
intellektuellen
konver@@
satelliten@@
deepest
ausprobiert
items
mammo@@
biegen
fir@@
dama@@
vertrauens@@
infra@@
temporary
habits
stärksten
winner
binary
strategic
peaceful
go-@@
sn@@
fantasy
ppte
cube
obese
reed
wänden
konser@@
karti@@
horn
vereinen
catching
donor
tinte
habit
deser@@
dirt
flüge
sterblichkeit
24-@@
stored
muslimischen
menten
weltraum@@
plä@@
40,000
favorites
getrieben
yemen
rna
fon@@
zyklus
perceived
surgical
konstru@@
disability
ärer
seemingly
nin@@
visu@@
batterien
absence
flus@@
ation@@
topics
berater
müsst
eingeschränkt
gesture
hitler
magnitude
lohnt
remix
mentation
lock@@
experimenti@@
datenbank
stige
feeds
drucker
rsw
residents
prints
gerte
terte
turm
lehnen
vermuten
orleans
doubled
tali@@
schrift@@
schot@@
staates
alkohol
kyoto
arbeiter@@
zeugen
likelihood
ewig
tar
49
konstruiert
consu@@
bezirk
exo@@
niedrigen
bern@@
great-@@
ause
leidet
nahr@@
ate@@
bugs
malte
weiterzu@@
stehlen
trennung
beru@@
journalists
ses@@
stücken
rul@@
interfaces
sprang
kleinsten
ampu@@
readers
excitement
essi@@
schal@@
wahrhaftig
freiwillig
pat
kognitiven
automobil@@
schizophrenie
freier
aufhalten
benzin
senator
tech@@
jon
lips
nutrition
küsten@@
favelas
versetzt
spezialisten
muster@@
tour@@
visually
oy@@
margaret
breakthrough
umfang
entwicklungshilfe
galileo
toller
sklaverei
approached
schatz
commodity
stränge
angewendet
breiten
ish@@
struktur@@
pig@@
gien
az@@
v-@@
kehren
nearest
sul@@
jederzeit
movember
olympics
lisa
bhutan
beeindruck@@
berühr@@
doha
fence
succeeded
auszuprobieren
mindset
posed
corals
grundlagen
jegliche
lichere
estimates
panbanisha
stolen
umher
bürgern
litten
artig
obere
simulator
internet-@@
ria
sometime
teuren
alo@@
müde
denker
cians
börse
kenntnis
lit
tickets
predi@@
aqu@@
wedding
robotern
messungen
kollege
denkens
surveillance
promin@@
künstlichen
nutzte
jerry
lasen
integrieren
juli
iconic
existierte
million-@@
ind
bemühen
dicke
mlich
column
inci@@
einfallen
prothese
dumb
sauber
schwelle
kanäle
texts
bacterial
öffentlicher
fundament
lions
spon@@
königreich
pilze
gewal@@
8.@@
begeisterung
maler
anrufen
bills
shore
schwachen
destroying
oftmals
turen
anspruch
aufgestellt
guilty
sively
patch
aktivi@@
exclu@@
mixing
studierenden
schafe
ligh@@
mme
information@@
zeitspanne
tattoos
zwecke
reformen
heading
phenomenal
zusammenfassen
exploit
fair@@
jahrelang
sichere
acre
gemeint
right-hand
teres
frightening
gestohlen
scrip@@
dated
maria
vergrößert
betrug
berücksichtigt
steak
fahre
multiply
methan
elektronischen
asian
sake
kehrt
tv-@@
ences
liebling@@
stays
odor
wenigsten
agreement
voran
geschaut
transplantation
consumed
spontan
nebeneinander
nacht@@
firing
anhören
damaged
cooperative
schock
intensi@@
schriften
klang@@
whe@@
useless
könntest
massiven
titanic
genheit
kontra@@
rieren
schweigen
klicken
ong
kopiert
abu
schall@@
classi@@
revealed
ct@@
merkte
editor
behand@@
scaling
vögeln
anne
skype
anzufangen
vertreten
computational
recommen@@
iranian
pei@@
colum@@
enjoyed
copenhagen
verhandlungen
understands
sowieso
feinde
territory
betäu@@
=
aim
amanda
schlü@@
solo
bury
flügel@@
kluge
quadratmeter
langzeit@@
teller
rex
manifestation
engagieren
bücher@@
anwen@@
wör@@
100-@@
hausaufgaben
komplizierter
gesünder
prosperity
bauch@@
switched
poe@@
erosion
lo
forschen
aver@@
highlight
digte
titan@@
legi@@
erscheinung
szenario
ere@@
kit
aids-@@
pop@@
institution@@
nap@@
vs
optimal
saul
raped
storms
manipulieren
shepherd
yers
betreffen
analysiert
wahnsinnig
gerei@@
horizon@@
wid@@
resolve
schief
umgewandelt
comm@@
tarian
angiogenesis
condoms
avenue
tations@@
wort@@
u-boot
variations
evolutions@@
frequently
dents
bestimmtes
coun@@
üblicherweise
py@@
unseen
freundschaft
kilo@@
rituals
panic
tuch
reifen
rough
stres@@
scan@@
camp@@
erzählungen
cheat
cyrus
anwesenheit
gary
erie
vege@@
pation
beschrieb
brennstoffe
deployed
frieden@@
respektieren
acquired
ital
komische
intact
amsterdam
ritu@@
ücken
arians
mühe
aching
schlacht
bedingung
coverage
aesthetic
sische
kanten
reson@@
striking
bungen
53
hometown
nährstoffe
klick
beeinflus@@
5.@@
comparing
symbio@@
vergewaltigt
übersetzung
demonstrieren
dates
tick@@
tendieren
drama
vermu@@
candidate
ea@@
funds
purple
landing
zulegen
angebracht
authors
wrap
unbekannten
graphs
rays
mood
mod@@
schliessen
kommentare
reaktor
klassifi@@
fähigen
labeled
taxes
tuned
single-@@
myth@@
mie
mmer@@
1960s
kritiker
hunderttausende
festzustellen
substan@@
proportional
beeindruckende
bewunder@@
gigan@@
leser
esti@@
demogra@@
rotate
cious
grei@@
erzähl@@
loving
disagree
biomass
hood
schaffe
kine@@
globales
ausgehend
carries
chines@@
kehrte
umfasst
young@@
ston
sweeney
eigh@@
erkannten
feier
prioritäten
58
systematisch
aufweisen
stairs
correc@@
adju@@
ie-@@
veröffentlichten
steckte
toiletten
rettet
darfur
weitaus
concerns
zahlt
programmers
beobachtungen
ulen
vertei@@
alisten
ressource
stätten
molekular@@
läden
discher
vertreter
imit@@
&apos;clock
analo@@
ück@@
mäuse
females
synthe@@
instru@@
erstmals
hülle
archive
baue
bildes
medication
ingen
broad@@
pioni@@
friedens@@
stühle
dien@@
continuously
cables
temperatures
terrorist
reas@@
japanischen
intellektuelle
anzeigen
bedroom
markiert
mimi@@
platzieren
foxo
curi@@
themes
analog
variationen
stü@@
kontrolli@@
pan
konzer@@
87
1986
concentration
nutzer
wore
ziger
discrimin@@
gespräch@@
rory
embarrassing
transit
findings
sung
patents
geprägt
gedul@@
spinn@@
fundamentale
mahlzeiten
dinosauri@@
herzlichen
lor@@
revol@@
ells
edward
kandi@@
vereinfa@@
beautifully
kunststoff
oes
klin@@
prop@@
humani@@
umgesetzt
smells
77
twenty-@@
able@@
kollektiven
entry
fst
mac@@
freizeit
up-@@
sectors
modi@@
degra@@
devastating
nonsense
aufgezeichnet
aum
kreu@@
observations
welfare
filling
accountability
ministry
füllt
cola
yr
immunsystem
pflanz@@
ession
yte
erfüll@@
wäsche
demonstrated
linsen
itäts@@
ktive
intel
zimbabwe
cd
bö@@
neigung
verpflichtet
locally
glücklichen
arity
märz
professors
massi@@
criminals
flagge
raums
jum@@
advances
beschaff@@
nigeri@@
lifted
zubringen
depri@@
25,000
harmonie
ke-@@
mode@@
pis@@
schufen
bausteine
interaktionen
astronomen
hack@@
interconnected
stics
who@@
wacht
mäd@@
lifespan
convey
6-@@
herausgestellt
hetero@@
slogan
ladungen
juice
betrachte
exponentiell
herde
jäger
übernommen
inevitably
ansprechen
barriers
hostile
meen
arena
eva
wishes
beurteilen
apples
steuerung
christ
1976
chinesisch
simplest
blitz
talents
mimic
jam@@
hus@@
kommentar
dosen
networking
rauschen
---
angewiesen
indonesia
kings
generator
contemp@@
immerhin
profil
zusammengefasst
dog@@
untereinander
yo
gie
darpa
dunkel@@
venus
gruppen@@
stit@@
taxi
korean
bian
maschin@@
murder
basketball
artenvielfalt
absichtlich
nel@@
me-@@
cares
cis@@
vegas
ingenieuren
markieren
mesh
stätte
cocktail
unabhängigkeit
geglaubt
pain@@
covers
amazingly
metric
gains
sammelten
zugrunde
dancers
ausbreiten
veränderten
nicole
craft
displays
bonus
skosten
nähr@@
spinnen
ric
schlägen
92
mahmoud
crossed
potter
obdach@@
blättern
oscar
assets
master@@
kate
shifts
ablauf
ände
noti@@
failures
miller
biom@@
guitar
durchschnittlichen
entkommen
begriffe
kollab@@
copied
sorgfältig
lap
röhren
argumente
krist@@
supermarket
plot@@
aristotle
vulkan@@
isch-@@
oecd
stoß
schrecken
recommend
chert
rem
processor
ve-@@
encouraged
weis
öse
copies
rewards
überzeugungen
57
verschwand
risky
schil@@
wr@@
universes
leopard
flexi@@
pulse
patri@@
dity
porno@@
lion
würfel
mäusen
orientiert
überein
reaches
u.k
agents
determines
liter@@
metast@@
ares
crea@@
versteckten
meals
korn
übliche
ultrasound
stisches
gesundheitsversorgung
live-@@
stun@@
reader
sichern
unmögliche
platforms
zustände
tägliche
ierung
adop@@
rolled
grove
chse
mäß@@
request
sha
marin@@
collectively
genossen
gela@@
potenzi@@
baten
separ@@
spaghetti
vorhersage
merkwürdig
natalie
erwischt
imitation
introduction
zeitschrift
wärmer
regional
vac@@
double-@@
justi@@
aged
cocaine
asth@@
sony
flam@@
angri@@
sendungen
unic@@
keepers
starkes
stic@@
pepsi
flavor
konkurrenz
glaubens@@
ingredient
mitgliedern
privileged
lhc
hungrig
erstaunliches
documented
durchaus
ji
gespannt
jargon
wissen@@
kus@@
schaft@@
satellites
krü@@
humanitarian
hybrid
juden
dauernd
gespeichert
whoa
getreide
augu@@
imagin@@
tödliche
tänzer
herstell@@
magician
pricing
non-zero-sum
übersehen
sonn@@
verhaltens
side@@
einbringen
koennen
trading
tales
witnessed
decision-making
nebel
tei@@
schizophrenia
pouring
cooler
self-interest
scheiße
laun@@
figu@@
abundant
anes@@
gau@@
wurzel@@
separation
woo@@
earth@@
teurer
landkarte
intended
rethink
staring
destination
empower
significance
studierte
feuern
erinn@@
tum
stal@@
res
ozeanen
konsu@@
approximately
youngest
gues
inieren
amerikanischer
stär@@
wonach
kostenlose
geschaltet
durchschnitts@@
eingesch@@
strang
drin@@
practicing
anschließend
irration@@
diarrhea
hob@@
überfluss
brut@@
matched
bauern@@
eurem
160
künstlich
dent@@
heimatstadt
verhalten@@
manner
door@@
erschaffung
keinerlei
diplomatie
imm@@
aristoteles
brauch@@
mask
seri@@
attracted
low-cost
fördert
hals
staub@@
deb@@
herumzu@@
atlantik
isoliert
8,000
galois
militärische
eten
ursachen
identisch
blindness
wachsen@@
intui@@
dunkler
richtlinien
verbal
schnellsten
ual
200@@
vorkommt
jedermann
illa
cent@@
verzwei@@
realization
30s
strations
treffe
dou@@
aufwuchs
regal
ara
far-@@
pa
llt
transmit
kleben
slower
constitu@@
canvas
riding
software-@@
poll@@
installed
terrified
algebra
dex
synthesis
gling
tool@@
fledermäuse
ungskraft
strahlt
berat@@
rabbi
solches
optical
ppy
deadly
lebensunterhalt
gemü@@
phi@@
spunkte
instin@@
clinics
shr@@
autonomy
internation@@
risd
ausland
survived
olympic
thesis
kle
philosoph
acids
jahrhunderte
ket
studierende
größtenteils
holocaust
overwhelmed
flei@@
custom@@
steigerung
kali@@
repar@@
school@@
effiziente
hallucinations
qualifi@@
1983
2,5
endgül@@
emplo@@
ring@@
kak@@
einfachste
54
appeti@@
zip
jugendliche
shel@@
blich
stically
acquire
fielen
ala
holders
kant
mosquitos
melodie
äch@@
behinderung
enten@@
daraufhin
cage
meinten
extremen
e.@@
lanes
unendliche
spinning
storyteller
pharmaceutical
entwickler
aßen
ipods
echo@@
worin
errichtet
rechner@@
plattformen
konflikten
gegenwärtigen
pentagon
trapped
christen
bemerkenswer@@
stapel
blas@@
füll@@
graduated
pulls
uc@@
galerie
synchroni@@
wunden
rich@@
äng@@
völker
dritt@@
anas
aussagen
innenstadt
inhal@@
tie@@
digungen
overwhelming
paradigma
cattle
angeschlossen
allein@@
num@@
zap@@
exten@@
schwi@@
kels
periods
eleanor
metals
klatschen
outsour@@
nissen
phen@@
zeug@@
ueber
nevertheless
intro@@
ausgestattet
höchst@@
spinne
ared
kühlen
zertifi@@
sent@@
predator
füttern
ologi@@
84
wolf
anth@@
tedster
ron@@
6.@@
schnittstelle
0s
wiederhol@@
eu
starren
bund@@
übertrag@@
conductor
shing
ion
höhen
acu@@
expanded
depos@@
rufe
rohstoffe
theoretisch
schaltkreise
lum@@
accomplished
lap@@
episode
millennium
reproduce
stigma
sequences
zähl@@
barbar@@
wilde
häss@@
shy
icons
süd-@@
herkommen
famine
caps
avatar
frames
hopeful
recur@@
vations
schne@@
corresponds
begehen
direkte
gehirnen
beweg@@
geren
lay@@
vollständige
famili@@
activated
zurecht
metaphor@@
merk@@
zylinder
frosch
klänge
seltsamen
beds
stoffwechsel
dynamisch
proved
beef
entspan@@
ement
trainer
physicians
grams
kh
zusammenkommen
kauften
jahres@@
archimedes
brech@@
peripher@@
angiogenese
eled
taus@@
stimmung
orders
erdoberfläche
locks
broader
addiction
rezession
aktivisten
dien
specialized
periode
functioning
regimes
angelegenheiten
hunter
1982
disgust
pets
crop
buddhi@@
abandoned
durchgehen
membran@@
phosphor
port@@
fron@@
aling
üblichen
tennessee
accelerate
projektes
blew
salz
französische
reflected
detector
1975
occupy
fired
prob@@
zusammenbruch
gezeichnet
suggestion
hertz
indonesien
anbauen
tropical
verfü@@
präsen@@
hierarchy
verla@@
opinions
fores@@
produzenten
mutationen
türen
item
partei@@
ush
freun@@
verschaffen
gänger
paras@@
niedriger
jüngere
dom
ature
60er
besit@@
refugee
schni@@
ity-@@
vary
gesunken
farther
tious
beunruhigt
dazu@@
ät
umsonst
rd
ärm@@
prisoner
enor@@
oregon
richtete
triangle
künstler@@
grundschule
mans
bä@@
spell
gedichte
seawater
accelerating
tra
wohnzimmer
erup@@
außerordentlich
vereint
viewer
pads
83
fotografen
philippe
identifiziert
schalt@@
affen@@
tts
bien
rosa
yeast
momentum
salz@@
philosophers
loan
workplace
besuche
chemist
exi@@
pays
bikes
stands@@
flüsse
stomach
unconscious
becher
stunt
verknüpf@@
cds
realisieren
diagnosis
pond
assembly
sungs@@
halle
einzelnes
judgments
roofs
mission@@
mend
diego
mankind
ling@@
dend
behalf
40.000
apfel
affe
algae
textbooks
flickr
sorte
tagged
fuss
fund@@
tansania
shorter
schiffe
hex@@
hoo@@
logi@@
ösen
pf
numer@@
vali@@
equals
schwar@@
ausdrucks@@
trinkwasser
dünne
wood@@
generates
baum@@
hühnchen
expan@@
geschla@@
mani@@
walter
safely
kommst
stich@@
beat@@
autobahn
managers
graphie
einschränkungen
coordination
ausgeht
geru@@
longevity
ly-@@
formul@@
priority
oll
seventh
sco@@
wiegen
vermei@@
parameter
improvis@@
gebrauchen
ini
install
iler
cky
vegetable
u-@@
distinction
melden
wertvolle
femini@@
greifend
60,000
trum@@
alltäglichen
selec@@
gesten
demü@@
physikalische
lud
sadly
bic
repräsent@@
celebrity
expressed
wis@@
twin
enge
phänomen@@
lectures
drei-@@
bp
aimee
tooth
pump@@
mega@@
bud@@
coding
glamourös
eintreten
appreciation
200.000
durchzu@@
wählt
laughter
langfristige
kondome
ökologischen
blah
stine
anom@@
acumen
abhängi@@
beinhalten
gramme
shops
bedeuts@@
frogs
fever
tigem
nutze
mycelium
empfangen
philosophical
mächtigen
profitable
marked
weiterentwickelt
urs
molekülen
beschaffen
verstärkt
spir@@
intimacy
psychische
beherrschen
pest
selbstmord
astronom@@
abundance
gewidmet
vibra@@
lkw
ope
chronic
friendship
nano
jennifer
astronomy
direc@@
night@@
äne
buchstab@@
symptom
chasing
überqu@@
manage@@
dawkins
somalia
hopes
wohingegen
sick@@
twist
kühlt
fbi
oops
roosevelt
mother@@
ds@@
barbara
workforce
verwund@@
estate
mitchell
sends
erden
kolli@@
traces
travels
nicholas
kets
gour@@
romantische
tismus
dome
konferenzen
preparation
pam@@
desperately
warst
beck
lexi@@
gewöhn@@
geograph@@
organische
ratte
sizes
schwimm@@
enzyme
herbei@@
supreme
sma@@
furchtbar
glori@@
georgia
komplizierten
wahrheiten
collider
anfühlt
stunning
politikern
künste
ereig@@
geschätzt
weiblichen
livestock
cart
sim@@
pray
upside
bezogen
pipes
ramp@@
ght
ähnlicher
implant
ellem
kambodscha
gewaltig
mia
schar@@
onia
beschädigt
bos@@
technologi@@
voraussetzungen
towns
seals
schritt@@
copper
viert
rasse
vinci
chemotherapie
jury
eisen
vorgehensweise
paran@@
agrar@@
loose
tank@@
republicans
umwandeln
plasti@@
schuhen
dow@@
viewing
vy
ikon@@
one@@
flö@@
radar
intra@@
tight
äußeren
aufhört
erle@@
barefoot
liebten
sole
alfred
reasoning
incident
mutations
ängen
celebrated
amm@@
tumore
kosmos
chem
treibhausgase
invasi@@
hard-@@
triumph
weiser
adul@@
bull@@
phänomene
va-@@
nordpol
rede@@
rang
biot@@
hacking
alternatives
lische
activists
gasoline
symmetries
spor@@
ght@@
grains
krat@@
beobachtete
minder@@
primate
lustige
tzer
rier
1957
ac
grey
mutig
stört
arznei@@
inno@@
frustri@@
ator@@
haf@@
einzelner
glühbirne
dg
ausgelöst
gehry
este
table@@
fantastisches
prey
paar@@
illi@@
guards
tän@@
verfügt
schirm
paradig@@
singapore
activ@@
biologe
pumpe
bestandteile
hyp@@
erfüllung
utop@@
geradezu
psyche
visuell
dringt
setz@@
consuming
owners
hervorbringen
intimate
poni@@
verlässt
pfer
nähern
versuchs@@
jüngeren
universen
ermutigt
deut@@
cro
größen
prozentsatz
boots
studi@@
stopping
belly
obsession
color@@
soap
angezogen
unheimlich
stanley
trock@@
simulieren
kohlen@@
rotten
frustriert
cooling
recycled
blickt
entschloss
verkauften
woll@@
entwur@@
ankam
wohlhab@@
iceland
crimes
lity
tedly
ont@@
transpor@@
archae@@
roger
colorado
interessierte
kategorie
fleck
recall
ärger
scher@@
tains
catholic
stopp@@
recycl@@
durften
anesthesia
cnn
thrilled
teig
ey@@
democra@@
tul@@
feuerwehr@@
entschuldigen
mitgefühls
biomasse
verhaltensweisen
sculptures
fange
geringsten
cleaning
beaten
bese@@
ocean@@
eingenommen
nm
archiv
angeblich
screening
pigeon
neanderthals
sergio
toilets
poles
olog@@
tants
legiti@@
shining
pour
bestätigt
kürz@@
hef@@
infinity
descen@@
disap@@
schweizer
talente
beliebigen
orph@@
zivil@@
gb
beraten
,000-@@
them@@
rente
riesig
partnerschaft
worm
beispiel@@
möbel
punishment
populationen
switzerland
fün@@
elektr@@
behold
boun@@
ape@@
prototyp
touching
überdenken
repeated
chapters
offensichtliche
kriminelle
wald@@
trö@@
ausnahmen
oney
idealen
wasserstoff@@
17th
verlaufen
octopus
bearbeiten
candidates
warmer
graphen
sungen
setzung
embracing
inventions
wies
mola
rebel@@
koloni@@
spart
chs@@
tedsters
lampen
gon
bathroom
flugzeugen
visualize
essex
wrapped
melan@@
grow@@
schaltet
bangladesch
zar@@
thunfisch
junges
gläu@@
disciplines
orium
noah
leucht@@
revolutions
contributing
zurufen
cups
pencil
suey
gebühren
premise
tedx
einladen
überlegt
paradox@@
gegenwärtige
schlau@@
anten@@
element@@
kammer
formal
ceremony
symmetrical
kalku@@
arkansas
implemented
broccoli
fähige
ausgezeichnet
46
unfortunate
82
bonobos
gewissem
sommer@@
circum@@
häup@@
chst
economically
rin@@
age-@@
copying
urteil
carter
web-@@
spri@@
implement
1949
exotic
resour@@
randomly
heimat@@
reihen
untersuchten
sobule
kommuni@@
führende
documentary
entwickel@@
palette
isation
erzeu@@
polari@@
brennen
lan
hosen
aug@@
naive
spass
frontier
hypo@@
gärten
zonen
festen
wet@@
hormones
erwachsen
composition
feuert
sketch
schnitte
progression
bacterium
lautsprecher
bra
auswei@@
56
krater
hauptstadt
berücksichtigen
haken
angriffe
1985
annähernd
zielt
d.h.
70@@
niedrige
democrats
mitmachen
assumed
tatsachen
jüngste
enterprise
triebenen
queens
ideale
fürchten
entscheidenden
paare
nachher
canadian
diamond
acc@@
arden
utterly
routine
konsequenz
puzz@@
firms
adopt
atmosp@@
einbeziehen
projection
mochten
algorith@@
stattfand
flächen@@
handel@@
meme@@
weighs
lasting
imitieren
verletzen
gemerkt
tempel
prince
einsicht
jog@@
provin@@
pilz
150,000
mikro-@@
lebenszeit
empath@@
säure
higgs-@@
ubuntu
luke
kriegs
liebes@@
call@@
schätzungen
dekor@@
teilzunehmen
produkt@@
½
gere
plato
probiert
toren
ola
oppres@@
einzugehen
beschäftigung
tötete
verarbeitet
compute
ologisch
verblüffende
genie@@
erstmal
einfach@@
trips
zeichneten
trusted
temperaturen
athle@@
prototypes
planet@@
spac@@
dampf@@
pots
amphi@@
feind@@
ehren@@
fai@@
rem@@
ryan
geträn@@
antreibt
benennen
pol
recru@@
entscheidet
partikel
belongs
squir@@
ferne
tigten
sensor@@
terrific
wählten
äres
wet
producers
pfeifen
notation
singapur
)
ffer@@
christopher
proto@@
sexually
²
fiktion
jagd
tta
filmmaker
mona@@
promises
gled
fluss@@
kritischen
awkward
schlicht
milky
flecken
secular
vorbereitung
zw@@
verringert
ologically
visiting
perio@@
fasste
lebanon
anthropo@@
predic@@
b.@@
cand@@
captcha
architektonische
zy
begeben
khmer
sound@@
argumentieren
schwierigsten
pois@@
extremi@@
ernte
ausbruch
klappen
1,500
nachhal@@
romo
mut@@
12,000
polizist
eats
geleistet
glie@@
verwendete
guard
größ@@
parachute
schwach
wurzel
quarters
pfle@@
programmed
pessimi@@
comments
friedman
englisch@@
mien
auth@@
wissenschaftlerin
ony@@
corners
advan@@
herd
gos
gü@@
rg
häl@@
penny
talenti@@
enormously
bruchteil
neurowissenschaft
expres@@
aa
weitergegeben
hingegen
lesters
dramati@@
erschienen
supercomputer
exam
cially
enhan@@
girlfriend
bother
receiving
verwirr@@
desperate
gesicht@@
portland
rückgang
stert
sichts@@
lings
schätzt
stockholm
74
konversation
fi
dauer@@
be-@@
enttäuscht
unterschiedlicher
spürt
gestoßen
planned
sigkeit
statistical
ulating
harten
zeitschriften
playful
valent@@
intuitiv
führer@@
constraints
expen@@
zeuge
ison
frequencies
folien
moo@@
schale
abkommen
turing
tling
parenting
gler
hohem
observed
schnitten
kün@@
hiermit
russell
vering
mörder
recognizing
lizen@@
obe@@
sammelte
fischer@@
helix
defend
botschaften
ographie
glorious
greg
dare
bedeutsam
foto@@
eck@@
accuracy
gardens
traurige
peer
ally-@@
cha
hindern
webseiten
eyed
convicted
tty
mirrors
ermöglichte
ufer
filmemacher
angen
bezo@@
maxi@@
imperative
karto@@
alla@@
erwartete
scheu@@
embar@@
tippen
zero-@@
emi@@
historisch
lamp
tender
bälle
compe@@
fäch@@
engagi@@
counter
trou@@
credi@@
standort
ähnelt
kund@@
erfolgs@@
correlation
preventing
gelten
kaffee@@
ri
impuls
fän@@
burger
irr@@
südlich
gungen
depressionen
solle
unabhängi@@
spiral
betrügen
kollaps
slice
hudson
piles
powder
konserva@@
meln
infektion
shoulders
rehear@@
turbul@@
fatal
johan@@
flugzeug@@
priorities
brauch
fulness
forgive
slope
genu@@
vergleichbar
leo
fahrrad@@
sammler
rockets
pearl
entdeck@@
teena@@
vornehmen
sün@@
skate@@
spiders
gestures
gies
microscopic
freak
götter
essenz
gelandet
roo@@
panzer
tätig
caves
schlimme
sation
erweiterung
festivals
scrat@@
heavily
schönsten
gitter
bestä@@
horri@@
greenland
prayer
zuständig
bestätigen
stande
u.@@
hadron
lithium
erwi@@
unterschied@@
blumen@@
tangible
interventions
h.
charter
attacked
asen
urlaub
applaus
sierten
exploded
nasty
anfan@@
petr@@
tted
anatomy
snake
rump@@
promising
befolgen
leop@@
repor@@
nder
ttet
netten
nervensystem
jews
brennstoff
ulated
reflex
yard
buddhist
bewerkstelligen
praying
röhre
schreiten
molekulare
teilungen
medikam@@
unity
erdgas
40-@@
rage
unternehmens@@
minerals
phe@@
ings@@
sieg
hofft
threatening
modellen
cence
freud
mister
einladung
streichen
herausfand
persönliches
calculated
lonely
missbrauch
nü@@
iter@@
mind-@@
counter-@@
ausgangs@@
kiss
robotik
gießen
erender
diagramme
behinderungen
kämpfe
chemotherapy
acceptance
poems
bereitschaft
längere
ust
pfi@@
geschö@@
disappears
squares
rap
männer@@
tee@@
libr@@
meg@@
gemeinnützige
irs
ansah
shat@@
meeresspiegel
entsprechen
dale
accoun@@
küchen@@
stated
exceptions
tastatur
palästinen@@
geladen
draht@@
christians
devoted
pit
herausfanden
dokumente
talented
disasters
zweig
stürzt
under-@@
schließe
priv@@
oi@@
een
unterstütz@@
adresse
sta
wound
sperr@@
ös
ultraviolet
klassen
vorzubereiten
bergsteiger
nö@@
catastrophic
dod@@
haftes
tters
bj
hinterher
dow
shoe
5000
ansteck@@
towers
wiesen
schmeckt
wirtschaftlicher
snow@@
toyota
lande
1918
counts
rape
gewissheit
platziert
orienti@@
guru
kurven
cular
ungs
gebir@@
conduct
mitzu@@
verblüff@@
beetle
essens@@
versichern
r.
hasse
satisfaction
anatomie
schickt
tude
mens
vent
jud@@
trauri@@
3.
marke@@
sequenzen
hausti@@
impli@@
schaltkreis
simulate
erweiter@@
ya@@
mön@@
kraftwerk
tell@@
materielle
glühbirnen
rasch
alike
chtigen
leichten
designen
indu@@
unle@@
herauskommen
cheating
ians
asym@@
digging
pity
speku@@
occasion
irgendeinen
evange@@
luci@@
älterwerden
abe
93
anzupassen
peinlich
associate
wissenschaftlicher
apparat
cambodia
wives
optionen
sauber@@
afghan
mobilität
adaptation
rapi@@
näher@@
bevorzu@@
70er
politically
frühstück
ar-@@
gesang
cello
protocell
übrigen
isaac
jonas
hüfte
verfassung
günstig
akzep@@
entnehmen
schweiz
stranger
verschlei@@
consider@@
concentrate
1.5
therapies
polen
depic@@
frage@@
organisierten
drang
beamten
nadeln
parlament
critic
phasen
aha
and-a-half
geist@@
bevorzugen
barmherzigkeit
delivering
ehen
reporting
stiges
bucht
negle@@
robu@@
essive
tax@@
activate
zern
cum@@
therapeu@@
titles
indicate
mmed
nachbar@@
korb
debris
erklärungen
mented
sergey
consensus
rund@@
übersetz@@
pern
lanka
fremd@@
govern
reno@@
teilhaben
shield
receptor
nieren
burns
patente
helden@@
jumping
strikes
1978
pioneer
dir@@
angles
secu@@
befür@@
oriented
bürgerkrieg
injured
fahrten
beschul@@
unterir@@
bedrohungen
nity
counted
wäldern
bai@@
zigern
scannen
betrag
reu@@
condi@@
wom@@
wick
oping
cephal@@
democracies
pix@@
chemiker
virtu@@
konto
melting
revenues
countless
passions
stlich
tuesday
quo
innovate
manifest
garten@@
agile
friction
hten
ückt
benutzer
nollywood
unerwartete
kon
gefangenen
rannte
krümm@@
vie@@
verrichten
basking
musikalische
krankenhaus@@
komponi@@
mixture
fili@@
accum@@
danny
verschmelzen
sufficient
ultraschall
älteste
39
equity
iniert
left-hand
läufer
verwende
accompanied
rom
lifes@@
bedient
malcolm
privatsphäre
eternal
rolls
zellul@@
wolle
standes
processed
fundraising
ernste
statt@@
serves
ultra@@
gic
verwü@@
abschließend
airline
linking
esi@@
mono@@
maintenance
zerstör@@
enthüll@@
fokussiert
dauerhaft
interne@@
gelo@@
ane@@
sionen
pillen
log
reck@@
prie@@
krokodi@@
lädt
brave
witze
bahamas
ype
translator
tourist
ästhetik
krebszellen
dodo
rituale
cope
jordan
1987
meeren
ologien
kleider
resses
79
briten
beton@@
miami
multination@@
tans
juvenile
man-@@
mahlzeit
colli@@
anerkennen
needles
zwang
messy
73
chten@@
turn@@
dubai
parkplatz
establish
62
redeten
answering
trinkt
nevada
nucleus
fischerei
zügen
investigation
time-@@
ow@@
margin@@
irrelevant
lehrplan
bureau@@
glücks
aluminum
visionen
chao@@
gegensei@@
bbc
6.
basis@@
gover@@
zurückzukehren
primates
shelves
sally
führungen
jacqueline
demonstriert
informiert
wähl@@
pli@@
empfänger
targeted
wahrgenommen
loy@@
getreten
tweet
league
pflicht
betrachteten
eil
18th
verteidigungs@@
presidential
sensible
anatom@@
seg@@
nebenwirkungen
langfristig
forcing
gerä@@
add@@
zuhörer
well-known
sequ@@
rücken@@
bal
sinni@@
cloth
jazeera
sichtbaren
produktiv
zwie@@
wins
entrepreneurship
fifty
tions-@@
fault
gemalt
zwischenzeit
magnet@@
passend
molekularen
femin@@
gesprächen
assistance
verhe@@
arbeitern
thunfische
charakter@@
zit
sweat
stoß@@
kampf@@
austin
techn@@
unterstü@@
embarrassed
argues
start@@
mammal
mali@@
aston@@
braun
aled
riverside
manns
carto@@
chel
zweit@@
teilnahme
stigt
cracks
kritik
composed
differen@@
mischer
netzwerks
honored
verpflichtung
shifted
homo@@
illusions
terminal
spunkt
contained
spür@@
erwecken
nights
knac@@
multinational
phili@@
melo@@
winde
sicherheit@@
gliche
criteria
kauf
auszugeben
sorg@@
gelungen
leder
umbringen
mathemati@@
pleased
gattung
existierenden
type@@
ordered
operated
dunkeln
huhn
allmählich
wiederaufbau
koralle
surviving
auditorium
isierten
gefährdet
lähmung
tioning
cot@@
monit@@
schlangen
revi@@
hig@@
netherlands
telefone
1992
absoluten
humility
absol@@
loo@@
entschei@@
überflu@@
üsse
dynamische
beacht@@
hefe
meets
stattgefunden
assozi@@
happily
starteten
bilder@@
indigenous
god@@
iden
lücken
dley
erlebte
areale
perspektiven
dbar
sequencing
itali@@
fried
franklin
nonetheless
belei@@
repe@@
taucher
syndrom
aorta
malari@@
bell@@
gesellschaft@@
angemessen
fris@@
eltern@@
patenti@@
hnte
achieving
planted
ethics
mun@@
cathedral
allies
schad@@
pathways
jähriges
reduktion
wirksam
schall
ino
bün@@
dreidimensionalen
erfolge
feuchtigkeit
goldenen
ohr@@
astronomers
gebilde
patientin
gepar@@
bilanz
käse
emotionally
fitness
touches
körperlichen
billy
addressing
doses
rows
texture
pfad
yan@@
clues
besorg@@
junior
verwirrt
libellen
voyager
embryo
gebie@@
interak@@
lierte
convention
eb@@
gehei@@
gewinnung
beruhi@@
artifacts
browne
motivate
schri@@
weizen
transistor
dumme
liberty
breitet
stehenden
relatives
neuseeland
atomen
jä@@
picasso
geo-@@
verträge
surveys
brick
detailli@@
üs@@
columns
rauf
extra-@@
reservat
plo@@
atro@@
großzü@@
hervorrufen
patienten@@
prescription
machinery
verbringt
variables
authenticity
beats
übungen
behandlungs@@
graph@@
outbreak
-syndrom
amateur
access@@
elektron@@
gemeinsames
oxy@@
großarti@@
stöck@@
spectro@@
unend@@
beruht
dopamin
t-shirt
aufzugeben
schwache
ku
zusammengestellt
stillstand
ansätze
anstrengungen
kopenhagen
variante
südpol
prostitution
sensitivity
climbed
grafik@@
charts
container
anniversary
jama@@
sprich@@
semi-@@
vaginas
demselben
riefen
textbook
orn
pine
deri@@
hungen
lebenser@@
verhältnisse
ctable
meerwasser
demos
calculation
archä@@
alem
ju
trauen
fessel@@
berech@@
placebo
pho@@
self-assembly
grabbed
common@@
deutsche
abstrakte
endeffekt
rebecca
ständigen
durchfall
sever@@
ancestor
tiefsten
equilibrium
laughed
seltener
entwarf
skelet@@
anthony
kamel
lehrte
inspirierend
shred@@
erneuerbaren
legitimate
cerebral
öhn@@
representative
greatly
konsum@@
eh
condu@@
rome
neo@@
sticking
tricky
osama
erbar
hoffnungen
normaler
legung
einkaufen
kende
ost@@
vel
partnern
ironie
aufgehört
eur
bent
sucks
ungar@@
cern
zahlreiche
waschmaschine
delay
abgeben
tomato
aufruf
kör@@
meinungs@@
potatoes
veteranen
praktischen
weichen
überwachung
verwunder@@
verlän@@
cream
stellungen
todes
arri@@
atheisten
geschichtenerzähl@@
ct-@@
brutal
befreit
weihnachts@@
hospit@@
zurecht@@
entscheidungs@@
etten
marcus
ever@@
stare
inform
atr@@
pädago@@
unternehmens
absorb
eingebau@@
1930s
spring@@
zusätzlichen
womöglich
kis
congestion
kreuzen
tape@@
kopien
1974
impul@@
grafiken
ues
paths
riff
41
1962
verti@@
improvements
ökonom
hindernis
immer@@
deforestation
folter
schub@@
landung
letzt
clusters
gö@@
3000
illumin@@
verhaftet
integrity
vocabulary
tary
vogelgrippe
massa@@
technolog@@
acres
partnerships
verschiebung
thinkers
converted
intelligenter
sands
derselbe
katastrophen@@
heroic
deserves
außerord@@
metr@@
hervorragend
bieren
dab@@
dreidimensionale
volumen
religi@@
transformieren
kocht
genomics
gefilmt
crude
assuming
schwein
priester
washed
takt
80-@@
indicates
gedeihen
researching
atives
tus
diamonds
dring@@
rel
verkäufer
expo
distribu@@
moskitos
frightened
dlichkeit
ucla
astronomie
kompromis@@
chop@@
convincing
langley
comple@@
lichung
eff@@
anfangs
ethic
streng@@
privilegi@@
null@@
imagining
journalism
nachhaltigen
verknüpfen
karl
rus
shipping
demen@@
versteckte
geres
tup
geborenen
crashes
eames
persönlicher
bedecken
pathetic
körperlich
compu@@
perceptions
material@@
vollem
pur
krä@@
engl@@
disziplinen
households
politician
zukünf@@
artwork
aura
nervenzelle
ablen@@
leber@@
pfe
th-century
instinktiv
drunk
maschinen@@
seither
umgebracht
journalismus
psychischen
nine-@@
ambitious
collision
wiring
hung@@
evalu@@
tai@@
milit@@
verur@@
richest
ranging
erzieh@@
borrow
charis@@
90er
prototyping
schreitet
chimpanzee
elaborate
verges@@
männlichen
summarize
genauigkeit
palestinian
observing
psychologische
milch@@
beute
bribe
membrane
cruel
wirtschaften
rift
spritzen
invasion
logarith@@
wahn@@
gewässer
ök@@
dsch@@
paro@@
ferti@@
irony
kidna@@
solly
critically
zyklen
haz@@
baumwolle
sklaven
ernsthafte
riss
resilient
solarzellen
piloten
ris
aggre@@
meeresboden
nau@@
stem@@
aka
theore@@
zi
gemein
coch@@
kris@@
stuhl@@
marktes
orthodo@@
metropolitan
nancy
organisierte
kämpft
dokumentieren
uhr@@
describing
generiert
temper@@
goat
pipe
habit@@
peculiar
mature
involve
taylor
ishing
ves@@
verstärken
älterer
instruction
diät
mikrobi@@
89
schliesslich
rejected
respekt@@
vielver@@
singer
tradition@@
meter-@@
dergleichen
sprä@@
zufälligen
wac@@
kopier@@
mexican
verfügbaren
coastal
simpli@@
herab@@
laut@@
hman
asset
18-@@
liebe@@
energies@@
boeing
dishes
bittet
liehen
zeitig
awa@@
fahrt@@
metabolism
sexuell
transforma@@
brands
generosity
leap@@
befanden
ee@@
ambition
spatial
vernachlässi@@
kreativer
unabhängigen
chromosomes
monum@@
touch@@
chat
bedürf@@
broadmoor
saturday
lächer@@
gesichtern
zu-@@
1988
apartheid
geography
subtra@@
paralysis
digten
nötige
condom
wissenschaft@@
mobiltelefone
tteln
hiroshima
deep-@@
gefügt
unsinn
ernährungs@@
designern
unangenehm
entlich
ankün@@
wasted
wun@@
negotiate
verantwor@@
scientifically
jumps
daf-2
filters
temperatur@@
regulation
paket
erne
kungen
möglichst
persuade
intensität
anstrengung
ddt
regulations
considering
tanzt
antreiben
materiellen
cataly@@
frequenzen
eigentü@@
superstar
surround
mädchens
wegs
techni@@
historiker
aci@@
globus
geschrie@@
frösche
begegnung
geheime
uniquely
deny
profit@@
warner
cardboard
sioux
ausbreitung
dreieinhalb
discussing
beiseite
benutzer@@
gently
-based
chimps
essenti@@
acknowledge
ernährt
schmelzen
koffer
analyzed
dennis
mao
fruits
rub@@
dächer
evolutionäre
inspi@@
genommen@@
verpasst
körner
asche
wortwörtlich
slu@@
vermächtnis
metri@@
publicly
truppe
ruins
enger
default
gelan@@
mentale
grösser
psychiater
ment-@@
concer@@
asleep
geschäftsmodell
hemd
spontaneous
leitete
fälsch@@
kreatur
coll@@
respected
sanitation
pedal
ungleich@@
starker
dsten
ineinander
billige
magen
vermie@@
republican
declared
procedures
bearbeitet
cide
stirn
ceos
gehör@@
ethnische
transmit@@
benki
replacement
flights
klat@@
singt
gebung
famously
baseline
lately
raster
tauchte
versa@@
asing
visueller
heck
fin
verluste
gröss@@
exponentially
demonstrates
gesto@@
präsenz
infant
psychopath
frisch
glacier
charakteri@@
graffiti
trennt
keit
napp@@
loswerden
griff@@
satzes
besaß
broo@@
luxus
ards
leuchtet
aria
rückkehr
terror@@
dichten
kes@@
lichkeits@@
umsetzung
hairs
modern@@
blade
noble
lawrence
penalty
artiges
drücke
dnungen
commission
intentions
logy
wrist
ater@@
angenehm
fails
veterans
anpassungs@@
filmed
chu
ption
o.k.
doc
thousand@@
jungfrau
dünn
gif@@
leidenschaft@@
yan
segel@@
saint
probanden
gando
aussuchen
viable
mals
headquarters
wilden
libanon
thor@@
himmels
balanced
400,000
aufklärung
nobelpreis
kable
expense
regrets
französischen
reproduction
kogni@@
exercis@@
improvisi@@
belohnt
calcium
symmetrien
denti@@
connecticut
lokal@@
toaster
hren@@
austauschen
asteroids
cit@@
gerten
ganzer
stehende
awe
operates
kidding
einzufangen
japan@@
ausgestellt
lebensstil
bust
decent
hoped
lungen@@
hierarchie
allt
lighter
orized
saft
weckt
bänder
1967
vergeben
learns
diversität
js
reflektieren
harris
qualit@@
crap
modus
zähnen
leistet
lateinamerika
ishes
humane
confronted
hafter
einsatz@@
kür@@
regularly
höl@@
analyzing
pflegen
d.@@
momenten
interfer@@
ereien
rey
shaking
berechti@@
genoms
freitag
ausrottung
herausforder@@
vancouver
7,000
janine
29@@
bandwidth
conne@@
augmented
ever-@@
gedauert
dot@@
grundle@@
jar
altered
vernetzung
sprung@@
veling
schultern
acou@@
fie
susie
eman@@
ähn@@
merkwür@@
dragonflies
krankenschwestern
bombsight
rains
betroffenen
sean
fingern
rockefeller
accepting
eingebettet
bler
hurricane
helmet
gebor@@
staircase
inflation
beher@@
brus@@
duty
übernimmt
year@@
anstren@@
bewahrt
kultivi@@
korrek@@
rhino@@
second-@@
labels
detected
besonder@@
ausüben
i.
savan@@
jimmy
grosser
professionelle
kiefer
anlegen
pair@@
eden
alling
übergehen
regulieren
authoritarian
mathe
matthew
kat
skop@@
convenient
seth
systematic
college-@@
house@@
resist
folgten
pathway
ansammlung
spitz@@
botswana
dok@@
chromosomen
demokrati@@
beliebige
facebook-@@
zugehörigkeit
presenting
tasten
stand-up
spezifisch
projected
cosmos
psychiatric
brillan@@
rechnet
fig@@
domini@@
wachen
ed-@@
infectious
draws
pagne
aß
euren
oming
verschwanden
perfektion@@
anderthalb
rezero
facili@@
buttons
tennis
breath@@
ruder
checklist
geräusch@@
glüh@@
zwangsläufig
überblick
prevalence
politi@@
pumps
jagt
versich@@
1969
child@@
verpassen
flor@@
attacking
tm
apes
feder
einbauen
peer-@@
hobby
tät@@
instinct
responded
anzubieten
impfstoffe
ßig
unsicht@@
chefs
wecken
installieren
tating
pluri@@
incre@@
wiederherzustellen
grau
vollstän@@
flesh
daddy
üblich
ex
lower@@
proce@@
beweist
consent
chun@@
magazines
verbesser@@
rica
blessed
ames
gun@@
lucy
deutsch
rations
requ@@
deciding
brunnen
handlungs@@
zucht
divergence
overnight
informieren
zunehmen@@
zk
select
combat
stest
aph@@
einmali@@
hender
refuse
wahnsinn
eduardo
vakuum
e-
café
bast@@
fortzu@@
coma
colorful
kick@@
bluefin
mind-wandering
geschicht@@
hugely
schläft
predicting
cheap@@
adds
gallon
fishermen
afterward
unterdrücken
anticipate
diagnostic
heit@@
lierung
toss
gewebe@@
sili@@
grossartige
plac@@
tagging
statements
altru@@
logging
bea@@
gericht@@
einfalls@@
rechtzeitig
notwendigen
rises
occasi@@
tivity
pinguin
chains
ewi@@
garantiert
60.000
dokumentiert
paaren
schlossen
wün@@
latein@@
ier
skeptisch
mapped
auti@@
supportive
eröff@@
boar@@
lernens
zehntel
bestanden
zerbrech@@
synchr@@
weekend
50ern
überwältigt
grösste
disturbing
quietly
erschreck@@
strömen
halte@@
fehlende
carol
ó@@
mini
affairs
bonobo
lande@@
trilli@@
wählte
gift@@
geholt
secondary
pedi@@
fossils
hackers
distingu@@
minimal
fond
sooner
directors
hul@@
bildhau@@
ultimative
biomedi@@
velocity
designt
plug@@
benzin@@
tsam
trek
geschäftsführer
superman
mississippi
blüte
erspar@@
marines
monsoon
indic@@
messung
söhne
rot@@
klappe
heal
victory
camer@@
pressures
befehl
bekannter
gewalttä@@
unded
nonverb@@
mou@@
schauspiel@@
funktionsweise
full-time
abspielen
jemen
vorgeschlagen
faser
brennstoff@@
compar@@
microphone
arabische
pinn@@
sagst
prece@@
zhou
alphab@@
kompetenz
alright
refriger@@
spiele@@
champion
kreuz
behauptung
unternommen
dancer
salary
zeichen@@
faden
stefan
taxi@@
geste
erlei@@
chel@@
dolby
corrupt
tarahumara
issen
specialists
officials
kais@@
contin@@
shaw
julie
schick@@
ungsprogramm
tch
kicked
avian
schleu@@
accurately
empowering
node
vis
elend
kanische
ersatz@@
humble
propulsion
vo
stür
erheblich
wohnt
jünger
tasmanian
wille
wochenende
organisi@@
partner@@
hebel
komment@@
jewelry
mahatma
lever
erhit@@
betrü@@
voters
zusammenbringen
nut
tödlichen
quantitative
ausde@@
einsichten
repertoire
losses
schum@@
träum@@
insur@@
16.
dering
fröh@@
thumb
grob
kyros
manipu@@
planting
specu@@
ler-@@
ginge
tzung
dreck@@
baus
kator
marc
gemis@@
responding
vermeer
anz@@
robin
ordentlich
synthese
folgendermaßen
galleries
gaining
headline
gebenen
histor@@
lupe
erfolgreicher
griechen
pianist
adh@@
freundliche
lean
entschul@@
dimitri
statistisch
moderner
saddam
arabia
ahnen
cochrane
schiffen
electri@@
helen
wende
befestigt
kar
zittern
schlauch
russischen
olly
portable
genial
mat
cafe
betreu@@
towel
korrigieren
faul@@
wehr
redwoods
disappointed
supports
smar@@
einfachsten
offspring
wegzu@@
acknowled@@
bonds
nehmt
wahrzunehmen
belohnungen
zusammenzubringen
wiped
marshmallow
aud@@
hinterkopf
sopa
steller
redak@@
kay
hated
allgegenwärtig
helm
assembled
konzentri@@
basier@@
zustande
fundamentalen
50er
ghter
mysteries
dai
ausrichten
jam
so-@@
freaks
humankind
temporal
hiervon
fertigkeiten
crystal
atri@@
südamerika
commit@@
expectation
eighth
verlangsamen
klär@@
render
ausgesprochen
explorer
unglaub@@
marsch
tenth
listed
bremsen
paraly@@
chuck
vic@@
vorherigen
ideal@@
eck
programms
überaus
ausgangspunkt
relativity
anrei@@
motivi@@
ticul@@
evolutionären
regulierung
automati@@
vermö@@
sätzen
insekt
fülle
meldet
dedic@@
pande@@
erderwärmung
muti@@
commerce
kartoffeln
onnen
beunruhi@@
submit
brazilian
haft@@
behinder@@
esten
einschränkung
joining
arrow
gigen
scheiben
keni@@
nur@@
larven
umfassende
injuries
oben@@
erzähl
mite
amazonas
dra
angesprochen
weisst
founding
synthetische
entlichen
raketen@@
sia
hierarch@@
mammographie
schmu@@
inhalts@@
grupp@@
ausgerottet
isol@@
distribute
parade
mi
iel
serotonin
endeavor
c.@@
bewus@@
polymer
dor
participating
geheimen
exhibit
calendar
norms
entrepreneurial
zunahme
perspectives
dau@@
afro@@
destructive
neuem
erfolgreichen
adolescence
gell@@
scot@@
high-speed
hiv-positive
innovativ
verun@@
völkermord
carri@@
doo
upward
comic@@
stimmten
ktivität
78
feier@@
stac@@
91
iles
abra@@
abfolge
nutri@@
hy
sexu@@
beigetragen
mitbringen
rabbits
untersuchte
erweise
egyptian
bands
modeling
mass@@
leder@@
quarks
fers
tromm@@
versuch@@
tops
reak@@
samm@@
akzeptanz
phosphor@@
zwei-@@
modest
schwä@@
läufi@@
abläuft
sargas@@
witz@@
erhöhten
conven@@
preisen
stur@@
schär@@
vorhaben
practically
wan
aufzeigen
deines
sponsor
holder
zufolge
escal@@
mrt
spheres
10.
fixing
committee
haushalte
lever@@
portra@@
ngo
cop
markers
distan@@
scharf
appeal
quallen
nurture
usc
mör@@
aufen
register
sitzung
zusammenspiel
e8
delight
ankunft
cursor
candy
acceler@@
replacing
grun@@
lautete
bür@@
irland
decre@@
kalifor@@
rainforests
gänzlich
kleber
anziehen
innova@@
courageous
vermischt
ough
moeg@@
jug@@
entfern@@
promoting
feder@@
bewusste
reichte
strat@@
fossi@@
strateg@@
ehemalige
tahrir
waisen@@
zeile
regenerative
1981
chers
80er
fischerei@@
einfa@@
multipli@@
arro@@
syrien
frequent
hive
valu@@
beschrän@@
stealing
strahl
tization
todesfälle
minü@@
peer-to-peer
tanten
scripts
subjective
silber@@
lays
aufgegeben
accountable
satz@@
terien
intrinsic
hervorra@@
fax
kosmischen
erdbe@@
limit@@
empfindlich
sowje@@
beugen
äf@@
sells
ausdrück@@
gendste
extremes
ninth
utter
kollektive
refugees
verlegen
deplo@@
meth@@
alexandria
konkurrieren
bildete
bevor@@
erweiterte
dissi@@
verursachte
umgeht
gendsten
fossilien
erholen
beginnend
bekämpfung
dreamed
prescri@@
gebra@@
brennstoffen
ddy
ostafrika
pr
auslöst
aby@@
uss@@
ktiv@@
vermark@@
angreifen
1,3
dorf@@
ringe
riesenha@@
isoli@@
14-@@
jüngsten
wäl@@
wiederzu@@
manufacturers
batman
hirns
veranstal@@
a.
krankenschwester
konz@@
dark@@
erleuchtung
knees
weis@@
tionist
geringen
@
verwandelte
colom@@
leton
blind@@
kurzweil
monday
eigung
bio
constitution
interrupted
symbolic
beweis@@
bloody
istanbul
stake
interessiere
fixiert
wiederauf@@
ausgestorben
leuchten@@
sav@@
search@@
duc@@
divine
tätigkeiten
doub@@
substantial
waste@@
mov@@
fußball@@
misery
duke
vorgeht
warn@@
frustrating
klarheit
künstliches
begangen
disabilities
1979
emmanuel
zeichne
konzert
tates
einfühlungsvermögen
normen
ronald
guilt
moreover
calculating
unterschieden
lesterland
tödlich
scheme
abfall@@
zusammenzuarbeiten
philanthropie
gigantic
berufe
sternen@@
pregnancy
klavier@@
zimmern
bery
checking
geschwister
universelle
angefertigt
historian
etary
warfen
stringtheorie
beratung
krimin@@
erfolgreich@@
onale
betriebs@@
bollywood
drastisch
doppelte
cared
örtliche
versammlung
lations@@
geschlossenen
öffnung
disk
easiest
überla@@
stimulus
bosnia
splan@@
nem
p.
ausgelöscht
beur@@
circular
ography
drängen
breed
mexi@@
mem
sehn@@
jessica
sad@@
gesün@@
notions
herrn
skiz@@
cost-@@
celebration
enlightenment
evo@@
derived
stellige
commodities
kisten
eig@@
lauten
examine
astronomical
sity
hein@@
bay@@
fürchter@@
appreciated
lane
satisfied
parasiten
hippo@@
aufgefallen
compound
geniale
louder
ativ
40s
farmen
skeptical
purch@@
empiri@@
diff@@
blindheit
notizen
organischen
komplizier@@
sterbe@@
greifenden
ukra@@
neter
occupied
two-dimensional
versammeln
wach
sterblichkeitsrate
pfa@@
statistically
giga@@
töteten
südlichen
nachbar
bring@@
fallschirm
schub
ktor@@
entsetz@@
ana@@
grim
erreichten
compounds
karikatur
fehlern
digit@@
strato@@
verbrannt
traten
vernetzt
breakdown
schießt
samuel
juggling
heili@@
signatur
kenntnisse
hochzeit
dak@@
webs
mild
hunger@@
verstär@@
engli@@
oakland
vision@@
notfall@@
tick
arktis
bottom-up
produk@@
glau@@
stößt
acious
attach
professoren
erwachsener
170
manufacture
schwangerschaft
marshall
swee@@
leichte
entwürfe
inher@@
sterile
integra@@
accounting
klären
hühner
schme@@
überleben@@
emphasize
whistle
7.
iron@@
einverstanden
ank
aden@@
sponsor@@
strich
anrufe
jungle
geistige
seller
clar@@
gically
portal
unfähig
pastor
80,000
erkläre
stamp
ikea
tivität
schweben
träge
halter
tionary
ausschalten
clean@@
sudhir
cali@@
unbeha@@
chemo@@
memorial
197@@
spielern
broadcast
purely
iden@@
precision
cybercriminals
demut
umgibt
seltene
electromagnetic
enriquez
crash@@
tories
encountered
assoziiert
aspi@@
äußere
jaw
basement
lethal
tiefsee
xy
besucher
lizenz
takti@@
betrachtete
begraben
mord
refined
hinterfragen
abc
finishing
rechenschaft
inputs
shirky
purchase
faszinierenden
eini@@
mr
klagen
inte@@
ungsa@@
gla@@
barrels
überholt
biotechnology
1.2
marco
axes
pursuing
auftauchte
oven
enthi@@
emerges
shower
anek@@
ckets
wohlergehen
generic
grönland
wendepunkt
studios
datum
sonderlich
müttern
evident
jor@@
fehlte
clin@@
wanderung
heights
seasons
zac@@
his@@
arrange
streckt
orientierung
ärztin
besorgen
beängstigend
misch
1980ern
11th
engel
brä@@
sauer
manu@@
kostete
drahtlose
unterdrück@@
environmentally
locking
basierten
reine
aded
stati@@
quet@@
vers@@
intend
umfragen
firmen@@
fortgeschritt@@
biologischer
verschwendet
zenz
netra
graduates
warrior
differ@@
onen@@
anim@@
bullet
impfung
stent
globalized
geduld
herauskommt
sinnen
ada
tox@@
o.@@
arktischen
carbon@@
aks
beloved
pos
schuh
navy
skri@@
circulation
jack@@
haushalts@@
einsparungen
demanding
beschrei@@
discussions
wache
herunterladen
dead@@
arma@@
inier@@
tribal
ökologische
bös@@
aufgaben@@
happiest
transported
mechanische
aches
neys
weibo
loans
adaptive
imed
climbers
verwalten
konzerne
beside
optische
zon@@
negroponte
szenen
kanzi
kongress@@
float
besor@@
ira
tageslicht
variablen
implic@@
antworteten
führern
mineralien
kontinenten
regnet
vorträgen
thereby
embodied
zuallererst
feminist
squared
wonderfully
accumulate
hay@@
warnung
externe
300,000
kontrollierte
chickens
do-@@
erdn@@
offiziell
kratie
punch
gelö@@
quantifi@@
chor@@
bibli@@
mathematica
ostküste
wales
wurf
81
reviews
nun@@
soldat
wished
epilep@@
entlassen
ballast
wundern
screaming
eder
cracked
freezing
ha-@@
recognizes
admini@@
secre@@
anleitung
dder
bten
coined
zitieren
sehvermögen
arise
sorten
freut
sutherland
verg@@
resistent
myzel
anfällig
lich-@@
kunden@@
rowed
ressing
heated
tips
maje@@
schiff@@
grocery
virtue
func@@
hie@@
gefährlichen
hinzugefügt
verteidigen
medizinischer
kies
musikstück
other@@
pfleger
returns
hop
‟
cheryl
hyperbo@@
atheists
wheel@@
yment
aufwachen
traditionally
myo@@
elternteil
posten
vorstell@@
geburt@@
stigmati@@
pferde
trap
eradicate
scape
stapeln
gegenseitige
ideological
passten
nischen
ries@@
reka
bewertungen
fame
equipped
checks
collaborator
einhundert
chri@@
leidenschaften
71
pipa
gast@@
titelseite
reist
nst
unternehmern
plänen
acle
disgusting
wesent@@
erwar@@
kahn
funeral
abilität
deta@@
gelei@@
innern
bevölk@@
prisons
edited
begrenzten
enzyklopädie
awake
freundes
ausschau
ila
prei@@
währenddessen
schach@@
schoss
animationen
00
wähler@@
anfälli@@
hass
deficit
unterscheidung
maske
bedeutenden
raises
posters
elders
saison
konzentrierten
deca@@
dank@@
eing
operations@@
engen
schuh@@
norway
ashamed
nurturing
geek
bildeten
pfte
direkten
leicht@@
elevator
investigate
folglich
depressiv
extrover@@
kompletten
delicate
vacation
harlem
hamp@@
aufgeteilt
fonds
belegen
por
exxon
rekru@@
hussein
crum@@
hing@@
harn@@
dimensionalen
funktions@@
feed@@
entwickl@@
technologischen
inherently
äl@@
blöcke
alar@@
zeremonie
pilots
malerei
vorgehen
herzkrankheiten
andre@@
screen@@
iphones
negotiating
vordergrund
ghet@@
giftigen
blast
arb@@
transpar@@
ekel@@
attempts
longest
upright
wonders
bestechung
verschle@@
ausgerichtet
verbundenen
palästina
personalities
vul@@
controversy
waited
mail@@
r-@@
dste
chende
orgasm
weihnachten
poll
rar@@
360
voyage
defines
präsent
unterhal@@
kontin@@
ssen@@
fellows
planetar@@
transcend
jahrhunderten
fühl@@
mmern
entrance
papiere
photographers
confined
sighted
appropriately
for-@@
erfassung
fighters
tierung
immuni@@
tory
wohltätigkeit
schüchtern
ringen
universitäts@@
chromosom
karikaturen
digitales
ägypter
arkti@@
entities
gangen
schlauer
pyrami@@
fühlst
cris@@
66
av@@
agre@@
landwirtschaftlichen
äthiop@@
adrenal@@
libraries
ausbilden
fuzzy
zaun
franzö@@
honesty
pher@@
rätsel@@
spinnen@@
ereignissen
hose
rasen
steady
involving
real-time
grünes
daumen
mais@@
qualified
sas@@
übereinstimmen
wrest@@
steri@@
wendet
grass@@
bronze
kationen
rid@@
plas@@
wien
rollt
developmental
earned
brea@@
carbon-@@
alliance
imper@@
atmet
münze
nega@@
befasst
parasite
wassers
religiös
deliber@@
egoi@@
strangely
heavens
irren
quantities
comparable
konkurri@@
belegt
dil@@
obsolete
millennia
atz@@
nerd
redefine
stau
vivid
flan@@
viewed
world-@@
eingriff
biologically
ähneln
stimulate
bedenkt
umzuwandeln
radikal@@
spektrums
utility
ppers
enters
arable
sweise
orchest@@
gebt
hübsch
ark
laufenden
osteuropa
vieh
genuine
magi@@
beetles
milchstraße
clarity
erzogen
morally
ellip@@
reinventing
suff@@
gespr@@
obstacle
gipf@@
zivilgesellschaft
live@@
ethische
gleicht
ausserhalb
äufe
culturally
ähnlichkeit
kathedrale
umstri@@
luf@@
ingenuity
yl
jokes
cracy
bte
noisy
nigen
höhlen@@
weitergeben
verließen
maten
grauen
workshops
foun@@
bless
ota
ihu@@
kompli@@
fibonacci
scotland
diaspora
screens
abgele@@
ng
schre@@
überraschenden
rewar@@
kran@@
optimieren
fum@@
wirbel
kara@@
reduces
eradication
nummern
babylon
ographic
strä@@
ahmen
museen
fahrts@@
hin-
belä@@
zigar@@
busch
sadness
aufregung
teur
lebendige
arose
responsibilities
öffentliches
defeat
gabriel
releases
kompromiss
verstümm@@
satelli@@
weitgehend
guer@@
negoti@@
ktions@@
vre
allen@@
styro@@
voraussetzung
imperi@@
fear@@
pingu@@
guidance
gewohn@@
qaeda
brüdern
fot@@
highways
dumm@@
volkes
germs
snakes
prior@@
slip
reflects
höherer
ables
ameisen@@
homini@@
lobby@@
buck@@
erforsch@@
slowing
qualle
crab
software@@
kredit
lade
aufwachsen
drittes
endless
hump@@
acute
ruhen
lippen
vorherzusagen
bosnien
ories
usda
barri@@
digi@@
random@@
6,@@
verlangsamt
dening
mittlere
managing
reaktoren
bruch@@
messen@@
handwerk@@
gesundes
1965
bb
vorbereiten
teter
elbow
schätz@@
elli
news@@
kriterien
schin@@
orthop@@
schulbildung
use@@
gesetzte
weitem
erendes
schützt
explores
shipped
representing
weswegen
reflektiert
reichlich
thood
davis
abschneiden
hunters
gebro@@
oprah
fisches
rendering
akademischen
neurowissenschaftler
künstlerische
pools
terie
betrachter
redund@@
dote
kilos
mythen
speeds
deter
interessan@@
inspirierte
trost
cohen
photoshop
patience
demokratien
angegriffen
ite
ethni@@
assure
m.@@
häuft
beruhigen
wettbewerbs@@
satur@@
beteiligung
andal
68
outdoor
fortfahren
action@@
gehörte
gehende
angeben
qualitäten
stetig
mantra
zität
mill
check@@
ohio
alties
onic
backed
artikeln
evol@@
mammography
schöpfen
dach@@
iming
squeeze
tained
stimu@@
anxious
scul@@
soccer
gewebes
puppe@@
überprü@@
autop@@
stämmen
stance
schnellste
vorgänge
fäll@@
alp@@
galerien
gian
vernetzen
matches
schützer
magischen
gehä@@
countryside
gesteckt
sexuellen
reforms
enthusiasm
finite
boson
kurzfri@@
arabien
repeatedly
unausweich@@
säuge@@
biased
notaufnahme
antrie@@
altmo@@
collaborate
esst
nachkommen
umdrehen
sk
zapfen
infrared
eline
booten
konfli@@
verli@@
krieg@@
spirituellen
alhambra
seni@@
sig
bemerk@@
rating
kompliziertes
stückchen
gosh
ansteckend
geschenkt
optimize
schwächen
unglaublicher
öst@@
daylight
checked
flourish
glied
ungewöhn@@
vage
excess
sandwiches
aurora
gould
numerous
kenden
impaired
verrückter
explorers
tinkering
erkennung
vor-@@
employment
last@@
lieb
confli@@
haftigkeit
operator
georgetown
helpless
geschäftswelt
rowing
ton-@@
instab@@
impressed
fö@@
paper@@
empfehlen
kerne
shuff@@
evaluate
gilbert
vil@@
spends
terweise
commissioned
basket
biases
biotechnologie
hende
northwest
verleger
shir@@
nachahmen
agrees
frac@@
scar@@
governmental
op-@@
notiz@@
stickstoff@@
mons
glänz@@
hooked
open-source-@@
partnerschaften
envelope
bump
zeilen
8,@@
illnesses
chunk
honig
conception
tora@@
viereinhalb
fünfte
ungser@@
disches
curator
physiology
teleskope
uli@@
vielfäl@@
guta@@
sexual@@
amer
principal
widersprüch@@
regenerate
lei
gerade@@
fliegenden
freundlichkeit
intelligentes
geschlafen
accomplish
competi@@
bahnbrechende
grundsätze
tches
sovereig@@
damali@@
redesign
oxide
mittag
unterbrechen
tyran@@
sexper@@
geschichtenerzähler
nuclei
kontinente
gurt
owe
def@@
150.000
hysi@@
verlor@@
enhance
gesi@@
maxim@@
anschließen
foren@@
twenty
dep@@
holiday
notwendigerweise
befru@@
zusammensetzen
low@@
blockieren
cooperate
veil
unen
errungenschaften
verbringe
bündel
tad@@
fibro@@
pathie
acker@@
geschlecht@@
vorberei@@
marketing@@
wounded
cel@@
antikörper
hervorheben
spektro@@
technologie@@
paradise
novogratz
altar
gentle
ideology
tural
pollutants
eintausend
donation
grou@@
verkaufs@@
angemessen@@
í@@
instruc@@
befehle
verhandeln
bedürfnissen
paradies
af
wahrneh@@
einklang
wiederbele@@
singers
vermischen
5,@@
disruptive
exagger@@
tenden@@
stockwerke
netzen
menu
geben@@
stressed
sequenced
stürme
publikums
intervene
dreaming
exquisite
israelis
pubertät
trivi@@
suitcase
knö@@
tchen
thu@@
boost
py
ster-@@
thal@@
spürte
seven-@@
w.
racing
close@@
verlu@@
offener
verwirk@@
geldes
unstable
spannende
vermehren
erträge
jo-@@
bär
syria
begrenzung
confir@@
novelty
eye-@@
hauen
attribu@@
wiki@@
verstop@@
liberals
mikr@@
varianten
laboratories
orientierten
milliar@@
aquatic
fresser
anfall
alert
fuss@@
obersten
engel@@
beruflich
devo@@
serviert
siehe
reiz@@
strukturi@@
stützen
left-@@
gefäl@@
verantwort@@
erwachsenen@@
spanne
bens@@
kos@@
zusammengesetzt
divorce
kleid
valve
reviewed
schwa@@
opera@@
gravitational
olith@@
verbrachten
wirkungs@@
simpel
cairo
appliances
8.000
wus@@
antwortet
wunderbarer
folk
disson@@
schrif@@
quiz
glücks@@
phtal@@
whist@@
bär@@
dered
rädern
starvation
tabelle
declining
manchester
auffor@@
recyc@@
nuklear@@
okap@@
ladder
bass
cad@@
laure@@
instances
konkre@@
tastes
immen@@
selbstvertrauen
settle
kabul
end-@@
impfen
tant
gosla@@
geheimnis@@
cockro@@
wahlmöglichkeiten
employed
sheer
strieren
ignorance
wi-fi
rechnungen
packte
norwegen
gründung
antwor@@
xe
austral@@
hinsehen
steu@@
russen
non
negatives
metalle
musikal@@
dominiert
sculp@@
latte
swedish
revolutionen
digkeit
laufbahn
ertem
heilmittel
wandert
gaza
künfte
projections
bioluminescence
transistors
reads
totale
reichsten
uno
vorschläge
beer@@
update
knock
spü@@
chen-@@
zweier
mouths
mythology
disappearing
olive
oly@@
motiva@@
korallenriffe
light-@@
bender
5.
lik@@
bewegten
besprechen
sprozess
installiert
alistischen
phan@@
agi@@
angenehme
manipuliert
chaotic
confron@@
influences
erkenne
painter
ägyp@@
cate
highschool
greeks
combining
editors
limitation
remembering
arrest
kse
ersatz
misch@@
geschi@@
vereinigung
poss@@
hipp@@
mana@@
zwe@@
meadow
dt
donors
sauberes
bruno
prothesen
peru
admit@@
unsicher
asphalt
terence
seitige
intrin@@
stadien
potato
nails
hinteren
holland
beobachteten
cellphone
orientation
maitreya
mit-@@
characteristic
shal@@
nützliches
certified
überraschen
hotter
zeitungs@@
blogo@@
mte
zunimmt
schwim@@
emotion@@
chro@@
einhalb
voluntary
riskieren
abnehmen
zugegeben
falcon
depths
bihar
berichtete
deple@@
bench
shire
deter@@
schlussfolgerung
auskommen
relax@@
modell@@
cp
theor@@
pill@@
votes
circuitry
infinitely
bemerkten
wall@@
unken
kunstwerk
cling
wack@@
mität
verschlüssel@@
rückenmark
enthüllt
pancreatic
farben@@
trauer
laser@@
liqui@@
zusamment@@
schwam@@
registered
anwäl@@
calculator
kürze@@
beharr@@
syner@@
exper@@
clapping
expose
one-on-one
vergröß@@
vertierte
tivem
marvelous
einblicke
schmuck
beneficial
schwäch@@
statisti@@
strassen
pyth@@
stundenlang
teppiche
ökonom@@
problematic
implanted
composer
triceratops
zoll@@
thanksgiving
nordameri@@
flexibel
yle
inierte
upgrade
heres
wanderte
täuscht
mechanischen
navigation
explanations
humili@@
starr@@
langle@@
spike
wußte
scat@@
forder@@
refused
sailing
kerry
aktionen
schön@@
earning
gründet
settled
bien@@
vereinbarung
beatles
roles
traum@@
intern@@
noma@@
stud@@
750
rauszu@@
magneten
bonnie
lebensweise
lenses
incidentally
jacques
nonviolent
hatred
encing
beverly
ueber@@
schockiert
attraction
begründet
greifbar
korallen@@
weak@@
dney
vernünftige
pione@@
macro@@
verbrau@@
conducting
cradle
erschwing@@
biologi@@
malt
thful
reali@@
midst
erwarteten
bending
angels
malig@@
video-@@
1947
schwäche
malnutrition
koch
sustained
knei@@
stacheln
spielzeuge
lung@@
clark
schwach@@
versicherungs@@
exu@@
surplus
method@@
gehenden
klässler
speisen
omed
glenn
iq@@
schlan@@
misstr@@
lol
grassroots
unterhaltungs@@
goodness
beschränkungen
sis@@
modified
prozessor
zurückbringen
gewün@@
nodes
ap
sediment
cigarette
sturz
hinauf@@
conservatives
gi
camels
grenzen@@
south@@
buses
gewöhnen
einkommens
mini-@@
ises
51
stöcke
tos@@
optimist
ofen
inne
tsch
aufzeichnen
brem@@
satisfying
lasts
fahrzeugen
zerstörte
onie
puppen
entzün@@
export
inventors
schlafzimmer
kie@@
unan@@
betrogen
staunen
fetus
schema
spect
psychologischen
vt
vollste
bron@@
tern@@
kombin@@
ires
newton@@
ela
hinausgehen
monthly
intellektu@@
p.@@
mrs.
hässlich
kim@@
weitrei@@
hüb@@
amino
käfig
gefror@@
a.m.
schwierig@@
herkommt
traumatic
dee@@
coherent
free-@@
windenergie
yn
fier@@
crow@@
publication
einwohnern
fted
korre@@
kommunikation@@
referred
fossile
kaninchen
schrei
zauber
fet@@
typing
charlotte
durchge@@
flusses
kissen
chinesisches
dramatische
werben
hineinge@@
benötigten
charming
steigenden
keiten
einschalten
cket
mäßigen
stren@@
mum
imf
henden
auflösen
amerikanern
ttered
duration
mitochondri@@
projektion
baumkr@@
selbster@@
00s
cros@@
lobe
wohnwagen
lebensdauer
retreat
honig@@
grenzt
clou@@
xen@@
kalender
besaßen
injection
stimmi@@
car-sharing
fakultät
saurier
änden
umsatz
gestri@@
delivers
fog
consists
quantenmechanik
jour@@
literal
splashy
alia
äter
wickelt
steigen@@
wehren
dankbarkeit
ethischen
sequenzierung
energiever@@
hint
vorlieben
subsidi@@
australian
vibri@@
rendered
körpersprache
plün@@
bemerkenswerten
magische
aufgeb@@
resolved
spartner
theirs
ungeachtet
hawai@@
dezentr@@
asis
automaten
candle
pops
listen@@
vest@@
chi
ausland@@
bili@@
wre@@
non-lethal
naturwissenschaften
trance
opposition
centimeter
edit
finanzkrise
swar@@
qua@@
swing
schreckliches
synapse
mungs@@
rechenleistung
tedwomen
läufe
kulturell
iere
guatemala
geheim
abhandlung
conve@@
caregi@@
band-@@
physiologie
mücken
chess
coincidence
hafen
ram@@
at-@@
alongside
derzeitigen
smartphones
kilogramm
hansen
erheben
erziehen
skilled
gratitude
mountain@@
cruise
ausgeführt
scanned
twins
beam@@
entfernungen
besiegen
eilen
pst
focuses
pisa
älen
gesendet
deprimiert
accelerated
volcanic
anblick
hacken
chad
suburban
eingreifen
cartoonist
catastrophe
linear@@
jag@@
denjenigen
mills
urbane
speicher@@
abweichung
herzinfarkt
ansteigen
vents
tweets
disciplinary
bewusster
usi@@
elektron
netzhaut
modes
kaffe@@
kleider@@
spontan@@
willkür@@
recycle
auffälli@@
fragments
mega-@@
crun@@
cardiac
kühlung
chend
integrität
sst
sem
1.3
jen@@
wöch@@
unab@@
überschreiten
ann@@
ftet
gesegnet
improvise
post-conflict
specialist
supermassive
xes
langem
schock@@
worthwhile
wy@@
caribbean
stil@@
aufstand
tigte
ino@@
ounce
cative
gül@@
apparatus
prising
synthesizer
psychiatr@@
täuschungen
recon@@
palestine
commandments
aktiver
migräne
techno@@
weitergehen
pav@@
digits
gesinn@@
belü@@
mming
stimuliert
harmful
gefiel
herausstellte
peng
situ@@
constrained
smus
authenti@@
pipelines
beans
kennengelernt
transfor@@
trocken
persönlichkeiten
drift
writes
jose
erleiden
verschwenden
tortured
wirtschaftliches
centered
annt
tofu
jazz@@
drehung
clari@@
evelyn
gesteu@@
achtet
echo
iceberg
affe@@
operiert
hohes
ellen@@
exce@@
chu@@
rho@@
eriert
nex@@
ula
jeweiligen
blätter@@
continuity
erwarte
minded
pack@@
gebär@@
slept
aufpassen
positiver
entliche
leugnen
kokain
popcorn
valid
videospiel
sprobleme
verband
fürsorge
gros@@
stipendium
bakterien@@
knöpfe
zerstörer@@
minderheit
betritt
begegnet
illinois
metal@@
applies
hunderttausend
sebene
protesti@@
intri@@
alley
tierarten
begrüßen
budd@@
erdöl
minnesota
atten
gründlich
geringe
auton@@
mathe@@
spazieren
abroad
verläss@@
automobiles
advocate
stickstoff
wech@@
semi@@
suspended
psychopath@@
krank@@
seltsames
verpackung
funktionierende
ruhi@@
formuliert
zurei@@
autonom@@
lag@@
consideration
wee@@
katho@@
plic@@
butter
accor@@
geometr@@
platz@@
pleas@@
handful
seymour
revolutionary
irrtum
feste
offshore
bewerben
laugh@@
surroundings
contradiction
resem@@
atrazin
galt
schlepp@@
entinnen
pragmatic
revealing
hartnäck@@
machbar
erachtens
vernetzten
è@@
eignen
án
fie@@
coc@@
enheit
geschie@@
diejenige
parab@@
tner
auswahlmöglichkeiten
gemeinsamkeiten
spills
metrics
conscience
egyptians
ausser
verstorbenen
antibodies
accenture
bezahlung
stich
netflix
armuts@@
kriminellen
elessly
luden
schlamm
victoria
gans
brokkoli
wertige
angst@@
industrien
zahlen@@
toler@@
ando
decides
rockett
ziegen
arran@@
mysterium
phar@@
bezir@@
rides
randomness
klettert
motive
orch@@
exit
dus
hillary
migraine
hattest
ursprünge
summary
ungleichgewicht
tasse
wähler
o.
kid@@
astron@@
entle@@
rainfall
gewässern
igte
borough
schlachten
lassung
atlan@@
conceptual
fiscal
leidenschaftlich
tracked
standpoint
uter@@
noten@@
anima@@
einander@@
bezieh@@
albern
menschlichem
ug@@
plau@@
white@@
romance
successes
energie-@@
wash@@
stering
goog@@
routin@@
alterna@@
tera
organen
sänger
klebt
ballet
demor@@
ffekt
wax
bekommst
shuttle
hair@@
sigen
unschul@@
leys
‚
cockpit
gewandt
vibrating
nahrungskette
kürzer
neuroscientist
aufbaut
60-@@
ons@@
kaulquapp@@
critici@@
progr@@
kommun@@
bühnen@@
glory
werkstatt
zugelassen
beiträge
stereo
schütter@@
lest
onists
herausge@@
lischen
strengths
stif@@
mcdon@@
dokument
anischer
conc@@
contamin@@
funken
refor@@
weißer
nectar
professionellen
tums
fußball
cochlear
inmates
pts
christus
prag@@
flock
öffent@@
questioning
klam@@
2.5
convi@@
15,000
spreng@@
aufgezogen
verdun@@
involvement
gewer@@
japanische
hormon
justin
coins
kontroverse
illusionen
unzählige
efficiently
täts@@
lob@@
patrick
toxins
tightly
sofa
glat@@
tauchten
argued
außerirdische
alg@@
aussicht
regelmäß@@
vernunft
lick@@
übel
consistently
hilf@@
nördlichen
la-@@
enkel@@
ais@@
gelegte
comedian
dimension@@
riots
betreuung
darstell@@
akademiker
griech@@
extending
esot@@
nazis
dreck
black-@@
längst
ticals
mutual
omy
blues
kehr
missionen
cod
achte
grü@@
fisheries
distinguish
myths
schütt@@
hasst
hopeless
wal-mart
ley@@
command@@
funde
abend@@
school-@@
pediatri@@
tante
diabe@@
scare
stere@@
guckt
tolerant
attraktiv
metaboli@@
lehrer@@
spanisch
möbel@@
low-tech
fügte
tbp
rufus
gedruck@@
individuell
crowds
muse@@
außergewöhnliches
produzier@@
agno@@
colleges
schauspielerin
pedestri@@
selbständig
-system
parked
funden
sticky
retin@@
desertification
ist@@
genü@@
larvae
weiterentwicklung
matching
merkwürdige
befra@@
conditioning
nicely
sprechend
wahrsten
hour@@
fos
dah
attend
arly
fulfilling
highl@@
russians
ci
linksliber@@
poorer
right-@@
88
penetr@@
irrigation
schüsse
typischerweise
komman@@
blocked
abschied
irak@@
zehnmal
londoner
troy
bevölker@@
arrows
explosionen
creators
squee@@
prozessen
gegenüberstehen
lyri@@
angezeigt
repres@@
art@@
benef@@
stocks
environment@@
überwältigend
roboters
griechischen
contents
frisst
sustaining
ausbreitet
gehor@@
epi@@
transmitted
spontaneously
madison
constit@@
bumps
stress@@
fasz@@
otte
proteinen
bräuchten
chtert
anzieh@@
wahrer
fertigung
dug
kooperieren
parken
inherent
tress
d-up
vereinfachen
pfeiler
knü@@
gleichermaßen
reactors
modelli@@
produzent
atrazine
enabling
ministers
ermu@@
unified
fertility
offensicht@@
volt
technologischer
spitzen@@
mubarak
gin
jün@@
fähiger
scarce
hence
fertilizer
usable
vertikale
trank
jesse
harness
blur@@
bedien@@
assistant
reasonably
rett@@
ultravio@@
macy
spenden@@
approval
recep@@
schmer@@
präz@@
stero@@
liger
schöpfer
barem
equator
treibung
1,2
stepping
pepper
jets
handvoll
erik
häufigste
obli@@
cues
offenbart
goats
harv@@
posts
koopera@@
boten
ystem
erfreut
grabs
bezahlte
zenten
fürchte
hens@@
relates
hellen
anschluss
ogen@@
tres@@
independently
veröffentlichung
reinvent
kataly@@
h5n1
mer-@@
hers
fotogra@@
interaktive
befrei@@
galvao
ablaufen
verkauf@@
elementen
accommo@@
dwar@@
gefördert
hydra@@
recher@@
betten
keram@@
cow@@
face-@@
valued
gesamtheit
geschahen
kell@@
bade@@
ulose
pilzen
spiegeln
tability
sier@@
genuss
erfanden
ps@@
geborene
jahreszeiten
mäßige
biolumines@@
packaging
aggressi@@
erfolgsgeschichte
tching
umfangrei@@
kles
scru@@
reichhal@@
matte
fraser
journali@@
head-tail-@@
jüdischen
konsi@@
esther
competitors
appe@@
tech-@@
gelagert
bemüht
kultureller
cl
kommerzielle
derte
survivors
dynamischen
schwingen
diver
poets
datei
wandels
glicher
jabbar
beabsichti@@
befrie@@
ised
flüssig
unbeabsichti@@
signing
crushed
nische
netzwerk@@
bereitete
casey
educating
stiger
mastery
warte@@
wochen@@
programmer
hinder@@
haha
recherche
isse
good@@
terr@@
bestimmung
areal
low-income
hoffnungslos
greifen@@
verbün@@
kritisch
irrever@@
herzens
pressing
alligator
latr@@
spine
establishment
flüssen
contest
varieties
jahrhunder@@
aggression
coordinate
werkzeug@@
budapest
struc@@
blink
mosk@@
bewege
protozelle
absur@@
hervorzubringen
sheila
hörer
szenarien
worries
süße
lis
beschäf@@
ati@@
pazi@@
hurri@@
vergewal@@
tium
limbs
grip
außensei@@
fred
romantik
contagious
vorsorge
kommende
bevölkerungswachstum
endem
justify
rissen
belohnen
konstant
beauftragt
emission
erwerben
employee
arian
maintaining
addicted
torial
studentin
fitting
bakteri@@
festgelegt
ethisch
anonym
herumlaufen
battle@@
partial
öls
occupation
fool
doodling
tality
vals
slave
cherin
geg@@
ethnischen
pfe@@
dka
banned
sidewalk
martha
dämp@@
win-win
erwartung
dennett
abgesch@@
empowerment
bestellen
fies
delighted
checkliste
aufzuhören
hh@@
nier
spades
gaga
ologin
sketches
edith
würdigkeit
glow
elvis
orts@@
knocked
lled
beste@@
usage
lux
searches
greg@@
operieren
comprehen@@
auseinandersetzung
dune
barriere
patter@@
co2-emissionen
muni@@
grief
glaciers
1500
denmark
schockier@@
gallons
foam
fusi@@
sieh
makro@@
vorbeu@@
genannte
hack
betracht@@
directed
mustard
zweifellos
math@@
befestigen
hopkins
ego@@
hormon@@
cleveland
treaty
250,000
reporters
lider
imitiert
zeln
scream
share@@
vani@@
richtiger
metabolic
menden
gewiss
effektive
gliches
tremendously
bearbeitung
gheit
rotating
authentizität
dged
recipro@@
infer@@
sischen
tationen
wahrhaft
dump
dam
rup@@
proportion@@
verkörpert
sham@@
realities
verabschieden
änge
dreieck
ausgang
sman
arithmetic
ersti@@
spektakul@@
elec@@
ehrlichkeit
digitaler
quir@@
unemployment
supernova
welch
hi-@@
synesthesia
völker@@
question@@
watches
nation-@@
höch@@
fötus
commun@@
schooling
intricate
schwarm
vorräte
stuart
umar@@
traditionell
geliebten
365
gekostet
herzleiden
atombombe
antike
kw@@
blutgefäße
krisen
kopfschmerzen
kuli@@
handgelenk
aufwärts
verwickelt
collar
realisiert
vergleiche
contradi@@
multiverse
monument
puri@@
angeb@@
teln
lette
sprechenden
abwärts
ernest
thouse
consi@@
16-@@
dünger
eintritt
innovativen
pristine
gphin
sporen
telefonen
kümmerte
sonntag
continually
tsche
iner@@
attempted
drück@@
springs
observer
developments
relax
meistern
widerstehen
conclusions
submitted
producer
state-of-the-art
wissenschaftliches
bewundern
erstellten
intimität
fünfzig
vernetz@@
behindert
beit
flexibility
anti
andauernd
j.@@
massiv
mächtiger
igt
loslassen
offenbarung
degradation
hingabe
rhex
breakthroughs
maj@@
parap@@
archy
zuverlässig
nazi
freeze
guar@@
nord-@@
unterhalts@@
imple@@
findung
winners
phil
reflexi@@
unglück
asto@@
raumschiff
inwie@@
südafri@@
heiß@@
derzeitige
nötigen
vorlesungen
compatible
reinigen
fertiggestellt
spritze
screw
lierten
nuan@@
fieber
po
schwieriges
recipi@@
eco-@@
wärts@@
embassy
vere
geliebt
hineinzu@@
edison
ingenious
spam
odysseus
documenting
injustice
mem@@
enzy@@
existenti@@
plätzen
emma
fle
recovered
nordo@@
konservative
zep@@
maslow
ghtest
früherkennung
ima
ening
retired
gehoben
heiratete
gebete
desires
darwinian
hunde@@
serra
theatre
glamour@@
ativen
theft
elektrisches
rail
displaced
sperren
tust
kämen
thermo@@
eindrucks@@
eingang
theater@@
typo@@
orable
westküste
visceral
erlebnisse
bamboo
lynn
medications
attributes
bucket
wahres
befreiung
trait
zuhört
labors
iten
herbie
warteten
glucose
blows
dehnt
kranken
vorhan@@
phantom-@@
policing
floors
tata
bestimmter
multi-touch
rahmen@@
zusagen
visitors
unintended
autonomie
histori@@
verlegt
durchdringen
zuviel
generi@@
attribute
quadra@@
icy
ression
schwerpunkt
-in-law
g.
elefant
konservativen
legos
desig@@
vieh@@
rescued
lyn@@
nightmare
ende@@
gerichts@@
self-organizing
pfeil
infr@@
quarti@@
dler
archet@@
orgasmus
rasi@@
errei@@
smi@@
nai@@
ausgeschlossen
demographics
falken
dumped
deploy
begeg@@
ernsthaf@@
eding
peaks
lining
restau@@
drehten
nom@@
invitation
harvesting
irre
schadstoffe
ständigkeit
transa@@
sor
verborgen
bump@@
toll@@
abhängen
rezep@@
cele@@
klugen
verschwen@@
bmi
400.000
illegale
furcht
flachen
skies
kuba
widespread
nings
inji@@
angelangt
slight
schwin@@
einheit@@
beau
matri@@
zusammensetzung
robicsek
violin
geliefert
hannah
provinz
stange
judges
applause
jüdische
laundry
plur@@
löste
know@@
spite
mustache
verlorene
zufällige
scop@@
verschie@@
skam@@
passiv
launching
proji@@
transistoren
dokumentar@@
atori@@
brillante
accompli@@
angerufen
ideologie
ischerweise
drachen
anytime
ingt
akteure
strips
laborat@@
shrink
lachten
biomimicry
yang
shaping
progressive
lightning
neu-@@
schoß
lean@@
employ
drake
akteur
anschaue
verdanken
textile
gänz@@
space-time
geese
percep@@
centigrade
brillen
gestimmt
gad@@
complaining
evolves
unlock
beaches
myhrvold
emit@@
überlebenden
strictly
werfer
ausgedacht
ächlich
cookie
actu@@
dez@@
aufenth@@
oter
wrin@@
broadway
feucht@@
mineral
bind
chore@@
dictionaries
aire
überprüft
translating
ausflug
hes@@
affir@@
sexuality
aggregate
ungerechtigkeit
michoac@@
wertes
hervorgebracht
undeutlich
gefoltert
kreuzung
informal
gier
verlasse
amateurs
hyderabad
langlebigkeit
zufrieden@@
yo-yo
distorted
variability
t-shirts
netter
sz@@
anbau
sammlungen
behauptungen
ashed
datensatz
pavilion
tauben
verschieden@@
legend@@
farm@@
orphanage
campaigns
mangro@@
eimer
developer
selbsthilfe@@
delt
genic
comprehensive
rigi@@
annoying
aer@@
thread
fab@@
ferin
pet@@
steckten
correlated
boiling
stellen@@
amer@@
besitz@@
makeup
jeep
oral
überschritten
hotel@@
hangs
drauf@@
dopamin@@
ilen
kühlschrank
epiphany
gigab@@
drinks
bedroh@@
psychopa@@
verban@@
dirigenten
triangles
unschuldig
bounce
wichtig@@
kleb@@
pps
mba
trailer
ato@@
ease
skrankheiten
glichkeit
pflegt
out-@@
unbewusst
kuri@@
aufspüren
zellen@@
ceram@@
unerwartet
shallow
übermitteln
geraden
verbundenheit
lessness
iowa
gorilla
enthusiasmus
eingesperrt
erotic
geister
hardy
mbi
celebrating
innovators
fertili@@
derjenige
slowed
cultivate
familienplanung
balloons
sauberer
haustiere
kampfes
missouri
siv
beherrscht
rän@@
blackberry
convul@@
logos
ezra
configuration
zerbrechen
fills
hörern
opec
retail
trainings@@
stimuli
apologize
gating
ades
penicillin
neanderthal
verblei@@
extra-dimensionen
risse
son-@@
wertschätzen
gn@@
erem
seltenen
skip
verlieben
digitalisieren
billboard
sought
sourcing
notwen@@
soviele
trenn@@
visuals
lak@@
lingui@@
reisten
versuchung
sicheres
repräsen@@
deckte
mold
industrialized
compla@@
trusting
bieter
corn@@
anwes@@
14.
blauflossen@@
marathons
herab
fertige
paleont@@
anthropologen
awards
eins-@@
kunft
kameraden
brecher
glatt
verändernde
tim@@
degraded
skydiving
shells
fast-@@
pore
splan
square-@@
day-to-day
beschleunigung
merkten
td
merito@@
hubschrau@@
fotografierte
gesam@@
philosophi@@
suburbs
bewertung
musikalischen
einbezogen
perpetu@@
magnets
beginnings
profitiert
echtzei@@
gkeits@@
til
fry
mediate
koff@@
zentri@@
abandon
zack
cabinet
grosses
nächte
auftaucht
empfindet
schrittweise
associ@@
liebend
oklahoma
präzision
hindert
convenience
startet
tails
minor
regenerieren
biene
reflective
catalog
abgestimmt
arrangement
verbre@@
ingu@@
himalaya
verte@@
zustimmung
kompe@@
steigende
interviewing
ventil@@
nähert
davon@@
preservation
cock
eingebracht
beheben
kugeln
settlement
bypass
arten@@
jacket
immernoch
gefäß
bulg@@
frisch@@
funktionierten
hierhin
anhän@@
reje@@
replicating
gewand@@
chender
aufnimmt
censorship
ironischerweise
betä@@
bundesstaat
fluidi@@
charak@@
mity
inventing
frühere
rabbit
leon@@
implication
einfangen
cross@@
linguistic
bil
mentary
stechen
rant
klebeband
wasting
mensch-@@
manages
abwesenheit
politik@@
hinunter@@
kippen
r.@@
lotto
empf@@
fracking
etiket@@
präch@@
salman
korrup@@
troubled
stammbaum
al-qaida
fassten
wegnehmen
seven@@
penetrate
emper@@
wolken@@
kennen@@
charcoal
verl@@
betreibt
garanti@@
kost
disconnected
packing
erheb@@
videospielen
kapazitäten
quat@@
bedingt
verbergen
widerstands@@
leug@@
hoo
gratis
abstimmung
manipul@@
gedächtnis@@
grundlegendes
koll@@
of@@
booth
zigaretten
vorbilder
gigantischen
schlechtesten
ambulance
friend@@
dee
gedruckt
bekanntes
dschungel
corrid@@
kugel@@
sonnensystems
anfänger
stake@@
brid@@
intellec@@
dividing
ruiniert
preten@@
kramp@@
helikopter
gehörten
preserved
gefeiert
frontal@@
bloo@@
eindring@@
mt@@
rm
nuklearen
elder
vermehr@@
kämpften
back-@@
leum
firmly
abgeschnitten
eliminating
verkünden
blutdruck
sburg
ktisch
bulldo@@
7-@@
matisch
surfen
synapses
fünf-@@
bischen
gupta
tung@@
richti@@
fs@@
laura
dollar@@
carcin@@
hilfsorganisationen
wandeln
klippe
interaktiv
grundstück
solltest
nail
rent@@
lebensmitteln
beleuchtet
explode
trunk
aspirations
hilfe@@
bloggers
gezahlt
entwicklung@@
beobachter
rooted
überschwe@@
kontam@@
ppel
akten
anern
aerial
lements
kari@@
intelligen@@
entsprechende
mato@@
stücks
240
melody
schon@@
promp@@
gase
individually
vietnam@@
recap@@
ironically
incomplete
inhaf@@
ausgesucht
beschränken
collaborators
fortsetzen
philips
ak-@@
minu@@
commonly
betriebssystem
partisan
bour@@
bloße
märchen
virus@@
emotionales
provi@@
cin
undergraduate
solidar@@
problematisch
lässig
berners-lee
operational
bewertet
zational
spaltung
distri@@
zufügen
of-the-@@
stik
verbren@@
jährliche
nanome@@
forbid
nanotechnology
squat@@
witzig
stoffwechsel@@
ori
mortal
olymp@@
pus@@
protozellen
bißchen
verletzlich
chari@@
fmri
insel@@
weal@@
verank@@
respiratory
chau@@
drehe
communal
volcano
reject
oppon@@
führungskräfte
onk@@
submersible
world@@
ffe
developers
verwal@@
einzuführen
ambiguity
isolieren
antibio@@
ewigkeit
dealt
islamische
gär@@
französisch
regulate
tizing
diskre@@
flori@@
deen
geiger
addressed
amateur@@
athlete
diagnosti@@
nell
sages
abkürz@@
99@@
indoor
prüfungen
tehran
crawling
testosterone
außenwelt
bananas
assessment
treas@@
preventable
sque@@
balanci@@
bestra@@
weites
verspreche
donations
füllte
sperm
seil@@
giants
winziger
67
zweifel@@
locke
rigid
geistigen
antiretrovir@@
gewannen
jonglieren
bindet
tzellen
angehalten
umkreisen
worship
quie@@
gul@@
airbnb
enrich@@
pestizide
ene@@
steig
inser@@
isla@@
arin
misser@@
ffed
hamlet
athletes
sati@@
likewise
investigating
unite
schleifen
vc
priorität
unpredictable
multitasking
straß@@
blockiert
anziehungskraft
arabisch
kost@@
förmig
ati
siberia
benutzung
gger
acity
babylon@@
juven@@
baby-@@
routinely
bruchs
met@@
vergewaltigung
hunder@@
essay
winziges
höhen@@
snap@@
auditory
laden@@
desaster
verleiht
locker
argentina
replizieren
sup@@
angel
province
billigen
submer@@
introducing
mash
wiedersehen
commu@@
eigert
konnektivität
governor
altogether
prizes
drowning
frische
counsel@@
kennenlernen
zwingt
verni@@
envy
abschluss@@
casting
25.000
derart
heimlich
mühle
tumor@@
oberfläch@@
oktopus
semester
pathogens
cherung
drucks
veranstaltungen
#
levin
cognition
bankers
gamble
dependen@@
synästhesie
scholars
parameters
saurus
hu
stence
treffer
ermordet
wallet
intrinsically
63
naomi
rhyth@@
snap
playground
abalone
mast
priest
let@@
spende
scharfen
apparent
günstiger
correspond
bräuchte
negotiation
sehnen
peac@@
bleibe
ref@@
fünften
tain@@
lokaler
teur@@
genauen
neugierde
angenehmer
mellon
discussed
mobiltelefon
cowboy
cuba
macintosh
sterte
handels
attachment
überein@@
perman@@
tb
garantieren
anga
ausgeklü@@
zün@@
steins
fic@@
buff@@
rechtfertigen
üpp@@
erschwinglich
make@@
eradicated
ancy
vorstellt
protokoll
endo@@
arr@@
weinte
hindi
lingu@@
tinten@@
rotation
training@@
br
metaphors
erschütter@@
sea@@
unterneh@@
prognosti@@
throws
gutem
suite
meilen@@
druckt
schimpanse
jean-@@
lichtgeschwindigkeit
mosque
yp
awar@@
darwins
nigerianischen
gitar@@
astronauten
depressing
hoden
assistenten
lucas
cion
begrenz@@
phantom-arm
elektri@@
ghtful
dengue
twen@@
erwähne
iraner
geschei@@
turbin@@
v-day
trieben
ffel@@
jaws
gho@@
verd@@
flüssig@@
löchern
explodieren
combinations
conqu@@
integrating
bewäl@@
laparo@@
uruguay
chtige
argent@@
gummi@@
dragged
ambiguous
kampagnen
rossy
spouse
adventures
fungus
kenyan
vegetation
kerle
offizielle
orbital
performs
hübsche
gebil@@
telephones
bananen
extensive
automatic
knete
dritter
vitam@@
vorsicht
onies
drilling
ungeheure
yellow@@
gesellschaftliche
aktien@@
nasen@@
sanit@@
respectful
fatty
plutonium
bohren
laying
phas@@
kath@@
vorherseh@@
nk
starter
ökologisch
realistisch
beschützt
ökosystemen
heißer
instincts
atmospheric
autounfall
schlugen
butt
strous
one-third
graders
uv-@@
krebse
auslöser
auszubilden
midnight
hurts
zwecken
sechst@@
responsive
solar-@@
shah
geschw@@
southwest
erwiesen
ologies
cleaner
ih@@
suggestions
küssen
lifelong
beginn@@
tian
illustration
nützliche
8.
tugend
jemandes
weggehen
geehrt
nests
klinisch
neumann
äus@@
intangible
carson
lebensform
häufigsten
mitfühlend
placing
sequenzieren
radiowellen
urheber@@
rohr
cles
angola
dna-origami
klüger
dood@@
lized
repu@@
dictator@@
simulated
besonderer
beseitigt
yi
rebel
complain
eja@@
differ
reichten
uchen
richards
geriet
beherr@@
sopran@@
monu@@
profi@@
michel
fester
heroin
scaled
chlor@@
ath
kopf-zahl-@@
geschni@@
anticipated
marvel
prou@@
kometen
excellence
wundervolles
peln
oiled
beth
beschweren
flexibilität
mutige
begehren
barrieren
nomin@@
franzosen
sagmeister
ein-
lec@@
skop
uv
aufzus@@
grin@@
....
pass@@
tyler
thirdly
gather@@
poorly
criticism
profil@@
belan@@
1800
wages
bedacht
jährlichen
obtained
sein@@
nachdenke
vortra@@
iran-@@
filter@@
neanderthaler
schatten@@
tzlich
fünftel
gange
whip
beachtung
censor@@
gewusst
ballons
oxi@@
gereicht
is-@@
know-how
enthüllen
intentional
bobby
wertet
ario
kindersitze
summar@@
verkörper@@
fliegende
disziplin@@
mittler@@
megab@@
heirat@@
jewel@@
liz
loge
anen
continuum
hungersnot
siblings
gemeinde@@
liby@@
per-@@
existi@@
ide
ausseh@@
erhöhte
mierten
jacob@@
concei@@
erschaff@@
legendary
behandel@@
wohlhabenden
unbekannt
gerichte
llig
sanitary
nieren@@
ddled
contexts
nchen
curved
elung
haupt
extre@@
köni@@
belange
pfl@@
darstellungen
berufen
kamele
brin
dimin@@
himm@@
akzent
najmuddin
drungen
festgehalten
weekly
begei@@
indiana
schmecken
uri@@
stical
papua
nordkorea
cynthia
designer@@
gna@@
isra@@
technischer
prozessoren
rekord
profiles
maldives
großbritanniens
abbau
poland
primzahl
sinclair
staggering
refu@@
altos
cess@@
mble
haupts@@
neurological
lila
olds
festlegen
effektiv@@
bath@@
johns
ber-@@
compose
schmilzt
getrunken
noises
rip
versprochen
cad
eigener
unterschätzen
stap@@
concent@@
bergs
dorfes
bulk
grössten
quadratkilometer
styles
schnurrbart
nanometer
victor@@
verschafft
stören
curtis
veter@@
fassung
remotely
vens
sala
mathematisch
jean
relevance
einschrän@@
dis
feminine
ros
northeast
tod@@
kontrast
beiträgt
verfügbarkeit
billion-@@
klienten
deceased
auswendig
flucht@@
k.
aufbau@@
beliebtesten
gewichts@@
betreff@@
street@@
fuller
recipes
konventionelle
oblivi@@
gus@@
nagel
tapped
verbraucher@@
papi@@
shouting
vet@@
regionale
finanziell
ury
doll@@
torna@@
halls
erseits
kose
pesticides
isot@@
1908
yahoo
spark
12.000
trust@@
sympathy
kontinuier@@
qual@@
soeben
30er
zerbrechlich
mediterranean
datenbanken
respektiert
suspicious
symphonie
käufer
säuren
surprises
rohre
einzustellen
shadows
zuverlässi@@
capacities
struggled
doubling
flammen
sag@@
mancher
entscheiden@@
execution
lip@@
negotiations
gebur@@
drei-
zeig
warfare
veteran
freiwilli@@
loszuwerden
futter@@
geckos
moz@@
absorbed
auto-@@
selective
stirling
izing
vorüber@@
fels@@
judy
pervasive
bohrt
stly
mites
mutigen
orni@@
ungsmittel
forscherin
erfolgt
bruttoinlandsprodu@@
academics
executive
hosent@@
verfein@@
nib@@
correspon@@
oon
deregu@@
billion@@
tribun@@
abnahme
meeresschutz@@
intersection
verzö@@
hna
1929
dock
habitats
modernis@@
menschenmenge
eco@@
viewers
fäl@@
guided
worldview
nadel@@
basics
s-on
prozentige
zwangs@@
original@@
benign
aktivist
malediven
hervorragende
ada@@
nashville
u.s.-@@
rezeptor
realizes
surge
atlas
sync
elektrischer
mythologie
hazard
verrück@@
canal
7.000
verbesserte
fotografien
segen
montag
bewässer@@
gesteuerte
fairy
pazifi@@
1858
sic
bras
memo@@
bloom
disku@@
loh
vorschriften
stomatopo@@
schir@@
gefe@@
obst
aktuell
himalayas
epit@@
doodlen
fantas@@
identities
beängsti@@
terie@@
lerne
chtig
indirekt
beard
seits
prostat@@
stenz@@
animate
lian
schütten
benehmen
strationen
menting
entity
tled
erzielt
aviv
good-@@
verlierer
inform@@
migrate
performer
sulfide
nord
prevents
zusammenbringt
blaues
gleicher
banal
steer
iranians
ablehnen
ansehe
fo
mack@@
eries
simulationen
kostengün@@
acquisition
skycar
bandura
ktives
verwei@@
analyst
pins
spulen
mikrofon
dich@@
erkranken
dyson
interference
pascal
mail-@@
eno
analphab@@
develops
inject
britannica
conferences
gir@@
spann@@
imposed
cardiovascular
dürfte
slate
erstreckt
wit@@
umwand@@
vertrieb
aesthetics
volk@@
anthropolog@@
sän@@
gemeinnütz@@
t.@@
remin@@
kus
betont
autistic
vola@@
custom
hypothesen
offiziellen
irgendwer
vietnamese
filme@@
flood
kunstwerke
ariely
buys
fertigkeit
futur@@
iny
dunes
willingness
kofi
berührte
lev@@
entdecker
lerin
künstlerischen
weed
peter@@
artefakte
chie@@
psychologe
12.
ros@@
donated
stretched
vivian
meantime
entertaining
ecolo@@
erzeug@@
payment
mista@@
insecure
überlegte
verdeutlichen
geistig
amo@@
harb@@
resonanz
begeistern
whistling
gels
bush-@@
reise@@
erklärten
marx
kentucky
annimmt
d.c
nab@@
ruhe@@
ult
begrüßt
cane
senen
werfe
balcon@@
glowing
bo-@@
measurable
hof@@
west-@@
etablieren
molekü@@
spaziergang
itä@@
eson
holly@@
planten
bän@@
ashes
grizz@@
boyfriend
whirlwind
verkündete
synthesize
brennt
moms
celine
remix@@
wähle
förmigen
programm@@
bauchspeicheldrüsenkrebs
cists
fashi@@
überprüf@@
geographi@@
strategische
ehrfurcht
undurch@@
1970ern
färben
personnel
arbeitslosigkeit
boarding
bon
nicht-nullsummen-@@
decentralized
städtische
minto
numb
ruled
manuscript
hilflos
grounded
gifts
decei@@
verzeihen
fulfill
saugen
yam@@
volu@@
eich@@
liessen
dnis
mischt
turtles
lier
tso
wirtschaftskrise
wandering
barbie
vernichten
artic@@
holten
presentations
packs
nathaniel
yoga
sprichwort
take-@@
ambassador
execu@@
stiftungen
yel@@
coolen
ape
ums@@
rationale
mcluhan
phen
resonance
alltags@@
freigesetzt
15.
officers
verschreiben
juri@@
kommuniziert
ranger
periodic
geräuschen
überträgt
humor@@
gadgets
rationen
hältst
fights
inviting
explodiert
ills
ehemaligen
noticing
eps
instinctively
esch@@
fernen
makoko
crick@@
frak@@
class@@
werbes@@
anwendungs@@
arc
hallucin@@
enlightened
1966
starrt
enco@@
rigen
äußern
ez
puppet
sibirien
some@@
kling@@
bomben@@
komplex@@
pakistani
herz-@@
mantis
hinab
cubic
vollzeit@@
dissemin@@
killers
fahrung
indoors
unauf@@
biography
flown
promotion
excer@@
bilbao
gängen
müsse
jake
angehöri@@
mierte
platzt
agnostic
sweeping
titude
urbanen
sket@@
einflöß@@
eeg
prostatakrebs
250.000
remot@@
willkürlich
ethiop@@
carolyn
gesamtes
vernünftig
komit@@
bewegenden
buckel@@
facht
entfernte
klü@@
nachmittags
vorführung
lement
verge
ehrgei@@
reserven
prozess@@
deserts
synago@@
lkws
alltägliche
explicitly
lebensformen
resurrec@@
verbot
standardis@@
gewähren
beträch@@
oz
zeitgenössische
triple
nachdachte
registriert
gestürzt
burschen
extrahieren
verdamm@@
food-@@
grossartig
thur@@
ores@@
schlachtfeld
vorlesung
implemen@@
interessierten
sweat@@
thirds
limestone
kler
exceptional
tafeln
hoffte
pharmazeu@@
bread@@
elfen@@
settings
tunas
jacke
eigentums@@
onik
matics
architekton@@
sens
psychiat@@
regisseur
tipping
experimenting
überstehen
wertvollen
subventionen
uralten
kürze
seitigen
lebensstandard
incremental
östro@@
.a.
translates
sushi
manipulated
grös@@
innovations@@
zuständen
blac@@
neigt
plaque
races
unterhaltungen
teheran
weir@@
waking
ndes
teppi@@
miete
sektoren
mehrmals
brieren
turtle
lyn
crocodile
drought
impac@@
haul
peripe@@
getrei@@
kuns@@
schem
urgent
gespendet
blair
wning
strassen@@
wiederver@@
wärme@@
webcam
klon@@
varied
vague
gescheitert
fettleibig
sige
virul@@
bited
retire
swerte
babysi@@
ktierte
flügeln
short-term
mten
som
kosmologie
potentielle
hackt
moti@@
schnü@@
tooth@@
stärk@@
südasien
aufnahm
proton
engagiert
faszinierender
dium
interagiert
tiefgrün@@
exhausted
certainty
buckminster
allan
alled
-bewegung
jü@@
ddler
verwirrend
licheren
gefängnisse
quadrate
cue
vorschein
twin@@
admire
visionary
bereit@@
tol@@
dekade
90@@
erlich
fertigen
besagte
dia@@
indus-schrift
succ@@
asiens
zwi@@
koma
lebensspanne
returning
1940
bereichern
jordans
filmmakers
threaten
x-rays
moun@@
chol@@
konfron@@
hochgeladen
zahn
70.000
drums
ml
unvermeidbar
weihnachtsmann
aufgeklär@@
instinkt
urteilen
ignorant
erstaunlicherweise
atemberaubend
blen
interessen@@
offensive
outsi@@
enting
zweige
devastated
großzügigkeit
supraleiter
empfand
wisconsin
1953
centric
fass
zig@@
strokes
anzukommen
chariot
sell@@
maßnahme
old-@@
ratings
lymph@@
morgan
protocol
300.000
menop@@
konsument
analog@@
kommerziellen
selbstmordattent@@
umkehren
faint
meaningless
dreiecke
annan
sousa
explodierte
sack@@
inefficient
dude
smiles
teddy
cils
ister
nih
breasts
cav@@
adams
ermäch@@
hydropho@@
recor@@
referenz@@
lichten
iv
landwir@@
leak
gezählt
einher@@
soundtrack
computerprogramm
centralized
sugger@@
medieval
popped
stiker
nerds
mittelklasse
krankungen
statisch
entz@@
mass-@@
digitally
flücht@@
verwandlung
acoustic
temptation
hinterließ
biotech
möbeln
modells
blutgefässe
äquator
ungslos
inclusive
releasing
near-@@
dän@@
protocells
ingenieurs@@
seren@@
chord
gemäl@@
isen
presumably
ärz@@
priva@@
timber
quotes
invaded
replied
fulfilled
gebau@@
indianer
haas
mosa@@
argumentiert
t.b.
persons
verbrecher
strains
passionately
aunt
flach@@
feasi@@
needing
month-@@
abwei@@
2013
oting
officially
nackt
illen
cooked
seafood
blessing
claws
lauschen
improvisieren
achilles
herange@@
gestützt
vollziehen
herausra@@
transferred
sehkraft
divers
biert
internationaler
dictator
belts
schwärmen
car-@@
superior
freiheits@@
fana@@
emaker
erfindet
scottish
senkre@@
pseu@@
iker
interro@@
gurte
asper@@
langfristigen
drüse
wikileaks
angelegt
reis@@
gand@@
determin@@
spirituelle
gestoppt
vic
vors
flag@@
disconnect
contacts
hnen@@
kleidungs@@
any@@
wehr@@
wich
ekel
mund@@
missbraucht
hyperbolic
schilder
yal
sanc@@
savanne
komischen
pein@@
interaktiven
eintrag
weekends
lüge
cyberkriminellen
ironic
hears
wipe
nutzlos
presse@@
ghost
prostitu@@
gesichtsausdrücke
insky
verdrahtet
diener
empfän@@
schaff@@
puberty
crat
subscri@@
massively
seifen@@
programmierung
stattung
notebook
advantages
zähler
funktionierenden
herrschte
startling
orien
illustrates
testimony
mechanisch
gefangene
produzierte
unvei@@
ungemein
vibration
demnach
gezü@@
amy@@
flüchtlinge
cated
bestehende
sump@@
manufacturer
saf@@
punk
zorn
erfinder@@
reco@@
masken
zwei-
interpretiert
katoren
inadequate
alisa
sangen
dious
diagrams
headset
protag@@
analytical
unaids
lehnte
obsessi@@
zweitgrößte
novels
gratu@@
sail@@
colo@@
schedule
gewartet
vam@@
glaubens
charging
diam@@
lit@@
hühner@@
dove
sequel
tribute
eignet
arch
prüft
abzuhalten
spins
spektakulär
typisches
aspen
architek@@
gurus
abhalten
eval
anordnung
1990ern
daphne
wilderness
shri@@
seu@@
blocking
carved
pollen@@
auszuführen
umwandlung
senioren
verhand@@
educators
tigers
cyber
verschicken
falt@@
fuse
dächern
anschau@@
anzusprechen
anmerk@@
quadri@@
herauskam
häuser@@
schläger
stunden@@
buffalo
xt
sterberate
seam@@
collagen
zuspielen
whiskey
interval
burma
gefühls@@
ggles
ile
enced
10th
mmm
birgt
dinnen
abgrund
skelettmuskeln
besessenheit
philanthrop@@
railroad
gesichts
entwarfen
ctivity
eloqu@@
wellenlänge
ergreifen
easter
genomik
vagina-@@
daw@@
boyle
spit@@
as-@@
ertrinken
rightly
termin
dener
republi@@
bedeutungen
castle
teleskop@@
juli@@
kling
osi@@
kapsel
palace
processors
komponisten
zetas
floss
contributions
publisher
steering
vorzüge
reproduzieren
keen
taboo
turkish
tseite
trommel
behör@@
sichtlich
zugreifen
contracts
erstellte
incomes
heiz@@
workshop
allerlei
portu@@
aggressiv
madness
anhalten@@
mandel@@
eur@@
croch@@
zugehöri@@
fluktuationen
tw@@
prone
titled
komplettes
brocken
kredite
captures
accidentally
existential
mächte
see-@@
plying
inexpensive
ticism
restricted
funk
conceive
ually
row@@
dant
enha@@
antun
brot@@
serendi@@
wiederherstellung
servi@@
inso@@
christi@@
klimakrise
waldes
gerechnet
synapsen
witn@@
tagsüber
jahrzehnts
diag@@
nixon
refin@@
bereu@@
capsule
skr@@
animated
gesessen
stecke
meldungen
einzelheiten
sations@@
offenes
pers@@
forderte
hänge
rhythms
explosions
schütz@@
position@@
montage
puppe
exhi@@
indul@@
äquivalent
rekonstruieren
flüchtling@@
jurassic
daisy
seat@@
einschlagen
erschossen
teilchenphysik
tutor
erfuhren
balancing
jeglicher
acceptable
kiva
zutrifft
scholar
trocknet
einkaufszentrum
australi@@
verdäch@@
weltwirtschaft
ming@@
umweltschutz
sect
malaysia
mannschaft
ausführung
newly
rouge
2,500
stechnologie
gateway
zusammenfassung
soft@@
tilien
contribu@@
unterdrückung
unterrichts@@
casual
posture
beleben
hinschauen
änder@@
saves
biolumineszenz
näh@@
pies
gottes@@
infrarot@@
ribb@@
sarajevo
bies
kiki
bracht
fluctuations
laute
u-bahn@@
chair@@
restra@@
exter@@
hindu@@
idol
gesundheitswesens
fordere
muschel
excuses
avoi@@
carbonate
vention@@
jab@@
wart
intelligent@@
verga@@
ree
öhnen
fenster@@
tiniest
pillars
mammogram
gefär@@
gemeinnützigen
competent
gaze
ktiert
underway
sali@@
amts@@
vollständigen
erhältlich
östlichen
fast-forward
barsten
hebe
mittel-welt
ktiver
issued
rezepte
prozenti@@
crater
photographing
ogramm
lindbergh
discre@@
würdet
allererste
thrust
chant
embarras@@
system@@
pe-@@
besuchten
abstrakten
tually
detectors
erbaut
crank
aufsteigen
fällig
monolo@@
implants
außerirdischen
leich@@
signifi@@
ti-@@
appearing
crowded
lustigen
ura
fertigten
schrän@@
chalk
knochenmark
zauberer
compen@@
rut
paulo
formte
ziffern
flap
bögen
kranke
basteln
diagnostizieren
twitter-@@
kuwait
currents
salmon
respects
beanspru@@
rhetor@@
boil
organisch
unterkunft
weizen@@
gemeinschafts@@
appealing
liberation
sne@@
soll@@
pinker
fisher
schwierigkeit
wey
anfühlen
grandmothers
mermaid
verkür@@
civilian
streich@@
schmug@@
chene
pont
senegal
hoe
descartes
forscht
stechn@@
japaner
reib@@
nest@@
thou@@
köder
choreogra@@
nitri@@
stereotyp@@
künst@@
führungspersön@@
miner@@
primär@@
egos
google-@@
nullen
naturschutz
swap
rais@@
prototyp@@
lava
ausdenken
einzubeziehen
sser
derung
sealed
closure
opho@@
vet
unheim@@
taller
cpu
replic@@
rettungs@@
kälte
determination
personen@@
korreli@@
underestimate
engths
legis@@
conceived
carrot
aussahen
lotterie
decep@@
stumbled
prozac
recei@@
kreislauf@@
erlaubten
laufende
tritt@@
scherz
nyu
literary
smiley
ily
robinson
quali@@
agent@@
korrid@@
margin
vorsitz@@
solves
objekts
phthalates
refers
identitäten
unmittelbare
thrive
erfährt
gewa@@
argu@@
authentisch
mächtiges
eingefangen
krö@@
akti@@
schüttet
zielte
anthropologist
kürzen
transducer
lure
kans
rian
prinz
650
josh
fesselt
hubble
ziege
kulissen
freundlicher
randi
compos@@
nanotechnologie
tus@@
nicht-nullsummen@@
baugh
stereotypes
top-down
speichert
mathematically
schildkröten
guaranteed
schwanger@@
kodieren
bitter@@
13-@@
landeten
tze@@
evapor@@
spannen
läss@@
mutant
manifesti@@
maeda
ruption
terry
schwefelwasserstoff
gigantische
mittelschicht
groundbreaking
stacks
bloß@@
berries
nirgends
anästhesie
interviewt
computerspiele
befürchten
neusten
auswirken
airlines
allison
licen@@
frischen
nachthimmel
sandel
meda@@
fehlenden
feldes
umin@@
fleder@@
emphasis
korrespon@@
tili@@
kontakte
spezielles
kew
pete
hol
rechenmaschine
bill@@
mitzuteilen
flugbahn
wolkenkrat@@
konfiguration
enzen
aneinander
gläser
alizes
charta
jim@@
anor@@
gliedmaßen
überwiegend
strated
structured
aspekten
aminosäuren
letzen
geschenke
sives
cholester@@
sweet@@
ausbeu@@
seiten@@
alistische
cafeteria
mittelt
arbitrary
ethan
cheln
similarities
mandarin
technician
forbes
epiphy@@
hid
dining
polite
hippocampus
bestraft
niger
characteri@@
biographi@@
cock@@
upp@@
ywood
theo@@
confusing
handi@@
schildkröte
motorcycle
aspiration
altet
gency
nursing
maine
declined
switches
crafts@@
begrenzen
schlech@@
objektive
regenwasser
antor
pani@@
walkable
alabama
institu@@
1971
faszinierendes
pte
forschungsarbeit
vorurteile
übernahm
bewegliche
jr
desc@@
anlass
verhinder@@
declar@@
dson
hness
dry@@
ken-@@
forsche
konsumiert
li
switching
caroline
südo@@
availability
stick@@
fert
listet
gal
1,100
glückske@@
gebot
unwohl
erness
aufeinander@@
ausführ@@
klimaanlage
nour@@
reminder
clash
requests
norwe@@
performances
regain
längste
crystals
scham@@
n.
technicians
dable
topf
seel@@
erholung
schluss@@
zuzugeben
subsidies
naiv
aufführung
orbiting
inde@@
diane
hintergrund@@
ministerin
eager
spektr@@
absorbiert
mundane
odys@@
ese@@
weihnacht@@
liebhaber
nachforschungen
vergangen
befriedi@@
permanently
tetr@@
pneumonia
primal
präsidentschafts@@
story@@
rober@@
allge@@
komplexere
outrageous
predicts
pierre
quantity
misshand@@
iranischen
visualizing
flipping
gefil@@
gesiedelt
differential
informierte
primä@@
tis@@
todd
öl-@@
peel
genies
nischer
erobert
db
palä@@
ermunter@@
willie
konventionellen
augenlicht
airstream
kelley
stries
99.@@
elektronen@@
lebzeiten
indication
schockierend
connectedness
folge@@
zielten
kondi@@
abweichungen
med@@
lymp@@
eliminated
boltzmann
thy@@
ghe@@
citizenship
herzerkrankungen
modellieren
gott@@
descriptions
ensemble
articulate
treadmill
vorhandenen
ausrichtung
röntgen-@@
jekt
energy-@@
persön@@
klemp@@
ischste
dezi@@
couples
inhabited
osc@@
concus@@
protective
dangers
abholzung
spaghetti-@@
viktori@@
weltmeister@@
expressing
southeast
besei@@
wärmen
chap@@
stießen
editing
quit@@
überwacht
prophet
cosmology
schlaue
nove@@
insassen
barcode
inc@@
volumes
fäkalien
45-@@
tunisia
booms
747
dental
gekennzeichnet
burial
gebühr
eigen
verbs
mulla@@
radioactive
cigarettes
anthropologists
übel@@
neuro-@@
70,000
motorrad
delfin
treibhausgas@@
rebellion
stünde
unemployed
verschiedensten
ones@@
verschul@@
macar@@
orientierte
geeig@@
hinweg@@
bestehenden
strict
zuwachs
insisted
coinci@@
mock@@
mobilisieren
quor@@
überwach@@
illusion@@
proving
thermodynam@@
raumfahrt
taxon@@
romane
joey
professions
gegebenheiten
kreide
schweres
import
itäre
gess@@
trie
prevalent
dreidimension@@
selbstwertgefühl
detailliert
westens
böden
abschnitte
tize
clare
collins
baxter
muffin
einzelteile
militärischen
nerv@@
schüssel
databases
exhilar@@
rider
sagen@@
jas@@
protects
wade
willens
echn@@
übertrieben
zesses
umweltverschmutzung
comet
diale@@
angerei@@
atemberaubende
öffneten
kollektives
dvds
mentors
birth@@
lauren
millionen-@@
pulses
beobacht@@
lichtjahre
anforderungen
nettes
cers
fractal
busines@@
bioluminescent
mics
buster
deni@@
hospi@@
pollu@@
allerersten
ressourcen@@
euros
studiere
medienunternehmen
skyscra@@
arteries
igbo
kombinationen
murdered
budrus
täter
bizar@@
stron@@
größerer
creatively
gemischt
caf@@
verbundene
sonstwo
sischer
obligation
airports
buddh@@
tou@@
einsetzt
dänemark
unmengen
percei@@
ford-@@
studenten@@
corti@@
baumwoll@@
kac@@
pple
angetan
germ
sug@@
ausländische
foreground
zurückzukommen
überraschte
six-year-old
douglas
giraffe
imaginative
überraschenderweise
faszinier@@
fif@@
rennt
cel
hnung
veraltet
slices
denburg
ungläu@@
diente
dravi@@
himi
börsen@@
qi
robbins
customization
inda
entschlüsseln
mimics
rockwell
sessions
laramie
baker
migra@@
ozone
horr@@
hygiene
therapist
schwingungen
tragische
produktion@@
strich@@
denomin@@
nian
cun@@
interviewen
kasse@@
mont@@
tiveness
tomaten@@
romegal@@
mighty
bewusstseins@@
world-class
lessig
gorillas
bemerkung
delph@@
jenny
liebling
shout
delu@@
lös@@
prüf@@
transcen@@
thankfully
payments
third-@@
meiß@@
ologischer
phänomens
chill
standard-@@
werker
zweifeln
peace@@
boli@@
intensivstation
bottom@@
krankheitserre@@
margins
selam
circul@@
footprints
jpl
spazier@@
alko@@
julius
beschwerden
gerlich
clarke
da-@@
disper@@
etabliert
gebern
spalten
drank
eliminieren
verdrängen
unvorstellbar
die-@@
categ@@
moderni@@
franch@@
schande
communist
jai@@
hart@@
ziere
mehl
automated
sacrifi@@
gifted
yste@@
erwischen
reconstruct
timeline
kumpel
unsustainable
zau@@
australopithe@@
distinctive
ange
unglücklichen
hlten
empfehl@@
cumulative
gerweise
psychisch
zurückgeht
elevated
träumt
chy@@
ania
dominierende
bewusst@@
gelächter
lasted
down-@@
mafia
mathematisches
vize@@
port-au-prince
trickster
refrigerator
wächter
marie
neandertaler
ckchen
geantwortet
diffusion
intelle@@
übergeben
skarte
probi@@
einigermaßen
measurement
unwahrschein@@
bundesstaaten
bester
moglobin
beschäftige
wüsten
total@@
theke
begegnete
tiefgreifende
fragmented
slager
htt@@
trand
sais@@
dierten
siven
ausdrücke
motions
chaz
künf@@
tropen
fur
anfassen
otto
astronauts
naht@@
technisches
gastgeber
institutionelle
opern@@
bingo
carmen
levine
flooding
wahrlich
show@@
kontrollen
nutzer@@
anzugreifen
beeinträchtigt
atrice
durchqu@@
argentinien
bewussten
moderator
houston
gefroren
artifi@@
recherch@@
lling
neurotransmitter
gelehrten
enzymes
riv@@
weblogs
chendes
non-profit
gleiten
eingebunden
kratische
kritz@@
compressed
gewähr@@
20ern
liberalen
alan@@
tched
cist
cargill
vos
schizop@@
nützen
weltrekord
beh@@
öko-@@
richtiges
statistic
moschee
inhalten
clinically
newcastle
extern@@
expressive
vorfall
bedingte
angeordnet
dilemmas
verschmu@@
tierrei@@
tonne
not-@@
überraschen@@
reißt
auschwitz
aufgefordert
idy@@
lative
fa
lungs@@
slaves
mücke
owns
erase
seeleop@@
anecdot@@
undercover
cosm@@
bases
chan
keit@@
verlangte
busse
kot@@
rectangle
kapitän
marduk
nationaler
kondom
roboter-@@
gummi
ventilation
tröpf@@
propor@@
flourishing
karibik
diamanten
nter
fade
reiches
zerfallen
geoffrey
shmi
nahrungsmittel@@
gerungen
turk
ungsproble@@
heel
tro
deliberately
tivsten
schulter@@
corresponding
zusammenfas@@
participant
requirements
trete
locom@@
bla
impres@@
miniatur@@
richteten
intensiver
plakat@@
dasein
anweisung
steil
agnor@@
fty
außer@@
és
miracul@@
brakes
vide@@
matthieu
gespürt
körpergröße
beck@@
deadline
mounted
preferences
hler
russ@@
bites
treibstoff@@
cognitively
kästchen
linksh@@
winkeln
erobern
dens@@
kindle
sounded
tles
bess@@
fabel@@
hierzu
messing
summen
accent
grundidee
häufigkeit
influen@@
hypertext
maryland
anhäu@@
stolper@@
expands
unvorstell@@
turbine
fröhlich
dul
dentist
uh-@@
eingeben
imaginary
carl@@
entwirft
informationstechnologie
vibrio
founders
grounds
bibliothe@@
sphase
adolescents
hinterlässt
erkundet
insulinresistenz
dispar@@
loops
zable
ortes
stetho@@
sämtliche
pfeile
wide-@@
mütter@@
collabor@@
cutting-edge
zuhalten
brannte
dl
linearen
superhero
aufweist
delphine
prefrontal
pyg@@
anter
adolescent
mahab@@
gesprochene
krawat@@
sacks
vibrant
pper@@
dread@@
tyranno@@
ergänzen
acceleration
backward
kilograms
hunter-@@
embraced
fitted
triggers
lyndon
gebrochenen
mohammed
ue@@
severely
akademie
tuberculosis
apocalyp@@
practiced
lieferanten
frost
linus
mutually
emu@@
e.u.
filming
täusch@@
realisierte
slam@@
costly
beunruhigend
schwarz-@@
senkt
jared
geringere
botschafter
essentiell
dnis@@
fahrenheit
gewisses
äußert
mp3
könn@@
premiere
teilneh@@
bote
erschein@@
schulsystem
‒
raleigh
blob
des-@@
secretly
station@@
kleiber
sir@@
simplistic
einsteigen
conduc@@
erreichbar
plötz@@
commentary
übereinstimmung
hub
verfahr@@
paula
streu@@
disgu@@
verflo@@
basin
mächtigste
cet
druckerpresse
antiqu@@
erschöpft
hypothetical
gesehen@@
infizierten
perfektes
premi@@
unacceptable
abgebildet
thun@@
junction
maui
durchbrechen
kumu@@
succe@@
assigned
cran@@
bohrer
wohltätigkeits@@
lump
länder@@
bräu@@
angebor@@
headaches
mächti@@
spiderman
flakes
richte
emitted
vermin@@
lohn@@
debat@@
za-@@
bereitstellen
verwaltungs@@
haltungs@@
optimale
apfel@@
ahmed
imbalance
spielplatz
gegenwärtig
proteomics
hochauf@@
whitney
rekor@@
geschlossen@@
automotive
todesstrafe
lebender
verdau@@
dump@@
kerala
missile
taube
tablet
max@@
rabbis
akes
süßigkeiten
transcendence
opped
dispen@@
kosmische
universi@@
geschäftsmodelle
benachteili@@
tle
reinig@@
infect
genesis
beleuchten
müh@@
three-year-old
cultiv@@
ergab
usd
containing
zurückgelassen
dimensionale
verkündet
veranschaulichen
großzügig
lai@@
wägen
lemon
preserving
koordination
traumati@@
prego
brit@@
wahrnehmungen
animations
encryp@@
vorsitzende
catherine
konkrete
signifikant
anno@@
befragen
verhältnis@@
iy@@
setzlich
wler
stole
angemessene
erlangt
pessi@@
unterrichte
ungedul@@
gegenstück
schieß@@
yemen@@
references
peanuts
stream@@
opa@@
konsens
chlorop@@
ender@@
olympi@@
relativitätstheorie
straft@@
ministeri@@
atheism
incarcer@@
ninet@@
braunen
berk@@
freestyle
vorm
tornado
sit@@
systematische
extremism
eintauchen
aufrechterhalten
23@@
pains
verdammten
lebensrett@@
seligkeit
prescribe
modernes
digital@@
cycli@@
blauer
katastrophalen
15th
hinüber
senate
niere
schreit
bisch
gline
verursachten
tunesien
genesung
verinner@@
anhört
besprochen
früchten
bene@@
megawatt
formers
gou@@
erwähnten
business@@
oster@@
wood-@@
veren
logically
compass
zugrunde@@
händ@@
terrestrial
andauern@@
gridlock
50.
möglicher
nr.
stereot@@
hippie
antennen
optic
betrieb@@
ellinie
ständiger
wetlands
spectac@@
wels
kna@@
ypen
positively
strategi@@
yochai
bisher@@
mexikaner
fing@@
enjoyable
zusammengearbeitet
avi@@
vergraben
kaaba
arranged
advertise@@
mithalten
verdam@@
chr.
senf
nehm@@
erläutern
moskitonetze
weißes
exposing
beno@@
gruselig
arthritis
untersuch@@
seminal
sms-@@
fill@@
pflaster
wendig
verabschiedet
komfort
magier
examined
nahele@@
ant-@@
therap@@
steilen
star-@@
(
blat@@
lish
orchestras
gespür
bildungen
ücken@@
servant
türk@@
favoriten
ergän@@
arized
rhi@@
illegalen
delete
erschließen
exempl@@
uralte
insul@@
crabs
werks
downs
pronoun@@
räften
adverti@@
patricia
textil@@
mats
kunstform
logische
räu@@
warnt
ausstoß
surrounds
pünktlich
erwer@@
türme
illegal@@
zurückgreifen
karb@@
bekämen
meteori@@
poetic
schildern
verzer@@
dances
divor@@
reddit
schlä@@
vereinigte
business-@@
regelrecht
ernsten
diversi@@
heiligkeit
buffet
kontro@@
grace@@
fliehen
cinema
instal@@
aufgelöst
ipcc
furthermore
erworben
anfängen
whis@@
meldete
tica
ausgesehen
unimaginable
crises
geheilt
unterdrückt
pirate
entscheidungsträger
evaluation
eviden@@
shack
außergewöhnlicher
heitlich
verle@@
characterized
treat@@
flames
tierwelt
lawn
posting
onset
giert
pixel
rank
buzz
patrio@@
ultimativen
leviathan
flache
tiefgründige
ausgegangen
barungen
konzerte
cox
bemü@@
hochzu@@
12th
heißes
tanzten
copy@@
führungspersonen
devi@@
verteil@@
magni@@
wreck
best-@@
occupa@@
reacting
shack@@
behaup@@
wendung
ferien
autorin
kontinuierlich
ose
cereal
kontinuität
gebote
transzendenz
tolerate
envision
persistent
veranstalten
aaron
resort
fledermaus
verliebte
oel@@
statuen
populated
cookies
pardon
lasche
poke
pistole
middle-aged
google@@
sequenziert
nichtsdestotrotz
practition@@
schauf@@
gesetzten
defle@@
initiativen
dung@@
gelassen@@
umstand
düne
typed
physiological
freuden
atemberau@@
elementar@@
zuversicht
umwel@@
größerem
trade-@@
urheberrechts@@
spaceship
geschäf@@
teilchen@@
gefährdete
gni@@
embry@@
denes
accused
ivory
tropics
minimize
hypotheses
verärgert
25-@@
ohnehin
aris
verdiente
lud@@
hiert
sichtbare
immigr@@
gesti@@
[...]
