.
,
?
sie
you
i
ich
the
in
to
das
that
a
for
and
ist
und
für
is
okay
die
:
it
ok
es
your
&apos;s
can
ja
like
at
der
what
wie
eine
be
kann
uhr
!
me
mit
an
einen
with
$
of
have
how
ihnen
hallo
yes
want
um
would
help
ein
will
was
need
do
one
möchten
haben
so
hi
restaurant
great
sure
bitte
ihre
did
tickets
habe
00
helfen
are
2
order
von
thank
zu
möchte
please
on
there
mir
all
heute
auto
termin
let
den
vielen
wird
auf
bei
mich
they
lassen
dank
appointment
pizza
können
uber
&apos;ll
richtig
ordnung
sind
anything
30
1
noch
also
&apos;m
got
no
book
8
yeah
sein
get
up
&amp;
else
right
alles
gerne
moment
nein
this
oder
gut
pizzas
etwas
ihr
or
im
pizzen
sicher
werden
3
from
name
welche
bestellen
correct
number
s
movie
good
my
dass
bella
sich
4
großartig
starbucks
ihren
minuten
luna
car
am
bestellung
people
verstanden
today
nach
film
as
buchen
als
see
21
extra
abend
intelligent
danke
when
&apos;
about
9
&apos;d
5
has
go
place
tonight
now
phone
imports
89
where
any
street
15
if
fahrt
essen
wir
san
&apos;re
20
take
hat
two
make
jetzt
xl
time
nicht
gibt
10
personen
telefonnummer
know
just
food
zwei
wäre
wenn
could
6
&apos;ve
pick
nur
werde
many
wann
klar
bar
we
francisco
sehen
viele
dem
looking
wo
aus
7
art
zum
ride
booked
diese
soll
crust
ready
wollen
should
war
wollten
bin
geben
einem
hello
muss
problem
total
tag
out
does
minutes
super
reservation
fine
much
&apos;t
reservierung
auch
mall
found
milk
kruste
lautet
alright
some
showing
find
brauche
not
available
u
kind
next
18
thanks
wissen
19
day
but
sorry
suche
chicken
first
sounds
morgen
them
new
which
behilflich
going
40
shop
toll
work
würde
other
lyft
set
perfekt
both
brauchen
gebucht
more
second
.@@
per
aber
alle
looks
perfect
cheese
hilfe
könnten
amc
beide
cost
e
sieht
einer
guten
vereinbaren
dann
hätte
fee
option
andere
)
r
käse
restaurants
geht
(
t
medium
sonst
look
tomorrow
lovers
check
oh
give
sacramento
l
zur
california
fertig
16
pepperoni
vorstellung
gefunden
p.m.
pickup
enjoy
nummer
ort
bbq
ob
their
zeit
ihrer
city
theater
kosten
machen
916
small
three
type
regal
outback
mein
des
tell
möglich
subaru
irgendetwas
anderem
four
gern
confirm
finden
coffee
uns
25
35
optionen
o
drei
ihrem
driver
repair
nissan
cinemas
then
p.m
options
veggie
klingt
2010
45
leute
very
vier
kein
welcher
kalifornien
hey
john
reparatur
grande
well
“
namen
rogue
show
meat
large
ticket
gehen
paar
fahrer
zweite
kaffee
abgeholt
it.
bekommen
30am
kleine
called
inspection
mobile
„
abholen
another
tut
table
er
bmw
b
natürlich
erste
uberxl
vom
hört
bye
party
meine
monday
don
trip
think
n
bis
nähe
pm
address
diesen
york
welches
adresse
off
those
vor
peperoni
tisch
been
nächste
smith
2011
receipt
while
leid
keine
regular
before
size
gruppe
nope
friday
sollte
fare
long
kino
assist
22
genießen
pool
schedule
große
sausage
sehr
dieser
sagen
said
welchen
kostet
price
17
ok.
freitag
center
über
würden
pizzeria
grill
glass
suchen
abholung
geschehen
größe
seating
nächsten
bestätigen
14
cream
%
picked
quittung
während
soon
2009
sms
honda
thick
tun
gute
welchem
latte
drink
9pm
awesome
anderen
schlagsahne
something
werkstatt
denke
yep
montag
location
dauert
cool
viel
x
wiederholen
welcome
information
2008
possible
whipped
50
thin
menu
hot
oil
repeat
pilot
dort
fair
milch
heißt
informationen
an@@
be@@
chinese
verfügbar
arden
buche
-@@
schnell
eat
too
mehr
2013
wollte
barbecue
via
spell
serviert
m
tschüss
uberx
bringen
müssen
imax
venti
mittelgroße
only
wurst
free
beträgt
ansehen
italian
near
iced
entschuldigung
really
way
sent
having
schönen
green
weitere
passt
bacon
reviews
outdoor
lange
unter
&quot;
wurde
into
bereit
needs
lexus
great.
summe
road
irgendwelche
da
freien
hätten
lunch
ihres
bring
gebühr
aquaman
benötigen
lights
wanted
erhalten
airport
philadelphia
gesamtsumme
choose
weiß
drop
beim
stars
sushi
morning
sound
standard
mobilgerät
bewertungen
3d
nice
ungefähr
c
watch
getränk
mag
wiedersehen
19th
midtown
inspektionsgebühr
open
wünsche
womit
may
reservieren
ihn
texted
1@@
diesem
gesagt
mocha
fahren
2015
350
aus@@
north
überprüfen
wohin
damit
hear
7@@
preferences
nehmen
house
korrekt
note
traffic
serve
showtime
texas
by
könnte
located
last
ab@@
ahead
toppings
repairs
status
rx
preis
either
fahrzeug
search
buchstabieren
rating
sold
9@@
12
befindet
stadt
s.
booking
chicago
cafe
down
dies
stimmt
whole
lover
person
aufgeben
s@@
actually
küche
mercedes
google
model
mexican
passengers
einmal
vehicle
american
ausverkauft
dollar
seafood
j
dauern
weiterhelfen
d
mins
en
thing
jack
gluten
south
steakhouse
dollars
add
55
text
black
erfahren
k
little
shared
3@@
after
darf
man
aufgegeben
prefer
passagiere
dicker
bewertung
eines
sitzgelegenheiten
inspektion
moment.@@
device
abholbereit
okay.@@
sowie
preference
towards
garden
wirklich
say
gerichte
13
p
kürze
probleme
mind
scheduled
einige
h
stehen
6@@
bietet
leider
mittagessen
beachten
bj
service
rest
buffet
ein@@
dinner
placed
wunderbar
around
beiden
average
you.
doe
each
fleischliebhaber
arrive
five
abendessen
hoping
auf@@
ausgebucht
described
rated
macht
caramel
cancel
nehme
jones
theaters
few
los
30pm
sagten
details
t@@
serving
vorführung
china
.ich
karten
again
who
mike
...
anderes
change
stalling
24
six
here
jedoch
avenue
full
chain
these
nun
prima
sauce
vollmilch
.did
plus
burger
dabei
live
b@@
,@@
modell
boston
order.
hawaiian
area
handy
delivered
afternoon
wine
drive
einfach
bevorzugen
freie
scheint
2@@
dishes
hier
later
sternen
bräuchten
dining
etwa
works
needed
zwiebeln
wünschen
duration
al@@
platz
wer
gesendet
.and
international
te
sandwiches
japanese
speisekarte
sure.
bestätigung
e@@
pro
express
buchung
beer
termins
y
g
meinen
0
bald
dog
cappuccino
hatte
us
hinzufügen
h@@
8th
unfortunately
3er
ge@@
-
warten
lego
trying
sehe
später
issue
kaufen
send
2014
bestellt
beläge
characteristics
7pm
main
bewertet
left
zwischen
cinema
mal
estimate
benz
jeff
sit-down
star
seems
mögen
century
ab
doesn
.i
you.@@
booth
kitchen
park
links
raum
casual
ver@@
öl
cinemark
8@@
fast
kommen
4,@@
zu@@
purchase
5@@
hatten
comes
00pm
c-klasse
einkaufszentrum
verfügbarkeit
vorlieben
angerechnet
special
mercedes-benz
tall
light
dafür
appreciate
autos
f@@
sechs
between
mechanic
betragen
onions
soy
gehofft
mechanical
bestätigt
vor@@
hotel
st@@
ed
you.can
over
you.i
problems
series
k@@
tune
12@@
dieses
perbacco
than
a@@
family
golden
fünf
la
provide
maybe
applied
categorize
additional
shopping
fortfahren
mins.did
flughafen
glutenfreie
vornehmen
able
123
mechanische
dünner
directed
t.@@
er@@
availability
fand
42
try
use
en.@@
en@@
west
thinking
wären
hören
26
offering
bier
bit
acura
lincoln
alita
servieren
meiner
hm
.do
am@@
angel
goodbye
houston
geöffnet
noise
zweiten
hawaii
f
pennsylvania
ten
56@@
list
ziel
woche
ing
sitzen
space
funktioniert
thai
dünne
indoor
done
showtimes
kinokarten
stornieren
11
speck
why
spaß
sollen
leaking
beschrieben
eta
colorado
ersten
vorstellungen
baujahr
las
g@@
reparaturkosten
4.@@
heiß
sch@@
vorbeibringen
it.@@
nennen
directions
versuche
select
eigentlich
confirmed
eatery
mikuni
52
immer
engine
inside
4@@
dicke
same
local
rdx
zieht
februar
au@@
february
buckhorn
s.@@
out.
denver
under
probably
verstanden.@@
ange@@
bay
o@@
re@@
meinem
peppers
schon
bieten
that.
.möchten
vielleicht
vegas
year
home
ordering
ar@@
times
gen
korean
downtown
erreichen
wegbeschreibung
abholt
excellent
preise
best
n@@
ölleck
mushrooms
.is
square
bevor
nachnamen
min
fish
bleibt
italienisches
befinden
passen
genial
funktionieren
plätze
pretty
liefern
gesamtbetrag
40@@
frei
happy
spider-man
besten
gegen
45pm
wahrscheinlich
meeresfrüchte
verstehe
ordered
week
normale
reach
mitteilen
fahrers
e.@@
serves
third
white
ch@@
come
olives
style
laden
zero
shops
james
seats
jason
lane
kommt
expensive
ziemlich
ganz
harbor
arizona
davon
were
geräusch
telefon
half
care
oliven
hoffe
kinos
cotogna
class
steak
places
boulevard
mission
früh
ändern
united
room
espresso
le@@
looked
added
8pm
sit
abholort
wonderful
steht
anbietet
seasons
auswählen
turn
reparieren
8.
university
captain
cuisine
spielt
wartung
vanilla
u@@
burgers
namens
.ist
warum
keeps
w@@
offer
tom
ankommen
heading
playing
heiße
insgesamt
4th
uhrzeit
bar@@
showings
d@@
nachsehen
cold
blick
station
modern
marke
tacos
michael
sinn
night
hühnchen
shall
cocktails
fun
heißen
mokka
fresh
99
continue
most
hope
couple
florida
can.
ca.
different
urban
mary
contemporary
54
glaube
battle
kogi
sache
gogi
moment.i
10@@
close
drinnen
lokal
schön
555-555-5555
gerichten
20@@
mechaniker
marvel
555
groß
estimated
macchiato
reservations
sojamilch
safe
instead
bob
großen
priced
supreme
verfügbare
auswahl
opening
buchstabiert
high
jahr
läuft
voll
.soll
wurden
bitte.@@
ausgezeichnet
wondering
cinnamon
definitely
denn
ordnung.
l@@
as@@
lot
paesanos
34
kette
z@@
tomatoes
picking
wählen
w
because
eats
accommodate
nichts
request
zusätzlichen
frank
planen
pm.
part
available.
dropped
un@@
gluten-free
info
put
reason
grund
beläuft
glutenfreier
gleichfalls
denen
tomaten
quick
zeiten
is.
spider-verse
se@@
weil
40pm
schätzen
15pm
wahl
end
45@@
7.@@
busy
makes
wait
333
ere
east
hmm
gerade
appointment.@@
ted
waterfront
course
total.
lichter
western
orlando
sten
leak
king
poppins
buffalo
patxi
chinesisches
guess
.ok
hour
auto@@
benötigt
hill
rpx
knoxville
bestelle
piatti
boden
mare
penn
brewhouse
th
pot
kong
somewhere
sotto
hong
club
darüber
rides
several
24.@@
choice
paprika
4.4
making
braucht
hills
ananas
fahrpreis
sein.@@
15@@
review
8.30
sterne
parking
ts
uhr.@@
.und
upscale
fantastisch
39
everything
updates
langen
drivers
stattdessen
fully
dachte
drauf
terms
reise
gedreht
geräusche
30@@
ische
returns
wrong
meal
roadhouse
höhe
gemacht
0@@
di@@
4pm
dritte
nochmal
message
eintrittskarten
terrasse
code
americano
c@@
derzeit
cool.@@
entscheiden
t.
awesome.
assistance
old
nee
illinois
verkehr
submitted
traditional
saigon
tune-up
geschäft
wein
stellen
liegt
fahrten
kauf
minute
durchschnittspreis
darauf
extensive
goes
pier
abgeben
ordung
bisschen
verfügung
sollten
evaluation
fantastic
jim
selbstverständlich
state
kalt
set.
call
momoa
nathan
märz
38
zusätzlichem
m@@
oakland
kid
highway
36
artists
museum
tes
oyster
madison
epic
zusammen
99@@
allow
cuz
ge
heard
dragon
11@@
beef
metreon
escape
charge
teriyaki
sa@@
burma
using
r@@
miss
ohne
spot
waterbar
love
ampeln
stadium
bescheid
ranch
merkmale
stalls
stylish
de@@
111-222-3333
daran
90
store
dallas
within
flint
kriterien
azul
ambiente
reservierungen
normalen
cheap
lounge
zusätzliche
clay
gefragt
ac@@
joey
firestone
fat
ampel
versuchen
fighting
05
at@@
logan
deep
benötigten
montagmorgen
ok.@@
p@@
42@@
mitnehmen
doing
32
closer
pineapple
portland
serenity
21@@
view
abgesetzt
123-456-7890
orte
48.@@
22@@
appetit
ist.@@
prüfen
21.00
motor
reparaturen
88
in@@
pasta
v
meatlovers
please.@@
hours
sobald
nachmittag
dorthin
depending
mood
dauer
march
keep
destination
.would
buchen.@@
ha@@
spielzeiten
ankunftszeit
fall
japanische
irgendwo
m.
i@@
de
gefallen
town
vegan
5pm
seasonal
gt
michigan
3.@@
4,4
moline
gegend
pub
fit
genau
ins
salads
patio
d.@@
jalapenos
french
schinken
olive
oracle
made
44@@
plaza
dish
weinkarte
sake
thanks.
hälfte
isches
lang
plates
harris
soonest
evening
options.
almond
specific
whenever
gutes
still
tung
asap
verrechnet
sports
hollywood
normal
6pm
didn
date
klare
might
großartig.
champignons
village
pulls
44
vollständigen
tatsächlich
slanted
spaghetti
door
bbq@@
teil
72
gesucht
virginia
isn
mean
zeigt
präferenz
fahre
denken
problem.@@
sf
fragen
weiter
kids
23
senden
je
ma@@
außerdem
gehe
broderick
services
amerikanische
steaks
counter-serve
menü
teuer
9.@@
featuring
lepic
rue
family-friendly
drinks
großer
public
nothing
ste
karte
entfernt
überprüfen.es
hilton
factory
interested
allen
up.@@
washington
zoo
romantic
seen
waterboy
neuen
idle
card
schönes
massachusetts
sun
sen
st
alegrias
he@@
2019
abgeschickt
tea
pizzas.
krusten
on@@
canyon
getränke
eins
prices
finden.@@
greek
gut.@@
angeles
mittlere
curry
following
repair.
es@@
big
served
pulling
.in
issues
now.@@
weinen
gäbe
riders
pilzen
scheduling
stop
ave
vinoteca
david
movies
kurz
.okay
3pm
inspection.
ly
gedacht
accurate
jersey
el@@
credit
festgelegt
ent
boy
mins.do
liegen
napoletana
13@@
-pizza
33
aufnehmen
nt
rechnung
koja
ham
folgenden
red
2-@@
ung
7-@@
sicherstellen
indian
.it
termine
fort
popular
60
es.@@
friends
glutenfrei
.should
classic
abzuholen
15th
nutzen
preis@@
phoenix
vegetarische
back
asian
ok@@
policy
however
ter
te@@
ent@@
zuerst
10pm
49
erzählen
market
80
.45
dine-in
sekunde
fe@@
features
fix
ölwechsel
erledigt
cup
lokale
19@@
online
dr@@
films
zimt
entsprechen
überprüfen.@@
früheste
le
affordable
gefällt
innenstadt
an.@@
.das
file
einstufen
voraussichtliche
jeden
amerikanisches
criteria
bitte.ich
fisch
tony
hallo.@@
salate
italienische
tori
48
dünnem
familiar
waren
geschätzte
15.
welcome.
&apos;@@
281-330-8004
mit@@
näher
tages
mandelmilch
über@@
yes.@@
holen
session
range
falls
though
besuchen
traditionelle
mushroom
se
bezug
sofort
that.@@
chinesische
8,@@
um@@
ad@@
leerlauf
grillhähnchen
klein
1.
spezialitäten
li@@
rock
theatre
möglichkeiten
geliefert
dos
mitfahrgelegenheit
18.@@
wines
closest
ho@@
venue
zugeschickt
sind.@@
suggestions
5-8
bestimmte
69@@
ap@@
ozumo
gebraucht
4,50
squeeze
xd
ice
mums
erst
parker
th@@
geplant
komme
peets
vice
sterne-bewertung
zugeschickt.kann
baltimore
tavern
kritiken
besser
angeben
rates
lux
22.@@
shortbread
eisgekühlt
67@@
magermilch
arriving
kindermenü
mexikanisches
laut
gezeigt
drizzle
mehrere
arena
hakkasan
umfangreichen
schließen
ro@@
28.@@
67
par@@
pilze
ü@@
stunden
890
ger
hoch
cheesecake
.7@@
inner
margaritas
draußen
her@@
örtlichen
jake
.does
gleich
finden.ich
sunset
36.@@
28
interessiert
6-@@
and@@
he
anscheinend
assistant
good.@@
916-@@
41
2pm
paisano
onion
25pm
ganze
top
alexander
ti@@
riverview
cool.
56
wofür
und@@
sitzplätze
chinesisch
588-4117
si@@
checked
peet
20pm
ausge@@
ta@@
confirming.
nachname
25@@
caffe
vorstellungszeit
35@@
.00
shortly
v@@
mexikanische
chinesischen
galleria
e.
hauptrolle
susan
kleinen
villa
zocalo
6.@@
all@@
gebracht
zeitpunkt
anfordern
zen
gets
8.@@
beach
sunflower
outside
empire
555-1212
456
lieber
4.
lake
91
fen
pad
standort
earliest
good.
eintreffen
buy
durchschnittliche
umgebung
neu@@
bad
liches
hi.
available@@
abge@@
ja@@
deshalb
preferred
unterwegs
had
belt
7,@@
caffè
dayton
lauten
maryland
we@@
meines
pm.which
playground
fixed
ben
minutes.@@
miami
mint
coming
santa
da@@
tarif
564-2114
werden.@@
field
mark
.sie
yo
klasse
zugestellt
chocolate
right.@@
46@@
to@@
until
fahrerstatus
mills
januar
internationalen
gleichen
atmosphäre
yup
57
belag
cheddar
indianapolis
january
59
entweder
being
77
13.@@
müsste
no@@
star@@
br@@
ausgestattete
freund
suchen.ich
its
abzu@@
em
erlaubt
teller
erlauben
ing@@
minuten.@@
getting
higher
.can
empfehlen
ur
welcome.have
eher
ne
ing.
stunde
nach@@
kenne
grove
hähnchen
daniels
questions
honey
bestellen.@@
besorgen
canadian
school
halb
coconut
sicher.@@
beispiel
process
time@@
abend@@
kinderfreundlich
eigenschaften
accessible
wasser
gab
example
talula
so@@
wheel
court
erwachsene
one.@@
modernen
narrow
zugesandt.kann
der@@
people.
frischen
dazu
altogether
liste
desserts
14.@@
dessert
placing
openings
complete
byebye
breakfast
speisen
lichen
570-1920
folie
ausprobieren
kategorisiere
cajun
side
bereits
komplett
you.are
based
9-@@
vorbei
jederzeit
wings
com@@
tion
einrichten
ischer
thursday
benachrichtigt
horsham
friendly
setting
pizza.@@
it@@
ieren
tischecke
c-class
lovers.@@
availability.it
mo@@
ca
sen@@
jalapeños
lieferung
bridge
lunas
grade
ger@@
views
wieviele
delivery
ich@@
verwenden
tapas
bro@@
sure.@@
selected
schauen
5-@@
water
300
innerhalb
appointment.
beverages
wagen
stadtteil
sam
55@@
saisonalen
berkeley
spelling
hin
pay
reciept
or@@
fahrzeugs
thats
untersuchen
death
letzte
uhr.
include
4.5
4-@@
handelt
25.@@
completely
gen@@
1st
skim
schätze
schicken
intelligence
spritzer
recommend
matador
quad
air
moment.okay
it.and
y.@@
moderately
detroit
ene
grill@@
hähnchen@@
restauranteigenschaften
genommen
normaler
moment.ich
choices
ride.
addiert
ende
it.let
ens
fine.@@
bereich
na
train
donnerstag
ja.@@
honig
zahlung
sitting
awesome.@@
es.
805-555-3343
hallo.ich
contact
2219
normales
ma
ne@@
hunan
kico
henry
us-dollar
lax
bell
garibaldi
513-912-@@
4,2
gefunden.@@
18,@@
tig
earlier
ier@@
isch
et@@
ipic
arrival
blockiert
pumpkin
panda
kathy
ben@@
bohemian
finding
wisconsin
battlefield
ken
chill
aware
415-732-9973
ordnung@@
geteilte
saturday
is@@
asking
abbiege
2008er
geschehen.ich
koreanisches
spice
shake
filme
william
beschäftigt
elevated
nearby
zeigen
dominick
321
33@@
einverstanden
gi@@
fleisch
tip
gehobene
read
riding
trinkgeld
24@@
bartlow
43
ous
steve
rhapsody
shack
okay.no
mulvaney
präferenzen
215-884-2048
tr@@
brim
moment.it
bereit@@
885
dale
better
dienste
richtige
din@@
00@@
kruste.@@
haus
rutgers
friend
fiery
alfredo
en.
californios
arielle
laufzeit
wanting
autowerkstatt
mittelgroß
belegt
anchor
999-555-6669
215
hallo.womit
75
quality
brunswick
447-4040
201@@
erhoben
carbon
today.
cken
seven
now.
straße
sarah
inn
.es
abbiegen
ze@@
topping
vegetarian
things
nice.
käse@@
charlotte
ist.es
würgt
charleston
barbara
preisspanne
manchester
bryant
21.@@
anytime
amarillo
jose
wegen
51@@
needing
30am@@
superstar
36@@
funeral
trouble
68
68.@@
lynn
madea
you.one
familienfreundliche
it.what
hamburger
ähnliches
place.
war@@
moderne
85
valley
en.es
801-714-3310
wunsch
pe@@
ers
400
birchwood
group
shyamalan
moment.the
48@@
mac
.alright
edwards
suchen.@@
studio
dar@@
bar-b-que
neue
9.
916-4@@
ellen
ting
fa@@
gu@@
billig
höre
70@@
ambiance
großes
-pizzen
arbeiten
payment
hopefully
cantonese
salad
voraussichtlich
+
co@@
ryan
own
regisseur
sam@@
available.@@
stadion
317-479-6369
sirup
heritage
sp@@
beleg
schließt
dim
civic
carolina
rob
charles
coqueta
dankeschön
thing.@@
baby
show@@
the@@
entschuldigen
larry
regency
datum
hearing
philly
outpost
irgendwie
212-555-8873
kevin
90@@
31@@
pull
lloyd
please.i
elegant
jemand
mittelgroßen
border
wunderbaren
lust
ic@@
akiko
trendy
abenteuer
eren
erstes
470-691-2141
unglaublichen
sitz@@
.what
asiatisches
beste
notified
921-2500
ges
offers
einzige
skool
e-@@
specials
la@@
mentioned
director
dank.@@
pies
227-477-4546
1939
453
won
ed@@
mai
17.@@
ak@@
automodell
mittel@@
cobble
there.how
normalerweise
lasalle
pluto
1212
benefits
789
tampa
theke
culver
35pm
brauchte
36,@@
termin@@
seat
50pm
nacht
ball
umfangreiche
broly
8-@@
nashville
lich
y@@
.brauchen
p.m.@@
af@@
elephant
app@@
el
nevada
parkplätze
klar.@@
selection
einfachen
chestnut
ratings
o-@@
already
gratiot
rück@@
gehört
vereinbart
scratch
guter
okay.okay
65@@
italienischen
up.
lovely
60@@
closes
02
inventive
machiatto
springs
parts
gesamtpreis
frau
counter
37
lich@@
gendreau
folgendes
cannot
plan@@
88@@
tische
mano
burritos
leichte
syrup
mon@@
bel
47
raw
waltham
sicher@@
brunch
pick-up
verfügbar@@
restaurantmerkmale
snacks
-4@@
japanisch
teilen
real
me@@
loud
egal
purchased
.which
kann.@@
würstchen
separate
mittwoch
rote
working
&#124;
gebucht.@@
tet
car@@
ankunft
man@@
hi@@
augenblick
karamell
tly
end@@
pairs
see.@@
21-@@
bringt
et
t.brauchen
grilled
karamell-@@
98
finish
dark
202-456-6213
lively
souvla
gleiche
jede
ten.@@
immediate
sau@@
ck
starten
2.
correct.@@
wor@@
21.
moment.es
4.2
ren@@
bye-bye
finde
.9@@
kreditkarten
moment.ok
ig
form
samstag
hi.how
wood
wochenende
time.
people@@
harbour
dried
gesendet.brauchen
e-mail
joseph
yorker
14.33
petes
are@@
bezüglich
chando
jingle
dates
since
80@@
royal
fällt
hin@@
hell
deren
geb@@
crust.is
mi
555-217-1356
shortly.@@
gehobener
peperoni-pizzen
555-555-1210
till
notieren
weitermachen
23@@
kl@@
trinken
offene
reserve
taqueria
ell
cor@@
t-@@
2nd
cook
her
ern
ungen
keinem
parkplatz
vorstellungszeiten
placed.
kruste.ist
a.m.
y-@@
sein.brauchen
weekend
5.
share
abhängig
tuesday
row
correc@@
salted
dine
stuff
devin
.the
auge
portionen
okay.nein
started
ft
15.00
nachschlagen
far
sitzplatz
bestimmtes
rindfleisch
gem
interior
atmosphere
wal@@
spät
habs
orten
ung@@
alcohol
seeing
aller@@
verstanden.
hoffentlich
del
hear.
lecker
confirming
best@@
sure.what
there.@@
a.@@
ah
.you
company
21st
starbucks.@@
zi@@
bucht
ding
10.@@
bekannte
leakage
keinen
noticed
per@@
ungs@@
id
fe
turn@@
ausmachen
sum
gilt
samuel
überhaupt
moment.please
schlecht
hallowomit
89@@
gekauft
555-123-4567
least
falsch
great.@@
ru@@
days
eingrenzen
taco
laufen
milchpräferenz
late
cards
sehen.@@
xl-@@
woher
tuneup
nimmt
lovers.
isch@@
kt
3,@@
a.m
ally
accept
thanks.@@
stil
5th
richtig.@@
grab
spanish
inspect
sowohl
machen.@@
mus@@
desired
ri@@
.30
charges
verwendet
76@@
richtung
including
pm.@@
neben
zucker
minutes.do
durchschnittlichen
pete
campana
order@@
regel
innenbereich
feta
lo@@
vorliebe
servicegebühr
99.
grub
tonight.@@
30am.
hello.
ste@@
creative
reparaturtermin
industrial-chic
stimmung
vorschläge
ve
koreanische
kochen
por@@
fahr@@
maximal
thing.
angewendet
vorbeizubringen
standard@@
mittlerer
typically
erschwinglich
ke
bekannt
arbeit
our
pl@@
ck@@
14.
12.@@
film@@
ze
16@@
wednesday
lie@@
4.3
fin@@
dinge
greenbook
do@@
nische
ampelphasen
selbst
verfügbaren
focus
approximately
meisten
pizza@@
center.@@
uhr.ist
frischem
weg
enough
86@@
wieder
wall
formal
receive
dienstag
abholadresse
jedes
26@@
sichere
us@@
meinten
jeweils
serviert.@@
headed
wei@@
ser@@
annehmen
cheese@@
ons
anzusehen
3d-@@
alkohol
import
lat@@
wars
&apos;am
sternebewertung
sizes
rate
check@@
kinder
frei@@
welcome.@@
moment.das
bestätigen.@@
zwiebel
ick@@
2.@@
liked
grüne
currently
slot
alongside
paprikaschoten
bestätige
18.30
whip
moment.so
bunch
angezeigt
licher
ä@@
dank@@
570-1920@@
größen
klappen
ert
tur@@
liebsten
wen@@
similar
a-@@
45.92
ubers
nearest
74@@
devonshire
odeon
carry
windsor
spicy
morn@@
pa
st.
princeton
ise
aktu@@
color
mililani
dresher
ing.@@
wolfe
trattoria
appointments
sport
specialist
signature
taxi
description
..
cineplex
continental
601
nick
115-150-1246
/
biba
warrington
soldiers
10.
specialty
501-213-4545
early
mandarin
showing.
50@@
abbrechen
9181
lets
günstige
instructions
dave
555-666-1212
564-@@
101
indoors
ramirez
roast
includes
right.
orland
ate
moder@@
crispy
midway
soldier
mabry
accomo@@
rodriguez
robert
rotating
highly
gathered
707
mhm
crusts
arten
you.so
tom@@
sutter
0086
775-475-7433
ah.
447-8646
roger
under@@
557-232-4465
private
rollstuhlgerechten
emailed
518-850-2950
amber
salsa
and.@@
final
34.@@
dressing
mer
beacon
atlantic
07
6566
austin
cheese.
sho@@
regulären
device.did
digital
jeder
mozzarella
sofortige
ner
maximum
imperial
ungefähre
noises
vegane
907
second.@@
legacy
waynesboro
adler
even
rio
halte
r.p.
.that
adama
huntington
200
ungsprobleme
fancy
osso
farbe
d.
budget
frappuccino
ve@@
ian
215-740-737@@
202-456-@@
30th
usually
extras
margerita
tasty
swift
blonde
das@@
cloud
dank.
less
through
bros.
macchiatos
5386
courtyard
wa@@
harrisonburg
coyote
202
1111
distrito
ps
portions
christopher
441-@@
johnson
oakdale
yourself
ruhig
vor-
smithson
775-400-3258
subs
castleton
bean
downs
hanover
.78
union
dropoff
specialties
alamos
mexico
4.50
tequila
liberty
1050
sourced
32@@
loc@@
ure
123-456-1212
sou@@
555-630-8532
relaxed
omakase
lourdes
510-555-1214
hospital
towne
peter
digs
soul
brenda
battery
arab@@
hip
sitzplätzen
fisherman
45.@@
k-elements
blues
123-555-0123
212-946@@
28@@
100
59th
men@@
stanley
mcdonald
long.
di
12.33
47@@
kiss
chef
springdale
34.16
hana
rockefeller
win@@
10am
3.
holen.@@
73@@
joyce
silverspot
-7@@
10-@@
überprüft
813-697-4154
9th
original
perfect.
worth
variety
361-254-4537
filled
ur@@
55pm
28,@@
315-623-4942
sara
492-@@
min@@
problem.
artist
check.@@
broadstreet
beschreibung
sake.@@
450
chambers
eclectic
483-742@@
kann@@
7798
calhoun
454
210
experiencing
y.i
nonfat
582-672-1234
pets
1317-929-7813
9,@@
65.9@@
vernick
walnut
bowling
brook
crystal
sometime
greenway
ones
stat@@
craving
bombay
6.7
910-442-6345
vine
6991
ra@@
alioto
arclight
wheelchair
scottsdale
64@@
555-@@
887
plate
abholen.@@
melvyn
42.@@
555-217-38@@
cole
908-788-7@@
maine
shawarmas
received
night.@@
15l
555-143-2614
cafeteria
pricing
sbarro
thin-crust
shanghai
su@@
speakeasy
river
sto@@
mi@@
ramen
blue
5687
pm.do
major
seem
avengers
brien
landon
fi@@
4.6
ying
7-57@@
blind
mice
joint
cozy
that.i
bottom
3-series
whatever
prussia
services.@@
hi.i
9898
87
angeschaut
4-0307
delicious.
boat
dare
dream
farms
takeout
lompoc
purisima
mockingbird
se.@@
215-389-4040
calculate
.73
oakridge
szechuan
che@@
57th
landmark
georgia
coyotes
atlanta
website
11am
napa
quiet
ther
est
national
chair
london
916-921-@@
2055
bas@@
sanraku
bites
palmer
spruce
geschäf@@
wi-fi
ideal
pa@@
6212
match
roberts
514-217-6813
649-@@
jeff.
555-2136
arlington
rich
marketplace
6-0@@
skirt
artisan
basic
reihe
broadway
harrisburg
331
31
re
66@@
4.50.
202-456-2121
dress
tennessee
nut@@
exactly
go@@
remember
back@@
nugget
winding
bun@@
peperoni-salami
metrocenter
ta
5a5
aufzugeben
ja.ja
cu@@
regie
än@@
chen
größere
kom@@
chte
en.ich
mana
reserviert
oregon
weiter@@
poolfahrt
minuten.möchten
lage
schade
sei
schöne
916-44@@
exact
haustiere
gh@@
chicago@@
tables
alexanders
bistro
kokosmilch
huhn
konnte
on.
313-673-4855
wähle
portia
intellect
weit
.so
97@@
karamell-macchiato
stilvollen
guys
always
brauchten
mann
wanna
selber
restaurantwünsche
ten@@
anfällt
richtlinie
schwarzen
steak@@
hieß
gave
direkt
gt.@@
.für
zielort
room@@
gelangen
helfen.@@
hinzu
bestuhlung
fügen
crust.did
37.23
eye
gebucht.benötigen
aussicht
abholbereit.brauchen
speziellen
bevorzugte
suchen.einen
-restaurant
beides
geteilt
vegetarisch
agen
8.45
leicht
brokkoli
stand
fer@@
tig@@
92
driving
gewünschten
hillstone
chten
1000
restaurant@@
19.30
fire
amerikan@@
ischem
verfügbar.
repariert
halten
sie.@@
processed
eisgekühlten
fisch@@
fr@@
low
chance
sorte
must
ab.möchten
frisch
today.@@
berechnet
mikrofon
fino
wlan
kreditkarte
trotzdem
zugesandt
7-86@@
specifications
frühere
übrigens
nachfrage
etc
iert
soße
hause
autom@@
mitfahren
nachmittags
preisschätzung
natürlich.@@
bulls
zutaten
früher
24,@@
vanille
you.what
stilvollem
ambiente.@@
arguello
,44
moment.die
verstanden.und
milch@@
son@@
adults
children
sal@@
33,@@
gr@@
elegantes
os@@
eller
lebhaftes
gefunden.
fü@@
ie@@
sin@@
menge
79
bekommen.@@
che
ou@@
927-0@@
vi@@
action
tätigen
erledi@@
fertig.brauchen
fünft
some@@
ill@@
geschrieben
anbietet.@@
salami
aufge@@
teten
knoblauch
beliebtes
vorwahl
außen@@
geschäfts
italienisch
kon@@
volle
hello.@@
behalten
bearbeiten
gehobenes
.welche
reno
holzofen
vegetarier
schöner
tigen
ful
suche.@@
aw@@
außerhalb
stell@@
rech@@
setzt
erst@@
wife
exterior
ated
900
durchgeführt
möglicherweise
helfen.
thought
buche.@@
215-65@@
dolce
frühstück
actual
sugar
espressos
durchschnittlich
preisen
arn@@
ebenfalls
rad
innen@@
reservier@@
textnachricht
108
danke.@@
erinnerung
pratt
benötige
94@@
chris
horse
lan@@
point
mahlzeit
soja
herausfinden
mexikanischen
submit
ok.what
start
puntz
fog
pub-gerichte
jin
rx350
kombiniert
anyone
mule
kr@@
mittelpunkt
steering
bevorzuge
entspannten
alignment
chick@@
legen
heraus
up@@
2020
abgesehen
öffnet
blvd
tageszeit
anfangen
.there
4,5
characteristic
ely
mkay
destination.did
9.45
hinsetzen
erwähnt
ic
kostenlosen
abholzeit
essenswünsche
there.
danach
k.
chinesischer
liche
al-@@
merced
gehobenen
pork
33.@@
850
dritten
356
spätestens
beam
arrangi@@
amerikanischen
29
rosamunde
men
hotdogs
chill-counter-serve-kette
fahrgemeinschaft
rapid
einplanen
reminder
sechst
24.99
seite
gate
americanos
lar@@
bu@@
ges@@
anfrage
215-885-2420
skinny
gebucht.
5.@@
college
lift
fahrpreise
,88
bestell@@
vergnügen
215-576-3@@
notiert
uhr.passt
i-35
durch@@
63@@
974
jo@@
530@@
drachenzähmen
lampen
ern@@
gemein@@
unten
jess
letzten
324
abzugeben
prüfen.@@
bi@@
offen
mache
anrufen
gemüse
asse
plat@@
ite
aufführung
filmen
kten
bigger
form@@
eis@@
ast
cajun-@@
den@@
value
geführt
heavy
gene
idee
verstanden.lassen
cr@@
zahlen
mccormick
sahne
wenig
unternehmen
hilfreich
wein@@
certainly
lenkung
zip
bitte.okay
definitiv
roman@@
vari@@
z
reasonable
bemerkt
genaue
book@@
beil@@
anyway
buchen.und
zeus
asiatische
werfen
pacific
glutenfreien
look.@@
5-sterne-bewertung
meinung
theatres
customer
19.
schätzung
ged@@
types
ul@@
child
lu@@
möglichkeit
kre@@
en.ok
parkway
buchen.ich
morgens
genug
klassiker
salat
günsti@@
ür@@
deep-dish
ready.@@
fo@@
uber@@
froh
warm
perfect.@@
tic@@
tiger
headlights
thing.what
pool-@@
moment.
down@@
na@@
hel@@
simpson
low@@
fare@@
understand
.können
hausgemachte
bitte.das
nis@@
out@@
mar@@
gebühren
haben.es
gestell@@
wood-fired
confirmation
mittag
update
gebiet
cent@@
worauf
ing.is
amp@@
drama
irgendwann
well.
hühnchensandwiches
ße
pastagerichte
vers
it.so
suche.ich
milchsorte
gerne@@
klar@@
solange
nett
ig@@
kun@@
pool@@
dc
s.is
geplan@@
trendige
m-@@
seat@@
erhebt
bn@@
22.79
mins.
story
min.@@
län@@
bar.@@
akzeptiert
absetzen
people.would
location@@
innenbestuhlung
augenbl@@
alkohol@@
gespielt
ingredients
live-@@
26.@@
adams
garlic
spit-roasted
ation
65.44.@@
umgebung.@@
fleisch@@
ride@@
y.
aufgeben.@@
help.
fern@@
ständig
kalifornischer
555-113-4249
mochte
then.@@
mandel@@
20.00
grüner
raussuchen
innen
bevorzugten
went
bummer
.89
ecke
board
nd
termin.@@
mud@@
ating
weiteren
kalifornische
wer@@
mil@@
steakhaus
lyfts
house-made
prä@@
perbacco@@
co
classics
ard@@
alle@@
ha
spezifischen
wo@@
em@@
gesehen
33.is
123-456-7@@
versus
einander
saisonale
ke@@
jeremy
gesendet.benötigen
nettes
zentrums
sort
set.@@
maple
run
formelleren
zugänglich
uhr@@
u.
rollstuhlfahrer
eingeplant
ausgezeichne@@
wheelchair-accessible
geben.@@
people.is
spe@@
freue
pizzen.
lau@@
kur@@
veganen
informieren
pr@@
ter@@
place.@@
ish
tritt
pizzabestellung
pati@@
alley
wird.
ine
lauter
bac@@
viert
unter@@
gourmet
ca@@
.paesanos
alen
-style
stag@@
geschlossen
il@@
pre@@
turns
hu@@
worries
ischen
wieviel
assist@@
las@@
foods
irgendeine
bekannten
sagte
twist
buchen.wie
brown
age
hohen
idea
il
’
innovative
tataki
555-123-456@@
fixing
luna.@@
9-97@@
week.
entschuldige
xl.
richtlinien
ant
uhr.soll
glad
gelangen.wollen
cocktail@@
an.
gehören
minutes.
ed.@@
pizzas@@
essens@@
homemade
head
bustling
betrag
ciccia.@@
koreanischen
pm.does
privaten
much.@@
ciccia
j@@
righty
17.30
feta-käse
30am.should
anderweitig
tonight.do
unbedingt
destination.
gegeben
rec@@
besonderen
okay.das
pen@@
flu@@
salty
destination.should
gt.
to.@@
mittags@@
jedem
11.
mittags
terras@@
once
stilvoller
rd
spanisches
austern
tt
spielzeit
sekunde@@
morgen.@@
sein.und
umfasst
besetzung
tac@@
known
okay.und
uhr.was
kin@@
rustik@@
environment
celebrated
fare.
uber-fahrt
schuss
fol@@
changed
24.
ankommen.@@
rock@@
postleitzahl
fir@@
upstairs
downstairs
beliebter
dished
stly
crust.
is.@@
tasse
regional
multi-course
culinary
555-212-3614
coke
alright.@@
abhol@@
555-212-36@@
überprüfung
schein@@
fang
kantonesische
französischen
60.@@
heraus@@
heraussuchen
trendi@@
vegetarischen
auth@@
klassi@@
nen
einschließlich
shakes
diner
kreativen
ong
moderner
sed
no-frills
ds
cheaper
18.44
habe.@@
marktplatz
fleischliebhaber@@
ßen
geändert
belägen
quad-espresso-campana
weniger
außenposten
ok.you
liebe
jalapeno
increase
you.it
ries
ey
venti-kaffee
pepper@@
runtime
25.
plätzen
uber-@@
schokoladensauce
spielen
gardens
costs
hour@@
lässigen
studentenzentrum
ahorn
week@@
upside
fahrtart
kostenvoranschlag
veggie-@@
comp@@
italienischer
saison
gen.@@
belasten
anywhere
kid-friendly
haus@@
helpful
469-9720
rich@@
hole
bedien@@
adult
zer@@
dolby
genau@@
irgend@@
hr@@
wür@@
irgendwas
höher
of@@
pastas
tion.
repaired
stars.@@
tra@@
zen.@@
thailändische
confirmed.
for@@
auß@@
sondern
4.7
glu@@
plain
ebenso
waived
included
diagnostic
overhe@@
000
besonders
teurer
verstehen
every
truck
dan@@
nudeln
x@@
unassuming
you.for
ham@@
you@@
hawaiianische
-bar
möglich@@
ei@@
buche@@
arrange
xl@@
17.00
oben
fahrtyp
eating
inexpensive
angeboten
soju
inszeniert
igen
ick
ungszeit
requests
warme
haupt@@
hawaiianer
gro@@
starbucks-kaffee
food.@@
bereit.@@
erfol@@
obwohl
conditions
brews
reis@@
personen.möchten
depend
bright
867-3549
eas@@
abholbereit.bräuchten
enden
d-@@
notiz
führ@@
device.anything
kitsch@@
nei@@
broad
sea@@
bestätig@@
nächst@@
gabe
tel@@
besides
bento
griech@@
dan
dollar@@
vorführ@@
defekt
gängigen
2014er
service-gebühr
0.
vornehme
motors
gewählte
suv
angerufen
akzeptieren
cre@@
zogen
frage
raus@@
restaurant.@@
recht
getreten
€
einfluss
arrangieren
1-@@
angesehen
reparaturwerkstatt
rahmen
traveling
meat-lover
addres@@
spieß
ys
vereinbaren.@@
fourth
bummer.
gesammelt
qu@@
berühm@@
möchten.@@
iten
88.@@
his
access
typical
sushi-@@
12-@@
hab
japanischen
columbia
sich@@
t.und
kitchen.@@
angezeigt.@@
diablo
wechselndes
20.@@
basierend
hinterlegte
japanisches
uhr-vorstellung
booths
außenbeleuchtung
ends
entrees
stop@@
hinzugefügt
öffnungszeiten
you.did
barbecue-@@
2010@@
pizza-bestellung
ank
ziehen
hält
früh@@
aufgebe
probieren
hold
ück@@
23.@@
arom@@
road@@
.95
bei@@
deckt
3er.@@
besondere
dunkle
pe
reparatur@@
now@@
spo@@
café@@
watching
messen
zusätzliches
broccoli
nachsehen.@@
2u
billiger
inspizieren
sense
general
soweit
schwarze
fahrzeugtyp
motor@@
okay.can
net
okay.that
lattes
sorge
scheinwerfer
3-@@
mittel
bal@@
meals
all-you-can-eat-@@
traffic@@
okay.what
nächstes
eis-vanille-latte
berücksichtigen
429-530-5482
429-530-548@@
honda-pilot
stan@@
two@@
k-@@
aloha
mid-@@
.kann
te.@@
scale
215-896-5712
215-896-57@@
fusion@@
stirbt
92@@
locale
rauchen
indischer
verkehrsbedingungen
moana
zeichen
ligh@@
ala
ch
aufführungszeit
ef@@
ausgeht
;
sportstätte
afterwards
abgegeben
21.30
5,@@
18.45
fantast@@
scheinen
sicherlich
lin@@
angebo@@
drop-off
gewis@@
bevorzugtes
verlangt
38.@@
moment.hm
universität
vollkommen
middle
sec
gemütlichen
moment@@
ag@@
strange
soaring
habe@@
comfort
jazz
fahrttyp
zeit@@
zur@@
hellen
apologies
verfügung.@@
forder@@
vielmals
pping
geschehen.@@
starbucks-@@
sprechen
oliv@@
oysters
rohkostbar
mitchell.@@
okay.and
mitte
diagnosegebühr
along
zeitplan
gerne.@@
vornamen
überprüfen.ja
all-you-can-eat
wenden
son
korean@@
ie
bridge@@
availability.@@
cool@@
autoreparatur
valet
immediately
ige
coast
was@@
setting.@@
pm.should
gesalzenen
wants
shouldn
aw
berechnen
according
karamellmokka
favorite
traditionellen
preferences.@@
22.45
bestellen.ich
gre@@
locations
zen@@
speci@@
ga@@
mall@@
le-@@
sweet@@
table.
käsekuchen
gestellt
series.@@
hare
häppchen
05pm
4.1
buffet.@@
dogs
baked
spezielle
anweisungen
54.@@
kundenverkehr
angaben
ungezwungenes
bela
fahrtdauer
hamburgers
you.the
uhr-vorführung
vorbereitet
afterno@@
telephone
reisedauer
seltsames
bestimmt
californian
table@@
pizz@@
gesagt.ist
gesamte
student
informiert
ord@@
muffler
quixote
toward
ko@@
great@@
okay.all
popcorn
simple
pumps
pm.did
sell
appointment.would
me.@@
hallo.wie
problem@@
abholauftrag
smoking
gang
78.@@
hab@@
alco@@
letting
entscheide
uberpool
vier@@
burmese
sicht
uhr.welche
share@@
geschickt
ver
preisgünstig
ß@@
mainstream
tran@@
köst@@
set@@
parkservice
tischreservierung
restaurantvorlieben
ces
wä@@
breadsticks
cur@@
tisch@@
tun@@
weißer
fusion
statt@@
sh@@
acc@@
mexikanisch
dicken
im@@
haben.@@
usw
ves
rice
appointment.just
sir
reich@@
schicke
flavoring
lieben
kleiner
staat
pas@@
personen.ist
ausgewählten
555-2146
letz@@
stopped
.99
tori.
ancho@@
schwarzer
ask
seating.@@
küche.@@
entsprechen@@
tal@@
bl@@
kategorisieren.
yeah.@@
art-@@
vorlesen
shaking
mexquite
torti@@
middlefield
sure.uber
great.i
ll@@
need@@
help.@@
pasta.the
lakeshore
understan@@
neason
.79
fas@@
grill.@@
it.you
mountain
brulé@@
grill.in
addre@@
xll
sses
bi-level
tomorrow.@@
hemsworth
up-close
215-57@@
good.i
horseshoe-shaped
speak
tex@@
wilson
enti@@
calculating
liam
gary
ez
fix@@
minutes.can
gran@@
brulee
tinseltown
intimate
vegas@@
devine
soon.did
piedmont-influenced
milk.is
split
paso
ed.
neighborhood
joynt
four.@@
cast
okay.okay.
entire
neapolitan
meatlover
yelp
resort
in-n-out
you.4
hang
sweet
excited
themed
second.i
red.@@
friday.@@
mitchell
please.for
wonderful.
sahara
mobile.have
riverside
rodrigo
ged
921-@@
digits
nau@@
parkland
the.@@
resu@@
850-2@@
iowa
rows
ye@@
thin@@
salmon
holding.
power
kent
ura
nar@@
southwest
supposed
dec@@
whats
sooner
recieve
wan@@
fits
front
possible@@
stops
ad
tile
kara@@
oke
tickets.@@
believe
southington
cho@@
up.you
park.p
on.@@
ning
much.
no.
okay.are
pm.is
mini
centrium
pepperoni.one
freshly
pineapples
moment.that
genre
867-@@
sundays
tinsletown
usa
silvercity
ster
turning
mic
moines
imagine
jalapenos.@@
mis@@
mayeda
marinara
ose
plainville
connecticut
ried
it.one
sure.when
information@@
pilot.
thick-crust
heights
huber
rou@@
art@@
av@@
great.thank
institution
ach
garry
o.@@
ohi@@
look@@
hunt
hwy
fast.
rodrick
cruise
owned
pine
ities
brie
larson
tequila-@@
jackson
jude
law@@
newark
family-@@
played
hagen
half.
preferences.i
condition@@
ance
wide
now.the
miscoi
schwarzenegger
esspresso
fac@@
lebee
elk
choice.@@
margot
feeling
move
unique
guardia
l.a.
higgins
biogr@@
uberx.
ive
wr@@
elsewhere
uss
tiful
talking
particular
chan@@
notification
555-11@@
hawaiin
cinebistro
ven
pointe
wan
noisy
pear
you.and
cinébistro
fla@@
glendale
ster@@
l.
ler
creole
closing
ful@@
food-@@
fairly
fried
pinnacle
ley
tonight.can
proceed
schind@@
swamp
okay.i
disc@@
daily
robbie
starbucks.the
flavor@@
day.great
porch
orders
further
ther@@
hello.i
feat@@
ence
today.sometime
evil
thing@@
yes.yes
hi.@@
like@@
funny
ea@@
street.
direc@@
mat@@
thai@@
vies
almon@@
total@@
marketfair
sides
sangria
saratoga
venti@@
or.
tall@@
means.
confirming@@
spirit@@
expres@@
converted
firehouse
win
to.i
line
innovation
lic@@
buil@@
ings
okay.thank
cgv
option.
sley
mercury
rowhead
freddie
walker
goat
bridget
biopics
bridget.walker.@@
gs
historic
quarters
inghamton
ess
glen
in.it
al
it.yes
stooges
stick
slap@@
morgan
describe
electrical
pleasure
ay
tim
terminator
that.please
sugar-free
do.
zingari
centre
centry
sha@@
woodber@@
ll
gary.
ristorante
list@@
finos
metador
dev@@
comedy
ry
bubble
northpark
pm.you
music
restaurant.
nopa
vinta@@
selec@@
laid-back
supplying
zumbo
stations
itan
neopol@@
ni@@
ffer@@
fan
sortment
pizanos
mandalay
vibe
hello@@
version
eastroyce
tim@@
rides@@
sing
81
908@@
housemade
850-@@
reser@@
now.you
delicious
nam@@
tommy
over@@
granada
dat@@
country
noon
highest
liqu@@
pawlikowski
dropping
referen@@
vis@@
paweł
option@@
yes.yeah
road.in
e.it
enc@@
tiny
rews
pursuit
five-@@
roman
wines.@@
dis@@
7-8646
recommended
ically
tren@@
crust@@
germantown
german
mcclean
device.
ws
way.@@
nevad@@
restuarant
everything.@@
pisto
sunday
exposed-@@
multnomah
coca-colas
pistos
repair.appointment
ners
gest
seas@@
cinnabon
specif@@
made.@@
uh
yeah.
myself
onions.@@
car.@@
tululu
ground
headphones
855
s.got
massa
destination@@
shortly.did
glitzy
you.ok
ly.
your-own
pri@@
high-@@
take-out
robat@@
support
roid
sandwich
mentions
hmmm
items
roadhouse@@
ton
brewery
embarcader@@
particular@@
pioneer
please.regal
rolls
produces
link
plated
steam
ent.@@
sub@@
soaked
pots
names
ited
wagyu
showtimes.i
interest@@
rustic-chic
chat
ruby
sustainably
searching
komplet@@
hersteller
herstellungsjahr
tstan@@
grissini
p-@@
gemüsepizza
näch@@
tigung
benachrich@@
personen.@@
rückt
einrichten.
gelän@@
mitteldünne
krusten@@
geschickt.kann
vorziehen
xl-fahrt
elt
eg@@
küchenchefs
seine
empfe@@
meeresfrüchte-@@
sonn@@
stein@@
lebhaften
mittag-
tontöp@@
vereinbaren.nur
nachschauen
woanders
stra@@
soja-
fettfreie
sardellen
kanadischem
getrockneten
burger-@@
getrocknete
bestellungen
hallowie
tag.super
kennen
heute.irgendwann
unterbringen
helfen.wo
günstig
sech@@
ungsgebühr
gebucht.brauchen
stern@@
bet@@
erhältlich
wahl@@
gefühl
einzigartig
voll@@
origin@@
gemütliches
nachschlagen.@@
getränkte
günstigste
fettfrei
schauen.@@
spezialisiert
doch
freitag.@@
können.@@
inen
geträn@@
vielseiti@@
entspricht
tete
gerich@@
untersuchen.@@
lässig
überprüfen.brauchen
listen
gesagt.@@
sonntags
cht
verkaufen
okay.alles
kalifornischen
direktem
hufeisenförmigen
lichter@@
den.
verwen@@
hinweisen
großartig.ich
fehlen
tollen
ziffern
grillhähnchen-pizzen
enthalten
san@@
großartig@@
itik
ierte
kompli@@
stelle
club-@@
fragte
vegetar@@
zwangloses
strebenden
eleganter
erschwing@@
zeitpräferenz
komödie
reisen
zwei@@
trop@@
flü@@
prüf@@
endes
zune@@
zugeschick@@
tag@@
später@@
handy.@@
schli@@
beliebt
zweit
wählen.@@
kokos
werden.ist
vorfürhrung
alfre@@
t.kann
benutzen
kommen@@
arbe@@
eingestellt
dern
fün@@
rpx-@@
finden.sind
wird@@
brechen
bin@@
sendezeiten
eine.@@
suchen.sind
leckt
korrigi@@
blei@@
größer
vergleich
gnädige
grillhänchen
billardtische
typischen
suchen@@
geöffnet.@@
neapolitanischer
römische
spass
eingestuft
vorführungen
el-@@
gut.
c-@@
uber-taxi
ordnung.ich
fahrtzeit
fer
trans@@
internationale
verstanden.okay
dienst
statt
gedämpft
mel@@
venti-@@
hausgemachter
prü@@
haben.wie
auftrag
bela@@
vornehmen.@@
vorzugsweise
sieben
morgen@@
weinsorten
kleines
piemontesischem
ebenen
pasta.die
zigen
wartezeit
umgebauten
gourmet@@
halt@@
ker
rollstuhlgerecht
heimat
tierte
kreol@@
notwendig
nachgesehen
pro@@
erwähnten
großartige
marvel-film
meilen
berech@@
warte
anzu@@
genan@@
fahrgemeinschaften
müssten
kontakti@@
teuerste
dessert@@
süd@@
nte
entspan@@
vielseitige
mulvaneys
garten@@
feuerwehr@@
familienfreundlich
süß@@
regulär
hoch@@
lässiges
dekor
musik
séparé@@
gewünsch@@
gemüt@@
hat.es
nachschlagen.ich
grupp@@
empfo@@
kar@@
unterstützt
z-@@
len
geschmacks@@
geschehen.haben
schicke.in
sekunde.okay
fahrpreis@@
passagieren
setzen
kopfhörer
hinter@@
verstandenund
lyft-@@
macht.@@
nuss
zuckerfreie
schlimm
freunde
betr@@
ja.
bearbeitung
geniessen
sein.bräuchten
geben.
en.ist
inspektion.
passend
bearbeit@@
eine@@
gericht
bele@@
icht
gere@@
einreichen
nung
wonach
hei@@
speisesaal
modernem
historisches
zenten
osen
überprüfen.einen
restaurantspezifikationen
verstanden@@
essens
okay.vielen
lego-film
get@@
fre@@
werfen.@@
organis@@
finde@@
gefallen.@@
unbe@@
nie
stig
hmen
heit
ber@@
thema
beschreiben
menschen
mö@@
sprechen.@@
vornehme.es
zz@@
kü@@
tradition@@
tischservice
besonderheiten
hühnchengrill
typisch
test
könn@@
spider-@@
gut.ich
prüfen.es
hier@@
fahrpreisvoranschlag
.die
hervorragen@@
höhere
kte
einzigen
einrich@@
ersetzen
hau@@
hand@@
k.k.
francisco@@
safeway
metro
bobo
waf@@
brioche
wifi
dog@@
express.
craf@@
in-@@
espresso@@
meridian
seattle
ia
bibimbap@@
bulgogi
eight
co-@@
perfectly
eastridge
hotdog
deal
combo
erreicht
elektrische
okay.ich
teu@@
hießen
interessan@@
koreanischem
bre@@
tungs@@
stal@@
veran@@
lock@@
mittleren
japanischer
direktor
langsam
fel
mögliche
nen@@
fuer
summe.
kruste.habe
nachsehen.es
fahrt@@
berechn@@
derselbe
gelangen.wollten
verfügt
kauf@@
weiterhin
ß
hähnchen-pizzen
zumindest
holz@@
vier.@@
täglich
sushi-rollen
klassische
stilvolles
senden.brauchen
erte
größte
schokolade
rückt.brauchen
nachzuschlagen
hingehen
prima@@
taxis
schle@@
i-@@
güte
reis
überprüfen.ich
thailänd@@
was.ich
willkommen
zlich
bräuchte
stritt
hinzufügen.@@
schreiben
französische
n.@@
schl@@
küchen@@
meeresfrüch@@
kreati@@
commerce
heimweg
adres@@
ziele
kosten.@@
kal@@
gewesen
gebacken
peperoni.eine
fahrzeug@@
unver@@
tatsächlichen
laute
schalldämpfer
oliven@@
vermute
produ@@
krusten-pizzen
kalten
bleibe
fort@@
schaft@@
nachbar@@
hoher
bezahl@@
holt
schließ@@
zeitgenöss@@
sake-@@
umfangreiches
wechsel@@
besonderes
spiel@@
französisches
kab@@
steinfisch
lachs
ken@@
moderaten
entier@@
seit
zuletzt
zweit@@
herr@@
beginnen
fischrestaurant
erle@@
schnelles
minibar
gesendet.@@
kaffee@@
t.bräuchten
zugesand@@
mageren
verarbeitet
gle@@
grü@@
geschickt.
krustenpizzas
äti@@
mei@@
film.@@
rolle
daher
verstanden.was
spureinstellung
kor@@
freier
erster
reparatur.@@
folgen@@
ändern@@
freil@@
salatbar
end-@@
che.@@
kostenlose
cklich@@
bringe
eigenen
verschiedene
bestimmten
fast-food-@@
sein.haben
gehoben
fünf-@@
geres
höch@@
ten.
nten
fertig.kann
iced-@@
haben.und
café
tag.@@
dung
ach@@
slices
t.gibt
buchen.es
tlich
zus@@
milch.@@
its@@
zt
gesch@@
spunkt
gefä@@
näher@@
mitfahr@@
fährt
ja.mein
sein.kann
pepperoni-pizzen
verstanden.irgendein
wieder@@
ok.wie
tier@@
menüauswahl
tue
proble@@
getrennte
warmen
hö@@
moment.hmm
kinderkarte
zeitgemäßer
geschmack
weisen
gefeiertes
das.@@
nehmlichkeiten
fahrgäste
schme@@
sitzerhöhungen
wär@@
meeresfrüchten
einfahrt
tschüs
geschäfts@@
motorprobleme
aten
gebrat@@
treffpunkt
sagter
sportbar
schaf@@
vanille-latte
paprika.@@
mediterrane
vierten
e.ich
bestellen.und
reih@@
schwarz-weiß-mokka
diät
ks
veganes
#
ist.ist
toren
nehmen.kann
nachsehen.das
momentan
ztes
wendekreis
bezeichnen
quietschen
bremsen
spezi@@
familienrestaurant
einfallsreichen
industri@@
serviert.und
gl@@
fehler
rufen
eingebe.@@
sagt
bmws
kunden
bierkarte
hle
kinder@@
buch@@
öst@@
kost@@
spezialität
ok.sie
manchmal
bohne
fällig
möglichen
erfasst
pool-option
uberx-@@
peperoni@@
vorspeisen
familienfreund@@
noti@@
sardinen
schnelle
erteile
ein.@@
einstellung
stellige
ordnung.und
neben@@
ale
xl-klasse
hinfahren
weg.haben
verzeihen
tig.ich
natürlich.
unde
eter
indisches
sehn@@
ierung
sitze
ung.das
chicken-barbecue-pizza
kommenden
buchen.
geburt@@
ung.kann
rä@@
bes@@
hygiene
hü@@
zittert
schokoladensirup
zung
mindestens
vielzahl
burmesischen
preises
kindergerichte
vorschlägen
gutachtung
entgegen@@
ähnliche
wert
moment.wie
schätzungen
sen.ist
gemeinsam
hafens
gegründete
generalinspektion
kel
zeitfenster
smen@@
licht
bohnen
imax-aufführung
d-vorführungen
yankee-stadium
unan@@
besteht
kleber
geteiltes
kostenloses
wlan-zugang
brötchen
tionen
acht
kombiangebot
freitagabend
tischplat@@
inuten
unterstützung
brot
frühstücken
rosa
fröh@@
lux-vorführungen
standard-
schließen.okay
natürlich.in
notier@@
toskana-liebhaber
unauf@@
netten
cheeseburger-pizza
preisleistung
hohe
garnel@@
en-pizzen
prochen
erledigen
einfa@@
t.ich
schü@@
lässige
ramen-@@
gesamtkosten
einfließen
cool.ich
besitze
weshalb
zunächst
t-bone-steak
rippchen
gte
schwarz
ick.@@
starte
nachträglich
problem.das
hinein
jalapeñ@@
scharfer
kommen.@@
komm@@
geräumigen
nachhaltig
gelas@@
ähn@@
wohl
beförder@@
stockwerk
mitternacht
finden.okay
darfs
entsprechen.ich
treten
bare
lampen-@@
nähe.@@
bundesstaat
.eine
vierte
sicherheit
unternehmen@@
schau@@
hingebracht
buche.ok
preislich
schön@@
angebot
bewert@@
rauch@@
teriyaki-restaurant
dauern.@@
okay.was
hängt
fahr
sportstadion
gewartet
bestellen.hallo
schreibt
kost
isch-@@
etwas@@
stück
tro@@
bereich@@
leiten
offener
merkmalen
pikanter
salzig
verstanden.welche
indisch
gelangen.soll
spruch
brau@@
besor@@
einzel@@
ien
sehen.ich
genial.@@
plane
weise
geteilten
tag.womit
google-@@
wochen@@
klassischen
s.es
spezialität@@
bessere
durchzu@@
wahlmöglichkeiten
sard@@
bewer@@
lokaler
niedri@@
moderat
sor@@
kinderfreundliche
verste@@
woche.ist
überprüfen.leider
grobe
s.hallo
okay.ja
nein.könnten
wartezeiten
interessiere
sake-bar
wählte
fäl@@
kosten@@
besorgen.@@
teures
enthält
fein
hühnchen-speck-ranch
sein.ist
fünf@@
sogar
gel
tellern
häus@@
spanische
dings
lila
oberen
schickes
unsere
leid.@@
gut.wie
klingen
vertrau@@
gehobenem
hinaus
ganzen
relativ
schneller
belaufen
soll@@
filiale
nächster
typ
mehreren
fallen
rein@@
überprüfen.sie
blin@@
hint@@
betracht
super@@
gelegen@@
diejenige
geschnitt@@
quadratisch
helfe
wird.@@
fass
enem
uhr-@@
vorstellung.@@
erteilen
soweit@@
t.wollen
findet
stehe
ckt
bewusst
tagen
runter
tol@@
perfekt.@@
hnen
festgelegt.soll
block@@
möchten.ist
genial.
erwarten
uhr.funktioniert
eingeschaltet
et.möchten
ägt
elle
zwischenzeit
gucken
garten
gehen.@@
seinem
zusammen@@
licht@@
zusätze
lyft-fahrt
dre@@
moment.bitte
lagen
vernünftige
lok@@
äre
ruhiger
stadt@@
kurve
frühestens
öffnen
biet@@
kettenrestaurant
kombinier@@
schn@@
lokal@@
zeitgemäßem
pizzakette
pizzerien
blink@@
änder@@
echaniker
regelmäß@@
zucker@@
kleiderordnung
handgema@@
tee
restaurantpräferenzen
ist.
hl@@
bericht
sms.@@
reichen
bitte.bitte
beschrieben.@@
mechaniker@@
ell@@
nett.
welt
gele@@
hrlich
macht.ist
iches
handynummer
fahrer@@
genial.und
vierköpfige
grossartig
kontakt
verliert
gän@@
neue@@
genial@@
herauszufinden
bezahlen
vereinbaren.können
intelligente
ja.das
veggie-lover
äge
gerne.welche
petersilie
spät@@
keiten
kinokarte
hauptsächlich
hen.@@
schen@@
obergeschoss
erdgeschoss
zwanglosen
kantonesisches
mehrgängiger
kulinarische
gten
natürlich@@
schauen.einen
erfinder@@
ketten@@
en.die
hausgebräuen
familienfreundlicher
sicherzustellen
weiß@@
klären
zt.@@
verzichtet
überhitzt
startet
zentrum
überprüfen@@
quitt@@
stellung
eventu@@
vorführzeiten
tit@@
minuten.wollten
hinterle@@
gut.vielen
ih@@
sicher.wie
neu
nenne
lauf@@
besch@@
gesetzt
burgern
schnörkellose
optionen.
deutet
sachen
solche
tnis
endgültige
vollmilch.und
woll@@
zimt-shortbread-latte
gesendet.kann
erhöhen
dadurch
lovers-pizza
müs@@
mitbringen
lungs@@
groß@@
ja.ja.
da.brauchen
regulärer
stam@@
hesperia
gegrill@@
cala
lights.
kimchi
elements
sorry.
meat-@@
chris.parker
shortly.
ide@@
driveway
40-737@@
kris
box@@
89-4@@
future
malfunctions
stu@@
123-456-@@
device.@@
parker.
pizza.and
interest
gic
syrups
booster
okay.do
pie
brenden
smith@@
birthday
capital
mike.
pie@@
broaderpool
indiana
to-@@
crow@@
process.@@
movie.@@
jones.
s.what
telly
lef@@
esti@@
cars
rpx@@
yo@@
nopalito
querello
imm@@
sk@@
turned
i-40
medical
perelman
medicine
eastern
ppo
buca
buppa
bab@@
that.one
yakitori
pietary
4.50@@
pi@@
okay.
message@@
hear@@
size@@
booked.
cream@@
blanding
gladly
benchmark
boulev@@
undel
sure.looks
old-@@
trending
hasham
orange
se.
salsas
cour@@
else@@
sriacha
nyc
sausage@@
quiet@@
wells
you.yes
haddish
sugarhouse
ada
copland
santos
message.would
chili
microphone
lenox
ics.@@
sabeiro
ribs
philip
outdoors
49@@
dio
aqu@@
it.alright
denny
jim-denny
peru@@
lanning
concerning
cool.i
musk
2-1234
mask
ride.how
gyros
petra
euros
upmarket
street.@@
lan
preferably
mamoa
vilagio
gustine
fireworks
midnight
ride.ok
3-4@@
pan@@
now.alright
ile
gateway
phipps
honolulu
dru
kimmel
916@@
off@@
choose.is
site
plan
prompt
spacious
leaning
world
hoboken
coca-cola
stadi@@
bowtie
checking
city.@@
warriors
that.where
reserved
tiffany
-73@@
lexington
observatory
you.do
pm.can
griffith
monica
problem.that
cell
6-3@@
conveni@@
bucks
gurnet
str@@
lc
natomas
908-788@@
it.anything
clas@@
plenty
good@@
farrelly
kentucky
ams
utah
sl@@
digit
361-254-453@@
apologi@@
impul@@
tomorrow.
forth
sy
813-697-415@@
james.2009
matter
imports.2009
315-623-49@@
patio.
wow
covered
reservation@@
mah
paellas
kay
means
poke
sawasdee
chiarello
noodles
400@@
del@@
hm@@
menomonee
marcus
purple
grill-@@
ste.
township
clinton
meet
menu@@
sm@@
bree@@
the-@@
buffets
garfield
sardines
preferences.
reviewed
tallulah
sherry
home@@
showing.is
crust.@@
like.
saru
pres@@
miniat@@
stall
s.hello
locks
clemen@@
figured
caby
repeating
mount
okay.yes
cab
irish
circle
columbus
way.do
process.your
soon@@
candlelit
started.
estimates
37.@@
freddy
informal
offered
spac@@
imports.@@
cinepolis
yor@@
paella
breaks
quet@@
3-7@@
oni
squeaking
alegri@@
a.
johnson@@
radius
twisted
waiting
salt
child-friendly
earl
on.how
p.@@
hanna
that.how
requested.
zero.@@
expected
up.do
destination.the
bringing
long@@
common
d.i
coiler
one.what
establishment
week.is
s.ok
you.unfortunately
s-@@
warren
moment.yes
showgrounds
er.
phan
oc@@
spelled
top@@
husband
provided
blvd.
cullen
hall
lucile
vietnam@@
leroy
milk.@@
rick
doppio
claude
zokulu
desserts.@@
urban@@
draw
repair.is
fancisco
pitz
58@@
wi@@
you.first
ish@@
change.
yaris
toyota
ct
ok.arden
siana
ex@@
mcqueen
now.did
you.their
appointm@@
okay.oh
etn
serv@@
brian
it.any
tabletop
splash
simon
lugg@@
convention
mark@@
yes.my
tent
carla
tate
connor
sum@@
requires
echo
pric@@
tiramisu
customers
ostrophe
capitol
lincoln.@@
rob@@
botanic
box
drafthouse
brew@@
posh
sanitary
temple
medi@@
pho
dino
85@@
tab@@
mcdonald.
mcdonald.m
popolo
yep.
mozzarell@@
bo@@
deluxe
surf
neapolitan@@
op@@
deli
oper@@
prepa@@
mesa
hitheater
nachos
such
pike
unt
dormont
tos@@
850-2950
milk.and
machiato
gables
86
it.did
yankee
pikeway
simpsons
lights.@@
cutler
blinkers
s.did
famed
sure.how
spin-off
91@@
moving
vibe.i
chika
palace
overall
moment.how
hello.how
cut
correctly
stonefield
add@@
whichever
finalize
dominick.@@
terreto
live.@@
emily
lunt
910@@
lass
statesville
colorful
dungen@@
4-0@@
holic
siz@@
provol@@
uberxl@@
christmas
tau@@
institute
nc
quesadillas
enchiladas
crescent
mer@@
coyoyes
paxton
underdog
personal
min.you
uld
deblois
taken
southpark
band
int@@
running
malpaso
macchiatto
ored
bombolone
bread
wheat
temperat@@
tions
sticker
bumper
steamed
pink
giant
karen
karyn
kim
kinds
latte.@@
mhm.@@
weburger
esth@@
ik@@
wes
s.the
cathay
one-@@
stephen
option.@@
okay.does
otoro
sushi.@@
2420
5-2420
bullshead
merchant
king.how
pu@@
77@@
garden.@@
shrimp
without
sure.in
happened
has@@
hobby
stake
pizzeri@@
tuscan
team
dish@@
port.
way.
frapuccino
mom
hotpot
ats
yakiniq
shabu-shabu
life
clum@@
diego
camino
dol@@
meheula
report
jacksonville
pleasant
it.ok
ess@@
smoothies
mccoy
florida@@
consolidated
air@@
ohe.@@
kan@@
teas
kamehameha
waipahu
silver
purchas@@
ar
dick
room.
dean
shoot
calexico
sessi@@
mexico.albuquerque
albuquerque
cappuccinos
premi@@
tax
cathead
glas@@
mickanny
5-555-@@
41@@
mickley
tuned
res
reservation.ok
sir@@
short
moment.your
second.so
metropolitan
berlin
513-@@
oil.i
mike.@@
mahershala
mortensen
directors
moment.viggo
gracious
palmetto
setting.
webster
compartment
kips
parsley
sa
alis@@
centra
yes.that
recently
please.the
jetport
preston
656@@
465
hillside
excuse
studios
universal
land@@
cristano
solutions
cristiano
7-4@@
christero
botan@@
9-9720
alam@@
eros
poplar
elm
massachusetts.@@
tv@@
feel
gendreau.
said.@@
p.
boa
pulled
them.@@
hut
reginald
tower
figure
bel@@
marriott
clement
uber.hello
that.what
southborough
123-@@
hm.
minutes.is
ok.i
manuel
ilian@@
persichetti
jr
miranda
setting.the
lusk.@@
stall@@
depot
swan
lin
mins.@@
one.and
fake
totally
villa@@
roberto
rest@@
subst@@
ramsey
rothman
sig@@
5555
tonight.
staples
winnsboro
anc@@
entr@@
please.and
jaime
smyth
jamie
perisichetti
influenced
chops.@@
relatively
setting.did
tap@@
sugars
japantown
mich@@
gan@@
blond
ncg
rodney
dyke
chops
h.@@
born
special@@
van
josephcarrie
starndar@@
stern
town@@
clos@@
len@@
ies
ungen@@
bietet.@@
pti@@
fast-@@
jewe@@
ny
ton@@
ear@@
röm@@
mid@@
vorstell@@
normal@@
vereinbaren@@
thurs@@
mercedes-@@
buffal@@
spie@@
tags
ties
proce@@
fen@@
44.@@
wech@@
sprit@@
brem@@
tor@@
atmos@@
lem
vorsch@@
gelangen.@@
ziel@@
after@@
bau@@
pp@@
deta@@
gar@@
cke
heiten
kreis
präferen@@
barbecu@@
ward
bitte@@
bereitet
alit@@
äten
ppchen
quite
65.@@
ry@@
hal@@
ications
vereinbar@@
pay@@
tis@@
bri@@
passen@@
descri@@
hat@@
stü@@
ian@@
twist@@
vol@@
rollstuhlgere@@
itu@@
basier@@
pepperoni@@
scho@@
vanil@@
au
os
liefer@@
ander@@
ose.@@
cha
gnädi@@
van@@
establishm@@
questi@@
maxim@@
nachricht
stag
pub@@
meeresfrüchte@@
ved
erho@@
ke.
als@@
arri@@
schedu@@
bul@@
bs
bur@@
getren@@
tors
internation@@
schließen.@@
erinner@@
interes@@
sals@@
burmes@@
nä@@
vorbei@@
mccor@@
mick@@
wai@@
verages
pun@@
.haben
yea@@
jen@@
restau@@
spec@@
chen.@@
hn@@
jer@@
den.@@
bevorzu@@
itute
que
roh@@
he.@@
vegg@@
lege
ittle
rek@@
ms
rau@@
verein@@
schick@@
anan@@
wur@@
jed@@
wendet
200@@
gegen@@
trolle
broc@@
hil@@
day.@@
wahr@@
cap@@
eintr@@
californi@@
zugän@@
arti@@
mittag@@
wie@@
gedämp@@
frühest@@
kategorisier@@
bor@@
wood-@@
holly@@
envir@@
tre@@
öl@@
mushroom@@
frü@@
gefü@@
popcor@@
hr
tto
entsprechen.@@
erhöh@@
bewertun@@
uns@@
verfü@@
ü
ses@@
hl
rollstu@@
benut@@
kol@@
mel
alko@@
sport@@
sit@@
schnörkell@@
mahl@@
chines@@
erwach@@
gig
ty@@
fu@@
erte@@
hausgema@@
gefall@@
genom@@
freitag@@
sup@@
inform@@
vel
vorlie@@
shri@@
gren@@
kop@@
con@@
drit@@
fus@@
mp@@
shrim@@
lig@@
ör@@
peperoni-@@
kanad@@
qui@@
counter-@@
gesamt@@
theat@@
frühstück@@
getr@@
aufführ@@
verarbeit@@
ungszeiten
ʻ@@
ā@@
eschön
bit@@
imax-@@
sar@@
elles
ßt
einflie@@
stimm@@
ending
toskan@@
sta@@
sak@@
regu@@
hig@@
os.@@
repair@@
schwarz-@@
color@@
oint@@
gesam@@
-latte
ο@@
jenige
glich
ts@@
rü@@
mittwo@@
ampel@@
mehrgängi@@
zugeben
größ@@
diab@@
my@@
u-@@
soj@@
ty
don@@
stic
sardin@@
hen@@
sorten
erzä@@
dies@@
sc@@
cop@@
pizza-@@
liebhaber
zwischen@@
kulinar@@
kantones@@
ly@@
mol@@
bie@@
bezeich@@
person@@
dor@@
ve-@@
–
fili@@
geschick@@
mail@@
splas@@
sustain@@
punkt
cockta@@
chi@@
hausgebräu@@
assuming
ori@@
espresso-@@
bestimm@@
zentr@@
mitfahrgelegenhe@@
ät@@
je@@
fte
zim@@
leb@@
ind
regul@@
ion
tele@@
mals
st-@@
kön@@
ö@@
unglaub@@
ass@@
plaz@@
ns@@
kle@@
john@@
choose.@@
sel
wn@@
agi@@
zeitgemäß@@
zwangl@@
zü@@
chill-@@
zustellen
ping
sterne@@
lang@@
zw@@
elled
ical
et.@@
kür@@
ungezw@@
schlag
llt
canc@@
wes@@
mon
char@@
curren@@
tatsäch@@
acks
bar-@@
harr@@
issu@@
hap@@
sorr@@
sene
mes@@
mention@@
h.
organ@@
sur@@
baren
nap@@
iche
einfalls@@
mas@@
ändert
wähl@@
gä@@
help@@
gesu@@
gerechnet
281-330-800@@
ol
ker.@@
gendes
ruhi@@
oil@@
klich
alo@@
cht.@@
ε@@
ente@@
repair.@@
ölle@@
wartet
fs
bart@@
sters
geschn@@
oth@@
pair@@
bed
ku@@
actu@@
ff
züglich
seri@@
alize
smok@@
ded
atm@@
pos@@
ph@@
open@@
inter@@
han@@
stea@@
festgele@@
sie@@
od
bow@@
cker@@
ices
schaft
lä@@
gree@@
uber.@@
draf@@
ersch@@
dessen
bedingungen
ech@@
lower
characterist@@
itution
leak@@
beleuchtung
eingren@@
assi@@
friend@@
toll@@
aril@@
tages@@
joseph@@
sear@@
außen
minu@@
fertig.@@
informa@@
att@@
cuis@@
thail@@
tha@@
interessi@@
ün@@
ann
hall@@
servic@@
ros@@
ums
ce
ner@@
tion@@
funktion@@
pineapp@@
mail
ht
verkehrs@@
beson@@
schla@@
ving
ram@@
nachmit@@
ot.
cen@@
enden.@@
festgelegt.@@
gin@@
ative
nation@@
jet@@
ele@@
comple@@
voraussicht@@
sel@@
fis@@
cheap@@
reason@@
ima@@
ktion
familien@@
ischen@@
cru@@
instru@@
glau@@
-down
öpfige
vollständi@@
durchschnitts@@
geführ@@
klapp@@
appro@@
request@@
experi@@
mation
experienc@@
zwiebel@@
ably
großar@@
uring
coun@@
voranschlag
ari@@
lei@@
esch@@
chicken-@@
keit
ici@@
ssi@@
class@@
drin@@
t-b@@
heu@@
provi@@
mobilgerä@@
ue
patio@@
jal@@
sichtigen
hlung
teil@@
dämp@@
tem
pap@@
day@@
post
flugha@@
park@@
counter-serve-kette
fra@@
stoo@@
stil@@
les
erweise
street@@
zusätzlich@@
big@@
ong@@
erer
begin@@
col@@
heute.@@
merced@@
pk@@
abhän@@
wy
nec@@
emp@@
ary
chs
tter
tus@@
ace
terr@@
klas@@
jim@@
202-456-621@@
jing@@
fied
tie
öff@@
south@@
tige
mexikan@@
favor@@
äu@@
ason
ju@@
kul@@
x.
komple@@
tschü@@
hol@@
high@@
excell@@
ent.
ill
exc@@
ept
vil@@
ough
ations
destin@@
stance
incre@@
not@@
ics
rd@@
stin
dri@@
bread@@
getrock@@
sion
gebr@@
ung.@@
infor@@
repar@@
fran@@
wel@@
ety
ato
berkele@@
ended
lyf@@
ing.did
center@@
555-555-121@@
acces@@
automo@@
zeich@@
prefer@@
ticket@@
gäste
cl@@
ali@@
mov@@
main@@
thr@@
speise@@
hou@@
made@@
vie.@@
ports
estim@@
harb@@
ambi@@
wood@@
confir@@
bil@@
ity.@@
ity
salat@@
definit@@
contac@@
m.@@
hör@@
hoff@@
erhal@@
concer@@
hinzu@@
ned
house@@
nem
sacramen@@
welcom@@
possib@@
lt
ir@@
reserva@@
oss
555-21@@
-film
wh@@
kam@@
ree
unden
kru@@
schicke.@@
555-217-13@@
allo@@
oni@@
sche
ve.@@
grün@@
til
haf@@
four@@
appoint@@
sim@@
det@@
non@@
kes
ist@@
casu@@
stick@@
q@@
gef@@
eria
recom@@
gur@@
int
x-@@
wonderful@@
ket@@
cand@@
famili@@
atur@@
wunder@@
mä@@
far@@
gluten@@
let@@
deliciou@@
salzi@@
which@@
mitchell@@
er.@@
at.@@
supp@@
steer@@
einstu@@
viel@@
zei@@
freund@@
555-113-424@@
abbie@@
fen.@@
dauer@@
rogu@@
tatak@@
nachhal@@
innovati@@
can@@
speis@@
behilf@@
gel@@
kategor@@
zusätz@@
typ@@
famil@@
airs
gol@@
gen.ich
nachzuschla@@
aven@@
hilfre@@
markt@@
buff@@
lak@@
ante
milk@@
zie@@
verzeih@@
boo@@
ment
oll
ic-@@
reicht
lesen
pol@@
überprü@@
reib@@
geräum@@
industrial-@@
uten
ese
vie@@
spa@@
lige
zä@@
gener@@
phoeni@@
ted.
roasted
submit@@
defin@@
pick@@
endgül@@
inspektion@@
buc@@
cul@@
fest@@
zwanglos@@
dau@@
lässi@@
burger@@
ff@@
simpson@@
äf@@
sage@@
erwähn@@
asy
dated
acken
tic
häl@@
leist@@
nut
zel@@
pla@@
inspec@@
-mokka
bere@@
vorzu@@
täti@@
alisiert
kinderfreund@@
eater@@
äch@@
zieren
dig@@
schlag@@
hühnchen-@@
standar@@
om@@
sn@@
pizzak@@
hen
stück@@
sand@@
schokoladen@@
überhit@@
reibung
einkauf@@
einkaufs@@
tomato@@
asiat@@
donner@@
tu@@
tely
wir@@
any@@
ways
ily
essen@@
za@@
solu@@
celebr@@
enthal@@
orize
hän@@
offer@@
glit@@
fired
schlie@@
ì@@
one@@
zö@@
led
rind@@
ausgestat@@
tast@@
einfl@@
fischen
pec@@
kationen
hlen
woo@@
aring
charac@@
kredit@@
tri@@
klass@@
roll@@
lik@@
ol@@
grup@@
gar
mü@@
storn@@
frühe@@
illin@@
head@@
asu@@
offen@@
restuar@@
imal
zwe@@
.92
sac@@
montag@@
ir
bed@@
ätz@@
iertes
menü@@
mediterran@@
verage
regi@@
änd@@
mediter@@
hor@@
americ@@
pennsylvan@@
summe@@
sojamil@@
.how
kokos@@
souv@@
zahl
fordern
sofor@@
accommo@@
illi@@
karamell@@
well@@
rit@@
hörer
lea@@
ice.
los@@
tomorrow@@
ingredi@@
ichen
wednes@@
ente
belie@@
oll@@
sü@@
beför@@
day.
deliver@@
billi@@
übri@@
dün@@
follow@@
daniel@@
times.@@
brin@@
defe@@
appreci@@
crit@@
eri@@
dere
mac@@
tly.@@
illino@@
ets
kategoris@@
gesend@@
proc@@
anders
jalapen@@
arbeit@@
geld
sag@@
sun@@
kau@@
topp@@
atch
bräu@@
genen
pub-@@
us-@@
abholbereit.@@
wus@@
í@@
stor@@
zy
bier@@
email@@
factor@@
suit
komö@@
irgendein
pil@@
midd@@
wil@@
bio@@
pic
für@@
veggi@@
near@@
stre@@
teur@@
shoul@@
fire@@
itt
durchschn@@
preferenc@@
versch@@
house-@@
caram@@
gn@@
klei@@
kell@@
spezifikationen
senden.@@
syru@@
sitzgelegenhe@@
