#version: 0.2
e n</w>
i n
a n
e r
t h
i c
i e</w>
c h
r e
u n
e l
e r</w>
y o
a t</w>
s t
ic h</w>
i n</w>
a r
e n
a l
a s</w>
s ie</w>
p o
yo u</w>
e s</w>
o r
a b
o n
a u
i s
& a
i t
t o</w>
po s
&a pos
e in
a n</w>
i t</w>
th e</w>
&apos ;
b e
t i
t e</w>
g e
i l
o k
o r</w>
h o
a y</w>
i s</w>
m o
d as</w>
o n</w>
l e
i h
a s
th at</w>
un d</w>
m e
in g</w>
f ü
k e</w>
an d</w>
t en</w>
d er</w>
f or</w>
is t</w>
m e</w>
o k</w>
w h
s e
l i
o u
r o
n e
ok ay</w>
fü r</w>
a t
u r</w>
e d</w>
d ie</w>
i m
c h</w>
r e</w>
al l
d en</w>
ic h
d i
s u
e t
h el
an t</w>
un g</w>
v e</w>
e s
p i
v i
n en</w>
&apos; s</w>
r i
mo v
a r</w>
un d
o l
m ö
yo ur</w>
c an</w>
an n</w>
s ch
b u
v er
m en
j a</w>
h r</w>
n o
el l
z z
h ab
pi zz
o und
ein e</w>
li ke</w>
mö ch
h a
ar y</w>
l d</w>
u m</w>
i r
wh at</w>
h t</w>
e me
re mov
remov eme
removeme im
removemeim ab
removemeimab ound
removemeimabound ary</w>
ic k
er e</w>
w ie</w>
l e</w>
s o</w>
w as</w>
b e</w>
a c
l o
s t</w>
an k</w>
s en</w>
i r</w>
t o
k ann</w>
s e</w>
p e
ou ld</w>
ch e</w>
d e</w>
m it</w>
g o
n a
h e
ein en</w>
ho w</w>
m a
g en</w>
on e</w>
u hr</w>
b o
it h</w>
t a
ch en</w>
o f</w>
ha ve</w>
w el
h all
st ell
th e
e in</w>
t er
re st
w ith</w>
ih nen</w>
g ht</w>
y es</w>
hall o</w>
f a
rest au
ti g</w>
restau r
w ant</w>
al l</w>
b er</w>
e t</w>
men t</w>
il l</w>
w ould</w>
g en
g u
g re
d o</w>
p er
w er
s er
a p
g er
s a
ar e</w>
w e
hel p</w>
c o
in d</w>
a d
f en</w>
h r
in t
f e
u m
l as
vi el
o p
w ill</w>
d er
t r
möch ten</w>
ol l
m in
h i</w>
ne ed</w>
di d</w>
restaur ant</w>
b r
t ick
b it
ö n
hab en</w>
ti on</w>
be stell
s ho
0 0</w>
g e</w>
n um
k ön
gre at</w>
bit te</w>
su re</w>
p le
o d</w>
e m</w>
e a
et s</w>
u te</w>
s i
p l
s o
hel fen</w>
ih re</w>
tick ets</w>
f or
hab e</w>
th ank</w>
u r
d ay</w>
d o
ple as
a m
u p</w>
or der</w>
ti on
v on</w>
e x
ri ght</w>
2 0
th ing</w>
g ro
z u</w>
h en</w>
n e</w>
k o
r u
möch te</w>
m ir</w>
l ich</w>
k s</w>
fa hr
pleas e</w>
t s</w>
au f</w>
th ere</w>
m in</w>
re c
v or
w ir
a m</w>
r ich
le t</w>
b er
ter min</w>
he ute</w>
au to</w>
a l</w>
viel en</w>
m or
gro ß
min u
l l</w>
po int
ap point
ho l
or d
be i</w>
p re
m ich</w>
d ank</w>
pizz a</w>
z e
wir d</w>
las sen</w>
3 0</w>
m p
ord n
kön nen</w>
the y</w>
ge b
g i
appoint ment</w>
k l
&apos; ll</w>
f o
an y</w>
et was</w>
rich tig</w>
f in
t el
m u
m en</w>
f re
re ser
s ind</w>
y ea
y thing</w>
ordn ung</w>
p m</w>
i m</w>
st an
no w</w>
i e
es e</w>
&apos; m</w>
yea h</w>
s ich
w o</w>
v a
f r
t h</w>
go t</w>
no ch</w>
b ar
p a
ou t</w>
ge t</w>
an ything</w>
al so</w>
u ber</w>
en .
w oll
st ar
n o</w>
g t</w>
p h
wel che</w>
se in</w>
p ar
s pe
mp ;</w>
bo ok</w>
&a mp;</w>
st e</w>
c on
f er
m il
q u
a f
p ro
5 5
w ä
po r
gu t</w>
z u
s on
p r
g r
m er</w>
t .
el se</w>
ä t
pizz en</w>
all es</w>
mo ment</w>
s s</w>
l un
ü r
ic k</w>
en t
ger ne</w>
r en</w>
al i
br au
pizz as</w>
o der</w>
ne in</w>
ch e
th is</w>
lo ok
b ar</w>
ol l</w>
ih r</w>
bu c
vi er
c or
wer den</w>
e d
20 1
sich er</w>
na me</w>
i a</w>
se hen</w>
g o</w>
num mer</w>
f t</w>
ver stan
cor rec
num ber</w>
f ir
z we
en d</w>
m y</w>
f ro
f il
groß ar
bestell en</w>
fro m</w>
ch t</w>
s ich</w>
mov ie</w>
pl ac
fe e</w>
go od</w>
correc t</w>
s an</w>
d as
star buc
on i
p p
d e
ell a</w>
das s</w>
d an
großar tig</w>
b ella</w>
pro b
st en</w>
au s
t e
m it
geb en</w>
minu ten</w>
h il
starbuc ks</w>
e f
ti me</w>
ih ren</w>
p er</w>
lun a</w>
c ar</w>
an d
pe op
x l</w>
bestell ung</w>
es sen</w>
v e
fil m</w>
ab hol
th er</w>
verstan den</w>
d a
n ä
ab le</w>
ic e</w>
sho w
na ch</w>
prob le
to day</w>
peop le</w>
fo od</w>
s m
5 -
v er</w>
b t</w>
per fe
int el
&apos ;</w>
se e</w>
ich t</w>
al s</w>
wh ere</w>
ta g</w>
j o
i er
w en
intel li
2 1</w>
l au
intelli gen
hil f
wel ch
in g
ih re
bu chen</w>
wh en</w>
l y</w>
1 0</w>
dan ke</w>
st re
&apos; d</w>
an c
intelligen t</w>
ex tr
c in
ab end</w>
z e</w>
t es</w>
reser vier
l u
ab out</w>
por ts</w>
2 0</w>
t u
t oni
b en
extr a</w>
tel ef
plac e</w>
ph one</w>
h as</w>
stre et</w>
z t</w>
is ch
w o
d re
ta ke</w>
j u
8 9</w>
p .
2 1
k t</w>
i f</w>
s p
im ports</w>
per son
l ich
fahr t</w>
ze it</w>
r a
w ar
va il
l a
gi bt</w>
bo ok
a vail
ac k</w>
&apos; re</w>
w ir</w>
1 5</w>
toni ght</w>
for n
f i
ali forn
ma ke</w>
li e
or t</w>
on nummer</w>
o ther</w>
h at</w>
n icht</w>
ko m
ju st</w>
e m
w ür
telef onnummer</w>
t wo</w>
person en</w>
op tion
c o</w>
1 6</w>
e i
spe c
ü n
ge f
c ould</w>
au f
p ick
k now</w>
c ru
an der
p ick</w>
j et
d em</w>
w ann</w>
t et</w>
wä re</w>
w n</w>
s en
p e</w>
be i
ou t
jet zt</w>
gen d
wen n</w>
t ed</w>
ge sch
zwe i</w>
w a
u l
m on
be st
yo u
kl ar</w>
u ld</w>
au s</w>
n ur</w>
look ing</w>
wer de</w>
sho uld</w>
u s</w>
ir gend
el l</w>
el e
ein em</w>
w or
viel e</w>
s oll</w>
p as
w e</w>
&apos; ve</w>
m any</w>
k ru
ar t</w>
kön n
3 0
vi e
y .
reser va
t er</w>
re ad
ä n
t ung</w>
st at
m i
w is
r y</w>
l o</w>
it y</w>
e .
d ri
anc is
on i</w>
k in
h e</w>
cru st</w>
z um</w>
ge bu
g h
fr ancis
di es
per oni</w>
francis co</w>
do es</w>
s or
ne h
i d</w>
f f
d en
c k</w>
b il
- 4
read y</w>
mu ch</w>
l an
ge sa
woll ten</w>
h ät
book ed</w>
men t.
i en</w>
h re
di ese</w>
b in</w>
b i
woll en</w>
w ie
o l</w>
is ch</w>
h ö
ri de</w>
re par
al right</w>
th an
hel lo</w>
ä ti
the at
su che</w>
proble m</w>
l y
is che</w>
ho u
d ar
brau chen</w>
restaur an
k e
vor stell
u ber
lo c
ber e
ta l</w>
su per</w>
nä ch
mor gen</w>
a d</w>
re pa
minu tes</w>
d r
con fir
w ar</w>
s it
reservier ung</w>
reserva tion</w>
mu ss</w>
cin em
5 0</w>
to tal</w>
k ar
fir st</w>
best äti
a tion</w>
t ex
gebu cht</w>
no t</w>
it en</w>
fin e</w>
fer en
ein er</w>
lau tet</w>
be wer
au ch</w>
&apos; t</w>
wh ich</w>
so me</w>
kru ste</w>
k ind</w>
m all</w>
m .</w>
ch an
ver s</w>
mil k</w>
in k</w>
h i
f ind</w>
1 2
ver fü
ve g
s .
in for
x t</w>
than ks</w>
show ing</w>
ne xt</w>
ick en</w>
c t</w>
55 5-
verfü g
t y
t un
na ch
fo und</w>
avail able</w>
you .
ch in
ser v
mo ment.
go ing</w>
brau che</w>
4 0</w>
d a</w>
s ound
sound s</w>
repar at
wis sen</w>
the m</w>
o se</w>
kom men</w>
ier en</w>
sor ry</w>
infor ma
u e</w>
se con
o s</w>
bu t</w>
a te</w>
4 .
ver ein
mo bil
m ar
h l
1 8</w>
mö g
le d</w>
e ht</w>
ch icken</w>
c k
b y
ap p
20 0
ro w</w>
pe p
at ing</w>
1 9</w>
sho p</w>
re g
h al
c e</w>
c al
be hilf
ne w</w>
könn ten</w>
it e</w>
he i
behilf lich</w>
se t</w>
ra men
on g</w>
mor e</w>
l at
d es</w>
d au
b el
we it
t oll</w>
s ac
bar en</w>
secon d</w>
sac ramen
n or
4 5</w>
ß en</w>
un den</w>
to mor
sacramen to</w>
o h</w>
o f
l in
ko sten</w>
ge ht</w>
lo vers</w>
fin den</w>
a g</w>
wor k</w>
s oll
d ann</w>
bo th</w>
b b
am c</w>
wür de</w>
w ur
ok a
ly ft</w>
k ing</w>
groß e</w>
all e</w>
fahr en</w>
di um</w>
c ol
bu ch
at ed</w>
ü ber
w es
perfe kt</w>
mil ch</w>
k ä
it ali
ä u
z en</w>
tomor row</w>
pr ü
look s</w>
by e</w>
t en
sch ed
oka y.
neh men</w>
hou se</w>
geb ü
ab er</w>
z ur</w>
restauran ts</w>
na men</w>
gi ve</w>
g lu
bu r
be tr
vorstell ung</w>
verein baren</w>
i l</w>
gebü hr</w>
all y</w>
perfe ct</w>
k an
dau er
co st</w>
che ck</w>
c aliforn
bei de</w>
ab ge
ver y</w>
t y</w>
su m
son st</w>
m er
hät te</w>
gu ten</w>
f ri
si eht</w>
s sen</w>
hilf e</w>
gesa m
che ese</w>
and ere</w>
su chen</w>
s h
op tion</w>
kä se</w>
wie der
s au
me x
5 6
sch n
reg al</w>
ma chen</w>
isch es</w>
er ia</w>
en d
ch o
c ity</w>
b ack</w>
the ir</w>
st er
sched u
me in</w>
gef unden</w>
e hen</w>
d in
br in
b en</w>
to wn</w>
theat er</w>
pick up</w>
ne t</w>
n at
me dium</w>
l ar
j a
confir m</w>
c re
ö ti
re e</w>
ma l</w>
lo ok</w>
ben öti
ty pe</w>
st im
ou r</w>
ing s</w>
ar den</w>
ün sch
ß e</w>
w ünsch
th ree</w>
st ea
o b</w>
w at
sum me</w>
o m</w>
las s</w>
fer tig</w>
b l
9 16</w>
pep peroni</w>
p. m.</w>
mög lich</w>
jo y</w>
in spec
ihre r</w>
ic an</w>
en joy</w>
cinem as</w>
californ ia</w>
v or</w>
r t</w>
nat ür
k tion
f u
bb q</w>
am er
un g
sm all</w>
pre feren
h n
tel l</w>
me chan
go o
co m
brin gen</w>
un s</w>
th en</w>
so me
s pi
über prü
p t</w>
out back</w>
dre i</w>
c ent
in ter
co f
3 5</w>
welch er</w>
su bar
subar u</w>
k aliforn
k af
it t
ger n</w>
f our</w>
er ste</w>
cof fee</w>
w ay</w>
s .</w>
repa ir</w>
n is
me at</w>
ko st
in spe
gr an
d oll
option en</w>
lar ge</w>
irgend etwas</w>
b le</w>
y e
wel l</w>
wel co
th in</w>
stat t</w>
kaf fee</w>
fr ü
1 9
wer k
reparat ur</w>
ne ed
natür lich</w>
kl in
in e</w>
dri ver</w>
do or</w>
d et</w>
ch ten</w>
al e</w>
se t
sch la
p. m</w>
nis san</w>
is e</w>
ihre m</w>
ic ed</w>
gran de</w>
ge hen</w>
fa hre
c af
2 5</w>
ü ber</w>
werk statt</w>
vi er</w>
veg g
klin gt</w>
hö rt</w>
h ne</w>
e l</w>
ander em</w>
201 0</w>
vegg ie</w>
ser vier
option s</w>
m ü
k ein</w>
g ung</w>
bere it</w>
zwe ite</w>
yo r
of f</w>
fahre r</w>
b ac
1 1
wes o
v en
tu t</w>
n d</w>
lat te</w>
gesam t
abhol en</w>
a weso
tick et</w>
ro gu
re s
nä he</w>
kaliforn ien</w>
hol t</w>
he y</w>
h n</w>
gr ö
1 4</w>
sa ge</w>
s ha
rogu e</w>
rec ei
re gu
pre is</w>
pa ar</w>
p il
mobil e</w>
inspec tion</w>
il e</w>
hol en</w>
ent sch
c ar
be c
an ge
ad dre
8 .
30 am</w>
welch es</w>
w an
th ose</w>
res se</w>
regu l
pp ed</w>
or der
on s</w>
n u
n er</w>
le ute</w>
kl eine</w>
it i
d on</w>
ad resse</w>
abge holt</w>
ur ch
s al
d s</w>
be kommen</w>
b is</w>
a k
u hr
soll te</w>
mit tel
g er</w>
el y</w>
d ro
b m
a in</w>
yor k</w>
th ink</w>
sit z
näch ste</w>
m eine</w>
l ong</w>
jo hn</w>
il l
h on
d en.
cal led</w>
as s
5 5</w>
tion en</w>
t ri
mi d
k au
it .</w>
it .
g ru
for e</w>
bm w</w>
bestäti gen</w>
be fore</w>
an other</w>
addre ss</w>
wh ile</w>
w s</w>
tri p</w>
si ble</w>
sa gen</w>
s how</w>
mon day</w>
le id</w>
d es
t able</w>
se hr</w>
s on</w>
re d</w>
m s</w>
glu ten
ger s</w>
v om</w>
sch ö
re vie
pr ice</w>
m an</w>
kin o</w>
gr ill</w>
g lass</w>
at .</w>
3 3
wä hre
v ing</w>
st i
spec i
recei pt</w>
j e
ie ßen</w>
h in
fü hr
er s</w>
dies en</w>
d ort</w>
ch ar
be sch
be en</w>
4 ,
währe nd</w>
uber xl</w>
sch ein
sa hne</w>
regul ar</w>
po ol</w>
par ty</w>
gru pp
g ele
fre e</w>
201 1</w>
tu n</w>
si ze</w>
pizz eria</w>
m .
le i
is h</w>
cre am</w>
2 2</w>
ß t</w>
z ie
wh i
wel chen</w>
vie l</w>
u p
t isch</w>
sa id</w>
o t</w>
min s</w>
kost et</w>
itali an</w>
gen ießen</w>
dies er</w>
co ol</w>
abhol ung</w>
a g
200 9</w>
1 0
tion s</w>
t sch
st ab
qu it
pe peroni</w>
no pe</w>
mer c
m t</w>
k eine</w>
ier t</w>
fre it
e at</w>
dauer t</w>
a re
2 -
1 7</w>
ät z
z i
so on</w>
si de</w>
schedu le</w>
p en
i kan
ge tr
e se
e -
do wn</w>
avail ab
ass ist</w>
1 5
st on</w>
sm ith</w>
se ating</w>
schla g
sau sage</w>
s ou
quit tung</w>
grö ße</w>
grupp e</w>
gesch ehen</w>
fri day</w>
f are</w>
den ke</w>
d ün
d el
bi et
a ge</w>
1 -
. ich</w>
ze u
t ur
st ad
pick ed</w>
getr än
er hal
au to
as t</w>
. i</w>
welch em</w>
v ent
un gen</w>
tsch ü
some thing</w>
sm s</w>
schlag sahne</w>
pos sible</w>
ok .</w>
näch sten</w>
mon tag</w>
li gh
j ap
jap an
informa tion</w>
ger ich
fahr zeu
c u
bar bec
4 5
wür den</w>
whi pped</w>
welco me</w>
we i
wa i
v oll
un ter</w>
ne ar</w>
informa tionen</w>
fa ir</w>
cent er</w>
buch stab
ander en</w>
ye p</w>
wünsch e</w>
vent i</w>
v an
t on</w>
t ing</w>
su s
schn ell</w>
merc ed
is chen</w>
h l</w>
gef ä
freit ag</w>
fa mil
dr ink</w>
ch te</w>
benöti gen</w>
aweso me</w>
ä gt</w>
wieder holen</w>
verfüg bar</w>
s ol
por t</w>
n ing</w>
mex ican</w>
loc ation</w>
le x
kar ten</w>
k ü
il s</w>
hon da</w>
hl en</w>
hei ßt</w>
h at
gu te</w>
fre ie</w>
de v
b re
b al
9 pm</w>
ä t</w>
vi a</w>
un ter
ul di
th ick</w>
sp ell</w>
ro ad</w>
preferen c
pil ot</w>
o il</w>
me hr</w>
kar te</w>
g ar
f an
entsch uldi
e g
d et
c an
bewer tung</w>
wo mit</w>
tschü ss</w>
to o</w>
re pe
nor m
j ack</w>
g ten</w>
fi c</w>
er bar</w>
bu che</w>
betr ägt</w>
an sehen</w>
woll te</w>
su re
repa ir
pl at
pas st</w>
o t
n en
ge t
di rec
chin ese</w>
ch i
c a
12 3
weit ere</w>
ser ve</w>
repe at</w>
p u
p s</w>
o li
mü ssen</w>
men u</w>
lan ge</w>
ha wai
f un
a ir
4 -
schö nen</w>
revie ws</w>
ph il
or i
on al</w>
mit ta
i an</w>
ho t</w>
h in</w>
es .
ein es</w>
c lo
biet et</w>
barbec ue</w>
vor zu
uber x</w>
ter i
t .</w>
stan dar
stad t</w>
mid town</w>
m es</w>
ligh ts</w>
lex us</w>
ic a
i ver
ge ho
fre ien</w>
c ou
at t
7 -
201 3</w>
tun gen</w>
sus hi</w>
servier t</w>
out door</w>
lo ver</w>
j am
im a
h ä
gele gen
caf e</w>
b y</w>
at s</w>
200 8</w>
wan ted</w>
st u
sen t</w>
r it
mo der
lun ch</w>
l l
k las
g an
el ph
bu ff
aus ge
0 0
. is</w>
z en
y ing</w>
wur st</w>
weit er
st e
op en</w>
k or
ja hr</w>
in to</w>
ich en</w>
ha ving</w>
gre at.</w>
gesamt summe</w>
f en.
e stim
dro p</w>
d is
cho ose</w>
bewer tungen</w>
b ro
ar ri
3 50</w>
un gefä
s el
re kt</w>
re ally</w>
qu ot
quot ;</w>
preferenc es</w>
on ly</w>
n ice</w>
mittel große</w>
ma cht</w>
lich en</w>
lich e</w>
inspe ktion
ih n</w>
h er
gelegen he
g el
f le
f e</w>
erhal ten</w>
be vorzu
bac on</w>
201 5</w>
19 th</w>
& quot;</w>
wur de</w>
stat us</w>
st or
st all
s and
r an
mor ning</w>
irgend welche</w>
hät ten</w>
he ad</w>
h and
f er</w>
es t</w>
entschuldi gung</w>
chin es
br u
br ing</w>
ar o
6 -
1 3
-4 56
wei ß</w>
v il
to pp
te il
star s</w>
so und</w>
s gebühr</w>
na tion
ima x</w>
ihre s</w>
h or
gre en</w>
da mit</w>
d .
ch ica
ben z</w>
1 2</w>
ät ze</w>
war ds</w>
w on
vor führ
ti mes</w>
tex as</w>
show time</w>
reservier en</w>
pre s
pl a
phil ad
philad elph
philadelph ia</w>
k en</w>
itali en
goo g
geträn k</w>
ese m</w>
di esem</w>
al it
ad d</w>
ad d
a qu
8 8
1 1</w>
. did</w>
zu s
tr af
st a
reparat ur
r ating</w>
mobil ger
mechan i
ma g</w>
kau ft</w>
h ar
fun ktion
doll ar</w>
ch net</w>
be im</w>
be a
9 -
1 3</w>
überprü fen</w>
wo hin</w>
ungefä hr</w>
standar d</w>
se a
nor th</w>
need s</w>
mobilger ät</w>
lie b
kor rekt</w>
itt le</w>
inspektion sgebühr</w>
goog le</w>
g s</w>
fe bru
fahrzeu g</w>
f ol
buchstab ieren</w>
aqu am
aquam an</w>
af ter</w>
zus ätz
ze iten</w>
y l
w und
w er</w>
u c
tex ted</w>
spi el
pre is
on es</w>
no te</w>
m ay</w>
m an
loc ated</w>
las t</w>
l ittle</w>
k er</w>
i ge</w>
ho le</w>
hin zu
h ere</w>
ge sen
fin det</w>
di es</w>
de l</w>
d urch
ch en
ch a</w>
br äu
auf ge
air port</w>
ac tu
a head</w>
8 9
ö ff
won der
wieder sehen</w>
wat ch</w>
tex t</w>
t l
stea k
se ar
per son</w>
n a</w>
könn te</w>
is su
inter nation
h er</w>
gesa gt</w>
ei ther</w>
doll ar
bal d</w>
at ely</w>
ab end
4 0
3 6
2 5
traf fic</w>
t re
t ac
spe is
sol d</w>
serv ice</w>
s in
mo d
k un
k a</w>
he ar</w>
gesch ick
gerich te</w>
be findet</w>
a b</w>
2 2
ven ue</w>
ve h
veh ic
vehic le</w>
uc cin
topp ings</w>
stim mt</w>
sea food</w>
repair s</w>
r x</w>
proble me</w>
plat z</w>
mo cha</w>
le a
g le
chica go</w>
c ri
auf geben</w>
ar d</w>
3 d</w>
2 8
- 7
vor lie
ver kauft</w>
te .
sitz gelegenhe
si ve</w>
sear ch</w>
k tion</w>
ge ssen</w>
fü gen</w>
ein mal</w>
ein fa
dollar s</w>
bur ger</w>
aus verkauft</w>
am p
ze i
w hole</w>
t or
st ar</w>
spi der
pas sen
p ing</w>
mo del</w>
lieb hab
l ok
l a</w>
inspe ktion</w>
g arden</w>
fle isch
es pres
ch en.
book ing</w>
b ie
af ter
actu ally</w>
a gen</w>
4 4
zen tr
wa hl</w>
to wards</w>
th an</w>
st ehen</w>
sitzgelegenhe iten</w>
s pa
s ay</w>
passen gers</w>
p ul
oli v
m ind</w>
kü che</w>
k ür
ick er</w>
ho ping</w>
g h</w>
f all
et a</w>
dauer n</w>
dar f</w>
bo o
as on</w>
aro und</w>
ac c
ab e
a de</w>
. .</w>
verstan den.
verfüg bar
v al
ung s
uhr .
uccin o</w>
spider -
sa gi
s ele
pre fer</w>
pas sagi
par k</w>
nu n</w>
neh me</w>
mitta gessen</w>
min s.
kür ze</w>
ko re
iti onal</w>
hall o
goo d
fre i</w>
er fahren</w>
en t</w>
ein ige</w>
des cri
da te</w>
bl ack</w>
at eg
amer ican</w>
al en</w>
a .
wund erbar</w>
weiter helfen</w>
we e
w i
vorführ ung</w>
sou th</w>
sha red</w>
se as
schedu led</w>
preferen ce</w>
pl ätze</w>
mod ell</w>
mex ikan
lei der</w>
klas se</w>
j ef
hn chen</w>
glu ten</w>
fü n
fleisch liebhab
dis h
dev ice</w>
det a
d icker</w>
co ol
c lu
bei den</w>
bea chten</w>
availab il
aufge geben</w>
ar i
an o</w>
9 9
überprü fen.
ä ge</w>
you .</w>
wä hlen</w>
war ten</w>
theat ers</w>
steak house</w>
s qu
passagi ere</w>
o ver</w>
n i
minu t
merced es</w>
li ght</w>
le t
j ones</w>
im a</w>
ich es</w>
hinzu fügen</w>
h en.
ger e
fu l</w>
fe w</w>
er t</w>
ein .
do ch</w>
deta ils</w>
d ing</w>
bräu chten</w>
b ri
b j</w>
b au
after no
abhol bereit</w>
7 -4
5 7
0 -
. and</w>
öff net</w>
ö l
zentr um</w>
z wie
w n
vorlie ben</w>
vor bei
u s
t ly</w>
st än
st o
sp ät
sich er
si on</w>
sa gten</w>
r ated</w>
po t</w>
plac ed</w>
p m.
n .
lo s</w>
k lich</w>
k et
ic al</w>
hi er</w>
fi ve</w>
f lu
der n</w>
dan k
bau jahr</w>
arri ve</w>
ag ain</w>
2 4</w>
wir klich</w>
wh o</w>
vil le</w>
ver age</w>
ve get
urch as
ti g
th ese</w>
t lich</w>
stall ing</w>
so wie</w>
ser i
sau ce</w>
sand w
s end</w>
p urchas
n t</w>
me l</w>
ma de</w>
m is
je doch</w>
g i</w>
fan ta
f ast</w>
din ner</w>
chan ge</w>
c ap
c anc
c -
b ou
a ch</w>
9 1
21 5-
123 -456
äu ft</w>
wünsch en</w>
wor ks</w>
w a</w>
th in
teil en</w>
spe zi
s ch</w>
re st</w>
pl us</w>
pas sen</w>
need ed</w>
me .</w>
m at
lat er</w>
k auf
ic es</w>
hat te</w>
ger äu
fleischliebhab er</w>
fall s</w>
es s</w>
er en</w>
e y</w>
durch schn
dr in
d ur
d abe
dabe i</w>
canc el</w>
aus gebucht</w>
app uccino</w>
ander es</w>
an a</w>
afterno on</w>
abend essen</w>
a venue</w>
30 pm</w>
3 3</w>
201 4</w>
. ..</w>
th a
t on
sure .</w>
serv ing</w>
se ch
schein t</w>
sandw iches</w>
s ein.
re i
pr ä
pr o</w>
pr ima</w>
of fer
me .
m einen</w>
li ve</w>
l s</w>
ke it</w>
ke e
japan ese</w>
jam es</w>
issu e</w>
ing ton</w>
ic s</w>
he ad
hand y</w>
g ol
fri end
einfa ch</w>
ei gen
ea ch</w>
durchschn itt
dri ve</w>
d -
char ac
ch ain</w>
buff et</w>
bo ston</w>
bevorzu gen</w>
bestäti gung</w>
be d</w>
au ß
at .
a verage</w>
8 6
7 .
voll milch</w>
ur a</w>
und e</w>
tr y</w>
st er</w>
si x</w>
sh or
rec i
re ichen</w>
po l
o ff
no ti
lie fer
j al
in s</w>
h au
fu ll</w>
et wa</w>
ein kauf
do wn
do e</w>
dish es</w>
descri bed</w>
del iver
charac teri
car a
cara mel</w>
c are</w>
boo th</w>
be t
b ay</w>
are a</w>
ar be
app reci
a u</w>
9 9</w>
zwie bel
ze it
w in
vor nehmen</w>
veget ar
te l</w>
t al
st .
seri es</w>
ri e
r au
pro vi
pl an
pep per
ordn ung
mi ke</w>
me er
meer es
meeres frü
m ac
k it
internation al</w>
gesen det</w>
gen i
geho f
gehof ft</w>
ge öffnet</w>
g on</w>
g es</w>
einkauf s
dur ation</w>
do g</w>
deliver ed</w>
de st
chin a</w>
buc k
bestell t</w>
b it</w>
b att
availab le
at es</w>
as si
ange l</w>
amer ikan
amer ic
alit a</w>
ab ly</w>
zwiebel n</w>
zei gt</w>
z o
w ine</w>
un for
unfor tun
unfortun ately</w>
ter mins</w>
ster nen</w>
speis e
speci al</w>
sh ro
prä feren
pp ing</w>
pleas e.
pi c</w>
p le</w>
order .</w>
ok .
no w
mu shro
me d</w>
ma y
m ich
jef f</w>
ing .
hi gh
h m</w>
gol den</w>
g ha
for t
ex c
espres so</w>
einkaufs zentrum</w>
e .</w>
dün ner</w>
da für</w>
bit te.
bel äge</w>
be vor</w>
be er</w>
appreci ate</w>
3 er</w>
ät zen</w>
y le</w>
u se</w>
tur n
su b
stell en</w>
st yle</w>
spät er</w>
speise karte</w>
spa ß</w>
sp ac
re qu
mö gen</w>
le go</w>
kau fen</w>
hor n</w>
hawai ian</w>
h ü
h m
gr ill
gh t.
gesch ä
gen .
estim ate</w>
en .</w>
em s</w>
e st
e at
din ing</w>
dest in
c as
ac ura</w>
5 2</w>
. 00</w>
wes t</w>
verfügbar keit</w>
ur y</w>
tr ad
t in
sp an
sch af
sa m
restauran t
r d
pen sive</w>
par k
ni ght</w>
me s
may be</w>
li ed</w>
le icht</w>
le ft</w>
l as</w>
it s</w>
in side</w>
ill a</w>
hö ren</w>
ho tel</w>
geschick t</w>
gere chnet</w>
g an</w>
fün f</w>
f ul
ex pensive</w>
dün ne</w>
da von</w>
com es</w>
characteri st
cas u
buch ung</w>
bewer tet</w>
availabil ity</w>
auto s</w>
ar ten</w>
app lied</w>
am bi
7 pm</w>
4 2</w>
3 5
1 21
- down</w>
ö l</w>
z wis
zwis chen</w>
you. can</w>
vorbei bringen</w>
veg as</w>
tr ying</w>
ti c</w>
thin king</w>
t all</w>
st ation</w>
squ are</w>
so y</w>
sit -down</w>
sech s</w>
se he</w>
se ems</w>
s ar
s an
rei b
rd x</w>
purchas e</w>
provi de</w>
proble ms</w>
pre ss</w>
per bac
ori ze</w>
op en
nen nen</w>
mac chi
lin col
kin der
in nen
hou ston</w>
famil i
ex press</w>
do es
dies es</w>
cinem ar
cinemar k</w>
characterist ics</w>
casu al</w>
c appuccino</w>
bl ick</w>
bi er</w>
betr ag</w>
bestäti gt</w>
an gerechnet</w>
12 3</w>
00 pm</w>
. ist</w>
zu ge
wo che</w>
un der</w>
tur n</w>
tun e</w>
te u
t ro
t -
sure .
soll en</w>
show times</w>
sch ön
s pre
rie ben</w>
reib ung</w>
pre ise</w>
oni ons</w>
n s
mög lich
mo n</w>
merced es
mercedes -
mechani c</w>
mechan ical</w>
ma in</w>
lo t</w>
lin ks</w>
le v
kin os</w>
kin ok
k re
isch er</w>
ic ke</w>
hat ten</w>
ha pp
groß en</w>
gro ß</w>
good bye</w>
flu gha
er st
does n</w>
direc ted</w>
col or
cinem a</w>
che ck
cent ury</w>
c lass</w>
c ateg
categ orize</w>
bur gers</w>
bou lev
betr agen</w>
americ ano</w>
add itional</w>
8 th</w>
4 2
. und</w>
. möchten</w>
öl le
zwe iten</w>
z a
you. i</w>
wonder ful</w>
wo od</w>
wat er
vorstell ungen</w>
un iver
th er
t ty</w>
stor n
ster ne
st a</w>
sho pping</w>
sel b
sch lie
s y</w>
s er</w>
rau m</w>
ran ge</w>
ok ka</w>
mit teilen</w>
mins. did</w>
mercedes- benz</w>
mechan ische</w>
m okka</w>
m einer</w>
lincol n</w>
kit chen</w>
k r
italien isches</w>
in door</w>
in d
im mer</w>
ho ff
har b
hallo .
gluten freie</w>
funktion iert</w>
frü h</w>
fre i
fort fahren</w>
flugha fen</w>
el d</w>
eat er
e ar
cou r
co mp
co ck
cock ta
clo se</w>
c- klasse</w>
buck horn</w>
brau cht</w>
bie ten</w>
besch reibung</w>
batt le</w>
b lei
an os</w>
555- 555-
555- 21
5 0
. do</w>
ze ich
z er
ye ar</w>
wä ren</w>
we en</w>
w ere</w>
w al
ver ste
ver ke
t s
su chen.
storn ieren</w>
sti c</w>
spac e</w>
sit zen</w>
servier en</w>
sch on</w>
sch en</w>
re ach</w>
prob ably</w>
perbac co</w>
p un
p ap
pap ri
ou gh</w>
offer ing</w>
norm ale</w>
norm al
mo st</w>
lok al</w>
loc al</w>
lin e</w>
lea king</w>
kinok arten</w>
ket te</w>
k es</w>
hei ß</w>
geho ben
gan z</w>
fre und
febru ary</w>
febru ar</w>
famil y</w>
f l
er reichen</w>
en c
eater y</w>
di an</w>
der zeit</w>
de fin
buch en.
boulev ard</w>
bet ween</w>
a -
4 6
- pizzen</w>
zie l</w>
yl van
y s</w>
wh y</w>
we g
wat erbar</w>
wa hr
w as
viel leicht</w>
ur b
unter -
tha i</w>
tac os</w>
t or</w>
t a</w>
ster n</w>
st s</w>
spiel t</w>
sa me</w>
reparatur kosten</w>
pu t</w>
pre tty</w>
pepper s</w>
pen ns
penns ylvan
out .</w>
order ing</w>
order ed</w>
no ise</w>
nach namen</w>
m a</w>
liefer n</w>
le y</w>
l ist</w>
k no
it ed</w>
ir d</w>
in s
i st.
hm m</w>
happ y</w>
gle ich
gesamt betrag</w>
g lau
ful ly</w>
friend ly</w>
fin den.
fi eld</w>
f ish</w>
f and</w>
er sten</w>
ell e</w>
eigen tlich</w>
direc tions</w>
confir med</w>
co unter-
ch il
bu sy</w>
be st</w>
be finden</w>
b ele
aus sich
all en</w>
ab zu
a to</w>
7 3
6 9
2 6</w>
2 4
121 2</w>
1 8
- free</w>
- 8
ölle ck</w>
ö r
zie ht</w>
y .</w>
wahr schein
wahrschein lich</w>
vie w</w>
uhr zeit</w>
to m</w>
th at.</w>
th at.
ter min
t. kann</w>
spider- man</w>
spec k</w>
sho ps</w>
sele ct</w>
re s</w>
pro c
pennsylvan ia</w>
nach sehen</w>
na men
mit tl
mer k
men ü</w>
meeresfrü chte</w>
m ä
m ein
kee ps</w>
in clu
ho me</w>
hn chen
hel lo
hawai i</w>
gu t.
glau be</w>
funktion ieren</w>
for t</w>
fe at
exc ell
er st</w>
en g
drin nen</w>
down town</w>
di en
d ra
d one</w>
con tin
color a
colora do</w>
c las
c l
besch rieben</w>
be sten</w>
appoint ment.
89 0</w>
8 pm</w>
4 8</w>
1 4
. 7
än dern</w>
ä ch
zie m
ziem lich</w>
x i</w>
wh ite</w>
weg beschreibung</w>
wee k</w>
we ise</w>
war tung</w>
verste he</w>
ver suche</w>
v oll</w>
urb an</w>
u t</w>
telef on</w>
ta g
stea k</w>
so on
so jam
sojam il
set zt</w>
seas ons</w>
se k
se ats</w>
sch war
sch au
ro ad
präferen z</w>
pla ying</w>
off er</w>
o a
namen s</w>
mushro o
mi kun
mikun i</w>
merk m
mechani ker</w>
macchi ato</w>
m einem</w>
m c
m ary</w>
m and
lie gt</w>
lich es</w>
l ing</w>
kru st
k ur
k i
j an
jan u
ing .</w>
hei ße</w>
har r
hal b</w>
gr und</w>
geni al</w>
excell ent</w>
eng ine</w>
e is
e ats</w>
den ver</w>
d icke</w>
d ale</w>
cool .
cockta ils</w>
co me</w>
can .</w>
c ur
bo y</w>
bo b</w>
blei bt</w>
best im
b as
aus wahl</w>
as se</w>
abhol ort</w>
a ti
8. 30</w>
6 6
5 4</w>
3 9</w>
2 4.
2 3
ü ck
x l
war um</w>
ver stän
verstän d
verständ lich</w>
ve l</w>
van illa</w>
ter r
te m
ta in</w>
t to</w>
ster ne</w>
st verständlich</w>
st eht</w>
sojamil ch</w>
sin n</w>
serv es</w>
selb stverständlich</w>
se hen.
sa fe</w>
s si
s pr
s it</w>
s im
s cal
scal e</w>
r at
plan en</w>
peop le
pa ti
ne u
mushroo ms</w>
mo date</w>
me at
mar ke</w>
ll t</w>
lich ter</w>
la den</w>
kore an</w>
kore an
k al
ja .
is schen</w>
ins gesam
insgesam t</w>
ic o</w>
hä l
hä hnchen</w>
hei ßen</w>
geräu sch</w>
gerich ten</w>
g n
g in
fanta st
fahr ers</w>
estim ated</w>
entsch ei
e ver</w>
den n</w>
den en</w>
cu is
cou ple</w>
che ese
c a</w>
bel ie
b isschen</w>
ausge zeich
aus wählen</w>
an kommen</w>
an bietet</w>
abhol t</w>
8 0
6 .
45 pm</w>
4 6</w>
. ok</w>
zer o</w>
z on
zon a</w>
y -
we ch
vor aussich
verke hr</w>
ver wen
up d
un ited</w>
to g
tog na</w>
ti ge</w>
th ird</w>
te il</w>
t at
su pre
stea d</w>
some where</w>
show ings</w>
sh all</w>
sch ätzen</w>
sa is
s k
ro om</w>
ro ll
repar ieren</w>
re ason</w>
r p
pun kt</w>
plac es</w>
pe et</w>
pa sta</w>
pa es
paes anos</w>
oliv es</w>
oliv en</w>
moment. i</w>
mis sion</w>
minut es.
merkm ale</w>
me hr
mar k
look ed</w>
lea k</w>
lan e</w>
kom mt</w>
kar am
j ason</w>
in stead</w>
hü hnchen</w>
hö he</w>
hoff e</w>
ho ur</w>
ho me
head ing</w>
harb or</w>
hal f</w>
go gi</w>
gluten -free</w>
ger ade</w>
gebu ch
ge gen</w>
frei er</w>
fl ori
feren t</w>
f ferent</w>
et t
er ien</w>
ent spre
dr it
di fferent</w>
des ser
defin it
cuis ine</w>
cour se</w>
co togna</w>
ch u
benöti gten</w>
b are</w>
at mo
ari zona</w>
an kun
add ed</w>
ac com
a tion
a ir</w>
9 0
55 5</w>
55 55</w>
5 .
4 8
4 4</w>
3 1
13 -
. would</w>
. should</w>
. how</w>
. brauchen</w>
zu sam
z ä
wonder ing</w>
wh e
wee k
we il</w>
w r
w ein
ver al</w>
univer s
univers ity</w>
um fan
umfan gre
ty p
turn s</w>
ton y</w>
to tal
to mat
to ma
than k
tem por
tempor ary</w>
supre me</w>
stor e</w>
sti ons</w>
stat t
st ill</w>
sele c
se veral</w>
schö n</w>
schaf ten</w>
sa che</w>
s un
s pot</w>
s ph
s h</w>
ro man
reserva tions</w>
pr iced</w>
par king</w>
p in
p et
ou r
open ing</w>
o s
no ch
ne e</w>
n ic
moder n</w>
me al</w>
lo w
lan gen</w>
l äuft</w>
l es</w>
ke iten</w>
k as
jal ap
jalap en
is .</w>
inter es
il lin
ho ur
h u
h re</w>
gleich falls</w>
geschä ft</w>
g t.
fr ank</w>
fr a
fahr t
f ar
er le
ell er</w>
e ver
dro pped</w>
dri vers</w>
do s</w>
d or
d on
d ish</w>
d .</w>
con temporary</w>
comp any</w>
com ple
col d</w>
cho col
cap tain</w>
buchstab iert</w>
bestim m
bec au
becau se</w>
atmo sph
anc e</w>
accom modate</w>
9 .
8 8</w>
4. 4</w>
21 -
2 3</w>
0 5</w>
y es.
y ak
wur den</w>
vi r
verfüg bare</w>
ver se</w>
v en</w>
up scale</w>
um geb
u p.
tre n
tomat o
teu er</w>
sub mit
stän di
sterne -
starbuc k
st ate</w>
speci al
so tto</w>
si c</w>
sa i
s a</w>
rit erien</w>
requ est</w>
re ch
qu ick</w>
pu b
pp ins</w>
po ppins</w>
pick ing</w>
par t</w>
papri ka</w>
p m.</w>
p a</w>
ou s</w>
on t</w>
o y
nu t</w>
ne s
n ich
nich ts</w>
mit tag</w>
mil ch
mich a
micha el</w>
mar vel</w>
m are</w>
lo ver
li c</w>
let z
l ä
kom men
ko gi</w>
k riterien</w>
k on
iti on
is n</w>
in ken</w>
in f
inf o</w>
illin o
ho pe</w>
hl ung</w>
hi gh</w>
gu ess</w>
gluten freier</w>
g s
fu n</w>
fre sh</w>
fr ont</w>
fr age</w>
flori da</w>
fe st
fantast isch</w>
fahr preis</w>
f ä
f ts
f it</w>
f at</w>
en te</w>
en s</w>
ell en</w>
ein g</w>
ed .</w>
ear li
do ing</w>
definit ely</w>
de p
da chte</w>
d y</w>
d essen</w>
contin ue</w>
co yo
chines isches</w>
ca .</w>
bri d
bre w
br un
bil ly</w>
bel äuft</w>
available .</w>
ausgezeich net</w>
assi stan
as a
asa p</w>
am i</w>
a cht</w>
9 7
7 7
6 pm</w>
6 -4
555-555- 5555</w>
5 3
40 pm</w>
33 3</w>
3 8</w>
3 6</w>
20 2
202 -456
202-456 -
123-456 -7
. the</w>
- pizza</w>
ün sti
zusätz lichen</w>
zuge sand
x im
wr ong</w>
we stern</w>
wa it</w>
verfüg ung</w>
ver re
verre chnet</w>
v ely</w>
ungs zeit</w>
ung .
total .</w>
tomato es</w>
toma ten</w>
ter ms</w>
t ab
stell t</w>
st yl
st il
spider- verse</w>
spezi alit
soll ten</w>
serv ic
seas onal</w>
sch e</w>
s es</w>
revie w</w>
proble m.
pla z
pin e
ou ble</w>
ordnung .</w>
ord ung</w>
option s.</w>
noch mal</w>
na mon</w>
n y</w>
mü s
mit nehmen</w>
min ute</w>
mexikan isches</w>
mes sage</w>
ma king</w>
ma kes</w>
m as
lan g</w>
la x</w>
la ge</w>
kur z</w>
jo hn
it y.
isch em</w>
inter est
illino is</w>
home made</w>
her aus
großar tig
gesen det
gen au</w>
ge teil
ge gen
ge dre
gedre ht</w>
g lich</w>
fra gt</w>
fest gele
fanta stic</w>
famili en
ever ything</w>
erle di
er weise</w>
entschei den</w>
el n</w>
ea p</w>
destin ation
de e
dau er</w>
dar über</w>
d it
cin namon</w>
che .
ch eap</w>
buff al
bestell en.
benöti gt</w>
be kan
an y
an an
ambi ente</w>
al mon
ab bie
a ve</w>
9 2
8 .</w>
4 th</w>
30 am
21 .
15 pm</w>
1 8.
zu l</w>
z im
y o</w>
x ville</w>
water front</w>
w ein</w>
ver suchen</w>
ven ti
upd ates</w>
ty p</w>
trad ition
to da
terr asse</w>
teri yak
tat s
tats äch
t t</w>
t is
submit ted</w>
styl ish</w>
sto p</w>
sterne- bewertung</w>
stea ks</w>
statt dessen</w>
stall s</w>
sta dium</w>
set zen</w>
sen den</w>
sal ad
salad s</w>
sais on
sa m</w>
rp x</w>
ro ck
ri ght.
ri des</w>
ri de
re turns</w>
re n
re ise</w>
ran ch</w>
r am
pul ar</w>
pre fer
po pular</w>
po let
polet ana</w>
plaz a</w>
pizz as
pi att
piatt i</w>
per oni
pen n</w>
pe peroni
p at
pat xi</w>
or lan
orlan do</w>
nu t
na than</w>
na poletana</w>
n te</w>
mu l
mo a</w>
minut en.
mar k</w>
mar gar
margar it
mand el
kno xville</w>
kl and</w>
ki ds</w>
k ong</w>
k ok
k le
k en
k auf</w>
j er
ic y</w>
i g</w>
i d
hol ly
hil ls</w>
hau p
ha m
h ong</w>
h ill</w>
go es</w>
geräu sche</w>
gel es</w>
gel an
ge macht</w>
ge fragt</w>
ge br
g ünsti
g ä
g te</w>
frü he
fol gen
fer nt</w>
f ac
ett i</w>
es .</w>
er lau
ent fernt</w>
el t</w>
ein tr
ei d</w>
e ast</w>
durchschnitt s
dar auf</w>
d n</w>
counter- serve</w>
con ut</w>
co de</w>
co conut</w>
clu b</w>
cho ice</w>
char ge</w>
ch am
c ul
c rit
bur rit
buffal o</w>
brew house</w>
bo den</w>
bl on
bestell e</w>
besch eid</w>
bere it
bere ich</w>
be son
assistan ce</w>
app le</w>
ange bo
anan as</w>
an geles</w>
amp eln</w>
ab geben</w>
a zul</w>
a pol
91 6-4
91 6-
9 0</w>
6 21
5- 4
5 pm</w>
4, 4</w>
4 pm</w>
4 1</w>
30 -8
3 -
. soll</w>
. kann</w>
. in</w>
än gi
ä ten</w>
ä re</w>
zusätz liche</w>
zusätz lich
zusam men</w>
wä hl
welco me.
ven ing</w>
ve -
val u
valu ation</w>
us ing</w>
up side</w>
tun e-
tune- up</w>
trad itional</w>
tor i</w>
tion .</w>
ti gt</w>
ten sive</w>
ta qu
su g
su cht</w>
st unden</w>
spiel zeiten</w>
soon est</w>
set .</w>
se um</w>
schön es</w>
schau en</w>
sai gon</w>
s karten</w>
s ing</w>
s -
roman tic</w>
roll stu
road house</w>
reservier ungen</w>
qu i
qu e</w>
qu e
pi er</w>
pe ñ
pe l</w>
par ker</w>
p .</w>
on g
on e.
oli ve</w>
ol d</w>
o m
o hne</w>
now .
norm alen</w>
nach mittag</w>
n ung</w>
möglich keiten</w>
mu seum</w>
mit fahr
mehr ere</w>
le ge</w>
la te</w>
l le</w>
kü hl
krust e.
karam ell
kal t</w>
k ateg
kateg or
k a
japan ische</w>
jal a
jala peñ
j im</w>
itt skarten</w>
irgend wo</w>
interes si
in n
hä hnchen
hour s</w>
holly wood</w>
he ar
groß er</w>
geträn ke</w>
ge zeigt</w>
ge mein
ge kühl
fts zeit</w>
fi x
fahr ten</w>
ex tensive</w>
es sen
en e</w>
en de</w>
eis gekühl
eintr ittskarten</w>
ein ge
e vening</w>
e valuation</w>
durchschnitts preis</w>
drit te</w>
dra gon</w>
dr auf</w>
der s</w>
der en</w>
dep end
dar an</w>
cu z</w>
crit eria</w>
clo ser</w>
clas sic</w>
cin e
c r
c all</w>
b or
aweso me.</w>
assi st
as i
arbe iten</w>
ar ti
ankun ftszeit</w>
am pel</w>
almon d</w>
all o
ac le</w>
abge setzt</w>
a ch
6 0
5 6</w>
22 .
123-456-7 890</w>
12 .
zusätzlich em</w>
z um
wi thin</w>
wh en
when ever</w>
wein karte</w>
was h
wash ington</w>
war en</w>
voll ständi
vi es</w>
verstan den
van il
val enc
valenc ia</w>
v in
ur ing</w>
un ge</w>
um s</w>
tre on</w>
tl and</w>
ti l</w>
ther e.
teriyak i</w>
te a</w>
tag morgen</w>
t lichen</w>
t liche</w>
stu di
st ü
st op
st ag</w>
so bald</w>
shor tly</w>
shor t
set ting</w>
serv ed</w>
ser en
seren ity</w>
sek unde</w>
se y</w>
san ta</w>
sal ate</w>
sa chu
sachu set
s ir
ro ber
rest one</w>
reparatur en</w>
r z</w>
r o</w>
prü fen</w>
pr ices</w>
por tland</w>
por t
po ol
pine apple</w>
pati o</w>
p al
oy ster</w>
oa kland</w>
nor mal</w>
ne m</w>
mä rz</w>
mon tagmorgen</w>
mo moa</w>
mis s</w>
mich i
me treon</w>
me an</w>
mas sachuset
mark et</w>
margarit as</w>
ma dis
madis on</w>
lä ssi
lo ve</w>
lo unge</w>
lo gan</w>
lin t</w>
kost en
kok os
kategor is
k id</w>
jo ey</w>
interest ed</w>
ic i
hor sha
high way</w>
he ard</w>
ha d</w>
h un
h men</w>
gluten frei</w>
gh ting</w>
gesch e
gesche hen.
gegen d</w>
gef allen</w>
gebuch t.
ge mü
g l
g all
frü h
fo o
fi restone</w>
fi ghting</w>
familien freund
famil y-
fahr er
f è</w>
f te</w>
f lint</w>
f all</w>
ex ac
es ch
es cap
escap e</w>
erhal b</w>
er dem</w>
ein stu
ein s</w>
ein rich
eg ri
e pic</w>
e mp
e f</w>
dor thin</w>
di g
destin ation</w>
depend ing</w>
dee p</w>
da cht</w>
d all
dall as</w>
cru st
col lege</w>
cl ay</w>
chocol ate</w>
caf fè</w>
c kt</w>
c ke</w>
c i
burrit os</w>
bur ma</w>
blon de</w>
bil li
bere it.
be sor
be s
be ef</w>
b order</w>
b are
auß erdem</w>
auß en
arti sts</w>
an der</w>
allo w</w>
al ex
al egri
ad a</w>
acc es
ab geschickt</w>
9 21-
9 1</w>
7-4 7
7 7</w>
7 4
7 3</w>
57 0-
570- 19
56 8
56 4-
5 7</w>
4 3</w>
33 33</w>
3 .
22 2-
222- 3333</w>
21 2-
2 8</w>
123 4</w>
11 1-
111- 222-3333</w>
1 7.
1 4.
0 40</w>
überprüfen. es</w>
ö n</w>
ä hn
zu geschickt</w>
zu geschick
zu ck
z w
xl -
welco me.</w>
w einen</w>
vor bei</w>
veg an</w>
v ol
un til</w>
umgeb ung</w>
u re</w>
theat re</w>
thank s.</w>
th ing.
tatsäch lich</w>
t en.
st unde</w>
spezialit äten</w>
speis en</w>
speci fic</w>
sitz plätze</w>
serv ices</w>
se l</w>
se en</w>
sch inken</w>
sa ke</w>
s y
s ports</w>
s c
rech nung</w>
re r</w>
pul ling</w>
pu b</w>
prob ieren</w>
plat es</w>
pl ant</w>
perfe c
per i
or te</w>
or acle</w>
o ak
no thing</w>
na cht</w>
n ten</w>
n ch</w>
mo tor</w>
mo od</w>
mo line</w>
mins. do</w>
michi gan</w>
mi ght</w>
meat lovers</w>
me di
mar ch</w>
mandel milch</w>
m eines</w>
ly f
lie gen</w>
kru sten</w>
kre dit
kom ple
kl ar
kee p</w>
k ico</w>
k -
jalapeñ os</w>
jalapen os</w>
j e</w>
it al</w>
internation alen</w>
in t</w>
ic e.
häl fte</w>
horsha m</w>
ho l</w>
harr is</w>
hab en.
ha m</w>
gu tes</w>
grö ß
gre e
get ting</w>
gesch ätz
gef und
gebr acht</w>
ge sucht</w>
ge dacht</w>
fre nch</w>
fr agen</w>
fol low
fle isch</w>
fac tor
fa hre</w>
f isch</w>
f f</w>
f as
et it</w>
espres so
esch ön</w>
er zä
er al</w>
entspre chen</w>
en i
einstu fen</w>
ein zi
drin ks</w>
di dn</w>
den ken</w>
da zu</w>
d it</w>
cre dit</w>
cou rt</w>
clo se
chines ische</w>
ch air</w>
caf fe</w>
c up</w>
c le
bi g</w>
ben ach
benach rich
belie b
au ßen</w>
au gen
atmosph äre</w>
appoint men
app etit</w>
amerikan isches</w>
al ko
acces sible</w>
a w
a v
a h</w>
6 0</w>
4 8.
36 .
3 4</w>
21 .00</w>
. okay</w>
. it</w>
. die</w>
öl wech
ölwech sel</w>
ö s
än der
zu g</w>
zu erst</w>
zo o</w>
zo cal
zocal o</w>
zeit punkt</w>
z er</w>
yo n</w>
y up</w>
x -
wo hl</w>
wo chen
win es</w>
whe el
wer den.
weit er</w>
we it</w>
we gs</w>
we der</w>
water boy</w>
voraussich tliche</w>
vollständi gen</w>
vir gin
virgin ia</w>
vin o
vino te
vinote ca</w>
vil lage</w>
vi d</w>
verwen den</w>
verein bare
ver ag
verag es</w>
vegetar ische</w>
v ed</w>
ur ate</w>
unter wegs</w>
ungs zeiten</w>
und er
ul ing</w>
tro lle</w>
toni ght.
to p</w>
ti gen</w>
th ats</w>
teri or</w>
tel y</w>
te qu
tequ il
taqu eria</w>
t wo
t isch
t ar
su n</w>
su gar
studi o</w>
stil voll
stad t
sta di
st ri
span ne</w>
spa gh
spagh etti</w>
sou th
sin d.
sicher stellen</w>
sicher .
se s
ses sion</w>
se .
sched uling</w>
sch ätz
s w
s lan
slan ted</w>
s ko
sko ol</w>
s il
s f</w>
s co
ru e</w>
rollstu hl
rich t</w>
ri ver
ri ders</w>
repair .</w>
re la
re com
recom men
pul ls</w>
pub lic</w>
preis spanne</w>
pol icy</w>
pla y
pl ätzen</w>
pizzas .</w>
pil zen</w>
pi gn
pign ons</w>
p ho
pho eni
oni g</w>
on line</w>
nä her</w>
neu en</w>
ne v
natür lich
nach sehen.
nach schla
n ar
mo vies</w>
mittl ere</w>
mitfahr gelegenhe
min g
mexikan ische</w>
massachuset ts</w>
ma xim
ma ger
lok ale</w>
loc k
lo wer</w>
lo w</w>
lie ber</w>
le pic</w>
le -
lau f
l and
kr u</w>
kokos milch</w>
kle in</w>
kl are</w>
kinder freund
kan n.
john son</w>
jer sey</w>
je den</w>
janu ary</w>
janu ar</w>
italien ische</w>
issu es</w>
interessi ert</w>
inspec tion.</w>
innen stadt</w>
in dian</w>
in di
id le</w>
i de
hon ey</w>
ho ch</w>
hil ton</w>
hello .
h onig</w>
h ausge
h aus</w>
h an
gä be</w>
großartig .</w>
gro und</w>
gree k</w>
gre at.
goo d.
gle ich</w>
geschätz te</w>
gen om
ge s
ge he</w>
ge braucht</w>
g ab
frühe ste</w>
follow ing</w>
folgen den</w>
fin ding</w>
fi x</w>
festgele gt</w>
fer tig
feat uring</w>
feat u
family- friendly</w>
famili ar</w>
fahrzeu gs</w>
factor y</w>
f la
ex terior</w>
erzä hlen</w>
er ho
ent weder</w>
earli est</w>
e- in</w>
e ben
din e-in</w>
der ick</w>
del i
dank eschön</w>
da vid</w>
d i</w>
cur ry</w>
cu sto
coyo tes</w>
cool .</w>
confir ming
close st</w>
ck en</w>
cham pignons</w>
ch ri
car d</w>
can yon</w>
c en
bro derick</w>
bro ad
bre ad</w>
bit te
bere its</w>
bea ch</w>
be zug</w>
be suchen</w>
be l</w>
bb q
b un
availabil ity.
auf nehmen</w>
auf führ
at lan
asi at
arbe it
an for
amerikan ische</w>
alegri as</w>
al co
al -
acc urate</w>
abzu holen</w>
916-4 4
9 th</w>
9 8</w>
8 6</w>
7- 86
7 2</w>
7 0
7 ,
6- 3
6 5.
555-21 7-
555- 66
5 30
5 0-
45 6</w>
45 .
44 7-4
4 9</w>
4 7
4 1
30-8 00
3 pm</w>
3 30-800
3 2</w>
28 1-
281- 330-800
215- 88
201 9</w>
2 9
1- 21
1 4-
1 .</w>
ör tlichen</w>
zugeschick t.kann</w>
zuge stellt</w>
zim t</w>
z ung</w>
yea h
wo für</w>
wei ß
we ver</w>
we is
wa ch
w il
vorstell ungszeit</w>
vor sch
vi c</w>
vereinbare n.
vegetar ian</w>
veg an
umfangre ichen</w>
ul a</w>
uber -
tre f
tref fen</w>
tradition elle</w>
th ough</w>
termin e</w>
te te</w>
tab le
ta ke
ta ges</w>
t ische</w>
t ic
sug ge
sugge stions</w>
su per
stell ung</w>
ste er
st ra
so fort</w>
sit ting</w>
sir up</w>
set t
schein end</w>
sch ätze</w>
sch ok
schok ol
saison alen</w>
s ü
ro ck</w>
rec ie
re is
rat ings</w>
r ück
prefer red</w>
ple x</w>
pizz a.
phoeni x</w>
person en.
p um
p ri
p -
ou d</w>
or s</w>
nut zen</w>
ne .
nach name</w>
n ische</w>
müs ste</w>
mushro om</w>
moment. ok</w>
mo men
mitfahrgelegenhe it</w>
me i
ma de
le er
leer l
leerl auf</w>
l er</w>
l en
l der</w>
kr iti
kom me</w>
ko ja</w>
klas s
klar .
kl app
kinder menü</w>
karamell -
j ed
intelligen ce</w>
in st
ie fer
iefer t</w>
i gen
i c</w>
i -
ho wever</w>
hi .</w>
haup trolle</w>
hand elt</w>
hal ten</w>
ha f
gro ve</w>
grill hähnchen</w>
gre en
gelan gen.
gel iefert</w>
gel d</w>
gefä llt</w>
ge ts</w>
gan ze</w>
fä llt</w>
friend s</w>
for d
ford able</w>
fin e.
fil ms</w>
fil e</w>
featu res</w>
fe hlen</w>
fahrer status</w>
f lower</w>
essen s
erledi gt</w>
erho ben</w>
er sch
eisgekühl t</w>
ein treffen</w>
e pt</w>
e bye</w>
dün nem</w>
durchschnitt liche</w>
dev ice.
des halb</w>
deli very</w>
dank .
da y
d ol
d ed</w>
d d
d at
comple tely</w>
cine plex</w>
ci vic</w>
chines ischen</w>
chines isch</w>
check ed</w>
by ebye</w>
bu cht</w>
brau chte</w>
bou lder</w>
bo t
bitte .ich</w>
biet et
bestimm te</w>
bere ch
be verages</w>
b lu
b in
b ad</w>
ausge stat
ati ve</w>
at ur
assist ant</w>
as ian</w>
arri ving</w>
an zu
an scheinend</w>
an geben</w>
an .
am a</w>
all -
af fordable</w>
abhol bereit.
9 2</w>
8 0</w>
7 6
4, 50</w>
35 pm</w>
3 4.
281-330-800 4</w>
2 pm</w>
2 6
15 th</w>
15 .</w>
123-456 7</w>
12 -
10 pm</w>
än d
zz le</w>
zum o</w>
zu bringen</w>
zi el
za hlung</w>
za hl</w>
z ü
z one</w>
you. are</w>
you -
you- can
you-can -
yl and</w>
y am
yam al
yamal an</w>
x d</w>
wä hn
wund er
wo o
wie viele</w>
we g</w>
wan ting</w>
wal nut</w>
wa gen</w>
w ings</w>
vorbei zubringen</w>
vie ws</w>
verein bar
ver n</w>
veg gi
v in</w>
v illa</w>
v ice</w>
v ari
ur s
up .</w>
uhr -
u stri
tr ain</w>
toni o</w>
toda y.
tl y.
ti more</w>
th urs
te igen
teigen schaften</w>
tar if</w>
ta vern</w>
sus hi
sun set</w>
sun flower</w>
su san</w>
steer ing</w>
starbuck s-
star ted</w>
standar d
stan dort</w>
stadi on</w>
st ro</w>
st il</w>
st ed</w>
st .</w>
squ e
sque e
squee ze</w>
spr it
sp ell
spell ing</w>
sol di
sm i
smi th
sin ce</w>
short bread</w>
sh yamalan</w>
servier t.
sen e</w>
selec ted</w>
sel f</w>
se e.
se d</w>
se at
sco t
schätz ung</w>
schlie ßen</w>
schlie ß
sch o
sch le
sal sa</w>
sal ami</w>
sa ge
s we
s port
ru hi
ro w
ro dri
river view</w>
ri gh
ri ding</w>
restauran teigenschaften</w>
reservier t</w>
requ est
regul ä
reg is
regis se
ran gi
r ates</w>
que stions</w>
präferen zen</w>
proc ess</w>
proc es
pos t</w>
pm. which</w>
play ground</w>
pl u
pil ze</w>
pi re</w>
pi el</w>
pe ets</w>
par ts</w>
pa y
pa is
pais ano</w>
pa d</w>
p ur
p ti
out side</w>
oni on</w>
o zumo</w>
o wn</w>
o ver
o .
o -
näch st
now .</w>
normal erweise</w>
no t
nic ho
nicho las
nicholas ville</w>
nev ada</w>
nar row</w>
nach richt</w>
n ick</w>
n erst
mä ß
mul van
moment. okay</w>
moder nen</w>
mo un
mo tor
mitta gs</w>
min t</w>
mil ls</w>
mid -
mi ami</w>
mc don
mcdon al
mat ad
mar yland</w>
mager milch</w>
ma chi
ma c</w>
m ums</w>
m al
lu x</w>
liefer ung</w>
lich er</w>
li am</w>
letz te</w>
le field</w>
lau ten</w>
lau t</w>
la ke</w>
kriti ken</w>
kosten lo
komple tt</w>
kl einen</w>
kin der</w>
ken ne</w>
kas an</w>
k kasan</w>
k er
k ele
ju n</w>
jo se
je derzeit</w>
japan isch</w>
ja ke</w>
it. and</w>
is piel</w>
irgend wie</w>
inn erhalb</w>
indi an
indian apol
indianapol is</w>
ind ustri
inclu de</w>
in ner</w>
im medi
ich e</w>
i red</w>
i el
i an
hü hnchen
hou se
ho t
high er</w>
hi .how</w>
harr is
hallo. womit</w>
ha kkasan</w>
h le</w>
h a</w>
groß es</w>
gre n
gr ü
gr ade</w>
good .</w>
gle ichen</w>
geschä f
genom men</w>
geni al
gen s</w>
gen dre
ge plant</w>
ge l</w>
ge führ
gall eria</w>
fr au</w>
fr an
fla vor
fix ed</w>
finden. ich</w>
fi ed</w>
fahrzeu g
fa vor
f ör
f isch
f ic
f ar</w>
ex amp
examp le</w>
er wähn
er wach
er er</w>
em pire</w>
e z</w>
e u
e her</w>
dri zzle</w>
dr außen</w>
don nerst
do min
dd ar</w>
day ton</w>
dan iel
d ouble</w>
confirming .</w>
com ing</w>
chi p</w>
cheese ca
cheeseca ke</w>
che ddar</w>
ch ill</w>
ch ick
ch .
californ i
cal zone</w>
c us</w>
c amp
camp ana</w>
bur g</w>
bu y</w>
bre ak
break fast</w>
bo w
bi stro</w>
bes ser</w>
ber kele
benöti ge</w>
bel t</w>
bel ag</w>
be ispiel</w>
bb le</w>
bas ed</w>
barbec u
bar bar
barbar a</w>
bal timore</w>
b lock
b ir
b eing</w>
b ab
b -
aw are</w>
auto werkstatt</w>
aus probieren</w>
augen blick</w>
at to</w>
are na</w>
ar t
ar rangi
ar c
any time</w>
anfor dern</w>
and a</w>
an tonio</w>
an bietet
all- you-can-
alex ander</w>
al fre
ab h
90 8
9- 97
88 -4
88-4 11
88-411 7</w>
8 13</w>
77 5-4
7 5</w>
6 7</w>
6 4
6 3
564- 21
564-21 14</w>
555- 1212</w>
50 pm</w>
5- 8</w>
5- 555-
5 9</w>
5 88-4117</w>
5 8
5 13-
47 0-
470- 69
447-4 040</w>
44 1-
4- 0
4 7</w>
3 -4
25 pm</w>
24 20</w>
20 pm</w>
2 nd</w>
2 8.
2 .</w>
2 .
13 .
11 11</w>
10 -
. das</w>
- 3
ängi g</w>
ähn liches</w>
ä f
zü glich</w>
zugesand t.kann</w>
zei gen</w>
ze pti
z ös
z y</w>
z -
you. one</w>
yo ur
wür gt</w>
wheel chair</w>
whe el</w>
wen det</w>
welcome. have</w>
week end</w>
we gen</w>
wat er</w>
wan na</w>
w un
wun sch</w>
w ing
w ass
wass er</w>
voraussich tlich</w>
verstanden .</w>
vereinbar t</w>
veggi e-
v al</w>
us -
us- dollar</w>
unter suchen</w>
ung lau
unglau b
und en
un gen
uhr .</w>
u su
usu ally</w>
u hlung</w>
tr ouble</w>
tr in
trin k
trink geld</w>
to ge
toge ther</w>
tis che
tische cke</w>
ti p</w>
ti me
ti es</w>
ti er
thurs day</w>
tha il
thail änd
th r
th ings</w>
tal ula</w>
tag .
ta p
tap as</w>
ta ges
t. brauchen</w>
t s.
t lin
t eller</w>
sy r
syr up</w>
suchen. ich</w>
stü ck</w>
stim m
sterne bewertung</w>
starbuck s.
stadt teil</w>
sta at</w>
st le
sprit zer</w>
spe a
sp ru
sor te</w>
some time</w>
sk im</w>
sitz plätzen</w>
sich ere</w>
si z
shor tly.
servic e
service gebühr</w>
ser ve-
selec tion</w>
se at</w>
schokol ad
schokolad en
scho ol</w>
schlie ßt</w>
schla g</w>
sch icken</w>
s n
s lot</w>
ru fen</w>
rollstuhl gere
ro y
ro o
ro it</w>
ride .</w>
rich tlin
rich tige</w>
rich tig
regisse ur</w>
recommen d</w>
recie pt</w>
re ih
re al</w>
ra w</w>
ra in
rain bo
rainbo w</w>
r y
r aus
qu ad</w>
pri va
pr ic
pp chen</w>
plac ing</w>
pick -
pick- up</w>
pi es</w>
people .</w>
pay ment</w>
pa sta
p. m.
p k
p ay</w>
out post</w>
open ings</w>
noti eren</w>
normal es</w>
normal er</w>
no is
need ing</w>
ne ue</w>
ne t
ne ar
moment. ich</w>
moder ately</w>
mittl erer</w>
mitta gs
mil k
men tion
matad or</w>
ma hl
m -
lun as</w>
lu st</w>
lover s.
li ste</w>
li k
li ft</w>
le b
lauf zeit</w>
lau fen</w>
l en</w>
krust en
klapp en</w>
kinderfreund lich</w>
kategoris i
kategorisi ere</w>
k unden
je de</w>
it. what</w>
it. let</w>
it a</w>
is h
inter i
interi or</w>
infor m
ie ß</w>
i gen</w>
hel fen.
hausge ma
ham burger</w>
hallo .ich</w>
h inter
h ieß</w>
h en
gre at
gr ün
go -
ger ne.
gend es</w>
gen au
geführ t</w>
geb en.
ge d</w>
g ant</w>
g ab</w>
fre und</w>
fran zös
fr ischen</w>
fr appuccino</w>
for m
fol ie</w>
fin ish</w>
fahr gemein
exac tly</w>
ex peri
erwach sene</w>
ersch wing
erlau bt</w>
erlau ben</w>
entschuldi gen</w>
ent span
en. es</w>
emp fehlen</w>
ele gant</w>
ele gan
einzi ge</w>
einrich ten</w>
ein gren
eigen schaften</w>
e ch
donnerst ag</w>
do ors</w>
do gs</w>
direc tor</w>
dien ste</w>
di ert</w>
det roit</w>
desser ts</w>
desser t</w>
del ici
de at
deat h</w>
dat um</w>
dar k</w>
daniel s</w>
custo mer</w>
counter- serve-
con tac
comple te</w>
cho ices</w>
chi c</w>
chan do</w>
ch tung</w>
can a
cana dian</w>
ca jun</w>
c- class</w>
c er
brid ge</w>
brid ge
bl v
best uhlung</w>
besor gen</w>
berkele y</w>
benachrich tigt</w>
bele g</w>
be ste</w>
bar t
bar -
availability. it</w>
auto modell</w>
ausgestat tete</w>
arri val</w>
arc light</w>
appointmen t.</w>
angebo t</w>
ander s</w>
ambi ance</w>
all er
al together</w>
al ready</w>
ak zepti
air s</w>
ad ul
ad diert</w>
ac ks</w>
ac i
abh ängig</w>
abbie gen</w>
abbie ge</w>
a po
8 ,
570-19 20</w>
4. 5</w>
4. 50</w>
4. 3</w>
4 ;</w>
3 00</w>
25 .
2 4,
19 .
12 4;</w>
1 st</w>
1 6
. es</w>
. does</w>
. benötigen</w>
. alright</w>
& #
&# 124;</w>
über hau
überhau pt</w>
äf tigt</w>
ä um
ä mp
zz are
zugesand t</w>
zuck er
ze chu
zechu an</w>
z wan
zwan g
zwang lo
z un
y n</w>
y d</w>
y ant</w>
x 350</w>
wür st
würst chen</w>
wähl te</w>
wä hle</w>
wunder baren</w>
wor th</w>
wor king</w>
wochen ende</w>
wis con
wiscon s
wiscons in</w>
win d
wil liam</w>
wi fe</w>
whi p</w>
wh it
whit ti
whitti er</w>
wer fer</w>
wen ig</w>
weiter machen</w>
wech sel
we d
wed nes
we b
war d</w>
wal th
walth am</w>
w on</w>
w ell
vorführ ungen</w>
vor an
voran schlag</w>
verwen det</w>
venti ve</w>
venti -
vegetar isch</w>
vanil le</w>
val ley</w>
v ated</w>
unglaub lichen</w>
un i
umfangre iche</w>
u ck
uck y</w>
tu es
tues day</w>
tren dy</w>
tren di
tr an
tr ag</w>
topp ing</w>
ton ese</w>
ton es
tomor row
toda y.</w>
to .
ti me.
thr ough</w>
there. how</w>
the ke</w>
thank s.
th y</w>
th ou
tex t
text nachricht</w>
tequil a</w>
ten nes
tennes see</w>
take out</w>
tages zeit</w>
tac o</w>
ta xi</w>
ta mp
tamp a</w>
ta in
t z
t te</w>
t gers</w>
swe et
sw ick</w>
sushi -
sure. what</w>
super star</w>
su p
stu ff</w>
stra ße</w>
stell e</w>
ste ve</w>
st rit
st nut</w>
st al</w>
st airs</w>
spr ings</w>
speci f
speci als</w>
sp ät</w>
sp ice</w>
sou v
so dy</w>
sn acks</w>
sit e</w>
sim p
sil ver
si g
si des</w>
sha ke</w>
sha ck</w>
sein. brauchen</w>
secon d.
se ven</w>
se eing</w>
se att
schle cht</w>
schein werfer</w>
schaf t</w>
sch ick
sc rat
scrat ch</w>
sar ah</w>
sal ad</w>
sa mu
sa k
s zechuan</w>
s l
s hi
s atur
satur day</w>
ry an</w>
ru tgers</w>
rodri gu
rodrigu ez</w>
rober t</w>
ro te</w>
ro b</w>
rich tung</w>
ri es</w>
restaurant merkmale</w>
ren tly</w>
rela ti
re k
re gen
regen c
regenc y</w>
re ad</w>
ra te</w>
r x350</w>
r un
r on</w>
r ind
r ich</w>
r ha
rha p
rhap sody</w>
qu eta</w>
qu er
qu al
qual ity</w>
qu ad
purchas ed</w>
pum pk
pumpk in</w>
pu ll</w>
prü fen.
por tionen</w>
po int</w>
plu to</w>
please. i</w>
pleas ant</w>
plac e.</w>
pl ate</w>
pizz a
phil ly</w>
ph i
ph ant</w>
pe fully</w>
park plätze</w>
park platz</w>
pa ir
p ed</w>
p anda</w>
ou p</w>
ori gin
ordnung .
ong side</w>
ol in
olin a</w>
okay. okay</w>
okay. no</w>
offer s</w>
oak dale</w>
oa k</w>
o b
noti fied</w>
nor th
no va
no pa</w>
nic e.</w>
neh men
near by</w>
ne i
ne d</w>
ne apol
neapol it
nachschla gen</w>
nach a</w>
n n</w>
n im
n as
nas h
nash ville</w>
mulvan ey</w>
moment. the</w>
moment. it</w>
moment. es</w>
moder ne</w>
mo zzare
mittel großen</w>
mittel groß</w>
mit two
mit fahren</w>
mit ch
mid d
mi k
mi an</w>
mer i
meri dian</w>
mention ed</w>
men ts</w>
mei sten</w>
meeresfrü ch
meat -
me tro
mar ket
man o</w>
man che
manche ster</w>
mahl zeit</w>
made a</w>
machi atto</w>
ma il</w>
ma il
ma i</w>
ma chen.
m ing</w>
m el
m as</w>
lyf t-
ly nn</w>
lo yd</w>
lo vely</w>
lo tte</w>
lieb sten</w>
li vely</w>
lex ington</w>
len k
leb haf
le ston</w>
le ich
leich te</w>
le ck
le ak
las alle</w>
lar ry</w>
l ong
l on
l ol
l loyd</w>
l an</w>
kredit karten</w>
korean isches</w>
kom bin
klas si
ke vin</w>
kan tones
ka thy</w>
k op
k o</w>
k ent
kent ucky</w>
k einen</w>
k ay</w>
k .</w>
jo y
jo se</w>
jo e</w>
je we
j ing
j em
jem and</w>
italien ischen</w>
it age</w>
ist. es</w>
isch en
irgend wann</w>
irgend eine</w>
innen bereich</w>
industri al-
inclu ding</w>
in ventive</w>
in nova
in n</w>
ill -
il lo</w>
ier y</w>
ica tions</w>
ic ally</w>
i pic</w>
i ko</w>
i bal
ibal di</w>
hö rer</w>
hö re</w>
hun an</w>
ho pefully</w>
hil l
her itage</w>
hen ry</w>
hel l</w>
hear ing</w>
he mian</w>
he .
hawai ian
hab s</w>
günsti g</w>
gu ter</w>
gt. ist</w>
grü ne</w>
größ ere</w>
gr oup</w>
gr ati
grati ot</w>
gr ab</w>
geteil te</w>
geschehen. ich</w>
gesamt preis</w>
gendre au</w>
gehoben e</w>
ge wünsch
ge m</w>
ge kauft</w>
ge hört</w>
ge fü
ge d
gar nacha</w>
gar ibaldi</w>
g ängi
g än
g a
fun eral</w>
fri end</w>
freit ag
for mal</w>
foo d-
fol gendes</w>
fo cus</w>
fin de</w>
fil me</w>
favor ite</w>
far all
farall on</w>
fan gen</w>
familienfreund liche</w>
fa re
f our
f iery</w>
f i</w>
f en
f al
fal sch</w>
f .</w>
eu er</w>
essens wünsche</w>
erst es</w>
er i
ent euer</w>
en. ich</w>
ell o</w>
ele vated</w>
ele phant</w>
ele ments</w>
el ing</w>
eingren zen</w>
einfa chen</w>
ein verstanden</w>
eg al</w>
ef its</w>
ed wards</w>
ech o</w>
earli er</w>
ea l</w>
domin ick</w>
din ge</w>
din e</w>
dien stag</w>
di m</w>
di ag
diag no
del aro
dank e.
d ge</w>
cur rently</w>
cul ver</w>
cre ative</w>
counter-serve- kette</w>
contac t</w>
confir ming</w>
co unter</w>
co queta</w>
co bble</w>
clo ses</w>
che stnut</w>
char lotte</w>
char leston</w>
char les</w>
ch wood</w>
ch r
ch or</w>
ch ill-
cen ter
car olina</w>
car ds</w>
car b
carb on</w>
can tonese</w>
can not</w>
californi os</w>
c tions</w>
c ra
c ic
buck le</w>
bu m
bu ll
brun swick</w>
brun ch</w>
bro ly</w>
bri m</w>
bre n
bre chen</w>
br yant</w>
bor o</w>
bo m
bo hemian</w>
block iert</w>
bir chwood</w>
billi g</w>
bi b
bevorzu gte</w>
bet ter</w>
besch äftigt</w>
bereit et</w>
ben efits</w>
bele gt</w>
bekan nt</w>
be züglich</w>
batt lefield</w>
bart low</w>
bar- b-
bar-b- que</w>
bab y</w>
b read
b o</w>
b lin
b ell</w>
b at
b all</w>
available .
aufführ ung</w>
auf trag</w>
atmosph ere</w>
atlan tic</w>
asiat isches</w>
as king</w>
ari elle</w>
ar illo</w>
ap pro
anzu sehen</w>
ange wendet</w>
an ge</w>
an fangen</w>
an chor</w>
am arillo</w>
alfre do</w>
alco hol</w>
al ongside</w>
ak iko</w>
acc ept</w>
abhol adresse</w>
ab enteuer</w>
a. m</w>
a. m.</w>
99 9-
999- 555-66
999-555-66 6
999-555-666 9</w>
99 73</w>
921- 25
921-25 00</w>
908 -7
908-7 88
9- 8
9- 6
9-6 36
9-636 9</w>
9- 530
9-530 -
9-530- 5
9-530-5 48
9 56
9 46
9 12-
9 10
9 .</w>
89 6-
896- 57
89 -4
88 73</w>
88 5</w>
86 8</w>
86 4-
864- 28
864-28 5-4
864-285-4 868</w>
80 5-555-
805-555- 33
805-555-33 43</w>
80 1-
801- 7
801-7 14-
801-714- 33
801-714-33 10</w>
8 er</w>
8 5</w>
8 55</w>
8 1</w>
8 13-
813- 69
813-69 7-4
813-697-4 15
8 -
73 2-
732- 9973</w>
7-86 46</w>
7-47 9-6369</w>
7-47 7-4
7-477-4 5
7-477-45 46</w>
7 89</w>
7 4</w>
7 2-
72- 1234</w>
6 8</w>
6 8.
6 73
6 56
6 5
6 23
623 -4
623-4 9
555-217- 13
555-21 2-
555-212- 36
555- 8873</w>
555- 11
55 pm</w>
513- 912-
50- 29
50-29 50</w>
5- 732-9973</w>
5- 623-49
5- 2420</w>
470-69 1-21
470-691-21 41</w>
46 5</w>
45 3</w>
42 9-530-548
41 5-732-9973</w>
40 -7
40-7 3
4. 6</w>
4. 50
4. 2</w>
4-0 30
4-030 7</w>
4- 20
4-20 48</w>
4, 2</w>
4 9
4 .</w>
4 -4
4-4 53
36 1-
361- 25
361-25 4-453
36 ,
31 7-479-6369</w>
31 5-623-49
3 7</w>
3 7.
3 21</w>
3 -7
3 ,
22 7-477-4546</w>
215-88 4-2048</w>
215- 896-57
215- 57
212- 946
212- 555-8873</w>
21 9</w>
21 5</w>
202-456- 621
200 8er</w>
20 2</w>
20 .
2 35
2 219</w>
19 39</w>
18 4</w>
18 ,
15 .00</w>
123-456 -
123 -
11 am</w>
1 50</w>
1 00</w>
0 2</w>
. what</w>
-4 4
- crust</w>
- 0
überprü ft</w>
ü bri
ö st
ö p
änder t</w>
zä hmen</w>
zwie bel</w>
zuck er</w>
zu ta
zuta ten</w>
zu geben</w>
zo gen</w>
ziel ort</w>
zie hen</w>
zeit ge
zeitge mäß
za hlen</w>
z ieren</w>
your self</w>
yor ker</w>
yeah .
xim ately</w>
wo her</w>
wie der</w>
wh at
what ever</w>
weis en</w>
wednes day</w>
war s</w>
wa ys</w>
wa hl
w ill
w all</w>
vorstell ungszeiten</w>
vorsch l
vorschl äge</w>
vorlie be</w>
vor wahl</w>
voll kommen</w>
verstanden. und</w>
verke hr
verfüg baren</w>
ver lan
verlan gt</w>
vanil le-
vanille- latte</w>
ungefä hre</w>
und e.
un ge
unge zw
un be
uhr. passt</w>
uhr. ist</w>
u t
u chtung</w>
tz dem</w>
typ ically</w>
turn buckle</w>
tun e
tune up</w>
tro tzdem</w>
tr inken</w>
ti me.</w>
ti ll</w>
th ing.</w>
th at
ten .</w>
te ten</w>
ta st
ta gs</w>
t äti
t ter</w>
t ie</w>
t ating</w>
sü ß
suchen. einen</w>
su m</w>
su che.
stre et
stimm ung</w>
stilvoll en</w>
ster s</w>
star ten</w>
st in</w>
st -
spiel zeit</w>
specif ications</w>
span ish</w>
sp ital</w>
souv la</w>
sou r
sour c
sourc ed</w>
son n
so wohl</w>
so for
sm ok
siz es</w>
sitz platz</w>
sim il
simil ar</w>
si on
sha kes</w>
sh are</w>
sett ing.
selb st</w>
sek unde.
seatt le</w>
se par
separ ate</w>
se ite</w>
se em</w>
schön e</w>
schwar z-
sch icke</w>
sch ade</w>
sar din
samu el</w>
sam stag</w>
sal ted</w>
saison ale</w>
s. i</w>
s und
s port</w>
s po
s ir</w>
s en.
roy al</w>
ro tating</w>
ro ss</w>
ro h
rind fleisch</w>
richtig .
restaurant wünsche</w>
reserva tion
reser ve</w>
reparatur termin</w>
recei ve</w>
re me
reme m
remem ber</w>
re gel</w>
re as
reas on
r s</w>
qui et</w>
qu ite</w>
pub -
pro men
promen ade</w>
pric ing</w>
por tions</w>
pool -
pm. do</w>
plac ed.</w>
pl an</w>
ph ones</w>
pet es</w>
pepper oni
peperoni -pizzen</w>
peperoni -
pe te</w>
park way</w>
papri kas
paprikas cho
paprikascho ten</w>
pair s</w>
p y</w>
p h</w>
p aci
paci fic</w>
our me
or ten</w>
okay. nein</w>
off ene</w>
noti ert</w>
not iced</w>
nois es</w>
nim mt</w>
ne ben</w>
nach mittags</w>
nach frage</w>
n on
möglich erweise</w>
möch ten.
mu s
mu ch.
moun t</w>
moment. so</w>
moment. please</w>
moment. das</w>
momen t
mittwo ch</w>
mittel punkt</w>
minutes. do</w>
min .
milch präferenz</w>
mid- town</w>
mexikan ischen</w>
mexikan isch</w>
mes sage
mein ten</w>
maxim al</w>
m ick
m i</w>
m ann</w>
m als</w>
ly .</w>
lover s.</w>
lok al
lo gi
ll a</w>
lik ed</w>
li ke
letz ten</w>
leck er</w>
leak age</w>
le m</w>
le ast</w>
la d</w>
l oud</w>
l amp
lamp en</w>
kruste. ist</w>
kre ati
korean ische</w>
kop f
kopf hörer</w>
kon nte</w>
ko chen</w>
ket ten
ke l</w>
karam ell</w>
ka tionen</w>
k ol
k einem</w>
jose ph</w>
jing le</w>
jewe ils</w>
jed es</w>
ja .</w>
italien isch</w>
is .
inst ru
inspec t</w>
inn er
ing .is</w>
industrial- chic</w>
in gre
in doors</w>
in ar
in -
immedi ate</w>
im port</w>
il t</w>
il led</w>
i re
i ger</w>
hu hn</w>
hoff ent
hoffent lich</w>
ho spital</w>
hinter le
hin zu</w>
heraus finden</w>
hello .</w>
hear .</w>
head phones</w>
head ed</w>
he u
hau se</w>
harb our</w>
hallo womit</w>
hal te</w>
h än
h is</w>
h as
h .</w>
grö ßen</w>
gru b</w>
green book</w>
gr illed</w>
gleich e</w>
geteil t</w>
get rock
gesendet .brauchen</w>
ger äum
ger icht</w>
gen eral</w>
gelan gen</w>
gehoben es</w>
gehoben er</w>
gehoben en</w>
gefund en.</w>
gefund en.
gebuch t.</w>
ge sehen</w>
gan g</w>
gab en</w>
g ü
g ourme
g lad</w>
g ilt</w>
g ave</w>
fä l
früh stück</w>
früh st
fre ue</w>
fr ischem</w>
fr ap
frap uccino</w>
for m</w>
fil led</w>
fi red</w>
fi re
fi gu
fas st</w>
fahrt art</w>
fahrgemein schaft</w>
f s</w>
f eta</w>
f -
experi enc
exac t</w>
et y</w>
espresso -
erwähn t</w>
erschwing lich</w>
er inner
er hö
entspan nten</w>
en th
en ough</w>
en er</w>
elph as
elphas en</w>
elegan tes</w>
eben falls</w>
ear ly</w>
e. did</w>
e- mail</w>
e- bye</w>
e mail
e cle
ecle c
eclec tic</w>
durchschnitt lichen</w>
dri ving</w>
dri ed</w>
dra chen
drachen zähmen</w>
din er</w>
di rekt</w>
dev in</w>
des ired</w>
delici ou
dan ach</w>
da ys</w>
da y.
d- friendly</w>
d un
d ren</w>
crust .is</w>
cru sts</w>
correc t.
con d
col um
co ok</w>
clas s
chocol at
chil dren</w>
chica go-
check .
che ap
char ges</w>
ch t.
ch ing</w>
ch ance</w>
center .
by e-bye</w>
bur ger
bun ch</w>
bu che.
bräu chte</w>
brin gt</w>
boo th
blv d</w>
bit es</w>
bevorzu ge</w>
bestäti gen.
bestäti ge</w>
bestimm tes</w>
best er</w>
bere chnet</w>
belie ve</w>
bele uchtung</w>
bel a</w>
bel a
bekan nte</w>
be för
be d
be arbeiten</w>
barbecu e-
bar .
aweso me.
aus machen</w>
aus geht</w>
au ge</w>
as y</w>
arbe it</w>
appro ximately</w>
apo logi
ankun ft</w>
ange zeigt</w>
anbietet .
an s</w>
an nehmen</w>
an gaben</w>
an frage</w>
amp elphasen</w>
amerikan ischen</w>
am s</w>
all .
alko hol</w>
alko hol
al right.
al is
ak ed</w>
addre s
ac co
abhol zeit</w>
abge sehen</w>
a ven
99 .</w>
9-97 20</w>
9 ,
86 7-
555-555- 12
555-555-12 10</w>
555-217-13 56</w>
555- 123-4567</w>
5 th</w>
5 .</w>
33 .
30am .</w>
3 d-
28 3</w>
24. 99</w>
21 st</w>
21 .</w>
202-456-621 3</w>
14. 33</w>
14 .</w>
10 am</w>
10 .
1 8.30</w>
.7 9</w>
. can</w>
- out</w>
- mokka</w>
- bar</w>
&apos; am</w>
übri gens</w>
ü gen</w>
öff n
öffn ungszeiten</w>
ö m
ä glich</w>
zw ischen
zusam men
zucker freie</w>
zu gän
zo fen</w>
ze ih
z ur
z el
you. what</w>
you. the</w>
you. so</w>
yo ne</w>
y. i</w>
y stal</w>
y nes
ynes boro</w>
y e</w>
y an
yan ke
xl- fahrt</w>
x ie</w>
x ed</w>
woo d-
wo w</w>
wind s
winds or</w>
win ding</w>
wi ft</w>
wi -
wi- fi</w>
wes halb</w>
weiß -mokka</w>
weis ungen</w>
week .</w>
wechsel n
web site</w>
war tet</w>
war te
war r
warr ington</w>
war mas</w>
wan ts</w>
wa ynesboro</w>
wa y.
wa it
wait ing</w>
w ol
wol fe</w>
w ne</w>
w lan</w>
vor namen</w>
vor bereitet</w>
vor -</w>
vol lem</w>
vol le</w>
viel se
vielse iti
verkehr s
verfügbar .</w>
ver zeih
ver nick</w>
ver gn
vergn ügen</w>
ver arbeit
veget ari
vegetari er</w>
vegan e</w>
vari ety</w>
val et</w>
v yn</w>
v ine</w>
v es</w>
unter stü
unterstü t
uni on</w>
ungs probleme</w>
ungezw ungen
un ten</w>
ul u</w>
uber- fahrt</w>
uber s</w>
u er
täti gen</w>
typ es</w>
ty ard</w>
tun g
ts dale</w>
traf fic
tr o</w>
tr att
tratt or
trattor ia</w>
to wne</w>
to s
tis an</w>
tick et
tic ul
ti a</w>
thou ght</w>
thin -crust</w>
ther ed</w>
ther e.</w>
theat res</w>
that .i</w>
th en.
tex as
terr as
termin .
ter y</w>
tel e
te -
tat ak
tast y</w>
tac ol
tacol ici
tacolici ous</w>
tab les</w>
t z</w>
t oll
t ington</w>
t ell
t ed.</w>
sy ru
sum ing</w>
sugar house</w>
sugar -free</w>
sug ar</w>
sub s</w>
sub mit</w>
su tter</w>
su sta
susta in
ständi g</w>
strit o</w>
stor y</w>
stop her</w>
stle ton</w>
stil vollem</w>
sti ere</w>
sti ano</w>
starbucks- kaffee</w>
star t</w>
star light</w>
stan ley</w>
stab l
stabl ish
st ät
st one</w>
st ling</w>
st ick
st ein
st and</w>
ssi a</w>
spät est
spätest ens</w>
spru ce</w>
spre chen</w>
spr ing
spring dale</w>
spi zieren</w>
spi e
spezi fi
spezifi kationen</w>
spezi ellen</w>
special ty</w>
special ties</w>
special ist</w>
spea ke
speake asy</w>
sp icy</w>
sou l</w>
soldi ers</w>
soldi er</w>
sol ange</w>
sofor tige</w>
so ße</w>
so weit</w>
so ja</w>
smith son</w>
sk ir
skir t</w>
sitz nische</w>
sit ze</w>
sim mon
simmon s</w>
silver spot</w>
sig nat
signat ure</w>
sich tigen</w>
si e.
show ing.</w>
sho ul
shi re</w>
sha warmas</w>
sh er</w>
sh an
shan gha
shangha i</w>
set zung</w>
servic es.
sel ber</w>
sein. und</w>
sech st</w>
se i</w>
scot tsdale</w>
schön er</w>
schwarz- weiß-mokka</w>
schwar zen</w>
schokoladen sauce</w>
schau en.
sch u
sch rei
sch li
sar d
sar a</w>
san ra
sanra k
sanrak u</w>
sam unde</w>
sais on</w>
sa l</w>
sa ke
s. did</w>
s. and</w>
s. 2009</w>
s wift</w>
s sing</w>
s ley</w>
s kin
skin ny</w>
s hr
shr im
s hab
s ere</w>
s bar
sbar ro</w>
run time</w>
ruhi g</w>
ru ssia</w>
ru n</w>
rollstuhlgere chten</w>
roh kost
rohkost bar</w>
rock ef
rockef eller</w>
rober ts</w>
ro samunde</w>
ro s</w>
ro ger</w>
ro f
rof on</w>
ro ast</w>
ro a
roa sted</w>
righ t.</w>
richtlin ie</w>
ri ver</w>
ri o</w>
ri dge</w>
restaurant vorlieben</w>
restaurant kriterien</w>
restauran t.
request s</w>
requ i
requi res</w>
repar iert</w>
rela xed</w>
reis ed
reised au
reisedau er</w>
reih e</w>
regulä ren</w>
reg on</w>
reg ie</w>
recei ved</w>
reason able</w>
read y.
re no</w>
re min
remin der</w>
re in
re ich
re gi
re cht</w>
raus suchen</w>
ram ire
ramire z</w>
ram en</w>
ra pi
rapi d</w>
ra hmen</w>
ra d</w>
r öm
r .
r. p.</w>
qui et
quer que</w>
qu es
ques ad
quesad ill
quesadill as</w>
pur is
puris ima</w>
pun tz</w>
pub- gerichte</w>
proces sed</w>
proc e
proble m.</w>
pro d
priva te</w>
preis schätzung</w>
preis en</w>
preferenc es.
pr in
prin c
princ et
princet on</w>
pr at
prat t</w>
por tia</w>
por k</w>
pool fahrt</w>
pol it
po p
pop cor
po ke</w>
po ff</w>
po c</w>
pm. does</w>
pizz a-
pi st
pet ers</w>
pet er</w>
peri al</w>
perfec t.</w>
perfec t.
peperoni- salami</w>
pati o
pas o</w>
park service</w>
par ticul
pal mer</w>
p tion</w>
p russia</w>
p ets</w>
p au
pau l
paul son</w>
oy sters</w>
our des</w>
os so</w>
origin al</w>
or l
orl and</w>
or gi
orgi a</w>
op ing</w>
on shire</w>
on e-
on burg</w>
on .</w>
okay. what</w>
okay. can</w>
oka y.</w>
ok. what</w>
ok kol
okkol i</w>
ok e</w>
oak ridge</w>
o y</w>
o to</w>
o ss</w>
o se
o regon</w>
o ma
oma kas
omakas e</w>
o de
ode on</w>
o ber
nu ss</w>
nu g
nug get</w>
nu del
nudel n</w>
north town</w>
non fat</w>
ni ght.
ni gh
neapolit an
ne are
neare st</w>
natürlich .
nation al</w>
nach zu
nach hal
na pa</w>
n is</w>
n ab
nab on</w>
n .ich</w>
möglich keit</w>
mög liche</w>
mul ti
mu st</w>
mu si
mu le</w>
mozzare lla</w>
mor n
mor gens</w>
moment. hmm</w>
moment. die</w>
mo s</w>
mo ck
mock ing
mocking b
mockingb ird</w>
mittl eren</w>
mitch ell
minuten. möchten</w>
minut es.</w>
min i
mil il
milil an
mililan i</w>
mik rofon</w>
mid way</w>
mex ico</w>
metro center</w>
merc ed</w>
men ü
men ge</w>
mel vyn</w>
meeresfrüch te-
me tro</w>
me se</w>
me dit
medit er
me d.</w>
me d
mcdonal d</w>
mc cor
maxim um</w>
mat ch</w>
market place</w>
mark t
mar gh
margh er
mar ger
marger ita</w>
mand ar
mandar in</w>
man a</w>
mal co</w>
macchi at
macchiat os</w>
ma tion</w>
ma ple</w>
ma j
maj or</w>
ma ine</w>
ma in
ma h</w>
ma cht.
ma che</w>
m y
m poc</w>
m m</w>
m kay</w>
m ir
m ice</w>
m hm</w>
m ab
mab ry</w>
lyf ts</w>
lun a.
long .</w>
lon don</w>
lol ó</w>
lo mpoc</w>
lie ßen</w>
li ber
liber ty</w>
lenk ung</w>
lebhaf tes</w>
le ts</w>
le ss</w>
le sen</w>
le gen</w>
le g
leg ac
legac y</w>
le ct</w>
lau ter</w>
lau ch</w>
land on</w>
land mark</w>
lan g
l än
l ourdes</w>
l ington</w>
l in</w>
kü chen
kä se
kunden verkehr</w>
kredit karte</w>
kostenlo sen</w>
kon ta
kommen .
kombin iert</w>
ko mp
kno wn</w>
kno b
knob lauch</w>
klass ischen</w>
kategoris ier
karamell- macchiato</w>
kaliforn ische</w>
k- elements</w>
k ul
k te</w>
k is
kis s</w>
k ing.
k im
k ell
k ab
joy ce</w>
jo int</w>
jef fre
jeffre y</w>
jef f.</w>
je der</w>
japan isches</w>
ja. ja</w>
j in</w>
j ess</w>
j en
j ac
jac k
iti v</w>
it u
it t</w>
is py</w>
is her
isher man</w>
intel lect</w>
instru ctions</w>
innova ti
ing ungen</w>
ing ing</w>
ing .and</w>
inclu des</w>
in spizieren</w>
in nen</w>
in flu
influ enc
influenc ed</w>
in expensive</w>
in cre
incre as
im port
im perial</w>
il y</w>
ie sta</w>
ide e</w>
ide a</w>
id eal</w>
ick .
i- 35</w>
häl t</w>
hähnchen -pizzen</w>
hun tington</w>
house -
hou n</w>
hot dogs</w>
hor se</w>
hol zofen</w>
hol en.
ho st</w>
hinzu gefü
hinzugefü gt</w>
hinzu fü
hinzufü gen.
hin setzen</w>
hill stone</w>
hil fre
high ly</w>
hi p</w>
hi .i</w>
heu te.
her stell
her aus</w>
hel p.</w>
hel p.
hel p
hel f
helf en.</w>
he it</w>
he im
hausgema chte</w>
hau stiere</w>
harris onburg</w>
harris burg</w>
han over</w>
ham burgers</w>
hallo. wie</w>
hab e.
h nen</w>
h aus
h are</w>
h ana</w>
gu ys</w>
gu ello</w>
grün er</w>
green way</w>
great. thank</w>
gn ment</w>
gewünsch ten</w>
getrock ne
gesendet .benötigen</w>
geschäf ts</w>
gesch rieben</w>
gesch oss</w>
gesch au
geschau t</w>
genau e</w>
gebucht. benötigen</w>
ge ändert</w>
ge wählte</w>
ge wis
ge orgia</w>
ge geben</w>
gall oping</w>
ga thered</w>
g y
g ri
g host</w>
g g
g ate</w>
g ar</w>
g am</w>
fün ft</w>
fäl li
fu sion</w>
fu sion
frü here</w>
frü her</w>
fre d
fr isch</w>
for d</w>
fo g</w>
fleischliebhab er
fl ü
fisch restaurant</w>
fin o</w>
fin al</w>
fil m
fil i
fi re</w>
fertig .brauchen</w>
fer n</w>
fe es</w>
far ms</w>
far be</w>
fahrzeug typ</w>
fahrt typ</w>
fahr preise</w>
fahr preis
fa ir
f ung</w>
f isherman</w>
f ischen</w>
f iesta</w>
f ett
f anc
fanc y</w>
extr as</w>
experienc ing</w>
ex pres
ex pe
et eria</w>
et c</w>
espresso s</w>
es s
es .i</w>
erinner ung</w>
er fol
er .</w>
er .
entspre chen.
entschei de</w>
ent e.
en vir
en ti
en tal</w>
en den</w>
en chil
enchil a
enchila das</w>
en -
email ed</w>
ele br
el se
el -
eisgekühl ten</w>
ein planen</w>
ein ander</w>
ed -
e ye</w>
e ven</w>
e stablish
e is</w>
durchschnitt lich</w>
durch geführt</w>
dro poff</w>
drit ten</w>
dre ssing</w>
dre ss</w>
dre sher</w>
dre am</w>
down s</w>
dol ce</w>
dig ital</w>
di xie</w>
di strito</w>
di rek
di gs</w>
di e
di ab
device. did</w>
dev onshire</w>
destination .should</w>
destination .did</w>
descri ption</w>
den ny</w>
deliciou s.</w>
delaro sa</w>
del i</w>
defin itiv</w>
de fe
de ckt</w>
de c
dauer n.
dank .</w>
da wn</w>
da ve</w>
d get</w>
d ere</w>
d are</w>
d .i</w>
cu late</w>
crust .did</w>
cru st.
cra ving</w>
cr ystal</w>
cr ispy</w>
coyo te</w>
cour tyard</w>
cor y</w>
contin ental</w>
confir med.</w>
confir mation</w>
con ven
con cer
com mon</w>
col or</w>
col e</w>
co zy</w>
co sts</w>
co ca
coca -
coca- col
cl oud</w>
cin nabon</w>
chri stopher</w>
chr is</w>
chocolat y</w>
chines ischer</w>
chill- counter-serve-kette</w>
chil i</w>
cheese .</w>
cheap er</w>
che f</w>
che .ich</w>
characteri stic</w>
cham ber
chamber s</w>
ch op
car ry</w>
californ ian</w>
cal houn</w>
cal culate</w>
caf eteria</w>
ca stleton</w>
ca de</w>
c ks</w>
c ity.
c elebr
bull s</w>
buff et
bu stling</w>
bu querque</w>
bu dget</w>
broad way</w>
broad street</w>
bro s.</w>
bro ok</w>
bro c
bri en</w>
bren da</w>
brau chten</w>
br okkoli</w>
br inging</w>
br a
bow ling</w>
bot tom</w>
bot an
booth s</w>
bom bay</w>
bo x
bo at</w>
blu es</w>
blu e</w>
bl ind</w>
billi ger</w>
bib a</w>
bi g
bestäti g
beson der
berech n
ben ut
belieb tes</w>
belieb te
bei des</w>
bed ingungen</w>
be sides</w>
be halten</w>
be arbeit
be an</w>
be am</w>
be ac
beac on</w>
bat tery</w>
bas ier
bas ic</w>
bac k
b s</w>
b and</w>
b a
aven gers</w>
auß erhalb</w>
aussich t</w>
ausge wähl
auf zugeben</w>
au th
au stin</w>
au stern</w>
atlan ta</w>
as suming</w>
art ist</w>
ar tisan</w>
ar t-
ar n
ar lington</w>
ar ing</w>
ar guello</w>
ar cade</w>
ar ab
appointmen ts</w>
app uccin
and .
an yone</w>
an weisungen</w>
an rufen</w>
an geschaut</w>
an gesa
an fällt</w>
an bieten</w>
americ anos</w>
ambi ente.
am phi
am ber</w>
all-you-can- eat</w>
all-you-can- eat
all ge
alkohol ische</w>
ali ze</w>
ali oto</w>
ali gnment</w>
alex anders</w>
al ways</w>
al o
al do</w>
al buquerque</w>
al a
ala mos</w>
akzepti eren</w>
ak tu
adul ts</w>
ad ler</w>
ad ama</w>
actu al</w>
ac tion</w>
abholbereit. brauchen</w>
abhol en.
ab setzen</w>
ab brechen</w>
ab .möchten</w>
a w</w>
a tions</w>
a horn</w>
a h.</w>
a 5</w>
99 1</w>
97 4</w>
956 -3
956-3 28
956-328 -0
956-328-0 4
956-328-04 21</w>
92 9-
929- 7
929-7 813</w>
92 7-
927- 0
916- 921-
910 -44
910-44 2-
910-442- 63
910-442-63 45</w>
91 81</w>
908-788 -7
90 7</w>
9. 45</w>
9-8 7
9-87 48</w>
9 89
989 8</w>
9 5</w>
9 58
9 4
9 3</w>
9 00</w>
89-4 040</w>
88 7</w>
813-697-415 4</w>
8. 45</w>
8 7</w>
8 50</w>
775-4 7
775-47 5-
775-475- 74
775-475-74 33</w>
775-4 00
775-400 -3
775-400-3 25
775-400-325 8</w>
77 98</w>
73 7-
737- 57
73 4-
734- 123-4567</w>
70 7</w>
7- 929-7813</w>
7- 6
7-6 813</w>
7- 23
7-23 2
7-232 -4
7-232-4 465</w>
7 9</w>
7 57</w>
7 40-73
673 -4
673-4 855</w>
656 6</w>
621 2</w>
621 -4
621-4 2
621-42 5-
621-425- 568
621-425-568 3</w>
60 1</w>
6. 7</w>
6-3 757</w>
6- 1212</w>
6- 0
6 991</w>
6 72-1234</w>
6 3</w>
6 30-8
630-8 53
630-853 2</w>
6 184</w>
6 .</w>
58 2-
582- 672-1234</w>
57 th</w>
568 7</w>
56 9-8748</w>
555-66 6-1212</w>
555-217- 3
555-217-3 8
555-21 36</w>
555-11 3-4
555-113-4 24
555- 630-8532</w>
555- 14
555-14 3-
555-143- 26
555-143-26 14</w>
555- 121
555-121 4</w>
555- 0
555-0 123</w>
55 7-232-4465</w>
53 86</w>
50 1-21
501-21 3-4
501-213-4 5
501-213-45 45</w>
5- 15
5-15 0-
5-150- 12
5-150-12 46</w>
5 a5</w>
5 9th</w>
5 18
518 -8
518-8 50-2950</w>
5 14-
514- 21
514-21 7-6813</w>
5 10-
510- 555-1214</w>
5 1
5 00</w>
5 ,
49 2-
48 3-7
483-7 42
45. 92</w>
45 4</w>
441- 28
441-28 3-
441-283- 6184</w>
44 7-8646</w>
44 4-0307</w>
42 .
40 .
4.50 .</w>
4. 7</w>
4, 5</w>
4, 3</w>
4 50</w>
4 4.
4 00</w>
37. 23</w>
361-254-453 7</w>
36 1</w>
34. 16</w>
33 1</w>
33 ,
315-623-49 42</w>
30 th</w>
3- series</w>
3 89-4040</w>
3 24</w>
3 2
3 1</w>
3 13-
313- 673-4855</w>
3 .</w>
3 -8
28 ,
24, 99</w>
235 6</w>
215-88 5-2420</w>
215-57 6-3
215- 740-73
215- 65
215- 389-4040</w>
212-946 -4
21 21</w>
202-456- 2121</w>
202-456- 1111</w>
201 0
20 th</w>
20 55</w>
20 20</w>
2 9</w>
2 77</w>
2 10</w>
2 00</w>
19. 30</w>
15 l</w>
15 .
14 1-
141- 569-8748</w>
14 00</w>
13 1
131 7-929-7813</w>
123-456- 1212</w>
123- 555-0123</w>
12. 33</w>
11 5-150-1246</w>
11 10</w>
10 8</w>
10 50</w>
10 1</w>
10 00</w>
10 .</w>
1- 2009</w>
1 pm</w>
1 h</w>
1 6.
1 20</w>
1 ,
00 86</w>
0 7</w>
.7 8</w>
.7 3</w>
. which</w>
. when</w>
. that</w>
. eine</w>
. auf</w>
ün f
ück sichtigen</w>
ück en</w>
überprüfen. ja</w>
überprü fung</w>
über h
überh it
ü hm
ös s
ör kell
öp fi
öpfi ge</w>
ölle cks</w>
è me</w>
äch st</w>
ä gen</w>
zwischen zeit</w>
zwe i
zusätz liches</w>
zusammen zu
zun ächst</w>
zun e
zugän glich</w>
zi p</w>
zentr ums</w>
zen iert</w>
zen en</w>
zeit präferenz</w>
zeit plan</w>
zeit gen
zeitgen öss
zei gt.
ze us</w>
ze ichen</w>
z z</w>
z ent
z en.
you. yes</w>
you. ok</w>
you. it</w>
you. for</w>
you. do</w>
you. did</w>
you. alright</w>
yeah .</w>
xl .</w>
x o
xo te</w>
x .</w>
wor ries</w>
wor auf</w>
wood- fired</w>
woo d
wonder ful
wir d.</w>
wir d.
will kommen</w>
wie viel</w>
wheel ch
wheelch air
wheelchair -
wheelchair- accessible</w>
wh ich
wer fen</w>
wen t</w>
wen iger</w>
wen den</w>
well .</w>
weiß er</w>
weiter en</w>
weit ig</w>
wechseln des</w>
wat ching</w>
war te</w>
war me</w>
war m</w>
wai ved</w>
w y</w>
w us
w ist</w>
vorzu gs
vorzugs weise</w>
vorsch lä
vorschlä gen</w>
vor nehme</w>
vor neh
vorneh me.
vor lesen</w>
vier t</w>
viel mals</w>
verstanden. welche</w>
verstanden. lassen</w>
verkehrs bedingungen</w>
verfüg ung.
verarbeit et</w>
ver z
ver su
versu s</w>
ver stehen</w>
ver sch
ver n
vern ünf
ver li
verli ert</w>
ver gessen</w>
venti- kaffee</w>
vegetar ischen</w>
vegan en</w>
ve .
val ue</w>
us w</w>
us d</w>
up stairs</w>
up date</w>
up -
up- close</w>
unter nehmen</w>
univer sit
universit ät</w>
ungezwungen es</w>
under stan
und erst
underst and</w>
unbe din
unbedin gt</w>
un assuming</w>
un -
umgeb ung.
um fasst</w>
uhr. welche</w>
uhr. was</w>
uhr. soll</w>
uhr- vorstellung</w>
uhr- vorführung</w>
uber pool</w>
uber .
u g</w>
u fen</w>
u ck</w>
u chen</w>
u ar
u .</w>
u -
typ ical</w>
tur ning</w>
tun gs
tun .
tu e</w>
tschü s</w>
trendi ge</w>
tradition ellen</w>
tr uck</w>
tr itt</w>
tr ical</w>
tr av
trav eling</w>
tr a
tos kan
tor s</w>
tonight. do</w>
to wn
to ward</w>
to t
tisch reservierung</w>
tis check
tischeck en</w>
ti gung</w>
ti ger</w>
thing. what</w>
the .
thailänd ische</w>
th eme
theme d</w>
teu rer</w>
ter t</w>
tequil a-
tele phone</w>
tatak i</w>
taqu eri
tal king</w>
take -out</w>
tain ly</w>
tac o
table .</w>
ta king</w>
ta ken</w>
ta gen</w>
t. und</w>
t. gibt</w>
t- b
t wist</w>
t wi
t sa
tsa mes</w>
t ori
tori .</w>
t it
t est</w>
t em</w>
t asse</w>
süß st
süßst off</w>
sü d
syru ps</w>
sweet ener</w>
sustain ably</w>
sund a
sunda ys</w>
su v</w>
su r
su it</w>
su che.ich</w>
su ch
stät te</w>
stu den
studen t</w>
stu d
stud ent
student en
studenten zentrum</w>
stre am</w>
stop ped</w>
sto o
sto ck
stle it
stleit zahl</w>
stilvoll er</w>
stick s</w>
sti on</w>
steak haus</w>
star tet</w>
star s.
st range</w>
st ly</w>
st ir
stir bt</w>
st as</w>
spru ch</w>
spre chen.
sport stätte</w>
spiel en</w>
spie ß</w>
spezi fischen</w>
spezi elle</w>
spea k</w>
span isches</w>
spac i
spaci ous</w>
sp las
sp it
spit -
spit- roasted</w>
sor ten</w>
sor r
sor ge</w>
sonn tags</w>
son dern</w>
some place</w>
sol u
so j
soj u</w>
so da</w>
so aring</w>
smok ing</w>
simp son</w>
simp son
sim ple</w>
sicher zu
sicher lich</w>
sich t</w>
si e
si b
show time
shoul dn</w>
sho ot</w>
sho e-
shoe- sha
shoe-sha ped</w>
sha re
sha king</w>
servic e-
service- gebühr</w>
seri es.
sen. ist</w>
sen se</w>
sen den.
sen de
sel tsames</w>
sek uchen</w>
seat ing.
se t.
se shoe-shaped</w>
se gebühr</w>
se c</w>
schwar zer</w>
schwar ze</w>
schwar z</w>
schu ss</w>
schn örkell
schließ lich</w>
schließ en.
schla gen</w>
schick e.
sch me
sch einen</w>
sal zi
sal zenen</w>
sal ty</w>
sal s
sal at</w>
sal at
sak e.
sai d.
sa fe
sa c</w>
s. the</w>
s. is</w>
s ort</w>
s ell</w>
s eine</w>
ru sti
roo m.
rollstuhl fahrer</w>
rollstu hl</w>
ro lle</w>
righ ty</w>
rie ch
richtlin ien</w>
ri gi
ri des
restaurant präferenzen</w>
rest uar
reparatur werkstatt</w>
repa ired</w>
relati vely</w>
relati v</w>
regi onal</w>
reg el
regel mäß
re ten</w>
re icht</w>
re es</w>
rau chen</w>
rat isch</w>
r ü
r on
r ice</w>
r d</w>
qui xote</w>
que stion</w>
quad ratisch</w>
quad -
quad- espresso-
quad-espresso- campana</w>
pum ps</w>
provi ded</w>
proces s.
priva ten</w>
preis klasse</w>
preis günstig</w>
prefer ably</w>
pre pa
pos sib
popcor n</w>
polit an</w>
po stleitzahl</w>
po sten</w>
pm. should</w>
pm. did</w>
please. and</w>
plac e.
pl ain</w>
pizza- bestellung</w>
pizz en.</w>
pizz ak
pizz abe
pizzabe stellung</w>
pine ap
personen. möchten</w>
personen. ist</w>
perfec tly</w>
perfe k
perbac co
people .would</w>
people .is</w>
pasta gerichte</w>
par ties</w>
pa stas</w>
p- off</w>
p- dish</w>
over he
ou t.
ose .is</w>
ordnung .und</w>
ordnung .ich</w>
ord ing</w>
or gan
on ment</w>
on e
on ce</w>
oli ven
okay. yes</w>
okay. und</w>
okay. that</w>
okay. ja</w>
okay. ich</w>
okay. i</w>
okay. does</w>
okay. das</w>
okay. and</w>
okay. all</w>
ok. you</w>
of fen</w>
ob wohl</w>
o th
o il
o ben</w>
nächst es</w>
nä di
noti z</w>
noti fic
notific ation</w>
noti er
no -
no- fr
no-fr ill
no-frill s</w>
net tes</w>
ne tt</w>
ne c
nachhal tig</w>
nach schauen</w>
na h</w>
n ou
n ie
nie dri
müs sten</w>
my self</w>
musi k</w>
multi -
multi- course</w>
mu sic</w>
mu ff
muff ler</w>
motor s</w>
mor gen.
moment. how</w>
moment. hm</w>
momen t.</w>
moder ner</w>
moder at</w>
mod ell
modell namen</w>
mod ates</w>
mobil e.
mo chte</w>
mo ana</w>
mittel dünne</w>
mittags angebot</w>
mitta g
mitchell .
mit tel</w>
mit te</w>
min s.</w>
milch sorte</w>
milch .
mil es</w>
midd le</w>
mi gen</w>
mex quite</w>
message .would</w>
mer s</w>
mer kt</w>
mer .</w>
mein ung</w>
mehr gängi
meeresfrü chten</w>
mediter ran
meat- lover</w>
me ssen</w>
me als</w>
me .and</w>
mccor m
mccorm ick</w>
mat ter</w>
markt platz</w>
margher ita</w>
main stream</w>
mac k
mack s
m elt</w>
m all.
lässi ges</w>
lässi gen</w>
lässi ge</w>
lyft- fahrt</w>
lun gs
look .
loc ations</w>
loc ation
loc ale</w>
lo ssen</w>
lin e-
ligh ts.
liebhab er</w>
lie ben</w>
lie be</w>
li ve-
li ge</w>
let ting</w>
lei st
le an
lean ing</w>
le .
lat tes</w>
lang sam</w>
lan e.
la k
la i
lai d-
laid- back</w>
la gen</w>
l t</w>
l la
l am
kü che.
kä sekuchen</w>
kunden bewertung</w>
kul inar
krusten -pizzen</w>
kreati ven</w>
kre is</w>
kosten voranschlag</w>
korean ischen</w>
kor rigi
ko mö
klassi ker</w>
kl einer</w>
kit sch
kit chen.
ki d-friendly</w>
ken nen</w>
ke y</w>
ke .</w>
kategorisier en.</w>
karamell mokka</w>
kantones ische</w>
kan ad
kaliforn ischer</w>
kab in
k öst
k unden</w>
k tr
k or</w>
k lei
k le</w>
k ers</w>
k .
jose ph
jer e
jere my</w>
jen ige</w>
jed em</w>
japan ischen</w>
jalapen o</w>
jalapen o
ja zz</w>
j un-
j im
itu tion</w>
iti ons</w>
italien ischer</w>
it. so</w>
it ute</w>
it s
ist. ist</w>
isch -
is en
isen för
isenför migen</w>
irgend was</w>
irgend ein</w>
ins zeniert</w>
innovati ve</w>
innen bestuhlung</w>
ingre dien
ingredien ts</w>
ing .did</w>
informa l</w>
inform iert</w>
inform ieren</w>
ind ischer</w>
increas e</w>
inclu ded</w>
in ary</w>
immedi ately</w>
ima x-
im ag
ier tes</w>
ic e.</w>
ic -
i et</w>
i es</w>
hühnchen sandwiches</w>
hühnchen -
hö here</w>
hö her</w>
häl tlich</w>
hä ppchen</w>
hu fe
hufe isenförmigen</w>
hr lich</w>
hr en</w>
house- made</w>
house made</w>
hor seshoe-shaped</w>
hon da
honda -
honda- pilot</w>
hol z
ho lic</w>
ho ld</w>
ho hen</w>
ho he</w>
hinterle gte</w>
hin aus</w>
hilfre ich</w>
heraus suchen</w>
help ful</w>
hello .i</w>
hello .how</w>
hel len</w>
head lights</w>
he iten</w>
he bt</w>
he av
heav y</w>
hawaiian ische</w>
hawaiian er</w>
hausge bräu
haup t
hand y.
han g</w>
haben. es</w>
ha b</w>
h ier
günsti ge</w>
gü l
gängi gen</w>
gä ste</w>
gut. wie</w>
gut. ich</w>
grupp en</w>
gro und
gro s
grill -
great ly</w>
gourme t</w>
good .i</w>
gol denen</w>
gluten freien</w>
gl it
get reten</w>
get ren
gesendet .kann</w>
geschä fts
gesch n
gesch macks
gesch lossen</w>
gesam te</w>
gesam melt</w>
gesa gt.ist</w>
geräum igen</w>
ger ufen</w>
gen ug</w>
gen er
gen e</w>
gen an
gen .ich</w>
gemü tlichen</w>
gemü t
gemü se</w>
gelangen. wollen</w>
gelangen. soll</w>
gef all
ged ämp
gebü hren</w>
geb iet</w>
ge stellt</w>
ge spielt</w>
ge salzenen</w>
ge plan
ge hören</w>
gar ten</w>
gar lic</w>
gar den
garden s</w>
gab e</w>
g tes</w>
g t.</w>
g ste</w>
g riech
g nädi
g las
g at
führ en</w>
fü rs</w>
fälli g</w>
frühe st
fro h</w>
französ ischen</w>
four th</w>
form ell
formell eren</w>
foo ds</w>
foo d.
flu ss</w>
flavor s</w>
flavor ing</w>
fix ing</w>
fin alize</w>
fili ale</w>
fil men</w>
festgele gt.
fer n
fen ster</w>
fe eling</w>
fas s</w>
fare .</w>
fan g</w>
fall s
fall en</w>
fahrt dauer</w>
fahre n.
fahr typ</w>
fa v
fa st-
f y</w>
f et
fet a-
feta- käse</w>
exc ept</w>
exc el</w>
ex cu
excu se</w>
estim ates</w>
establish ment</w>
erhö h
er te
er n</w>
er n
er hältlich</w>
er hebt</w>
envir onment</w>
entspre chen
entschuldi ge</w>
enth al
ent rees</w>
end gül
end -
en. und</w>
en. ok</w>
en. das</w>
en ter
en en</w>
en ce</w>
ell es</w>
ele ktr
ele c
elec trical</w>
el led</w>
eis -
eis- vanille-latte</w>
einge plant</w>
ein schließlich</w>
ein fluss</w>
ein falls
ein f
ein e.
ei ght</w>
ed .
eben so</w>
e very</w>
e cke</w>
e ating</w>
dun kle</w>
dro p-off</w>
dr ama</w>
dr af
down stairs</w>
dol by</w>
dish ed</w>
diagno stic</w>
diagno segebühr</w>
diab lo</w>
di gen</w>
device. anything</w>
destination .</w>
der t</w>
dep end</w>
defe kt</w>
dee p-dish</w>
dec or</w>
de kor</w>
das .
da her</w>
d ämp
d ly</w>
d ings</w>
d icken</w>
d c</w>
d an</w>
d .is</w>
custo mers</w>
cul inary</w>
cu t</w>
crust .</w>
cre am
cr ème</w>
cond itions</w>
com fort</w>
colum b
columb ia</w>
color ful</w>
col i</w>
cockta il
co un
co me
co ast</w>
class ics</w>
cic ci
cicci a.
cic c
cicc ia</w>
cho ose.is</w>
chil d</w>
chick en-
chicago- style</w>
chan ged</w>
ch .</w>
cer tainly</w>
celebr ated</w>
caf é</w>
caf é
ca jun-
c ross</w>
c oke</w>
c es</w>
c and
bur mese</w>
bur mes
bum mer</w>
bum mer.</w>
buchen. wie</w>
buchen. und</w>
buchen. ich</w>
bu l
bu che
broc coli</w>
bro wn</w>
bro ok
brin ge</w>
bread sticks</w>
bre ws</w>
bre m
br ans</w>
bo ard</w>
bitte. okay</w>
bitte. das</w>
big ger</w>
bi o
bevorzu gtes</w>
bevorzu gten</w>
bestätig ung.
bestim mt</w>
bestellen. ich</w>
beson ders</w>
beson deren</w>
beson dere</w>
berech nen</w>
ber ühm
ber ücksichtigen</w>
benut zen</w>
ben to</w>
belieb ter</w>
bela sten</w>
bel ägen</w>
bekan nten</w>
be zeich
be setzung</w>
be merkt</w>
be kommen
be komme</w>
be il
be gin
be dien
be .i</w>
be .
bbq -
basier end</w>
b road</w>
b right</w>
b ier
b ein
b aked</w>
außen posten</w>
außen beleuchtung</w>
auß er</w>
auto reparatur</w>
ausgezeich ne
ausgewähl ten</w>
aus wahl
aus gehen</w>
augen bl
aufge be</w>
aufführ ungszeit</w>
auf geben.
assist ent</w>
asiat ische</w>
as king.
as k</w>
arrangi eren</w>
aro men</w>
arbe ite</w>
ar range</w>
ar gon</w>
ar ds</w>
ar d
appointment. would</w>
appointment. just</w>
apologi es</w>
any where</w>
any way</w>
angebo ten</w>
angebo te</w>
ange zeigt.
ange setzt</w>
ange sehen</w>
ange kommen</w>
ander weitig</w>
an zahl</w>
an te</w>
an spruch</w>
an s.</w>
an kommen
an gerufen</w>
an fallen</w>
an cho
an .</w>
an -
amphi theater</w>
alo ha</w>
aller dings</w>
all-you-can-eat -
alis iert</w>
alco holic</w>
al ong</w>
al ley</w>
al le
al a</w>
akzepti ert</w>
after wards</w>
adul t</w>
add ing</w>
ad v
ad ams</w>
acc ura</w>
acc ording</w>
acc ess</w>
ac ken</w>
ac e</w>
abzu geben</w>
abholbereit. bräuchten</w>
abhol auftrag</w>
abge zogen</w>
abge würgt</w>
abge geben</w>
abend s</w>
a ten</w>
a mount</w>
a gi
a .i</w>
a .</w>
958 11</w>
9 am</w>
89 .
867- 35
867-35 49</w>
8 8.
7 8.
7 4.
65. 44.
570-19 20
555-212-36 14</w>
555-21 46</w>
555-113-424 9</w>
555- 123-456
55 .
5- sterne-bewertung</w>
5 er</w>
5 4.
46 9-9720</w>
429-530-548 2</w>
4. 1</w>
4 er</w>
33 .is</w>
30am .should</w>
3 er.
3 9.
3 8.
28 .</w>
25 .</w>
24 .</w>
23 .
22. 45</w>
22 .79</w>
215-896-57 12</w>
212-946-4 283</w>
21. 30</w>
2010 er</w>
201 5er</w>
201 4er</w>
20 .00</w>
2 u</w>
2 h</w>
2 6.
19 .</w>
18. 45</w>
18. 44</w>
17. 30</w>
17. 00</w>
11 .</w>
11 .
10 ,
0 5pm</w>
0 00</w>
0 .</w>
. you</w>
. there</w>
. haben</w>
- style</w>
- latte</w>
, 99</w>
, 88</w>
überprüfen. sie</w>
überprüfen. leider</w>
überprüfen. ich</w>
überprüfen. hmm</w>
überprüfen. einen</w>
überprüfen. brauchen</w>
überprü fen
überprü fe</w>
überhit zt</w>
über mittel
übermittel n</w>
über laufen</w>
ü ck</w>
ü ben</w>
öff nen</w>
öff ne
öffne t.
ö t
öt chen</w>
ö h
é par
épar é
é bistro</w>
äu ser
ähn liche</w>
äch lich</w>
ä ter
ä ren</w>
ä r
ä ppchen</w>
ä lt</w>
ã o</w>
zwe it</w>
zwe it
zwanglo ses</w>
zwanglo sen</w>
zw .</w>
zus ätze</w>
zur ich
zune hmen</w>
zum in
zumin des
zumindes t</w>
zum bo</w>
zu let
zulet zt</w>
zu gang</w>
zu fällig</w>
zu finden</w>
zu bereitet</w>
zu bereit
zubereit e
zubereite te</w>
zim tsch
zimtsch ne
zim t-
zimt- short
zimt-short bread
zimt-shortbread -latte</w>
ziel e</w>
zi gen</w>
zi f
zif fern</w>
zer o.
zent ri
zen ten</w>
zen eg
zeneg ger</w>
zel nut</w>
zeitgenöss ische</w>
zeitgemäß er</w>
zeitgemäß em</w>
zeit rahmen</w>
zeit fenster</w>
za hl
z tes</w>
z t.
z t
z ok
zok ulu</w>
z lich</w>
z it
zit tert</w>
z ing
zing ar
zingar i</w>
z il
zil ian</w>
z anos</w>
your -
your- own</w>
you. unfortunately</w>
you. their</w>
you. have</w>
you. first</w>
you. and</w>
you. amc</w>
you. 4</w>
you u</w>
yo y
yoy tes</w>
yo ta</w>
yes. yes</w>
yes. yeah</w>
yes. that</w>
yes. my</w>
yeah. yeah</w>
ye p.</w>
yanke e</w>
yanke e-
yankee- stadium</w>
yak it
yakit or
yakitor i</w>
y view</w>
y thing.
y th</w>
y place</w>
y nummer</w>
y ke</w>
y gi
ygi ene</w>
y es.i</w>
y el
yel p</w>
y c</w>
y ar
yar is</w>
y a
ya kin
yakin i
yakini q</w>
xl- klasse</w>
x- vorführungen</w>
x ton</w>
x ll</w>
x is</w>
x e</w>
wähl en.
wä rs</w>
wä r
wus st</w>
wor ld</w>
wor den</w>
wood ber
wonderful .</w>
won der</w>
won ach</w>
wochen end-
wo che
woche .ist</w>
wo anders</w>
wir d
wind ward</w>
win ns
winns boro</w>
win es.
win e.</w>
will is</w>
wil son</w>
wi th
with out</w>
wi fi</w>
wi de</w>
which ever</w>
wh eat</w>
wh ea
whea d</w>
wh ats</w>
wes en</w>
werden. ist</w>
wer y</w>
wer t</w>
wer k</w>
wer fen.
wen igen</w>
wen di
wendi g</w>
wen de
wende kreis</w>
well s</w>
welco me
wel t</w>
weiter hin</w>
wein sorten</w>
weg .haben</w>
week .is</w>
wech s
wechs lungs
wechslungs reichen</w>
web ster</w>
we ł</w>
we st
we hr
we burger</w>
way. do</w>
was de
wasde e</w>
was .ich</w>
warte zeiten</w>
warte zeit</w>
war tungs
war ri
warri ors</w>
war ren</w>
war men</w>
war k</w>
wal ker</w>
wal ker
wai pa
waipa h
waipah u</w>
wa y.</w>
wa gy
wagy u</w>
w sk
wsk i</w>
w ned</w>
w li
wli ko
wliko wski</w>
w lan
wlan -
wlan- zugang</w>
w in</w>
w ho
w es</w>
w ed</w>
w an</w>
w af
vorstell ung.
vornehme. es</w>
vorführ zeiten</w>
vor ziehen</w>
vor speisen</w>
vor ra
vorra gen
vor nehmen
vor genommen</w>
vor genom
vorgenom men
vorgenommen .auf</w>
vor fü
vorfü r
vorfür hr
vorfürhr ung</w>
vor bere
vor aus</w>
voll milch
vollmilch .und</w>
voll er</w>
vir tu
vin ta
vil la
vil agi
vilagi o</w>
vier ten</w>
vier te</w>
vier k
vierk öpfige</w>
vier .
vielseiti ge</w>
viel zahl</w>
vie .
vi l</w>
vi g
vig go</w>
vi et
viet na
vi be</w>
vi be.i</w>
verzeih ung</w>
verzeih en</w>
verz ich
verzich tet</w>
verste he.
verstanden. was</w>
verstanden. okay</w>
verstanden. irgendein</w>
verstanden. für</w>
verstanden und</w>
versch ie
verschie den
verschieden e</w>
vernünf tige</w>
verfü gt</w>
vereinbaren. nur</w>
vereinbaren. können</w>
ver tr
vertr au
ver ted</w>
ver suchen.
ver sion</w>
ver mei
ver m
verm ute</w>
ver kaufen</w>
ver gleich</w>
ver ed</w>
ver an
venti- schwarz-weiß-mokka</w>
vent u
ven it</w>
veggie- pizza</w>
veggie- lover</w>
veggie- lover
vegan es</w>
veg as
ve way</w>
ve stal</w>
vari ed</w>
v ic
vic tor</w>
v el-
vel- film</w>
v an</w>
us band</w>
us a</w>
urb an
ur ther</w>
ur ch</w>
upd ated</w>
up. you</w>
up. do</w>
up s</w>
up market</w>
unterstüt zung</w>
unterstüt zt</w>
unter suchen.
unter such
unter nehmen
unter bringen</w>
univer se</w>
univer sal</w>
uni que</w>
ungs problem</w>
ungs jahr</w>
ung sgebühr</w>
understan d.</w>
under dog</w>
und es
undes staat</w>
und el</w>
un ver
un t</w>
un sere</w>
un kt</w>
un auf
un an
umgeb au
umgebau ten</w>
umfangre iches</w>
um -pizza</w>
ul é
uhr. funktioniert</w>
uer wehr
uc es</w>
uber. hello</w>
uber- taxi</w>
uber xl
uber x.</w>
uber x-
u- shab
u-shab u</w>
u xe</w>
u tet</w>
u ta
uta h</w>
u rein
urein stellung</w>
u pe</w>
u la
ula h</w>
u h</w>
u h
uh -
uh- hu
uh-hu h</w>
u el</w>
u a
ua hu
uahu a</w>
typ ischen</w>
typ isch</w>
twi sted</w>
turn -
tur ner</w>
tur ned</w>
tun ed</w>
tu s
tus can</w>
tu re</w>
tu lu
tulu l
tulul u</w>
tschü ß</w>
ts ächlich</w>
tro p
tren ding</w>
tre ten</w>
tre ff
treff punkt</w>
tran s
traffic .
tr äglich</w>
tr a</w>
town shi
townshi p</w>
tot ally</w>
toskan a-
toskana- liebhaber</w>
tor ti
tor en</w>
tonight. can</w>
toni gh
tonigh t.</w>
ton t
tont öp
tomorrow .</w>
tomorrow .
toll es</w>
toll en</w>
today. sometime</w>
to yota</w>
to wer</w>
to s</w>
to p
to m
tom my</w>
to .i</w>
to -
tl er</w>
tisch service</w>
tisch plat
tion .the</w>
tin y</w>
tin sel
tinsel town</w>
tin s
tins le
tinsle town</w>
time. would</w>
time. do</w>
tier te</w>
ticket s.
tic ut</w>
ti v
ti ram
tiram is
tiramis u</w>
ti ma
tima te</w>
ti m</w>
ti le</w>
ti ju
tiju an
tijuan a-
ti ful</w>
ti ff
tiff any</w>
ti e.</w>
thou se</w>
the ma</w>
the m.
the ad</w>
the -
that. where</w>
that. what</w>
that. please</w>
that. one</w>
that. how</w>
thanks. how</w>
thailänd isches</w>
tha i
th man</w>
th ick
thick -crust</w>
th day</w>
th ay</w>
teu res</w>
teu erste</w>
terras se.
termin at
terminat or</w>
teriyak i-
teriyaki- restaurant</w>
ter s</w>
ter re
terre to</w>
ter nacht</w>
ter n</w>
ter ie</w>
tequila- based</w>
ten t</w>
ten sen</w>
tem per
temper at
tell y</w>
tell ern</w>
telef n
telefn onnummer</w>
te mp
temp le</w>
te e</w>
te as</w>
tatsäch lichen</w>
taqueri a.
tain ment</w>
tag. womit</w>
tag. tschüss</w>
tag. super</w>
taco -pizza</w>
table top</w>
table .
ta xis</w>
ta x</w>
ta te</w>
ta p</w>
ta kes</w>
ta hn
tahn k</w>
ta d
tad or</w>
ta chtung</w>
t. wollen</w>
t. walker
t. ich</w>
t. did</w>
t. bräuchten</w>
t-b one-
t-bone- steak</w>
t- o-
t- influenced</w>
t äglich</w>
t v
t ting</w>
t stan
t st
t s.</w>
t ol
t no
tno mah</w>
t nis</w>
t n</w>
t ment</w>
t karte</w>
t ico</w>
t et
t es
tes ischem</w>
t ea
tea m</w>
t au
t at</w>
t all.
t all
tall ulah</w>
süd west
swe et</w>
sw an</w>
sw am
swam p</w>
sushi- roll
sushi-roll en</w>
sushi .
sure. where</w>
sure. when</w>
sure. uber</w>
sure. looks</w>
sure. in</w>
sure. how</w>
sur f</w>
super .</w>
sup pos
suppos ed</w>
sup port</w>
sup pl
suppl ying</w>
sund ay</w>
sum me.</w>
sum mar
summar i
summari ze</w>
sugar s</w>
suchen. sind</w>
submit ted.</w>
sub st
su pp
su chen
su ch</w>
studi os</w>
stu ft</w>
strit t</w>
stri dge</w>
street .</w>
stre ben
streben den</w>
stra ß
stor isches</w>
stor ante</w>
stop s</w>
stoo ges</w>
stock werk</w>
stilvoll es</w>
sti g</w>
ster o</w>
ster n
stein fisch</w>
steak haus
stea med</w>
stea m</w>
ste uer
ste p
step hen</w>
ste he</w>
ste ckt</w>
ste .</w>
stat es
states ville</w>
starbucks. the</w>
starbucks- filiale</w>
star ted.</w>
star te</w>
star n
starn dar
standard -</w>
stan o</w>
sta tions</w>
sta ke</w>
st roy
stroy ce</w>
st ro
stro ph
stroph e</w>
st ori
stori c</w>
st on
ston ef
stonef i
stonefi eld</w>
st mas</w>
st ine</w>
st icker</w>
st ick</w>
st ic-
stic- chic</w>
st food-
st el
stel lige</w>
st ap
stap les</w>
st am
st all</w>
st al
squ ea
squea king</w>
sport stadion</w>
sport bar</w>
spo kan
spokan e</w>
splas h</w>
spi rit
spezialit ät</w>
spezialit ät
spezi alisiert</w>
speis es
speises a
speisesa al</w>
spec k-
speck- ranch</w>
span ische</w>
sp äter
sp ureinstellung</w>
sp unkt</w>
sp richt</w>
sp in-
spin- off</w>
sp elled</w>
sp as
spas s</w>
south western</w>
south west</w>
south park</w>
south ington</w>
south bor
southbor ough</w>
sorr y.</w>
sor tment</w>
soon er</w>
soon .did</w>
son ville</w>
son sten</w>
son der
sonder wünsche</w>
solu tions</w>
sol che</w>
so weit
so li
soli d
solid ated</w>
so ja
soja -</w>
so gar</w>
so fern</w>
so aked</w>
sm yth</w>
sm s.
sl ices</w>
sl ap
sk .
sitzgelegenhe it</w>
sitz erhöh
sitzerhöh ungen</w>
sir upe</w>
sin i</w>
simpson s</w>
silver city</w>
sil ver</w>
sil ie</w>
sie ben</w>
sicherzu stellen</w>
sicher. wie</w>
sicher heit</w>
sich etti</w>
si ze
si mon</w>
si ert</w>
si ana</w>
shrim p</w>
showtime s.i</w>
show n</w>
show ing.is</w>
show ground
showground s</w>
shortly. did</w>
short ly.</w>
shab u-shabu</w>
sh äppchen</w>
sh ort</w>
sh ly</w>
sh er
sher ry</w>
setting. the</w>
sett ing.did</w>
sett ing.</w>
serviert. und</w>
serv iced</w>
serv at
servat or
servator y</w>
senden. brauchen</w>
sende zeiten</w>
sel ben</w>
sel be</w>
sekunde. okay</w>
sein. kann</w>
sein. ist</w>
sein. haben</w>
sein. bräuchten</w>
sehen. ich</w>
second. so</w>
secon d.i</w>
seat ing.and</w>
sear ching</w>
se ssi
se ssen</w>
se pizza</w>
se it</w>
se hn
se g
seg ment</w>
se .</w>
scot tie</w>
scot tie.</w>
sco tty</w>
schön ere</w>
schätz ungen</w>
schwar zenegger</w>
schrei bt</w>
schrei ben</w>
schokoladen sirup</w>
schokol ade</w>
schnörkell ose</w>
schn elles</w>
schn eller</w>
schn elle</w>
schme cken</w>
schließen. okay</w>
schli mm</w>
schlag sa
schicke. in</w>
schick es</w>
schauen. einen</w>
sch nei
schnei den</w>
sch ind
sch en
sch ar
schar fer</w>
sch all
schall dämp
schalldämp fer</w>
sc ent</w>
sau sage
sardin es</w>
sardin en</w>
sard ellen</w>
sar u</w>
sar tig</w>
sar at
sarat o
sarato g
saratog a</w>
sandw ich</w>
san tos</w>
san it
sanit ary</w>
san gri
sangri a</w>
salzi g</w>
sals as</w>
salat bar</w>
sal t</w>
sal mon</w>
sake -bar</w>
sake -
safe way</w>
sa wasdee</w>
sa har
sahar a</w>
sa gte</w>
sa gt</w>
sa f
sa chen</w>
s. what</w>
s. ok</w>
s. hello</w>
s. hallo</w>
s. got</w>
s. es</w>
s. do</w>
s éparé
s worth</w>
s ri
sri a
sria cha</w>
s pl
spl it</w>
s mo
smo oth
smooth ies</w>
s low
s head</w>
s he
she ph
sheph er
shepher d</w>
s hal
shal a</w>
s einem</w>
s abe
sabe ir
sabeir o</w>
s -pizza</w>
rück t.brauchen</w>
rück ke
rückke hr</w>
rü ckt</w>
röm ische</w>
röm isch</w>
rusti kal
run ning</w>
ruhi ger</w>
ru stic-chic</w>
ru by</w>
rp x-
rp x
roo my</w>
roo m.</w>
ron aldo</w>
roman -style</w>
rollstuhlgere cht</w>
roll s</w>
rodri go</w>
rock ets</w>
rober to</w>
road .in</w>
ro ws</w>
ro whead</w>
ro thman</w>
ro sa</w>
ro phone</w>
ro man</w>
ro id</w>
ro dr
rodr ick</w>
ro d
rod ne
rodne y</w>
ro bb
robb ie</w>
ro bat
ro b
river side</w>
rie b
rides hare</w>
ride .ok</w>
ride .how</w>
ri um</w>
ri storante</w>
ri ppchen</w>
ri ot
riot t</w>
ri ed</w>
ri bs</w>
revie wed</w>
restuar ant</w>
restaurant spezifikationen</w>
restauran t.</w>
rest on</w>
rest lichen</w>
reservier t.
reservation .ok</w>
reser ved</w>
res ort</w>
request ed.</w>
repe ating</w>
reparatur .
repair .is</w>
repair .
repair. appointment</w>
reis en</w>
reih en
reihen fol
reihenfol ge</w>
rei ben</w>
regulä rer</w>
regulä r</w>
reg in
regin al
reginal d</w>
recommen ded</w>
recie ve</w>
rec ent
recent ly</w>
re x</w>
re ws</w>
re su
re ssen</w>
re ports</w>
re port</w>
re per
reper atur
re ll
re l
rel ly</w>
re is</w>
re iche</w>
re feren
re d.is</w>
rau ch
ramen -
ram sey</w>
ra ße</w>
ra di
radi us</w>
r ä
r unter</w>
r ou
r net</w>
r ie</w>
r ick</w>
r a</w>
r -
quiet schen</w>
quer ello</w>
que en</w>
qu et
qu erst
querst raße</w>
qu ar
quar ters</w>
pur suit</w>
pur ple</w>
pul led</w>
prüfen. es</w>
prod uces</w>
prod u
process. your</w>
proce ed</w>
problem. that</w>
problem. das</w>
proble m
pro vol
pro per
proper ly</w>
pro mp
promp t</w>
pro dig
prodig y</w>
pro chen</w>
pres so</w>
prepa red</w>
preis lich</w>
preis leist
preisleist ung</w>
preis es</w>
preferenc es.i</w>
preferenc es.</w>
prefer red.is</w>
pre mi
pr ima
pp s</w>
pp o</w>
pp a</w>
pos h</w>
pos ed-
por tier
por t.</w>
por ch</w>
pool- option</w>
pol is</w>
po wer</w>
po ts</w>
po po
popo lo</w>
po pl
popl ar</w>
po m
pom mes</w>
po in
poin te</w>
pm. you</w>
pm. is</w>
pm. can</w>
plu g
plug ged</w>
please. the</w>
please. regal</w>
please. for</w>
pleas ure</w>
ple be
plebe e</w>
play ed</w>
plan e</w>
pla in
plain ville</w>
pl es</w>
pl ent
plent y</w>
pl ated</w>
pl and</w>
pizzak et
pizzaket te</w>
pizza. and</w>
pizz erien</w>
pizz eri
pist os</w>
pist o</w>
pineap ples</w>
pin n
pinn acle</w>
pil ot
pilot .</w>
pi zanos</w>
pi one
pione er</w>
pi o</w>
pi ke</w>
pi ke
pike way</w>
pi kan
pikan ter</w>
pi et
piet ary</w>
pi em
piem on
piemon tesischem</w>
pi ed
pied mon
piedmon t-influenced</w>
pi e
phil i
phili p</w>
phi pps</w>
ph o</w>
ph an</w>
pet ra</w>
pet er
peter silie</w>
person al</w>
perfek t.
per u
per sichetti</w>
per is
peris ich
perisich etti</w>
per ia</w>
per el
perel man</w>
pepperoni .
pepperoni. one</w>
pepperoni -pizzen</w>
peperoni .eine</w>
pen -
pe ar</w>
patio .</w>
pasta .the</w>
pasta .die</w>
passagi eren</w>
pas siert</w>
pas send</w>
particul ar</w>
particul ar
park er.</w>
park .
park. p</w>
par sley</w>
par kland</w>
papri k
paprik a.
pal sen</w>
pal me
palme tto</w>
pal m</w>
pal ace</w>
pa xton</w>
pa wlikowski</w>
pa weł</w>
pa ella</w>
pa ell
paell as</w>
p.m. for</w>
p reston</w>
p p</w>
p it
pit z</w>
p ink</w>
p ine</w>
p ie</w>
p alit
palit o</w>
over all</w>
out fit</w>
out doors</w>
our ite</w>
ot or
otor o</w>
organ is
order s</w>
ord ung.
or stop</w>
or chi
or ange</w>
or .</w>
option en.</w>
option .</w>
option .
op pio</w>
op ics</w>
oni on
one. what</w>
one. and</w>
on line-
on es.</w>
on .how</w>
om as</w>
oliven garten</w>
oli ver</w>
ol ulu</w>
ol one</w>
ol e</w>
ol d-
okay. wie</w>
okay. wer</w>
okay. was</w>
okay. vielen</w>
okay. thank</w>
okay. okay.</w>
okay. oh</w>
okay. können</w>
okay. jo
okay.jo e.
okay.joe. joe</w>
okay. do</w>
okay. are</w>
okay. alles</w>
ok. wie</w>
ok. sie</w>
ok. arden</w>
ok en</w>
ok .i</w>
oil .i</w>
offer ed</w>
off ener</w>
ober geschoss</w>
ober en</w>
ob servatory</w>
oa key</w>
o. venti</w>
o. albuquerque</w>
o x</w>
o wned</w>
o wa</w>
o sen</w>
o red</w>
o per
o mon
omon e
omone e</w>
o id</w>
o hi
o he.
o h
o fen</w>
o d
od les</w>
o che</w>
o c
nächst mögliche</w>
nächst gelegen
nächstgelegen en</w>
näch ster</w>
nä her
nä he.
nut zung</w>
now. you</w>
now. alright</w>
now .the</w>
now .did</w>
nou le</w>
not wendig</w>
north park</w>
nois y</w>
noch mals</w>
no palito</w>
no on</w>
no odles</w>
no .</w>
nic er</w>
nev ad
neu e
net ten</w>
net t.</w>
nen ne</w>
nen helfen</w>
nei gh
neigh bor
neighbor ho
neighborho od</w>
nehmen .kann</w>
neh m
nehm lich
nehmlich keiten</w>
nec ticut</w>
neapolitan ischer</w>
neapolit an</w>
ne well</w>
ne wark</w>
ne u</w>
ne o
ne ben
ne ason</w>
natürlich .in</w>
natürlich .</w>
nat omas</w>
nachzu schlagen</w>
nachsehen. okay</w>
nachsehen. es</w>
nachsehen. das</w>
nachschla gen.ich</w>
nachschla gen.
nach träglich</w>
nach os</w>
nach gesehen</w>
nach gesch
nachgesch lagen</w>
nach bar
na pp</w>
na mes</w>
na med</w>
n yc</w>
n or</w>
n ischen
n ie</w>
n ers</w>
n el
n ein.
nein. könnten</w>
n c</w>
n c
nc g</w>
n au
n -out</w>
n -
mög lichen</w>
möchten. ist</w>
mus k</w>
mulvan e
mulvane ys</w>
mul tnomah</w>
much. oh</w>
mu d
mu ch.</w>
mp his</w>
mp er</w>
mozzare lla
mov ing</w>
moun tain</w>
motor probleme</w>
mor tensen</w>
mor gen
mor gan</w>
mon t</w>
mon ic
monic a</w>
mon ey</w>
moment. your</w>
moment. yes</w>
moment. wie</w>
moment. viggo</w>
moment. that</w>
moment. bitte</w>
moment. alright</w>
moment an</w>
moder nem</w>
moder n
moder aten</w>
moder ate</w>
mobile. have</w>
mo vie.
mo ve</w>
mo m</w>
mo in
moin es</w>
mo de</w>
mittag -</w>
mitfahr service</w>
mitch ell</w>
mit ternacht</w>
mit bringen</w>
mis co
misco i</w>
mir anda</w>
minutes. is</w>
minutes. can</w>
minuten. wollten</w>
mini bar</w>
min. you</w>
min o</w>
min i</w>
min dest
mindest ens</w>
milk .is</w>
milk .and</w>
milk .
mil y</w>
mik e.
midd lefield</w>
mid- range</w>
mid night</w>
mick ley</w>
mick an
mickan ny</w>
mi ke.</w>
mi d</w>
mi c</w>
mexikan ischer</w>
mex ic
mexic o.albuquerque</w>
metro politan</w>
mes a</w>
merkm alen</w>
merc ury</w>
mer ch
merch ant</w>
mer ce</w>
menü s</w>
menü auswahl</w>
men u
men tions</w>
men schen</w>
men omonee</w>
mehrgängi ger</w>
mehr eren</w>
meeresfrüchte- restaurant</w>
mediterran e</w>
med ical</w>
med ic
medic ine</w>
mechani ker
meat- lover
meat lover</w>
me tn</w>
me tador</w>
me s.2009</w>
me mphis</w>
me il
meil en</w>
me he
mehe ula</w>
me ha</w>
me ha
meha meha</w>
me et</w>
me ans</w>
me ans.</w>
mcdonal d.</w>
mcdonal d.
mcdonald. m</w>
mc queen</w>
mc newell</w>
mc co
mcco y</w>
mc cle
mccle an</w>
may ed
mayed a</w>
massachuset ts.
mas k</w>
market fair</w>
mar vel-film</w>
mar riott</w>
mar kt</w>
mar inar
marinar a</w>
mar ia</w>
mar got</w>
mar cus</w>
mandel milch.
mand al
mandal ay</w>
man uel</w>
man town</w>
man ch
manch mal</w>
mal paso</w>
mal fun
malfun ctions</w>
mager en</w>
made .
macht. ist</w>
machi ato</w>
macchi atto</w>
ma z
ma moa</w>
ma her
maher shala</w>
m. that</w>
m sworth</w>
m ic
mic rophone</w>
m hmm</w>
m h
mh m.
m ck
mck noule</w>
m c</w>
m ass
mass a</w>
m ack</w>
lässi g</w>
län ger</w>
luna. alright</w>
lun t</w>
lu x-vorführungen</w>
lu sk.
lu gg
lu ck</w>
lu c
luc ile</w>
look .ok</w>
lol o</w>
lokal er</w>
loc ks</w>
lo is</w>
lincol n.
lin ken</w>
like .</w>
ligh ts.</w>
lie bl
liebl ing
liebling sessen</w>
lich t
li ve.
li sten</w>
li st
li qu
li fe</w>
len ox</w>
lei d.
lebhaf ten</w>
le vel</w>
le u
le iten</w>
le go-
lego- film</w>
le f
le e</w>
le ckt</w>
le ben
le .</w>
lauf enden</w>
lau te</w>
lau de</w>
lat te.
las sen.ist</w>
lar son</w>
lar ge
lar d
lard tische</w>
lan ning</w>
lam pen-
lak es
lakes hor
lakeshor e</w>
la w
la ch
lach s</w>
l ton</w>
l lo</w>
l it
l ink</w>
l il
lil a</w>
l icht</w>
l er
ler oy</w>
l el
lel it</w>
l c</w>
l ab
l .</w>
l .
l. a.</w>
küchen che
küchenche fs</w>
könn en.
kä se.
kur ve</w>
kulinar ische</w>
krusten pizzas</w>
kruste. habe</w>
kre ol
kr is</w>
kostenlo ses</w>
kostenlo se</w>
kost en.
korrigi eren</w>
korean ischem</w>
kor rek
konta kt</w>
konta k
kontak ti
kon zentri
kon nten</w>
komö die</w>
komple t
komp li
komp ak
kommen. sie</w>
kommen den</w>
kombin ier
kom bi
kombi angebot</w>
kok os</w>
ko st</w>
klin gen</w>
klei der
kleider ordnung</w>
kle k
klek tische</w>
kle ber</w>
klassi ker
klass ische</w>
klar. wann</w>
klar. lassen</w>
kl ären</w>
kl ich
kl eines</w>
kinok ar
kinokar te</w>
kinderfreund liche</w>
kinder karte</w>
kinder gerichte</w>
kin ds</w>
kin dly</w>
kim mel</w>
kim ch
kimch i</w>
ki ps</w>
ketten restaurant</w>
kar yn</w>
kar ten
kar en</w>
kar a
kantones isches</w>
kann. die</w>
kanad ischem</w>
kaliforn ischen</w>
kal ten</w>
kaf fe
kaffe e
ka mehameha</w>
k. k.</w>
k ten</w>
k napp</w>
k m</w>
k im</w>
k ent</w>
k ed</w>
ju de</w>
ju bil
jubil ie
jubilie e</w>
joy nt</w>
joseph car
josephcar rie</w>
john son
john ny</w>
jim -
jim- denny</w>
jet port</w>
japan town</w>
japan ischer</w>
jam ie</w>
jalapeno s.
jack sonville</w>
jack son</w>
ja. mein</w>
ja. ja.</w>
ja. das</w>
ja mes.2009</w>
ja ja</w>
ja i
jai me</w>
ja .ich</w>
j r</w>
j ones.</w>
iti on</w>
iti es</w>
it. you</w>
it. yes</w>
it. one</w>
it. ok</w>
it. for</w>
it. did</w>
it. anything</w>
it. any</w>
it. alright</w>
it yplace</w>
it ol</w>
it es</w>
it ems</w>
is. parker</w>
is sini</w>
ir ish</w>
ir c
irc le</w>
internation ale</w>
interest ing</w>
interessi ere</w>
interes san
inter est</w>
intelligen te</w>
int on</w>
int en
inst itution</w>
inst itute</w>
inspektion .</w>
innova tion</w>
innen beleuchtung</w>
innen -</w>
ingre di
ing ham
ingham ton</w>
ing .i</w>
indi ana</w>
ind isches</w>
ind isch</w>
in- n-out</w>
in timate</w>
in .it</w>
in .</w>
import s.2009</w>
imax- aufführung</w>
imag ine</w>
im pul
im b
imb ap
il ian
il er</w>
ih uahua</w>
ih nenhelfen</w>
ier ung</w>
ier te</w>
ier en.
ich .ist</w>
ic ed-
ic .
i st.</w>
i owa</w>
i ges</w>
i g
i -4
i-4 0</w>
hühnchen- speck-ranch</w>
hühnchen grill</w>
hö ch
hän gt</w>
hän chen</w>
hähnchen grill</w>
hähnchen flü
hähnchenflü gel</w>
hun t</w>
hu ston</w>
hr t</w>
hou se.
hot pot</w>
hot dog</w>
hon olulu</w>
home y</w>
hol d
hold ing.</w>
ho her</w>
ho ch
ho bb
hobb y</w>
