#version: 0.2
e n</w>
i n
a n
e r
t h
i c
i e</w>
c h
e r</w>
e l
r e
y o
a t</w>
s t
u n
ic h</w>
i n</w>
e n
a l
a s</w>
s ie</w>
o r
e s</w>
yo u</w>
a r
a p
o n
a u
o s
i s
i t
t o</w>
ap os
& apos
e in
a n</w>
i t</w>
th e</w>
&apos ;
b e
t i
a b
t e</w>
i l
g e
o k
o r</w>
h o
a y</w>
i s</w>
o n</w>
d as</w>
l e
i h
th at</w>
a s
un d</w>
in g</w>
f ü
is t</w>
f or</w>
d er</w>
an d</w>
t en</w>
m e</w>
k e</w>
o k</w>
w h
s e
l i
o u
n e
r o
fü r</w>
ok ay</w>
e d</w>
a t
u r</w>
d ie</w>
c h</w>
r e</w>
al l
d en</w>
ic h
d i
e t
s u
a m
h el
e s
un g</w>
an t</w>
v e</w>
p i
r i
n en</w>
o l
v i
&apos; s</w>
a r</w>
c an</w>
yo ur</w>
m ö
an n</w>
b u
o m
s ch
el l
h r</w>
v er
n o
j a</w>
z z
h ab
pi zz
ein e</w>
mö ch
li ke</w>
l d</w>
i r
u m</w>
en t</w>
h a
wh at</w>
h t</w>
ic k
w ie</w>
l e</w>
w as</w>
er e</w>
s o</w>
b e</w>
a c
k ann</w>
i r</w>
m a
d e</w>
s en</w>
an k</w>
p e
ou ld</w>
ch e</w>
e in</w>
g o
l o
h e
ein en</w>
ho w</w>
g en</w>
on e</w>
it h</w>
u hr</w>
b o
ch en</w>
u s
m it</w>
t a
h all
w el
ha ve</w>
st ell
t er
o f</w>
w ith</w>
th e
t o
re st
ih nen</w>
y es</w>
hall o</w>
ti g</w>
g ht</w>
b er</w>
al l</w>
rest au
restau r
e t</w>
il l</w>
h r
n a
w ant</w>
p er
g u
w ould</w>
g re
w er
d o</w>
s er
g er
hel p</w>
w e
f a
ar e</w>
in d</w>
f en</w>
a d
o p
d er
in t
f e
u m
m o
w ill</w>
l as
s e</w>
vi el
t r
möch ten</w>
h i</w>
ne ed</w>
restaur ant</w>
b r
m e
di d</w>
m in
ol l
t ick
ö n
ap p
b it
ti on</w>
hab en</w>
be stell
s ho
0 0</w>
g e</w>
k ön
n um
gre at</w>
s a
s o
fa hr
su re</w>
bit te</w>
et s</w>
e m</w>
u te</w>
p le
s i
hel fen</w>
o d</w>
ih re</w>
f or
tick ets</w>
hab e</w>
p l
u r
g en
e a
d ay</w>
ti on
u p</w>
ple as
v on</w>
e x
d o
or der</w>
2 0
en t
th ank</w>
z u</w>
th ing</w>
ri ght</w>
k s</w>
h en</w>
g ro
m ir</w>
re c
n e</w>
l ich</w>
möch te</w>
m om
pleas e</w>
th ere</w>
m in</w>
s t</w>
w ir
t s</w>
be i</w>
v or
b er
au f</w>
a m</w>
r ich
ter min</w>
au to</w>
c o
le t</w>
l l</w>
he ute</w>
min u
o int
app oint
a l</w>
gro ß
appoint m
or d
viel en</w>
ho l
m ich</w>
wir d</w>
pizz a</w>
3 0</w>
las sen</w>
z e
p re
kön nen</w>
d ank</w>
ord n
g r
am p
appointm ent</w>
ge b
the y</w>
g i
&apos; ll</w>
k l
et was</w>
rich tig</w>
t el
s ind</w>
f in
an y</w>
f re
es e</w>
y thing</w>
ordn ung</w>
f o
re ser
i m
no w</w>
st an
p m</w>
i m</w>
en .
i e
&apos; m</w>
f r
w o</w>
t h</w>
s ich
p a
an ything</w>
u ber</w>
no ch</w>
v a
al so</w>
ou t</w>
b ar
go t</w>
ge t</w>
y ea
st ar
us t</w>
p ar
yea h</w>
g t</w>
bo ok</w>
se in</w>
c on
s pe
n o</w>
amp ;</w>
& amp;</w>
p h
w oll
ih r
wel che</w>
st e</w>
5 5
f er
q u
p or
a f
p ro
s on
w ä
el se</w>
m or
gu t</w>
all es</w>
pizz en</w>
ä t
mom ent</w>
m er</w>
l un
ü r
ic k</w>
e d
th is</w>
al i
br au
pizz as</w>
o der</w>
ih r</w>
ger ne</w>
p r
ne in</w>
c or
bu c
ol l</w>
lo ok
20 1
ch e
vi er
b ar</w>
wer den</w>
na me</w>
sich er</w>
i a</w>
en d</w>
k o
cor rec
se hen</w>
num mer</w>
z we
num ber</w>
f t</w>
ver stan
m il
f ir
f il
f ro
ch t</w>
mo v
m y</w>
g o</w>
li g
fro m</w>
correc t</w>
mov ie</w>
s an</w>
groß ar
d e
bestell en</w>
pl ac
fe e</w>
star buc
on i
go od</w>
d as
m en</w>
ell a</w>
z u
das s</w>
pro b
b ella</w>
st en</w>
großar tig</w>
au s
s ich</w>
starbuc ks</w>
m it
h il
geb en</w>
t e
p er</w>
minu ten</w>
d an
ihr en</w>
c ar</w>
e f
x l</w>
lun a</w>
pe op
an d
bestell ung</w>
ti me</w>
es sen</w>
v e
r u
fil m</w>
ab hol
verstan den</w>
p e</w>
th er</w>
n ä
sho w
s m
ab le</w>
prob le
peop le</w>
5 -
na ch</w>
ic e</w>
to day</w>
per fe
int el
i er
se e</w>
b t</w>
v er</w>
al s</w>
2 1</w>
&apos ;</w>
ich t</w>
wel ch
l au
ta g</w>
hil f
fo od</w>
d a
w en
in g
bu chen</w>
wh ere</w>
st re
1 0</w>
t es</w>
ge s
an c
lig ent</w>
l y</w>
intel ligent</w>
ex tr
ab end</w>
z e</w>
wh en</w>
2 0</w>
por ts</w>
dan ke</w>
s p
j o
t oni
extr a</w>
ab out</w>
stre et</w>
d s</w>
&apos; d</w>
reser vier
b en
tel ef
ph one</w>
c in
plac e</w>
k t</w>
h as</w>
e m
8 9</w>
z t</w>
d re
t u
p .
is ch
i f</w>
2 1
im ports</w>
c r
l u
per son
l ich
fahr t</w>
bo ok
ze it</w>
u l
1 5</w>
w ir</w>
k om
gi bt</w>
for n
f i
ali forn
w ar
va il
toni ght</w>
ta ke</w>
ac k</w>
a vail
&apos; re</w>
c o</w>
op tion
on nummer</w>
n icht</w>
1 6</w>
t wo</w>
or t</w>
ma ke</w>
telef onnummer</w>
person en</w>
h at</w>
o ther</w>
w ür
spe c
j ust</w>
ge f
li e
c ould</w>
an der
t et</w>
m us
e i
w n</w>
ou t
k now</w>
j et
p ick
t ed</w>
jet zt</w>
e .
d em</w>
be i
wen n</w>
w a
au f
zwe i</w>
p ick</w>
kl ar</w>
ü n
wä re</w>
u ld</w>
st ä
l a
ge sch
gen d
au s</w>
w ann</w>
sho uld</w>
m on
e l</w>
yo u
wer de</w>
viel e</w>
t .
n ur</w>
look ing</w>
u s</w>
s oll</w>
ein em</w>
w or
w e</w>
m any</w>
el l</w>
d r
&apos; ve</w>
3 0
m u
k ru
ir gend
el e
ar t</w>
re ad
kön n
t er</w>
p p
m i
y .
t ung</w>
st at
anc is
t om
reser va
on i</w>
d ri
fr ancis
r y</w>
per oni</w>
it y</w>
ge bu
cr ust</w>
w is
s s</w>
francis co</w>
di es
z um</w>
h e</w>
p as
os e</w>
i d</w>
d en
s or
read y</w>
l o</w>
k in
b il
f f
c k</w>
l an
ne h
ent .
do es</w>
di ese</w>
book ed</w>
- 4
b in</w>
i en</w>
o l</w>
n am
re par
brau chen</w>
al right</w>
w ie
th an
is ch</w>
d ar
u ber
su che</w>
hel lo</w>
ber e
woll ten</w>
ta l</w>
ri de</w>
proble m</w>
lo c
is che</w>
h ö
h ät
woll en</w>
vor stell
minu tes</w>
w o
the at
nä ch
mor gen</w>
b i
w ar</w>
re pa
l y
con fir
a d</w>
to tal</w>
ti gen</w>
s it
reservier ung</w>
t ex
su per</w>
mus s</w>
gebu cht</w>
be stä
5 0</w>
restaur an
k ar
fin e</w>
reserva tion</w>
mu ch</w>
lau tet</w>
h i
cin em
a tion</w>
no t</w>
m ar
k e
it en</w>
en d
fir st</w>
ein er</w>
ch an
be wer
au ch</w>
wh ich</w>
os t</w>
kru ste</w>
&apos; t</w>
so me</w>
us e</w>
m all</w>
in k</w>
in for
c om
k ind</w>
c t</w>
55 5-
ver fü
show ing</w>
r am
m .</w>
fo und</w>
1 2
x t</w>
ve g
than ks</w>
t un
ne xt</w>
na ch
mil k</w>
mom ent.
f ind</w>
ä n
verfü g
ih re
ick en</w>
4 0</w>
you .
ser v
d a</w>
ier en</w>
ch in
avail able</w>
ver s</w>
u p
repar at
infor ma
brau che</w>
wä h
t y
kom men</w>
bu t</w>
4 .
wis sen</w>
ver ein
sor ry</w>
se con
o s</w>
mo bil
le d</w>
20 0
un ds</w>
u e</w>
pe p
s .
ro w</w>
re n
h al
c al
so unds</w>
e ht</w>
be hilf
ram en
on g</w>
mor e</w>
go ing</w>
d au
ch icken</w>
behilf lich</w>
1 8</w>
sho p</w>
se t</w>
re g
s ac
p o
könn ten</w>
he i
c e</w>
bar en</w>
at ing</w>
1 9</w>
sac ramen
ne w</w>
l at
it e</w>
b el
the m</w>
secon d</w>
sacramen to</w>
o h</w>
d es</w>
c k
b y
we it
un den</w>
n or
mö g
a g</w>
ß en</w>
tom or
t oll</w>
o f
m en
ko sten</w>
ge ht</w>
w ur
4 5</w>
groß e</w>
fin den</w>
fer en
d ann</w>
c ol
bu ch
b b
am c</w>
all e</w>
ü ber
wür de</w>
wor k</w>
s oll
perfe kt</w>
fahr en</w>
di um</w>
ly ft</w>
k ä
k ing</w>
in e</w>
bo th</w>
z en</w>
tomor row</w>
sch ed
pr ü
ok a
it ali
at ed</w>
ab er</w>
a te</w>
nam en</w>
look s</w>
hö r
be tr
w es
mil ch</w>
lo vers</w>
gi ve</w>
geb ü
verein baren</w>
i l</w>
g lu
z ur</w>
vorstell ung</w>
t en
perfe ct</w>
oka y.
neh men</w>
t y</w>
su m
i k
ho use</w>
gu ten</w>
gebü hr</w>
f ri
dau er
c ost</w>
c aliforn
bu r
all y</w>
ges am
che ck</w>
by e</w>
son st</w>
restauran ts</w>
che ese</w>
bei de</w>
si eht</w>
op tion</w>
ma l</w>
m er
kä se</w>
hilf e</w>
and ere</w>
s au
om e
hät te</w>
sched u
me x
ma chen</w>
gef unden</w>
er ia</w>
ch o
ab ge
5 6
to wn</w>
reg al</w>
pick up</w>
isch es</w>
g h
e hen</w>
c ity</w>
br in
b ack</w>
wie der
vi e
n at
me dium</w>
lo ok</w>
the ir</w>
st er
l ar
confir m</w>
su chen</w>
sch n
ou r</w>
ne t</w>
b l
b en</w>
ß e</w>
w at
ver y</w>
theat er</w>
sum me</w>
ing s</w>
fer tig</w>
ben ö
9 16</w>
pep peroni</w>
o b</w>
m ein</w>
j a
californ ia</w>
re e</w>
p. m.</w>
o m</w>
in spec
v or</w>
ty pe</w>
nat ür
k tion
jo y</w>
ihr er</w>
ic an</w>
en joy</w>
d in
cinem as</w>
c re
ar den</w>
th ree</w>
st ea
p t</w>
bb q</w>
am er
un g
tel l</w>
st i
sm all</w>
las s</w>
c ent
brin gen</w>
über prü
ä u
me chan
il l
un s</w>
th en</w>
s ome
in ter
go o
3 5</w>
ün sch
welch er</w>
w ünsch
ti g
out back</w>
mög lich</w>
ger n</w>
w ay</w>
n is
k aliforn
f our</w>
d oll
su bar
subar u</w>
jo h
irgend etwas</w>
in spe
f fee</w>
dre i</w>
co ffee</w>
repa ir</w>
pre feren
option en</w>
it t
gr an
1 9
y e
th in</w>
stat t</w>
st im
s pi
lar ge</w>
ko st
k af
er ste</w>
dri ver</w>
b le</w>
s h
nis san</w>
ne ed
natür lich</w>
ihre m</w>
do or</w>
ch ten</w>
2 5</w>
ü ber</w>
wer k
s en
s .</w>
reparat ur</w>
o t</w>
kl in
kaf fee</w>
ic ed</w>
fr ü
ander em</w>
al e</w>
werk statt</w>
vi er</w>
option s</w>
me at</w>
is e</w>
gran de</w>
ge hen</w>
f u
c af
bere it</w>
an ge
a k
wel l</w>
ser vier
se t
re s
p. m</w>
m ü
klin gt</w>
fahr er</w>
b ac
201 0</w>
1 1
zwe ite</w>
veg g
sch la
k ein</w>
gesam t
yo r
vegg ie</w>
tick et</w>
ro gu
p il
of f</w>
kaliforn ien</w>
gr ö
ad res
v en
tu t</w>
rogu e</w>
rec ei
pa ar</w>
lat te</w>
inspec tion</w>
he y</w>
h l
am il
ad dre
8 .
30 am</w>
1 4</w>
sa ge</w>
on s</w>
mobil e</w>
le ute</w>
hör t</w>
h ne</w>
ent sch
co me</w>
c ar
adres se</w>
welch es</w>
w an
re gu
pre is</w>
or der
nä he</w>
n er</w>
hol t</w>
el y</w>
d en.
be c
b is</w>
a wes
ur ch
th ose</w>
regu l
kl eine</w>
il e</w>
hol en</w>
d on</w>
be kommen</w>
abhol en</w>
a in</w>
a g
soll te</w>
mit tel
l ong</w>
cal led</w>
as s
abge holt</w>
5 5</w>
u hr
tion en</w>
s al
mi d
k au
for e</w>
d ro
d es
be fore</w>
b m
addre ss</w>
yor k</w>
w s</w>
th ink</w>
sit z
s how</w>
näch ste</w>
m eine</w>
l in
joh n</w>
it .
h on
er s</w>
c l
an other</w>
sa gen</w>
s on</w>
pp ed</w>
n u
mon day</w>
bm w</w>
bestä tigen</w>
wh ile</w>
t ri
t able</w>
si ble</w>
se hr</w>
re vie
le id</w>
it .</w>
gr ill</w>
ger s</w>
di g
3 3
v ing</w>
tri p</w>
recei pt</w>
glu ten
be en</w>
at .</w>
4 ,
v om</w>
uber xl</w>
spec i
re d</w>
pr ice</w>
par ty</w>
p os
mü s
j e
it i
ie ßen</w>
h n
dies en</w>
ch ar
be sch
201 1</w>
wäh ren
si ze</w>
sch ein
s ha
le i
ger ä
g ele
fü hr
fre e</w>
z ie
währen d</w>
t isch</w>
sch ö
regul ar</w>
pizz eria</w>
m an</w>
kin o</w>
is h</w>
co ol</w>
abhol ung</w>
200 9</w>
2 2</w>
1 0
ß t</w>
tu n</w>
tion s</w>
st ab
qu it
po ol</w>
pe peroni</w>
no pe</w>
mer c
itali an</w>
ier t</w>
gen ießen</w>
g lass</w>
fre it
dies er</w>
d ort</w>
ät z
z i
wel chen</w>
schedu le</w>
sa id</w>
min s</w>
h in
gr up
g er</w>
do wn</w>
dauer t</w>
ass ist</w>
1 7</w>
z us
st on</w>
so on</w>
sm ith</w>
sa hne</w>
s ou
quit tung</w>
p en
kost et</w>
k eine</w>
grö ße</w>
grup pe</w>
gesch ehen</w>
ge tr
fri day</w>
e se
avail ab
1 5
stim m
st ad
sau sage</w>
ik an
getr än
f are</w>
es .
er hal
e at</w>
den ke</w>
d ün
d el
cre am</w>
1 -
wh i
welch em</w>
vi el</w>
t sch
some thing</w>
sm s</w>
näch sten</w>
m .
lig h
k un
j ap
jap an
informa tion</w>
ger ich
as t</w>
a ge</w>
2 -
ze u
wa i
un ter</w>
si de</w>
ok .</w>
mon tag</w>
informa tionen</w>
fahr zeu
fa ir</w>
e -
cent er</w>
buch stab
4 5
. ich</w>
v an
un gen</w>
t ur
t on</w>
se ating</w>
schla g
pos sible</w>
pick ed</w>
merc ed
is chen</w>
h l</w>
freit ag</w>
f amil
dr ink</w>
bar bec
ander en</w>
ä gt</w>
ye p</w>
wür den</w>
wel come</w>
we i
v oll
v ent
s ol
n ing</w>
le x
hon da</w>
hei ßt</w>
h at
gef ä
fre ie</w>
de v
benö tigen</w>
vi a</w>
tsch ü
th ick</w>
t ing</w>
sp ell</w>
schlag sahne</w>
por t</w>
pil ot</w>
o il</w>
ne ar</w>
mex ican</w>
me hr</w>
loc ation</w>
kar te</w>
k ü
f an
entsch ul
e g
bi et
b al
ar y</w>
9 pm</w>
wieder holen</w>
whi pped</w>
w om
wom it</w>
verfüg bar</w>
vent i</w>
st u
re pe
kar ten</w>
j ack</w>
il s</w>
gu te</w>
bu che</w>
bewer tung</w>
betr ägt</w>
un ter
su s
ro ad</w>
repa ir
o me</w>
fi c</w>
es t</w>
d et</w>
d .
awes ome</w>
woll te</w>
to o</w>
schn ell</w>
repe at</w>
pl at
nor m
n en
men u</w>
lan ge</w>
ha wai
g ar
f un
di rec
ch te</w>
c an
c a
an sehen</w>
wünsch e</w>
un der
tschü ss</w>
ser ve</w>
revie ws</w>
p u
or i
o t
müs sen</w>
mit ta
ge t
chin ese</w>
a ir
12 3
uber x</w>
ti gt</w>
ter i
su re
stan dar
stad t</w>
st e
preferen c
pas st</w>
p s</w>
on al</w>
mid town</w>
ligh ts</w>
lex us</w>
ic a
i ma
ho t</w>
h ä
ge ho
at t
7 -
4 -
201 3</w>
weit ere</w>
vor zu
servier t</w>
ph il
i an</w>
ch i
caf e</w>
bewer tun
barbec ue</w>
b y</w>
b re
200 8</w>
wan ted</w>
s ent</w>
out door</w>
mo der
m s</w>
lun ch</w>
lo ver</w>
k las
i ver
gele gen
fre ien</w>
ein es</w>
bu ff
0 0
y ing</w>
wur st</w>
weit er
ti m
schö nen</w>
o li
m a</w>
k or
ja hr</w>
ich en</w>
ha ving</w>
h in</w>
gesamt summe</w>
g an
dro p</w>
d is
cho ose</w>
c ou
bewertun gen</w>
au to
at s</w>
3 50</w>
re kt</w>
re ally</w>
on ly</w>
ma cht</w>
lich en</w>
lich e</w>
h er
gre at.</w>
g el
f en.
erhal ten</w>
el ph
bac on</w>
aus ge
ar ri
201 5</w>
19 th</w>
. i</w>
wur de</w>
un gefä
sus hi</w>
stat us</w>
st all
op en</w>
mor ning</w>
mittel große</w>
inspe ktion
in to</w>
h and
gelegen he
f er</w>
entschul dig
entschuldig ung</w>
c u
br u
biet et</w>
be vorzu
6 -
1 3
. did</w>
z en
wei ß</w>
v il
st or
so und</w>
s gebühr</w>
s el
r an
na tion
ima x</w>
ihre s</w>
gre en</w>
ch ica
ben z</w>
ät ze</w>
wäh l
vor führ
to pp
tex as</w>
star s</w>
sa g
qu ot
quot ;</w>
n ice</w>
irgend welche</w>
ih n</w>
goo g
geträn k</w>
f le
f e</w>
chin es
br ing</w>
b ro
al it
8 8
1 1</w>
-4 56
& quot;</w>
war ds</w>
tim es</w>
st a
show time</w>
reparat ur
mobil gerä
ma g</w>
kau ft</w>
itali en
h ar
fun ktion
ese m</w>
doll ar</w>
di esem</w>
de l</w>
d am
dam it</w>
be a
ad d
9 -
überprü fen</w>
wat er
ungefä hr</w>
tr af
te il
standar d</w>
r ating</w>
preferenc es</w>
pre s
phil ad
philad elph
philadelph ia</w>
nor th</w>
need s</w>
mobilgerä t</w>
l l
kor rekt</w>
inspektion sgebühr</w>
hät ten</w>
he ad</w>
goog le</w>
fe bru
fahrzeu g</w>
ch net</w>
buchstab ieren</w>
a qu
1 3</w>
1 2</w>
zus ätz
y l
u c
tex ted</w>
r it
pl a
on es</w>
no te</w>
loc ated</w>
las t</w>
h or
h ere</w>
ges end
fin det</w>
f ol
di es</w>
d et
be im</w>
auf ge
. is</w>
ze iten</w>
wat ch</w>
w on
tex t</w>
se ar
reservier en</w>
pre is
per son</w>
m ay</w>
m an
is su
inter nation
i ge</w>
doll ar
d urch
br äu
at ely</w>
aqu am
aquam an</w>
air port</w>
af ter</w>
3 6
2 5
w under
w er</w>
t l
sol d</w>
se a
sa gt</w>
s in
p ri
lie b
könn te</w>
itt le</w>
ho le</w>
he ar</w>
h er</w>
gesch ick
gerich te</w>
ch a</w>
be findet</w>
bal d</w>
ad d</w>
ac tu
a b</w>
8 9
4 0
2 2
ö ff
wo hin</w>
wieder sehen</w>
ven ue</w>
ve h
veh ic
vehic le</w>
uc cin
traf fic</w>
t .</w>
stimm t</w>
stea k
spi el
repair s</w>
r x</w>
proble me</w>
le a
l ittle</w>
ei ther</w>
chica go</w>
ch en
c ri
ar d</w>
3 d</w>
ver kauft</w>
topp ings</w>
spe is
serv ice</w>
sear ch</w>
plat z</w>
k tion</w>
ho u
hin zu
ges sen</w>
ge sagt</w>
g s</w>
e .</w>
dollar s</w>
aus verkauft</w>
ab end
a head</w>
won der
sitz gelegenhe
si ve</w>
pas sen
p ing</w>
mo del</w>
mo cha</w>
l ok
l a</w>
k en</w>
k an
inspe ktion</w>
g le
ein fa
e sti
bur ger</w>
book ing</w>
b ie
auf geben</w>
af ter
a re
a .
2 8
ze i
wa hl</w>
verfüg bar
th an</w>
t ac
sea food</w>
passen gers</w>
oli v
k ür
ick er</w>
ho ping</w>
ein mal</w>
dauer n</w>
dar f</w>
ch en.
as on</w>
a gen</w>
4 4
. .</w>
w hole</w>
vor lie
ung s
uccin o</w>
to wards</w>
te .
t or
st ehen</w>
st ar</w>
sitzgelegenhe iten</w>
sa gi
s ele
s ay</w>
pre fer</w>
pas sagi
par k</w>
par k
neh me</w>
mitta gessen</w>
min s.
m ind</w>
kür ze</w>
kü che</w>
ko re
k a</w>
i c</w>
g h</w>
et a</w>
es pres
er fahren</w>
des cri
da te</w>
at eg
al en</w>
actu ally</w>
ac c
- 7
weiter helfen</w>
vorführ ung</w>
verstan den.
uhr .
sou th</w>
se as
schedu led</w>
pl ätze</w>
o und</w>
n t</w>
lieb hab
lei der</w>
klas se</w>
iti onal</w>
glu ten</w>
g n
fre i</w>
fle isch
en s</w>
ein ige</w>
dis h
dev ice</w>
det a
d icker</w>
d ell</w>
c lu
bei den</w>
bea chten</w>
aufge geben</w>
ar ound</w>
ar i
amer ican</w>
a de</w>
überprü fen.
zen tr
you .</w>
wähl en</w>
wunder bar</w>
war ten</w>
w i
v al
spi der
spider -
sag ten</w>
s pa
r a
passagi ere</w>
nu n</w>
minu t
mex ikan
merced es</w>
le t
j ones</w>
ich es</w>
hn chen</w>
hinzu fü
hall o
ger e
fü n
fe w</w>
f all
do ch</w>
deta ils</w>
co ol
bräu chten</w>
bo o
bestä tig
b ri
b au
availab il
after no
abhol bereit</w>
7 -4
5 7
ö l
ä ge</w>
z wie
we e
w n
theat ers</w>
steak house</w>
s qu
s and
plac ed</w>
n i
lo s</w>
k lich</w>
k et
ic al</w>
hi er</w>
h en.
g arden</w>
er t</w>
ein .
der n</w>
d ing</w>
bl ack</w>
bau jahr</w>
arri ve</w>
an o</w>
ag ain</w>
2 4</w>
. and</w>
wir klich</w>
vor bei
vil le</w>
ver age</w>
urch as
th ese</w>
stä n
stall ing</w>
sp ät
so wie</w>
sha red</w>
sau ce</w>
sand w
preferen ce</w>
p urchas
p m.
o ver</w>
m is
liebhab er</w>
li ght</w>
je doch</w>
g i</w>
fi ve</w>
fan ta
din ner</w>
chan ge</w>
c ap
c anc
b ou
9 1
5 0
21 5-
öff net</w>
äu ft</w>
wor ks</w>
wh o</w>
t ly</w>
t lich</w>
spe zi
sich er
ser i
s end</w>
re st</w>
r ated</w>
pl us</w>
p op
ma de</w>
j ef
ic es</w>
hat te</w>
h m
goo d
fu l</w>
f ast</w>
es s</w>
er en</w>
durch schn
dr in
da bei</w>
cou r
canc el</w>
c -
aus gebucht</w>
app uccino</w>
an a</w>
afterno on</w>
abend essen</w>
a venue</w>
a ch</w>
9 9</w>
30 pm</w>
3 3</w>
201 4</w>
. ..</w>
zentr um</w>
w a</w>
vorlie ben</w>
ve get
th a
t on
st er</w>
serv ing</w>
schein t</w>
sandw iches</w>
re i
r en</w>
pri ma</w>
pr o</w>
of fer
o ff
need ed</w>
lat er</w>
l s</w>
ke e
japan ese</w>
j am
issu e</w>
ing ton</w>
ic s</w>
hinzufü gen</w>
he ad
hand y</w>
ea ch</w>
e y</w>
durchschn itt
dri ve</w>
d ur
cl os
char ac
ch ain</w>
car am
buff et</w>
bo ston</w>
bevorzu gen</w>
bestätig ung</w>
be d</w>
b j</w>
au ß
ander es</w>
a verage</w>
8 6
7 .
123 -456
ur a</w>
un d
teil en</w>
sure .</w>
si on</w>
sh or
se ch
s ein.
rec i
re ichen</w>
p in
no ti
m einen</w>
lie fer
ke it</w>
j al
h au
fu ll</w>
fleisch liebhaber</w>
f lu
einfa ch</w>
ei gen
do wn
do e</w>
dish es</w>
descri bed</w>
del iver
charac teri
caram el</w>
be t
b ay</w>
are a</w>
ar be
app reci
9 9
zwie bel
wünsch en</w>
tr y</w>
ti ge</w>
th in
te l</w>
t al
si x</w>
ri e
r au
pro vi
pr ä
pl an
pep per
mo dell</w>
mi ke</w>
ma te</w>
kom m
k it
k auf
jal ap
internation al</w>
gesend et</w>
geho f
gehof ft</w>
g ol
fall s</w>
ex c
et wa</w>
et .
do g</w>
deliver ed</w>
de st
dan k
chin a</w>
buc k
bestell t</w>
b att
availab le
at es</w>
as si
ange l</w>
amer ic
alit a</w>
zwiebel n</w>
ze it
z o
w ine</w>
voll milch</w>
un for
unfor tun
unfortun ately</w>
ta g
speis e
seri es</w>
pi c</w>
order .</w>
no w
mus h
mush ro
m ich
m ac
hi gh
h m</w>
gen i
for t
dur ation</w>
d -
boo th</w>
be vor</w>
b it</w>
at .
appreci ate</w>
amer ikan
ab ly</w>
zei gt</w>
y le</w>
w in
vor nehmen</w>
veget ar
ter mins</w>
su b
ster nen</w>
stell en</w>
st yle</w>
st .
speise karte</w>
speci al</w>
sp ac
pp ing</w>
pleas e.
ordn ung
mö gen</w>
me er
meer es
meeres frü
li ve</w>
le go</w>
kau fen</w>
jam es</w>
ing .
i g
hor n</w>
hawai ian</w>
gr ill
gol den</w>
gen .
ge öffnet</w>
g ha
esti mate</w>
em s</w>
ein kauf
dün ner</w>
dest in
confir m
bit te.
bel äge</w>
be er</w>
as u
ac ura</w>
a u</w>
5 2</w>
3 er</w>
. möchten</w>
- 6
ät zen</w>
wes t</w>
verfügbar keit</w>
ur y</w>
tur n
tr ad
t in
spät er</w>
sp an
re qu
r d
prä feren
pen sive</w>
ok .
ni ght</w>
li ed</w>
le ft</w>
l as</w>
it s</w>
in side</w>
ill a</w>
hör en</w>
ho tel</w>
h ü
gh t.
geschick t</w>
gere chnet</w>
f ul
ex pensive</w>
espres so</w>
einkauf s
e at
dün ne</w>
din ing</w>
com es</w>
characteri st
c asu
buch ung</w>
auto s</w>
ar ten</w>
app lied</w>
7 pm</w>
3 5
1 21
. 00</w>
- down</w>
ö l</w>
you. can</w>
veg as</w>
tr ying</w>
ti c</w>
t all</w>
st ation</w>
sit -down</w>
se ems</w>
sch af
s ar
restauran t
rei b
rd x</w>
purchas e</w>
provi de</w>
proble ms</w>
pre ss</w>
per bac
p le</w>
ori ze</w>
nen nen</w>
mac chi
ma y
m et
m es
lin col
le icht</w>
in o
in nen
hou ston</w>
fün f</w>
famil i
ex press</w>
einkaufs zentrum</w>
e st
dies es</w>
da für</w>
characterist ics</w>
casu al</w>
c appuccino</w>
bewer tet</w>
betr ag</w>
bestä tigt</w>
availabil ity</w>
an gerechnet</w>
4 2</w>
12 3</w>
00 pm</w>
z wis
zwis chen</w>
wo che</w>
vorbei bringen</w>
tun e</w>
squ are</w>
spa ß</w>
so y</w>
sech s</w>
se he</w>
s pr
rie ben</w>
reib ung</w>
pre ise</w>
p ul
op en
oni ons</w>
n s
merced es
mercedes -
mechan ical</w>
mechan ic</w>
ma in</w>
lin ks</w>
le v
kin ok
kin der
jef f</w>
isch er</w>
hl en</w>
hat ten</w>
h app
gesch ä
f l
es n</w>
do esn</w>
da von</w>
col or
cinem a</w>
cent ury</w>
c lass</w>
c ateg
categ orize</w>
bou lev
bl ick</w>
bi er</w>
betr agen</w>
americ ano</w>
am bi
8 th</w>
öl le
zwe iten</w>
z a
you. i</w>
wo od</w>
wel com
un der</w>
thin king</w>
th er
t ty</w>
t s
sure .
stor n
st a</w>
show times</w>
sch ön
s pre
s an
rau m</w>
ran ge</w>
p ap
mins. did</w>
mercedes- benz</w>
mechan ische</w>
may be</w>
m einer</w>
lo t</w>
lincol n</w>
kit chen</w>
kin os</w>
k rit
italien isches</w>
in door</w>
ic ke</w>
ho ff
har b
groß en</w>
gro ß</w>
gluten freie</w>
funktion iert</w>
frü h</w>
fre i
fort fahren</w>
flu gha
el d</w>
eat er
direc ted</w>
cinem ar
cinemar k</w>
c- klasse</w>
c ru
bur gers</w>
buck horn</w>
brau cht</w>
bie ten</w>
besch reibung</w>
batt le</w>
b lei
an os</w>
add itional</w>
a ti
555- 555-
555- 21
4 2
. do</w>
ze ich
z er
ye ar</w>
wä ren</w>
we en</w>
w al
vorstell ungen</w>
ver ste
tur n</w>
storn ieren</w>
sti c</w>
st o
spac e</w>
soll en</w>
so j
sit zen</w>
sho pping</w>
sel b
sch lie
s y</w>
re ach</w>
perbac co</w>
pap ri
p un
offer ing</w>
norm al
mög lich
mit teilen</w>
m ent</w>
lok al</w>
loc al</w>
lea king</w>
kinok arten</w>
ket te</w>
k re
in d
im mer</w>
hallo .
good bye</w>
geho ben
fri end
fre und
flugha fen</w>
febru ary</w>
febru ar</w>
famil y</w>
er reichen</w>
en .</w>
eater y</w>
e ar
der zeit</w>
de fin
da y
che ck
buch en.
boulev ard</w>
bet ween</w>
a to</w>
. ist</w>
zie l</w>
yl van
wh y</w>
we g
water bar</w>
w ere</w>
w as
ver ke
ur b
unter -
un iver
u er</w>
tha i</w>
t or</w>
su chen.
ster ne
ster n</w>
st s</w>
servier en</w>
sch on</w>
sch en</w>
reparatur kosten</w>
prob ably</w>
pre tty</w>
pepper s</w>
pen ns
penns ylvan
out .</w>
ou gh</w>
order ed</w>
ok ka</w>
nach namen</w>
m okka</w>
liefer n</w>
le y</w>
l ist</w>
k es</w>
it ed</w>
ir d</w>
in s
hm m</w>
hei ß</w>
happ y</w>
gesamt betrag</w>
gan z</w>
g ine</w>
g in
ful ly</w>
friend ly</w>
fin den.
fi eld</w>
f ish</w>
f and</w>
er sten</w>
er st
ell e</w>
e stim
direc tions</w>
di an</w>
confirm ed</w>
co unter-
co ck
cock ta
cl ose</w>
be st</w>
aus sich
all en</w>
ac com
a -
7 3
2 6</w>
2 4
121 2</w>
1 8
. und</w>
- pizzen</w>
- 8
ölle ck</w>
ö r
zie ht</w>
wonder ful</w>
wa hr
viel leicht</w>
vie w</w>
uhr zeit</w>
to m</w>
th at.</w>
th at.
te m
t. kann</w>
spec k</w>
sho ps</w>
sele ct</w>
sa me</w>
s un
re s</w>
pu t</w>
pro c
pennsylvan ia</w>
pas sen</w>
order ing</w>
norm ale</w>
no ise</w>
mit tl
mer k
m ä
kee ps</w>
k no
in clu
ho me</w>
hawai i</w>
gu t.
funktion ieren</w>
for t</w>
fe at
f fer
exc ell
er st</w>
en c
eigen tlich</w>
drin nen</w>
down town</w>
di gen</w>
d one</w>
con tin
color a
colora do</w>
c las
bu sy</w>
besch rieben</w>
be sten</w>
be finden</w>
b ele
appointm ent.
ab zu
9 .
8 pm</w>
6 .
4 8</w>
1 4
. ok</w>
- free</w>
än dern</w>
zie m
ziem lich</w>
x i</w>
weg beschreibung</w>
wee k</w>
war tung</w>
wahr schein
wahrschein lich</w>
verste he</w>
ver suche</w>
urb an</w>
u t</w>
ter min
telef on</w>
tac os</w>
t a</w>
t -
stea k</w>
st eht</w>
seas ons</w>
sch au
ro ad
pla ying</w>
off er</w>
o a
nam ens</w>
nach sehen</w>
n ap
mushro om
mi kun
mikun i</w>
merk m
men ü</w>
meeresfrü chte</w>
mechan ik
macchi ato</w>
m einem</w>
m ein
m c
lie gt</w>
kru st
k ur
j an
jan u
ing .</w>
i st.
hn chen
har r
hal b</w>
gr und</w>
gle ich
g lau
excell ent</w>
en gine</w>
e is
den ver</w>
d icke</w>
d ale</w>
cool .
com p
can .</w>
c ur
bo y</w>
bo b</w>
blei bt</w>
b as
aus wahl</w>
as se</w>
abhol ort</w>
8. 30</w>
6 6
5 4</w>
5 .
3 9</w>
2 4.
2 3
-4 4
ä ch
x l
we ise</w>
ve l</w>
van illa</w>
v oll</w>
ter r
ta in</w>
t ro
ster ne</w>
spiel t</w>
spider- man</w>
soj amil
so on
sin n</w>
serv es</w>
se hen.
se ats</w>
s s
s it</w>
s cal
scal e</w>
plan en</w>
peop le
pa ti
ne u
mushroom s</w>
mar ke</w>
m ost</w>
ll t</w>
lich ter</w>
lich es</w>
la den</w>
l ing</w>
l es</w>
kore an</w>
kore an
kan n
k i
ja .
ins gesam
insgesam t</w>
hä l
hä hnchen</w>
hei ße</w>
glau be</w>
gerich ten</w>
geni al</w>
fanta st
fahr ers</w>
e ats</w>
d ates</w>
che ese
ch il
c are</w>
c a</w>
ausge zeich
aus wählen</w>
ap ol
an kommen</w>
abhol t</w>
a ten</w>
89 0</w>
8 0
45 pm</w>
4 6</w>
. would</w>
ü ck
zer o</w>
z on
zon a</w>
y es.
y -
wh ite</w>
we ch
war um</w>
vor aussich
ver wen
ver stän
verstän d
verständ lich</w>
us ch</w>
un ited</w>
to gn
togn a</w>
tig ten</w>
th ird</w>
te il</w>
st verständlich</w>
sojamil ch</w>
show ings</w>
sh all</w>
set zt</w>
selb stverständlich</w>
sch ätzen</w>
sa is
sa fe</w>
ro om</w>
ro ll
repar ieren</w>
re ason</w>
r p
pun kt</w>
po t</w>
plac es</w>
pe et</w>
pa sta</w>
pa es
paes anos</w>
oliv es</w>
oliv en</w>
n a</w>
moment. i</w>
mis sion</w>
minut es.
merkm ale</w>
mechanik er</w>
me at
mar k
m and
look ed</w>
lea k</w>
lan e</w>
komm t</w>
kar am
j ason</w>
is schen</w>
hö he</w>
hoff e</w>
ho ur</w>
ho me
hel lo
hei ßen</w>
head ing</w>
harb or</w>
hal f</w>
go gi</w>
gerä usch</w>
ger ade</w>
ge gen</w>
g l
frei er</w>
fl ori
et t
estim ated</w>
er ien</w>
entsch ei
e ver</w>
dr it
di en
des ser
defin it
cu is
cour se</w>
cou ple</w>
cockta ils</w>
co togna</w>
c ul
benö tigten</w>
b isschen</w>
b are</w>
at o
at m
ari zona</w>
add ed</w>
accom mo
a tion
a ren
a ir</w>
9 0
55 5</w>
55 55</w>
4 8
3 1
zus am
z ä
wh e
we il</w>
w r
w ein
verke hr</w>
ver al</w>
univer s
univers ity</w>
un de</w>
um fan
umfan gre
ton y</w>
to tal
than k
tem por
tempor ary</w>
t at
stu hl
stor e</w>
stea d</w>
stat t
st ill</w>
sp ot</w>
some where</w>
sele c
se veral</w>
se kun
schö n</w>
schaf ten</w>
sch war
ro man
reserva tions</w>
präferen z</w>
pr iced</w>
par king</w>
p et
ou s</w>
ou r
open ing</w>
no ch
ne e</w>
n ic
moder n</w>
me hr
lo w
lan gen</w>
l äuft</w>
ke iten</w>
jalap en
is .</w>
inter es
in stead</w>
in f
ic o</w>
hü hnchen</w>
ho ur
h u
gluten -free</w>
gebu ch
fr a
ffer ent</w>
f ar
er le
ent spre
ell er</w>
ell en</w>
el t</w>
e ver
do s</w>
di fferent</w>
den n</w>
den en</w>
d or
d on
cuis ine</w>
con temporary</w>
comp any</w>
com ple
col d</w>
cho col
cap tain</w>
buchstab iert</w>
bec au
becau se</w>
atm os
an kun
an bietet</w>
accommo date</w>
8 8</w>
4. 4</w>
4 4</w>
22 .
21 -
2 3</w>
. should</w>
. how</w>
y ak
wur den</w>
wonder ing</w>
vi r
verfüg bare</w>
v en</w>
up scale</w>
un s
um geb
u p.
ty p
turn s</w>
tom ato
te uer</w>
t ren
sub mit
su pre
supre me</w>
st ate</w>
speci al
si m
sa che</w>
s h</w>
s am
requ est</w>
qu ick</w>
pu b
par t</w>
papri ka</w>
p m.</w>
on t</w>
o y
nu t</w>
ne s
n ich
nich ts</w>
mit tag</w>
mil ch
mich a
micha el</w>
me al</w>
mar y</w>
mar vel</w>
m at
li c</w>
let z
l ä
krit erien</w>
ko gi</w>
k r
k al
iti on
is n</w>
inf o</w>
in ken</w>
ill ino
ho pe</w>
hi gh</w>
h re</w>
h am
gu ess</w>
gluten freier</w>
ge stell
g an</w>
fu n</w>
fre sh</w>
fr ont</w>
fr age</w>
flori da</w>
fe st
fantast isch</w>
f ä
f at</w>
ein g</w>
ed .</w>
dri vers</w>
do ing</w>
definit ely</w>
d ish</w>
d essen</w>
d .</w>
contin ue</w>
co yo
ch u
ch n
ca .</w>
bri d
bre w
bil ly</w>
bel äuft</w>
bel ie
be stimm
available .</w>
ausgezeich net</w>
atmos ph
assi stan
am i</w>
9 7
9 0</w>
7 7
7 3</w>
7 0
555-555- 5555</w>
5 3
33 3</w>
3 6</w>
20 2
202 -456
0 -
. okay</w>
. in</w>
- 2
ün sti
zusätz lichen</w>
zu ges
zuges and
wr ong</w>
wee k
we stern</w>
wa it</w>
ver se</w>
ungs zeit</w>
ung .
total .</w>
tomato es</w>
tom aten</w>
t to</w>
t re
sterne -
st yl
st il
spider- verse</w>
spezi alit
soll ten</w>
serv ic
seas onal</w>
sch e</w>
s si
s k
revie w</w>
proble m.
pin e
pine app
pick ing</w>
p ol
ou ble</w>
ordnung .</w>
ord ung</w>
option s.</w>
now .
noch mal</w>
nam on</w>
n y</w>
min ute</w>
mexikan isches</w>
mes sage</w>
ma kes</w>
m as
la x</w>
la ge</w>
kur z</w>
joh n
j u
it y.
isch em</w>
inter est
illino is</w>
home made</w>
her aus
großar tig
gleich falls</w>
gesend et.
geschä ft</w>
ge gen
ge dre
gedre ht</w>
g ünsti
g s
fra gt</w>
fr ank</w>
fest gele
fanta stic</w>
famili en
fahr preis</w>
f it</w>
ever ything</w>
es .</w>
en te</w>
ear li
ea p</w>
dro pped</w>
destin ation
de p
de e
dau er</w>
dar über</w>
cin namon</w>
chines isches</w>
ch eap</w>
buff al
bestell en.
bestell e</w>
benö tigt</w>
anc e</w>
an an
amp el
ab bie
a ve</w>
a h</w>
a cht</w>
9 2
8 .</w>
40 pm</w>
4 th</w>
4 6
30 am
21 .
15 pm</w>
1 8.
- pizza</w>
äu sche</w>
ä t</w>
zu l</w>
z im
y s</w>
y o</w>
y .</w>
x ville</w>
water front</w>
w ein</w>
verfüg ung</w>
ver suchen</w>
ver re
verre chnet</w>
v ely</w>
us ing</w>
up dates</w>
trad ition
ti me
terr asse</w>
teri yak
t t</w>
t ab
submit ted</w>
styl ish</w>
sto p</w>
sterne- bewertung</w>
stea ks</w>
statt dessen</w>
starbuc k
stall s</w>
sta dium</w>
so tto</w>
set zen</w>
sal ad
salad s</w>
sais on
rp x</w>
ro ck
ri des</w>
ri de
re ise</w>
ran ch</w>
r o</w>
pre fer
pop pin
poppin s</w>
pizz as
pi att
piatt i</w>
per oni
pen n</w>
pe peroni
p at
pat xi</w>
or lan
orlan do</w>
o let
olet ana</w>
o a</w>
nu t
nap oletana</w>
na than</w>
mit nehmen</w>
minut en.
mar k</w>
mar gar
margar it
ma king</w>
m ul
m are</w>
lo ver
lan g</w>
kno xville</w>
kl and</w>
ki ds</w>
k ong</w>
k on
k ok
k le
k auf</w>
j er
ic y</w>
i g</w>
i d
hol ly
hil ls</w>
hau p
h ong</w>
h ill</w>
go es</w>
ger äusche</w>
gel es</w>
gel an
ge teil
ge macht</w>
ge fragt</w>
ge br
g ä
fer nt</w>
fahr t
f ts
f ac
ett i</w>
er weise</w>
er lau
entschei den</w>
ent fernt</w>
ein tr
e ast</w>
durchschnitt s
dar auf</w>
da chte</w>
d y</w>
d n</w>
d it
cr it
counter- serve</w>
con ut</w>
co de</w>
co conut</w>
clu b</w>
clas si
cho ice</w>
ch am
buffal o</w>
brew house</w>
bo den</w>
bl on
bevorzu g
bere it
bere ich</w>
be son
assistan ce</w>
ange bo
anan as</w>
an y
an geles</w>
ampel n</w>
ambi ente</w>
ab geben</w>
a zul</w>
91 6-
91 6
7 7</w>
5- 4
5 pm</w>
4, 4</w>
4 1</w>
30 -8
123-456 -7
0 5</w>
. soll</w>
än gi
zusätz liche</w>
zusätz lich
zusam men</w>
ven ti
ven ing</w>
ve -
val u
valu ation</w>
ul ar</w>
ty p</w>
tun e-
tune- up</w>
trad itional</w>
tion .</w>
ter ms</w>
ten sive</w>
tat s
tats äch
ta qu
su g
spiel zeiten</w>
set .</w>
sen den</w>
se um</w>
schau en</w>
sa ig
saig on</w>
s karten</w>
roman tic</w>
road house</w>
ri ght.
reservier ungen</w>
re turns</w>
qu e</w>
pi er</w>
pe l</w>
on g
on e.
ome .</w>
om m
ol d</w>
norm alen</w>
nach mittag</w>
möglich keiten</w>
mu seum</w>
le ge</w>
l le</w>
kü hl
krust e.
kost en
karam ell
k en
k ateg
kateg or
k as
japan ische</w>
jalap e
jalape ñ
j im</w>
itt skarten</w>
interes si
in n
hour s</w>
holly wood</w>
he ar
groß er</w>
geträn ke</w>
gestell t</w>
gen au</w>
ge zeigt</w>
ge kühl
g lich</w>
g es</w>
frü he
fol gen
fi x
fahr ten</w>
ex tensive</w>
ent s</w>
end ing</w>
en e</w>
en ds</w>
eis gekühl
eintr ittskarten</w>
ei d</w>
e vening</w>
e valuation</w>
durchschnitts preis</w>
drit te</w>
dr auf</w>
dr ag
drag on</w>
der s</w>
der en</w>
dar an</w>
da y.
crit eria</w>
clos er</w>
classi c</w>
che .
char ge</w>
c all</w>
besch eid</w>
b or
awes ome.</w>
assi st
as i
arbe iten</w>
ar ti
am pel</w>
all o
al mon
ac le</w>
a ch
6 0
5 6</w>
4 pm</w>
12 .
. it</w>
. brauchen</w>
ä ten</w>
ä re</w>
zusätzlich em</w>
z um
wi thin</w>
wh en
when ever</w>
welcom e.
wein karte</w>
was h
wash ington</w>
war en</w>
voll stän
vi es</w>
van il
us s</w>
ur ing</w>
un ge</w>
um s</w>
tl and</w>
ti l</w>
ther e.
teriyak i</w>
te a</w>
tag morgen</w>
t. brauchen</w>
t lichen</w>
t liche</w>
t is
su cht</w>
stu di
st ü
st unden</w>
st op
st ag</w>
soon est</w>
so bald</w>
shor tly</w>
shor t
serv ed</w>
ser en
seren ity</w>
sekun de</w>
se y</w>
schön es</w>
sal ate</w>
sa m</w>
sa chu
sachu set
s ir
ro ber
rest one</w>
reparatur en</w>
re on</w>
r z</w>
r at
qu i
prü fen</w>
pr ices</w>
por tland</w>
por t
po ol
pla z
pineapp le</w>
pati o</w>
p al
oy ster</w>
oa kland</w>
o hne</w>
nor mal</w>
ne m</w>
n d</w>
mä rz</w>
mon tagmorgen</w>
mom oa</w>
mit fahr
mis s</w>
met reon</w>
mehr ere</w>
me an</w>
mas sachuset
mark et</w>
margarit as</w>
mand el
ma dis
madis on</w>
m ol
lä ssi
lo ve</w>
lo unge</w>
lo gan</w>
lin t</w>
l ine</w>
kok os
kategor is
kal t</w>
k id</w>
k er</w>
jo ey</w>
irgend wo</w>
interest ed</w>
intel li
ic i
hä hnchen
high way</w>
he ard</w>
ha d</w>
h un
goo d.
gh ting</w>
gegen d</w>
gef allen</w>
ge mü
ge mein
g all
fts zeit</w>
frü h
fi restone</w>
fi ghting</w>
familien freund
famil y-
fahr er
f te</w>
f lint</w>
f all</w>
es sen
es cap
escap e</w>
erhal b</w>
er dem</w>
en de</w>
em p
ein stu
ein s</w>
ein rich
eg ri
e pic</w>
e f</w>
dor thin</w>
destin ation</w>
dep ending</w>
den .</w>
dee p</w>
da cht</w>
d all
dall as</w>
cu z</w>
cru st
col lege</w>
cl ay</w>
chocol ate</w>
c kt</w>
c ke</w>
bur rit
bur ma</w>
blon de</w>
bere it.
be sor
be ef</w>
b un
b order</w>
auß erdem</w>
auß en
au tom
as a
asa p</w>
arti sts</w>
ankun ftszeit</w>
allo w</w>
al ex
al egri
ad a</w>
acc es
ab geschickt</w>
a w
9 21-
9 1</w>
7-4 7
7 4
6 pm</w>
57 0-
570- 19
56 8
56 4-
5 7</w>
5 13
45 .
4 3</w>
33 33</w>
3 8</w>
22 2-
222- 3333</w>
2 8</w>
123 4</w>
11 1-
111- 222-3333</w>
1 7.
1 4.
0 40</w>
. the</w>
-6 9
überprüfen. es</w>
zu geschickt</w>
zu geschick
zu ck
xl -
welcom e.</w>
w einen</w>
vor bei</w>
veg an</w>
v ol
un til</w>
umgeb ung</w>
u res</w>
tor i</w>
theat re</w>
thank s.</w>
th ing.
t en.
spezialit äten</w>
speci fic</w>
sitz plätze</w>
set ting</w>
serv ices</w>
se s
se l</w>
se en</w>
sch inken</w>
sal s
sa ke</w>
s y
s ports</w>
re chn
rechn ung</w>
pul ling</w>
pu b</w>
prob ieren</w>
pop ular</w>
plaz a</w>
plat es</w>
pl ant</w>
park er</w>
p .</w>
os e
or te</w>
or acle</w>
oli ve</w>
o ak
no thing</w>
n ch</w>
mol ine</w>
mo tor</w>
mo od</w>
mins. do</w>
mich ig
michig an</w>
mi ght</w>
meat lovers</w>
me di
mar ch</w>
lie gen</w>
kru sten</w>
kom ple
kl ar
kee p</w>
k ico</w>
k a
jalapeñ os</w>
jalapen os</w>
j e</w>
internation alen</w>
intelli gen
in t</w>
in s</w>
in k
ic e.
häl fte</w>
ho l</w>
harr is</w>
hab en.
ha m</w>
h men</w>
gu tes</w>
grö ß
gre e
gluten frei</w>
get ting</w>
gesch ätz
gesch e
gesche hen.
gef un
gebr acht</w>
ge sucht</w>
ge plant</w>
ge dacht</w>
fre nch</w>
fol low
fle isch</w>
fac tor
fa hre</w>
f isch</w>
f as
et it</w>
espres so
erle di
er zä
er al</w>
ent .</w>
einstu fen</w>
ein zi
drin ks</w>
di dn</w>
den ken</w>
da zu</w>
chines ische</w>
ch air</w>
caf fe</w>
c up</w>
c le
c en
bi g</w>
ben ach
benach rich
be l</w>
au ßen</w>
app etit</w>
an der</w>
almon d</w>
al ko
al -
acces sible</w>
abge setzt</w>
a v
6 0</w>
4 8.
36 .
3 4</w>
3 .
21 .00</w>
123-456-7 890</w>
öl wech
ölwech sel</w>
än der
ä hn
zu g</w>
zu erst</w>
zo o</w>
zo cal
zocal o</w>
zeit punkt</w>
za hl
z w
z er</w>
yo n</w>
y up</w>
x im
x -
wo hl</w>
win es</w>
whe el
wer den.
weit er</w>
we it</w>
we gs</w>
we der</w>
water boy</w>
voraussich tliche</w>
vollstän digen</w>
vir gin
virgin ia</w>
vil lage</w>
vi d</w>
verwen den</w>
verein b
vereinb aren
val enc
valenc ia</w>
v ino
vino te
vinote ca</w>
v ed</w>
ur ate</w>
unter wegs</w>
ungs zeiten</w>
ul ing</w>
u re</w>
tro lle</w>
toni ght.
to p</w>
th ats</w>
teri or</w>
tel y</w>
te qu
tequ il
tatsäch lich</w>
taqu eria</w>
t wo
t isch
su n</w>
studi o</w>
stil voll
stad t
sta di
st ri
span ne</w>
spa gh
spagh etti</w>
sou th
sin d.
sicher stellen</w>
ses sion</w>
sched uling</w>
sch ätz
san ta</w>
s lan
slan ted</w>
s ko
sko ol</w>
s il
s f</w>
s co
s -
ru e</w>
roll stuhl
rich t</w>
ri ver
ri ders</w>
repair .</w>
r el
qu esti
pul ls</w>
pub lic</w>
preis spanne</w>
pol icy</w>
pla y
pizzas .</w>
pil zen</w>
pi gn
pign ons</w>
perfe c
per i
p ho
pho en
phoen i
on line</w>
nä her</w>
neu en</w>
ne v
natür lich
nach sehen.
nach schla
na cht</w>
n ten</w>
n ar
mo vies</w>
mittl ere</w>
mitfahr gelegenhe
min g
mexikan ische</w>
massachuset ts</w>
ma ger
m eines</w>
lok ale</w>
loc k
lo w</w>
lie ber</w>
le pic</w>
le -
lau f
l os
l and
kre dit
kr u</w>
kokos milch</w>
kle in</w>
klar .
kl are</w>
kinder freund
john son</w>
jer sey</w>
je den</w>
janu ary</w>
janu ar</w>
italien ische</w>
it al</w>
issu es</w>
interessi ert</w>
inspec tion.</w>
innen stadt</w>
in di
id le</w>
i de
hou se
ho ch</w>
hil ton</w>
h ausge
h an
gä be</w>
großartig .</w>
gro und</w>
gree k</w>
gle ich</w>
geschätz te</w>
gebuch t.
ge he</w>
ge braucht</w>
g ab
fr agen</w>
follow ing</w>
folgen den</w>
fo o
fin ding</w>
fi x</w>
festgele gt</w>
feat uring</w>
family- friendly</w>
famili ar</w>
fahrzeu gs</w>
factor y</w>
f è</w>
f f</w>
ex terior</w>
ex ac
erzä hlen</w>
er ho
entspre chen</w>
ent weder</w>
der ick</w>
da vid</w>
d it</w>
d i</w>
d at
cur ry</w>
cre dit</w>
coyo tes</w>
confir ming
clos est</w>
cham pignons</w>
car d</w>
can yon</w>
caf fè</w>
burrit os</w>
bro derick</w>
bro ad
bre ad</w>
br un
bit te
bere its</w>
bea ch</w>
be zug</w>
be suchen</w>
be ss
bb q
availabil ity.
auf nehmen</w>
auf führ
au gen
atmosph äre</w>
at lan
asi at
arbe it
an .
amerikan isches</w>
amerikan ische</w>
alegri as</w>
al co
acc urate</w>
abzu holen</w>
916 -44
9 th</w>
9 8</w>
8 6</w>
7- 86
7 5</w>
7 2</w>
7 ,
6- 3
6 5.
555-21 7-
555- 66
5 30
45 6</w>
44 7-4
4 9</w>
30-8 00
3 pm</w>
3 30-800
3 2</w>
28 1-
281- 330-800
215- 88
21 2-
202-456 -
201 9</w>
1- 21
1 5-
1 4-
1 .</w>
- 9
ör tlichen</w>
zugeschick t.kann</w>
zim t</w>
z ung</w>
we ver</w>
we is
wa ch
w il
vorstell ungszeit</w>
vor sch
vereinbaren .
ver ag
verag es</w>
vegetar ische</w>
veg an
us i
up side</w>
umfangre ichen</w>
ul a</w>
uber -
tre f
tref fen</w>
tradition elle</w>
th ough</w>
termin e</w>
te te</w>
tag es</w>
t. ist</w>
t ä
t ische</w>
t ic
t ap
sug ge
sugge sti
suggesti ons</w>
su per
ste er
st unde</w>
st ra
st om
speis en</w>
so fort</w>
sit ting</w>
sir up</w>
sicher .
set t
schein end</w>
sch ätze</w>
sch ok
schok ol
saison alen</w>
s ü
ro ck</w>
rec omm
rec ie
re is
rat ings</w>
präferen zen</w>
prefer red</w>
pl ätzen</w>
pizz a.
pizz a
phoeni x</w>
person en.
p um
ou d</w>
os s</w>
or s</w>
oni g</w>
ok e</w>
nut zen</w>
ne .
nach name</w>
n te</w>
müs ste</w>
mushro om</w>
moment. ok</w>
mitfahrgelegenhe it</w>
mandel milch</w>
ma de
lo wer</w>
li g</w>
le g
le er
leer l
leerl auf</w>
la te</w>
l er</w>
l en
l der</w>
kä se
komm en.
kom me</w>
ko ja</w>
klas s
kl app
kinder menü</w>
karamell -
k -
j ed
intelligen ce</w>
in st
in dian</w>
ie fer
iefer t</w>
i gen
hon ey</w>
ho wever</w>
hi .</w>
haup trolle</w>
hand elt</w>
hal ten</w>
ha f
h onig</w>
h aus</w>
gro ve</w>
grill hähnchen</w>
gre en
gr u
gelan gen.
gel iefert</w>
gel d</w>
gefä llt</w>
ge ts</w>
gan ze</w>
fä llt</w>
frühe ste</w>
fri ends</w>
for dern</w>
for d
ford able</w>
fil ms</w>
fil e</w>
fer tig
feat ures</w>
fe hlen</w>
fahrer status</w>
f la
erledi gt</w>
erho ben</w>
er sch
eisgekühl t</w>
ein treffen</w>
earli est</w>
e- in</w>
e pt</w>
e ben
dün nem</w>
durchschnitt liche</w>
din e-in</w>
di ge</w>
dev ice.
des halb</w>
d ol
cu stom
cour t</w>
cool .</w>
comple tely</w>
chines ischen</w>
check ed</w>
c i
bu cht</w>
bou lder</w>
bitte .ich</w>
biet et.
belie b
be kann
b in
b ad</w>
ausge stat
at ur
assist ant</w>
as ian</w>
arri ving</w>
an scheinend</w>
an geben</w>
am a</w>
af fordable</w>
ad or</w>
abhol bereit.
9 2</w>
8 0</w>
7 9</w>
7 6
4, 50</w>
35 pm</w>
3 4.
281-330-800 4</w>
25 .
15 th</w>
15 .</w>
123-456 7</w>
10 pm</w>
. es</w>
. das</w>
. can</w>
än d
zz le</w>
zum o</w>
zu gestellt</w>
zu bringen</w>
zi el
zahl ung</w>
za hl</w>
z ö
z one</w>
yl and</w>
y am
yam al
yamal an</w>
x d</w>
wo o
wo für</w>
wo chen
wie viele</w>
we g</w>
wal nut</w>
wa gen</w>
vorbei zubringen</w>
vie ws</w>
verein bar
ver n</w>
vegetar ian</w>
v illa</w>
v ice</w>
v ari
us -
ur s
up .</w>
uhr -
u stri
tr ain</w>
toni o</w>
to day.
tl y.
ti more</w>
th urs
te igen
teigen schaften</w>
tab le
ta vern</w>
t ar
tar if</w>
sus hi
sun set</w>
sun f
sunf lower</w>
su san</w>
su gar
steer ing</w>
star ted</w>
standar d
stan dort</w>
stadi on</w>
st ro</w>
st il</w>
st ed</w>
st .</w>
squ e
sque e
squee ze</w>
spr it
sp ell
spell ing</w>
sol di
sm i
smi th
sin ce</w>
short bread</w>
sh yamalan</w>
servier t.
sen e</w>
selec ted</w>
secon d.
se at
sco t
schätz ung</w>
schlie ßen</w>
schlie ß
sch o
sch le
sals a</w>
sal ami</w>
sa ge
s we
s port
ro dri
river view</w>
ri gh
ri ding</w>
restauran teigenschaften</w>
regul ä
ran gi
r ück
r ates</w>
proc ess</w>
proc es
pm. which</w>
play ground</w>
pl u
pil ze</w>
pi re</w>
pi el</w>
pe ets</w>
par ts</w>
pa y
pa is
pais ano</w>
pa d</w>
p ur
p ti
p ost</w>
p -
out side</w>
oni on</w>
om men</w>
om in
om e.
o zumo</w>
o wn</w>
o ver
o .
näch st
now .</w>
normal erweise</w>
no t
nic ho
nicho las
nicholas ville</w>
nev ada</w>
nar row</w>
nach richt</w>
n ische</w>
n ick</w>
n erst
mä ß
mul van
moment. okay</w>
moder nen</w>
mo tor
mitta gs</w>
min t</w>
mil ls</w>
mid -
mi ami</w>
me i
mc don
mcdon al
mar yland</w>
mager milch</w>
ma chi
m ums</w>
m al
ly f
lu x</w>
liefer ung</w>
lich er</w>
li am</w>
letz te</w>
le field</w>
lau ten</w>
lau t</w>
la ke</w>
l amp
krit ik
kritik en</w>
komple tt</w>
kl einen</w>
kin der</w>
ken ne</w>
kas an</w>
k kasan</w>
k ele
je derzeit</w>
japan isch</w>
ja ke</w>
j ose
it. and</w>
is piel</w>
inn erhalb</w>
indi an
indian apol
indianapol is</w>
ind ustri
inclu de</w>
in ner</w>
im medi
ich e</w>
i very</w>
i red</w>
i el
i an
i -
hü hnchen
ho t
high er</w>
hi .how</w>
harr is
hallo. womit</w>
ha kkasan</w>
h a</w>
gre n
gr ü
good .</w>
gle ichen</w>
geschä f
geni al
gen s</w>
gen ommen</w>
gen dre
ge führ
gall eria</w>
fr an
fix ed</w>
finden. ich</w>
fi ed</w>
f ör
f usi
f ic
f ar</w>
ex amp
examp le</w>
essen s
es ch
er wäh
er wach
er n</w>
er er</w>
em pire</w>
ell o</w>
ed d
edd ar</w>
e z</w>
e her</w>
e bye</w>
dri zzle</w>
dr außen</w>
don nerst
di g</w>
del ivery</w>
day ton</w>
dank .
dan iel
d ouble</w>
d omin
confirming .</w>
com ing</w>
ck en</w>
cin e
chines isch</w>
chi p</w>
cheese ca
cheeseca ke</w>
ch ri
ch ill</w>
ch ick
ch eddar</w>
ch .
californ i
cal zone</w>
c us</w>
c amp
camp ana</w>
by ebye</w>
bur g</w>
bu y</w>
bu m
bre ak
break fast</w>
brau chte</w>
bo w
bo t
bi stro</w>
bestimm te</w>
bess er</w>
ber kele
bel t</w>
bel ag</w>
be verages</w>
be ispiel</w>
bb le</w>
bas ed</w>
barbec u
bal timore</w>
b lu
b lock
b ir
b eing</w>
b ab
b -
awes ome.
aw are</w>
autom o
auto werkstatt</w>
aus probieren</w>
at to</w>
aren a</w>
ar rangi
and a</w>
an zu
an tonio</w>
an fordern</w>
an bietet.
alex ander</w>
al fre
ab h
90 8
9- 97
88 -4
88-4 11
88-411 7</w>
8 13</w>
77 5-4
7 89</w>
6 7</w>
6 4
6 3
564- 21
564-21 14</w>
555- 1212</w>
50 pm</w>
50 -2
5- 8</w>
5 9</w>
5 88-4117</w>
5 8
447-4 040</w>
44 1-
4- 0
4 7</w>
4 15-
3 -4
25 pm</w>
24 20</w>
20 pm</w>
2 pm</w>
2 nd</w>
2 8.
2 .</w>
2 .
11 11</w>
10 -
-6 21
-4 53
- 3
ö n</w>
ängi g</w>
ä f
zö s
zugesand t.kann</w>
zei gen</w>
ze pti
z ü
z y</w>
you. one</w>
you. are</w>
yea h
wür gt</w>
wheel chair</w>
whe el</w>
wen det</w>
welcome. have</w>
wei ß
we gen</w>
wat er</w>
wan ting</w>
wan na</w>
w uns
wuns ch</w>
w ings</w>
w ing
w ass
wass er</w>
voraussich tlich</w>
vereinbar t</w>
veg gi
us- dollar</w>
unter suchen</w>
ung lau
unglau b
un t</w>
un gen
uhr .</w>
u su
usu ally</w>
u el</w>
tr ouble</w>
tr ink
trink geld</w>
to ge
toge ther</w>
tis che
tische cke</w>
ti p</w>
ti es</w>
ti er
thurs day</w>
tha il
thail änd
th ings</w>
tap as</w>
tal ula</w>
tag .
ta ke
t s.
t lin
t eller</w>
sy r
syr up</w>
suchen. ich</w>
stü ck</w>
stuhl ung</w>
starbuck s.
starbuck s-
stadt teil</w>
sta at</w>
st le
st and</w>
sprit zer</w>
spr u
spe a
sor te</w>
sk im</w>
si z
shor tly.
sha m</w>
servic e
service gebühr</w>
ser ve-
selec tion</w>
sel f</w>
se e.
se d</w>
se at</w>
schokol ad
schokolad en
scho ol</w>
schla g</w>
sch icken</w>
s n
s lot</w>
ru hi
ru fen</w>
rollstuhl gere
ro y
ro w
ro om
ro it</w>
ride .</w>
rich tlin
rich tige</w>
rich tig
reservier t</w>
requ est
reg is
regis se
recomm end</w>
recie pt</w>
re ih
re al</w>
ra w</w>
r y
r aus
questi ons</w>
qu ad</w>
pri va
pp chen</w>
plac ing</w>
pi es</w>
people .</w>
pay ment</w>
pa sta
p. m.
p k
p ay</w>
out post</w>
open ings</w>
noti eren</w>
normal es</w>
normal er</w>
no is
need ing</w>
ne ue</w>
ne t
ne ar
n .
moment. ich</w>
moder ately</w>
mittl erer</w>
mil k
men tion
me m
mat ador</w>
ma hl
m p
m on</w>
lun as</w>
lover s.
li ste</w>
li k
le b
lauf zeit</w>
lau fen</w>
l ust</w>
l en</w>
krust en
klapp en</w>
kinderfreund lich</w>
kategoris i
kategorisi ere</w>
ju n</w>
it. let</w>
irgend wie</w>
inter i
interi or</w>
infor m
im m
i gen</w>
hor sham</w>
hel fen.
hausge ma
h inter
h en
h ap
groß es</w>
gre at.
gre at
gr ün
gr ade</w>
go -
ger ne.
gend es</w>
gen au
geführ t</w>
geb en.
ge l</w>
ge fü
ge d</w>
g ant</w>
g ab</w>
g a
fre und</w>
fran zös
fr ischen</w>
fr au</w>
fr appuccino</w>
for m
fol ie</w>
fla vor
fin ish</w>
fin e.
fahrzeu g
fa vor
f isch
esch ön</w>
erwach sene</w>
ersch wing
erlau bt</w>
erlau ben</w>
er .
entschul digen</w>
ent span
ent e
emp fehlen</w>
ele gant</w>
ele gan
einzi ge</w>
einrich ten</w>
ein gren
eigen schaften</w>
e ch
dr a
donnerst ag</w>
do ors</w>
do gs</w>
direc tor</w>
dien ste</w>
di ert</w>
det roit</w>
desser ts</w>
desser t</w>
del ici
de at
deat h</w>
day s</w>
day .</w>
dat um</w>
dar k</w>
daniel s</w>
d ed</w>
cur ren
counter- serve-
con tac
comple te</w>
cho ices</w>
chi c</w>
chan do</w>
ch tung</w>
can a
cana dian</w>
ca jun</w>
c- class</w>
c er
brid ge</w>
brid ge
bl v
besor gen</w>
berkele y</w>
benachrich tigt</w>
bele g</w>
be stuhlung</w>
be ste</w>
bar t
bar -
availability. it</w>
automo dell</w>
ausgestat tete</w>
augen blick</w>
ati ve</w>
at ch</w>
as e</w>
ar il
appointm ent.</w>
any time</w>
angebo t</w>
ander s</w>
all er
all -
al together</w>
al s
al ready</w>
ak zepti
air s</w>
ad ul
ad diert</w>
ac ks</w>
ac i
abh ängig</w>
abbie gen</w>
abbie ge</w>
8 ,
570-19 20</w>
4. 5</w>
4. 50</w>
4. 3</w>
4 ;</w>
3 00</w>
2 4,
19 .
12 4;</w>
12 -
10 .
1 st</w>
1 6
. what</w>
. kann</w>
. does</w>
. alright</w>
& #
&# 124;</w>
über hau
überhau pt</w>
ähn liches</w>
äf tigt</w>
ä mp
zü glich</w>
zz ar
zugesand t</w>
zuck er
z wan
zwan gl
you -
you- can
you-can -
yo ur
y n</w>
y d</w>
y ant</w>
x 350</w>
wähl te</w>
wäh le</w>
wunder baren</w>
wor th</w>
wor king</w>
wis con
wiscon s
wiscons in</w>
wil liam</w>
wh it
whit ti
whitti er</w>
wer fer</w>
wen ig</w>
weiter machen</w>
week end</w>
wech sel
we d
wed nes
we b
wal th
walth am</w>
w on</w>
w ick</w>
w ell
vorführ ungen</w>
vor an
voran schlag</w>
vi c</w>
verwen det</w>
venti ve</w>
veggi e-
vegetar isch</w>
vanil le</w>
val ley</w>
v in</w>
v ated</w>
v al</w>
uns wick</w>
unglaub lichen</w>
un i
umfangre iche</w>
u ck
uck y</w>
tu es
tues day</w>
tren dy</w>
tr an
tr ag</w>
topp ing</w>
ton ese</w>
ton es
to day.</w>
there. how</w>
the ke</w>
thank s.
th y</w>
th r
th ou
tex t
text nachricht</w>
tequil a</w>
ten nes
tennes see</w>
ta xi</w>
ta ges
t te</w>
t gers</w>
t amp
tamp a</w>
swe et
sushi -
sure. what</w>
super star</w>
stu d
stra ße</w>
sterne bewertung</w>
stell ung</w>
ste ve</w>
st rit
st nut</w>
st al</w>
st airs</w>
spr ings</w>
speci f
speci als</w>
sp ät</w>
sp ice</w>
sou v
some time</w>
so dy</w>
sn acks</w>
sitz plätzen</w>
sit e</w>
sim p
sil ver
sich ere</w>
si g
sha ke</w>
sha ck</w>
sein. brauchen</w>
se ven</w>
se eing</w>
se att
schlie ßt</w>
schle cht</w>
schein werfer</w>
sch ick
sar ah</w>
sal ad</w>
sa k
s l
s ing</w>
s hi
s cr
scr atch</w>
s atur
satur day</w>
ry an</w>
ru tgers</w>
rodri gu
rodrigu ez</w>
rober t</w>
ro te</w>
ro b</w>
rich tung</w>
ri es</w>
restaurant merkmale</w>
rel ati
regisse ur</w>
re k
re gen
regen c
regenc y</w>
re ad</w>
ra in
rain bo
rainbo w</w>
r x350</w>
r un
r os
r on</w>
r ind
r hap
rhap sody</w>
r ate</w>
qu eta</w>
qu er
qu al
qual ity</w>
purchas ed</w>
pum pk
pumpk in</w>
pu ll</w>
preferenc es.
pr ic
por tionen</w>
po int</w>
plu to</w>
please. i</w>
pleas ant</w>
plac e.</w>
pl ate</w>
pick -
pick- up</w>
phil ly</w>
ph ant</w>
pe fully</w>
park plätze</w>
park platz</w>
pa ir
p anda</w>
p a</w>
ou p</w>
ori gin
ordnung .
ong side</w>
ol in
olin a</w>
okay. okay</w>
okay. no</w>
offer s</w>
oak dale</w>
oa k</w>
o b
o -
noti fied</w>
nor th
no va
nic e.</w>
neh m
near by</w>
ne d</w>
ne apol
neapol it
nachschla gen</w>
nach a</w>
n n</w>
n imm
n as
nas h
nash ville</w>
mulvan ey</w>
moment. the</w>
moment. it</w>
moment. es</w>
mom ent
moder ne</w>
mo zzar
mittel großen</w>
mittel groß</w>
mitta gs
mit two
mit ch
mid d
mi k
mi an</w>
met ro
mer i
meri dian</w>
mention ed</w>
meeresfrü ch
mar ket
man o</w>
man che
manche ster</w>
mahl zeit</w>
made a</w>
machi atto</w>
ma il</w>
ma il
ma i</w>
ma chen.
ma c</w>
m el
m as</w>
ly nn</w>
lo yd</w>
lo vely</w>
lo tte</w>
lieb sten</w>
lex ington</w>
len k
leb haf
le ston</w>
le ich
leich te</w>
le ck
le ak
las alle</w>
lar ry</w>
l ong
l on
l ol
l loyd</w>
l and</w>
l an</w>
kun den
kosten los
korean isches</w>
kom bin
klas si
ke vin</w>
kann .
kan tones
ka thy</w>
k op
k ent
kent ucky</w>
k einen</w>
k ay</w>
k .</w>
jo y
jo e</w>
je we
je de</w>
j ose</w>
j ing
j em
jem and</w>
italien ischen</w>
it. what</w>
it age</w>
ist. es</w>
innen bereich</w>
industri al-
inclu ding</w>
in ventive</w>
in nova
in n</w>
in -
ill -
ik o</w>
ier y</w>
ie ß</w>
ica tions</w>
ic ally</w>
i pic</w>
i mal</w>
i bal
ibal di</w>
hör er</w>
hö re</w>
hun an</w>
ho pefully</w>
hil l
her itage</w>
hen ry</w>
hel l</w>
hear ing</w>
he mian</w>
he .
hawai ian
ham burger</w>
hallo .ich</w>
hab s</w>
ha be
h ieß</w>
günsti g</w>
gu ter</w>
grü ne</w>
größ ere</w>
gr oup</w>
gr ati
grati ot</w>
gr ab</w>
geteil te</w>
geschehen. ich</w>
gesamt preis</w>
gendre au</w>
gehoben e</w>
gefun den.
ge wünsch
ge m</w>
ge kauft</w>
ge hört</w>
ge d
gar nacha</w>
gar ibaldi</w>
g ängi
g än
g t.
fun eral</w>
fri end</w>
freit ag
for mal</w>
fol gendes</w>
fo cus</w>
fin de</w>
fil me</w>
far all
farall on</w>
fan gen</w>
familienfreund liche</w>
fahr gemein
fa re
f our
f iery</w>
f i</w>
f en
f als
fals ch</w>
f .</w>
ex peri
erst es</w>
er i
ente uer</w>
en. ich</w>
en. es</w>
en -
em ents</w>
ele vated</w>
ele phant</w>
el ing</w>
el ements</w>
eingren zen</w>
einfa chen</w>
ein verstanden</w>
ein ge
eg al</w>
ef its</w>
ed wards</w>
ech o</w>
earli er</w>
ea l</w>
domin ick</w>
din ge</w>
dien stag</w>
di m</w>
di ag
del ar
delar os
dank eschön</w>
dank e.
d s
d ine</w>
d ge</w>
custom er</w>
curren tly</w>
cul ver</w>
counter-serve- kette</w>
contac t</w>
confirm ing</w>
co unter</w>
co queta</w>
co bble</w>
clos es</w>
ci vic</w>
che stnut</w>
char lotte</w>
char leston</w>
char les</w>
ch wood</w>
ch r
ch or</w>
ch ill-
cen ter
car olina</w>
car b
carb on</w>
can tonese</w>
can not</w>
californi os</w>
cal cul
c tions</w>
c ic
bu ll
bu che
brun ch</w>
bro ly</w>
bri m</w>
bre chen</w>
br yant</w>
br unswick</w>
bor o</w>
bo hemian</w>
block iert</w>
bir chwood</w>
bil lig</w>
bi b
bevorzug te</w>
bet ter</w>
bestä ti
besch äftigt</w>
bereit et</w>
benö tige</w>
ben efits</w>
bele gt</w>
batt lefield</w>
bart low</w>
bar- b-
bar-b- que</w>
bar bar
barbar a</w>
bab y</w>
b ren
b read
b om
b o</w>
b ell</w>
b at
b all</w>
available .
aufführ ung</w>
auf trag</w>
atmosph ere</w>
atlan tic</w>
asiat isches</w>
as king</w>
arri val</w>
aril lo</w>
ari elle</w>
ar t
ar c
app ro
ange wendet</w>
an ge</w>
an fangen</w>
an chor</w>
ambi ance</w>
am arillo</w>
all- you-can-
alfre do</w>
alco hol</w>
al ongside</w>
al am
ak iko</w>
acc ept</w>
abhol adresse</w>
ab enteuer</w>
a. m</w>
a. m.</w>
99 9-
999- 555-66
999-555-66 6
999-555-666 9</w>
99 73</w>
921- 25
921-25 00</w>
908 -7
908-7 88
9- 8
9- 6
9-6 36
9-636 9</w>
9- 530
9-530 -
9-530- 5
9-530-5 48
9 56
9 50</w>
9 3</w>
9 .</w>
89 6-
896- 57
89 -4
88 73</w>
88 5</w>
86 8</w>
86 4-
864- 28
864-28 5-4
864-285-4 868</w>
80 5-
805- 555-
805-555- 33
805-555-33 43</w>
80 1-
801- 7
801-7 14-
801-714- 33
801-714-33 10</w>
8 er</w>
8 5</w>
8 55</w>
8 1</w>
8 13
813 -69
813-69 7-4
813-697-4 15
73 2-
732- 9973</w>
70 -69
70-69 1-21
70-691-21 41</w>
7-86 46</w>
7-47 9-6369</w>
7-47 7-4
7-477-4 5
7-477-45 46</w>
7 4</w>
7 40
740 -7
740-7 3
7 2-
72- 1234</w>
6 8</w>
6 8.
6 5</w>
6 56
6 5
6 23
623 -4
623-4 9
6 21
555-217- 13
555-21 2-
555-212- 36
555- 8873</w>
555- 11
55 pm</w>
513 -9
50-2 950</w>
5- 623-49
5- 2420</w>
45 3</w>
42 9-530-548
415- 732-9973</w>
4. 6</w>
4. 50
4. 2</w>
4-0 30
4-030 7</w>
4- 20
4-20 48</w>
4, 2</w>
4 9
4 70-691-2141</w>
4 .</w>
4 -453
36 1-
361- 25
361-25 4-453
36 ,
33 .
31 7-479-6369</w>
31 5-623-49
3 7</w>
3 7.
3 21</w>
3 -7
3 ,
22 7-477-4546</w>
215-88 4-2048</w>
215- 896-57
215- 57
212- 555-8873</w>
21 9</w>
21 5</w>
202-456 -621
200 8er</w>
20 2</w>
20 .
2 219</w>
19 39</w>
18 4</w>
18 ,
13 .
123-456 -
11 am</w>
10 0
1 50</w>
1 00</w>
. you</w>
- crust</w>
- 0
überprü ft</w>
ü bri
öff n
ö st
ö p
änder t</w>
zä hmen</w>
zwie bel</w>
zwangl os
zuck er</w>
zu geben</w>
zo gen</w>
ziel ort</w>
zie hen</w>
zeit ge
zeitge mäß
za hlen</w>
z un
z ieren</w>
z dem</w>
z -
yor ker</w>
xim ately</w>
x imal</w>
wür st
würst chen</w>
wochen ende</w>
wo her</w>
wie der</w>
wi fe</w>
whi p</w>
weis en</w>
wednes day</w>
war s</w>
wa ys</w>
w ill
w all</w>
vorstell ungszeiten</w>
vorsch l
vorschl äge</w>
vorlie be</w>
vor wahl</w>
voll kommen</w>
verstanden. und</w>
verstan den.</w>
verke hr
verfüg baren</w>
ver lan
verlan gt</w>
venti -
vanil le-
vanille- latte</w>
un k
un ge
unge zw
un be
uhr. ist</w>
u t
u chtung</w>
typ ically</w>
turn buck
tun e
tune up</w>
tro t
trot zdem</w>
tr inken</w>
tomor row
time .</w>
ti ll</w>
thr ough</w>
th ing.</w>
th at
ten .</w>
te ten</w>
take out</w>
tages zeit</w>
tac o</w>
ta st
t ter</w>
t os
t ie</w>
t ating</w>
sü ß
suchen. einen</w>
su p
su m</w>
su che.
stu ff</w>
stimm ung</w>
stilvoll en</w>
ster s</w>
star ten</w>
st ück
st in</w>
st -
spiel zeit</w>
specif ications</w>
span ish</w>
souv la</w>
sou r
sour c
sourc ed</w>
so wohl</w>
so for
siz es</w>
sitz platz</w>
si mil
simil ar</w>
si des</w>
sha kes</w>
sh are</w>
sett ing.
selb st</w>
sekun de
seatt le</w>
se par
separ ate</w>
se ite</w>
se .
schön e</w>
schaf t</w>
sch ade</w>
sar din
sam uel</w>
sam stag</w>
sal ted</w>
saison ale</w>
s port</w>
s ir</w>
ru st
roy al</w>
ro tating</w>
ro h
rind fleisch</w>
richtig .
restaurant wünsche</w>
reserva tion
reser ve</w>
reparatur termin</w>
recei ve</w>
re mem
remem ber</w>
re gel</w>
re as
reas on
r s</w>
qu ite</w>
qu ad
pub -
prü fen.
por tions</w>
pool -
plac ed.</w>
pl an</w>
ph ones</w>
pet es</w>
pepper oni
peperoni -pizzen</w>
peperoni -
pe te</w>
park way</w>
papri kas
paprikas cho
paprikascho ten</w>
pair s</w>
p h</w>
p aci
paci fic</w>
or ten</w>
on e
okay. nein</w>
off ene</w>
o gi
noti ert</w>
not iced</w>
nois es</w>
nimm t</w>
ne i
ne ben</w>
nach mittags</w>
nach frage</w>
n on
möch ten.
moment. so</w>
moment. please</w>
moment. das</w>
mittwo ch</w>
mittel punkt</w>
mit fahren</w>
minutes. do</w>
milch präferenz</w>
mid- town</w>
mexikan ischen</w>
mes sage
mein ten</w>
mei sten</w>
meat -
ma ximal</w>
ma xim
ma tion</w>
m ick
m i</w>
m ann</w>
m als</w>
ly .</w>
lover s.</w>
lok al
lik ed</w>
li vely</w>
li ke
letz ten</w>
leck er</w>
leak age</w>
le m</w>
le ast</w>
lamp en</w>
l oud</w>
kruste. ist</w>
kredit karten</w>
kre ati
korean ische</w>
kop f
kopf hörer</w>
ko chen</w>
ket ten
karam ell</w>
kan nt</w>
ka tionen</w>
k ol
k einem</w>
jose ph</w>
jing le</w>
jewe ils</w>
jed es</w>
it a</w>
isch en
is .
irgend wann</w>
inst ru
inspec t</w>
ing .is</w>
industrial- chic</w>
in doors</w>
in ar
immedi ate</w>
im port</w>
il t</w>
il led</w>
i ger</w>
hu h
huh n</w>
hoff ent
hoffent lich</w>
heraus finden</w>
hello .</w>
hello .
hear .</w>
head phones</w>
head ed</w>
he u
hau se</w>
harb our</w>
hallo womit</w>
hal te</w>
h än
h as
h .</w>
grö ßen</w>
gru b</w>
green book</w>
gr illed</w>
gleich e</w>
get rock
gesendet. brauchen</w>
gerä um
gen eral</w>
gelan gen</w>
gehoben es</w>
gehoben er</w>
gehoben en</w>
gefun den.</w>
ge sehen</w>
ge sag
gan g</w>
gab en</w>
g ü
g our
g ilt</w>
g ave</w>
fä l
früh stück</w>
fr ischem</w>
fr ap
frap uccino</w>
for m</w>
fil m
fil led</w>
fi red</w>
fi re
fi gu
favor ite</w>
fas st</w>
f s</w>
f is
f eta</w>
f -
experi enc
exac tly</w>
exac t</w>
et y</w>
essens wünsche</w>
espresso -
erwäh nt</w>
erschwing lich</w>
er inn
er hö
entspan nten</w>
en. und</w>
en th
en ough</w>
en er</w>
en den</w>
elph as
elphas en</w>
elegan tes</w>
ear ly</w>
e. did</w>
e- mail</w>
e- bye</w>
e mail
e cle
ecle c
eclec tic</w>
durchschnitt lichen</w>
dri ving</w>
dri ed</w>
dra chen
drachen zähmen</w>
din er</w>
di rekt</w>
dev in</w>
des ired</w>
delici ou
d- friendly</w>
d unk
crust .is</w>
cru sts</w>
cre ative</w>
correc t.
con d
col um
co ok</w>
clas s
chocol at
chica go-
check .
char ges</w>
ch ing</w>
ch ance</w>
center .
car ds</w>
by e-bye</w>
bur ger
bun ch</w>
brin gt</w>
blv d</w>
bit es</w>
bestäti gen.
bestä tige</w>
bestimm tes</w>
bere chnet</w>
bere ch
bele uchtung</w>
bel a</w>
bel a
bekann te</w>
be züglich</w>
be kannt</w>
be för
be d
be arbeiten</w>
barbecu e-
aus machen</w>
aus geht</w>
au ge</w>
as y</w>
arc light</w>
arbe it</w>
ar om
appro ximately</w>
apol ogi
anzu sehen</w>
ankun ft</w>
ange zeigt</w>
an s</w>
an nehmen</w>
an gaben</w>
an frage</w>
an e</w>
amp elphasen</w>
amerikan ischen</w>
am s</w>
all .
alko hol</w>
alko hol
al is
ak ed</w>
abhol zeit</w>
a ven
99 .</w>
9-97 20</w>
9 ,
86 7-
6 .</w>
555-555- 12
555-555-12 10</w>
555-217-13 56</w>
555- 123-4567</w>
5 th</w>
5 .</w>
30am .</w>
3 d-
3 9.
3 -
24. 99</w>
23 .
21 st</w>
21 .</w>
202-456-621 3</w>
15 .00</w>
14. 33</w>
14 .</w>
10 am</w>
1 8.30</w>
. sie</w>
. also</w>
- bar</w>
&apos; am</w>
übri gens</w>
ü gen</w>
öffn ungszeiten</w>
ö m
zw ischen
zusam men
zucker freie</w>
zu ta
zuta ten</w>
zu gän
zo fen</w>
ze ih
ze chu
zechu an</w>
z ur
z el
your self</w>
you. what</w>
you. the</w>
you. so</w>
yo ne</w>
yeah .
y. i</w>
y stal</w>
y nes
ynes boro</w>
y e</w>
y an
yan ke
xl- fahrt</w>
x ie</w>
x ed</w>
woo d-
wo w</w>
win ds
winds or</w>
win ding</w>
wi ft</w>
wi -
wi- fi</w>
wh at
what ever</w>
wes halb</w>
weis ungen</w>
week .</w>
wechsel n
web site</w>
war tet</w>
war te
war r
warr ington</w>
war mas</w>
war d</w>
wan ts</w>
wa ynesboro</w>
wa y.
wa it
wait ing</w>
wa hl
w ol
wol fe</w>
w ne</w>
w lan</w>
w an</w>
vor namen</w>
vor bereitet</w>
vor -</w>
vol lem</w>
vol le</w>
viel se
vielse iti
verstan den
verkehr s
verfügbar .</w>
ver zeih
ver nick</w>
ver gn
vergn ügen</w>
ver arbeit
veget ari
vegetari er</w>
vegan e</w>
vari ety</w>
val et</w>
v yn</w>
v ine</w>
v es</w>
us si
ussi a</w>
unter stü
unterstü t
uni on</w>
ungs probleme</w>
ungezw ungen
ungefä hre</w>
un ten</w>
ul u</w>
uhr. passt</w>
uber- fahrt</w>
uber s</w>
tä tigen</w>
ty ard</w>
turnbuck le</w>
ts dale</w>
traf fic
tr att
tratt or
trattor ia</w>
to wne</w>
to .
tis an</w>
tick et
ti a</w>
thou ght</w>
thin -crust</w>
ther ed</w>
ther e.</w>
theat res</w>
that .i</w>
tex as
terr as
ter y</w>
tel e
te ur
te u
te -
tat ak
tast y</w>
tac ol
tacol ici
tacolici ous</w>
tab les</w>
ta gs</w>
t z</w>
t oll
t n
t ment</w>
t ington</w>
t ell
t ed.</w>
süß st
sy ru
sum ing</w>
sugar -free</w>
sug ar</w>
sub s</w>
sub mit</w>
su tter</w>
su sta
susta in
su ch
stän dig</w>
strit o</w>
stop her</w>
stle ton</w>
stil vollem</w>
sti ere</w>
star t</w>
star light</w>
stan ley</w>
stab l
stabl is
stablis hm
st ät
st one</w>
st ling</w>
st ick
st ein
ss ing</w>
spät est
spätest ens</w>
spru ce</w>
spre chen</w>
spr ing
spring dale</w>
spi zieren</w>
spi e
spezi fi
spezifi kationen</w>
spezi ellen</w>
special ty</w>
special ties</w>
special ist</w>
spea ke
speake asy</w>
sp icy</w>
sou l</w>
son n
soldi ers</w>
soldi er</w>
sol ange</w>
sofor tige</w>
so ße</w>
so weit</w>
so ja</w>
smith son</w>
sm ok
sk ir
skir t</w>
sitz nische</w>
sit ze</w>
sim mon
simmon s</w>
silver spot</w>
sig nat
signat ure</w>
sich tigen</w>
si e.
show ing.</w>
sho ul
shi re</w>
sha warmas</w>
sh ri
sh er</w>
sh an
shan gha
shangha i</w>
set zung</w>
servic es.
sel ber</w>
sech st</w>
se i</w>
se em</w>
scot tsdale</w>
schön er</w>
schwar zen</w>
schokoladen sauce</w>
schau en.
sch rei
sch li
sch icke</w>
sar d
sar a</w>
san r
sanr ak
sanrak u</w>
sais on</w>
sa l</w>
sa ke
s zechuan</w>
s wift</w>
s kin
skin ny</w>
s hab
s bar
sbar ro</w>
run time</w>
ruhi g</w>
ru n</w>
ros am
rosam unde</w>
rollstuhlgere chten</w>
roh kost
rohkost bar</w>
rock ef
rockef eller</w>
rober ts</w>
ro s</w>
ro ger</w>
ro f
rof on</w>
ro ast</w>
ro a
roa sted</w>
righ t.</w>
richtlin ie</w>
ri ver</w>
ri o</w>
ri dge</w>
restaurant kriterien</w>
requ i
requi res</w>
repar iert</w>
rel a
rela xed</w>
reis ed
reised au
reisedau er</w>
reih e</w>
regulä ren</w>
reg on</w>
reg ie</w>
recei ved</w>
reason able</w>
read y.
re z</w>
re no</w>
re min
remin der</w>
re in
re ich
re gi
re cht</w>
re ch
raus suchen</w>
ram i
rami rez</w>
ram en</w>
ra hmen</w>
r öm
r ich</w>
r ap
rap id</w>
r ad</w>
r .
r. p.</w>
qui et</w>
qui et
quer que</w>
qu es
ques ad
quesad ill
quesadill as</w>
pur is
puris im
purisim a</w>
pun tz</w>
pub- gerichte</w>
proces sed</w>
proces s.
proc e
proble m.</w>
pro men
promen ade</w>
pro d
priva te</w>
pric ing</w>
preis schätzung</w>
preis en</w>
pr ussia</w>
pr in
prin c
princ et
princet on</w>
pr at
prat t</w>
pp en</w>
port s.
por tia</w>
por k</w>
pop cor
pool fahrt</w>
po ff</w>
po c</w>
pm. does</w>
pm. do</w>
ple x</w>
pizz a-
pi st
pet ers</w>
pet er</w>
peri al</w>
perfec t.</w>
peperoni- salami</w>
pati o
pas o</w>
park service</w>
par tic
pal mer</w>
p y</w>
p tion</w>
p oke</w>
p ital</w>
p ets</w>
p au
pau l
paul son</w>
oy sters</w>
our des</w>
os so</w>
os pital</w>
os e.
os .</w>
origin al</w>
or land</w>
or gi
orgi a</w>
op ing</w>
on shire</w>
on e-
on burg</w>
on .</w>
om poc</w>
om ak
omak ase</w>
okay. can</w>
oka y.</w>
ok. what</w>
ok kol
okkol i</w>
oak ridge</w>
o y</w>
o to</w>
o regon</w>
o de
ode on</w>
o ber
nu g
nug get</w>
nu del
nudel n</w>
north town</w>
non fat</w>
ni ght.
nehm en.
ne are
neare st</w>
nation al</w>
nap a</w>
nach zu
nach hal
n uss</w>
n ab
nab on</w>
möglich erweise</w>
mög liche</w>
mul ti
mu le</w>
mu ch.
mozzar ella</w>
mor n
mor gens</w>
moment. hmm</w>
moment. die</w>
mo ck
mock ing
mocking b
mockingb ird</w>
mittl eren</w>
mitta g
mitch ell
minuten. möchten</w>
minut es.</w>
min i
mil il
milil an
mililan i</w>
mik rofon</w>
mid way</w>
mexikan isch</w>
mex ico</w>
metro center</w>
merc ed</w>
men ge</w>
mel vyn</w>
meeresfrüch te-
me dit
medit er
me d.</w>
me d
mcdonal d</w>
mc cor
maxim um</w>
mat ch</w>
market place</w>
mark t
mar ger
marger ita</w>
mand ar
mandar in</w>
man a</w>
mal co</w>
macchi at
macchiat os</w>
ma j
maj or</w>
ma ine</w>
ma in
ma che</w>
ma ch
m y
m ust</w>
m m</w>
m kay</w>
m ice</w>
m hm</w>
m ap
map le</w>
m ab
mab ry</w>
lyf t-
lun a.
long .</w>
lon don</w>
lol ó</w>
lie ßen</w>
li ft</w>
li ber
liber ty</w>
lenk ung</w>
leg te</w>
leg ac
legac y</w>
lebhaf tes</w>
le ts</w>
le ss</w>
le sen</w>
le gen</w>
le ct</w>
le .
lau ter</w>
lau ch</w>
land on</w>
land mark</w>
lan g
la d</w>
l än
l ourdes</w>
l ompoc</w>
l ington</w>
l in</w>
kü chen
kredit karte</w>
kostenlos en</w>
kon ta
kon nte</w>
kombin iert</w>
kom men
kno b
knob lauch</w>
klass ischen</w>
kategoris ier
karamell- macchiato</w>
k- elements</w>
k ul
k u
k te</w>
k is
kis s</w>
k im
k ell
k ab
k .
joy ce</w>
jo int</w>
jef fre
jeffre y</w>
jef f.</w>
je der</w>
japan isches</w>
ja. ja</w>
ja .</w>
j in</w>
j ess</w>
j en
j ac
jac k
iti v</w>
italien isch</w>
it u
it t</w>
it an</w>
is py</w>
irgend eine</w>
intel lect</w>
instru ctions</w>
innova ti
ing ungen</w>
ing ing</w>
ing .and</w>
inclu des</w>
in spizieren</w>
in nen</w>
in gre
ingre di
in flu
influ enc
influenc ed</w>
in expensive</w>
in cre
im ports.
im perial</w>
ie sta</w>
ide e</w>
ide a</w>
id eal</w>
ick .
i- 35</w>
häl t</w>
hähnchen -pizzen</w>
hun tington</w>
house -
hou n</w>
hot dogs</w>
hor se</w>
hol zofen</w>
hinzufü gen.
hinzu gefü
hinzugefü gt</w>
hin zu</w>
hin setzen</w>
hill stone</w>
hil fre
high ly</w>
hi p</w>
hi .i</w>
heu te.
her stell
her man</w>
her aus</w>
hel p.
hel p
hel f
helf en.</w>
he it</w>
he im
hausgema chte</w>
hau stiere</w>
harris onburg</w>
harris burg</w>
han over</w>
hallo. wie</w>
h ospital</w>
h nen</w>
h ana</w>
günsti ge</w>
gu ys</w>
gu ello</w>
grün er</w>
green way</w>
gn ment</w>
gh ost</w>
gewünsch ten</w>
getrock ne
geteil t</w>
gesendet. benötigen</w>
geschäf ts</w>
gesch rieben</w>
gesch oss</w>
gesch au
geschau t</w>
ger icht</w>
genau e</w>
gebucht. benötigen</w>
gebuch t.</w>
ge ändert</w>
ge wählte</w>
ge wis
ge orgia</w>
ge geben</w>
gall oping</w>
ga thered</w>
g y
g ri
g lad</w>
g ate</w>
g ar</w>
g am</w>
fün ft</w>
fü gen</w>
fusi on</w>
fusi on
frü here</w>
frü her</w>
fre ue</w>
fre d
fr isch</w>
for d</w>
foo d-
fo g</w>
fis herman</w>
fin o</w>
fin al</w>
fil i
fi re</w>
fertig .brauchen</w>
far ms</w>
far be</w>
fahrzeug typ</w>
fahrt typ</w>
fahrgemein schaft</w>
fahr preise</w>
fahr preis
fa ir
f ung</w>
f ischen</w>
f iesta</w>
f ett
f anc
fanc y</w>
extr as</w>
experienc ing</w>
ex pres
ex pe
et eria</w>
et c</w>
espresso s</w>
es s
erinn er
erinner ung</w>
er n
er fol
er .</w>
entspre chen.
entschei de</w>
ent e.
end en.
en. ist</w>
en vir
en ti
en tal</w>
en chil
enchil a
enchila das</w>
email ed</w>
ele br
el se
el -
eisgekühl ten</w>
ein planen</w>
ein fl
ed -
eben falls</w>
e ye</w>
e ven</w>
e stablishm
durchschnitt lich</w>
durch geführt</w>
dro poff</w>
drit ten</w>
dre ssing</w>
dre ss</w>
dre sher</w>
dre am</w>
dr en</w>
down s</w>
dol ce</w>
dig s</w>
dig ital</w>
di xie</w>
di strito</w>
di rek
di e
di ab
device. did</w>
dev onshire</w>
destination .should</w>
destination .did</w>
descri ption</w>
den ny</w>
deliciou s.</w>
delaros a</w>
del i</w>
defin itiv</w>
de fe
de ckt</w>
de c
dank .</w>
dan ach</w>
da wn</w>
da ve</w>
d get</w>
d ere</w>
d ated</w>
d are</w>
crust .did</w>
cru st.
cr ystal</w>
cr ispy</w>
cr a
cra ving</w>
coyo te</w>
cour tyard</w>
cor y</w>
contin ental</w>
confir med.</w>
confir mation</w>
con ven
con cer
com mon</w>
col or</w>
col e</w>
co zy</w>
co sts</w>
co ca
coca -
coca- col
cl oud</w>
cine plex</w>
cin nabon</w>
chri stopher</w>
chr is</w>
chocolat y</w>
chines ischer</w>
chill- counter-serve-kette</w>
chil i</w>
chil dren</w>
cheese .</w>
che f</w>
che ap
characteri stic</w>
cham ber
chamber s</w>
ch op
car ry</w>
calcul ate</w>
cal houn</w>
caf eteria</w>
ca stleton</w>
ca de</w>
c ks</w>
c ity.
c elebr
bull s</w>
bu stling</w>
bu querque</w>
bu dget</w>
bräu chte</w>
broad way</w>
broad street</w>
bro ok</w>
bro c
bri en</w>
bren da</w>
brau chten</w>
br os.</w>
br okkoli</w>
br inging</w>
bow ling</w>
bot tom</w>
bot an
boo th
bom bay</w>
bo x
bo at</w>
blu es</w>
blu e</w>
bl ink
bl ind</w>
bil lig
bib a</w>
bi g
bevorzu ge</w>
beson der
bere chn
ben ut
belieb tes</w>
belie ve</w>
bei des</w>
bed ingungen</w>
be kommen.
be halten</w>
be arbeit
be an</w>
be am</w>
be ac
beac on</w>
bat tery</w>
bas ier
bas ic</w>
bac k
b s</w>
b and</w>
b a
aven gers</w>
auß erhalb</w>
aussich t</w>
auf zugeben</w>
au stin</w>
au stern</w>
atlan ta</w>
as suming</w>
as k
art ist</w>
ar tisan</w>
ar t-
ar n
ar lington</w>
ar ing</w>
ar guello</w>
ar cade</w>
ar ab
appointm ents</w>
app uccin
and .
an yone</w>
an weisungen</w>
an rufen</w>
an geschaut</w>
an fällt</w>
an bieten</w>
an -
amp hi
americ anos</w>
ambi ente.
am o
am ed</w>
am ber</w>
all ge
alkohol ische</w>
ali oto</w>
ali gnment</w>
alex anders</w>
alam os</w>
al ways</w>
al right.
al o
al buquerque</w>
akzepti eren</w>
ak tu
adul ts</w>
ad ler</w>
ad ama</w>
actu al</w>
accom o
ac tion</w>
abholbereit. brauchen</w>
abhol en.
abge sehen</w>
ab setzen</w>
ab brechen</w>
ab .möchten</w>
a z
a w</w>
a tions</w>
a horn</w>
a h.</w>
a 5</w>
a .</w>
99 1</w>
97 4</w>
956 -3
956-3 28
956-328 -0
956-328-0 4
956-328-04 21</w>
92 9-
929- 7
929-7 813</w>
92 7-
927- 0
916- 921-
916 -4
91 81</w>
908-788 -7
90 7</w>
9. 45</w>
9-8 7
9-87 48</w>
9 5</w>
9 58
9 46
9 4
9 3
9 10
910 -44
910-44 2-
910-442- 63
910-442-63 45</w>
9 00</w>
89-4 040</w>
89 8</w>
88 7</w>
813-697-415 4</w>
8. 45</w>
8 7</w>
8 50</w>
775-4 7
775-47 5-
775-475- 74
775-475-74 33</w>
775-4 00
775-400 -3
775-400-3 25
775-400-325 8</w>
77 98</w>
73 7-
737- 57
73 4-
734- 123-4567</w>
73 -4
73-4 855</w>
70 7</w>
7- 929-7813</w>
7- 6
7-6 813</w>
7- 23
7-23 2
7-232 -44
7-232-44 65</w>
7 8</w>
7 57</w>
656 6</w>
621 -4
621-4 2
621-42 5-
621-425- 568
621-425-568 3</w>
60 1</w>
6. 7</w>
6-3 757</w>
6- 1212</w>
6- 0
6 991</w>
6 72-1234</w>
6 3</w>
6 30-8
630-8 53
630-853 2</w>
6 1</w>
6 14</w>
58 2-
582- 672-1234</w>
57 th</w>
568 7</w>
56 9-8748</w>
555-66 6-1212</w>
555-217- 3
555-217-3 8
555-21 36</w>
555-11 3-4
555-113-4 24
555- 630-8532</w>
555- 14
555-14 3
555-143 -2
555-143-2 614</w>
555- 121
555-121 4</w>
555- 0
555-0 123</w>
55 7-232-4465</w>
53 86</w>
513-9 12-
50 1-21
501-21 3-4
501-213-4 5
501-213-45 45</w>
5- 15
5-15 0-
5-150- 12
5-150-12 46</w>
5 a5</w>
5 9th</w>
5 18
518 -8
518-8 50-2950</w>
5 14-
514- 21
514-21 7-6813</w>
5 10-
510- 555-1214</w>
5 00</w>
5 ,
49 2-
48 3-7
483-7 42
45. 92</w>
45 4</w>
441- 28
441-28 3
441-283 -6
441-283-6 184</w>
44 7-8646</w>
44 4-0307</w>
42 .
40 .
4.50 .</w>
4. 7</w>
4, 5</w>
4, 3</w>
4 50</w>
4 4.
4 00</w>
37. 23</w>
361-254-453 7</w>
36 1</w>
35 6</w>
34. 16</w>
33 1</w>
33 ,
315-623-49 42</w>
31 .
30 th</w>
3- series</w>
3 89-4040</w>
3 24</w>
3 2
3 1</w>
3 13
313 -6
313-6 73-4855</w>
3 .</w>
28 3</w>
28 ,
24, 99</w>
215-88 5-2420</w>
215-57 6-3
215- 740-73
215- 65
215- 389-4040</w>
212- 946
21 21</w>
202-456- 2121</w>
202-456- 1111</w>
201 0
20 th</w>
20 55</w>
20 20</w>
2 9</w>
2 77</w>
2 10</w>
2 00</w>
19. 30</w>
15 l</w>
15 .
14 1-
141- 569-8748</w>
14 00</w>
13 1
131 7-929-7813</w>
123-456- 1212</w>
123 -
123- 555-0123</w>
12. 33</w>
11 5-150-1246</w>
11 10</w>
10 8</w>
10 50</w>
10 1</w>
10 00</w>
10 .</w>
1- 2009</w>
1 pm</w>
1 6.
1 20</w>
1 .
1 ,
00 86</w>
0 2</w>
. which</w>
. when</w>
. there</w>
. eine</w>
. die</w>
- out</w>
ün f
ück sichtigen</w>
überprüfen. ja</w>
überprü fung</w>
über h
überh it
ü hm
ör kell
öp fi
öpfi ge</w>
ölle cks</w>
ö ss
è me</w>
äch st</w>
ä gen</w>
zwischen zeit</w>
zwe i
zusätz liches</w>
zusammen zu
zun ächst</w>
zugän glich</w>
zi p</w>
zentr ums</w>
zen iert</w>
zen en</w>
zeit plan</w>
zeit gen
zeitgen öss
zei g
ze us</w>
ze ichen</w>
z z</w>
z en.
you. yes</w>
you. ok</w>
you. it</w>
you. for</w>
you. do</w>
you. did</w>
you. alright</w>
xl .</w>
x o
xo te</w>
x .</w>
wähl ten</w>
wor ries</w>
wor auf</w>
wood- fired</w>
woo d
wonder ful
wir d.</w>
wir d.
will kommen</w>
wie viel</w>
wheel ch
wheelch air
wheelchair -
wheelchair- accessible</w>
wh ich
wer fen</w>
wen iger</w>
wen den</w>
well .</w>
weiß er</w>
weiter en</w>
weit ig</w>
wechseln des</w>
wat ching</w>
war tun
war te</w>
war me</w>
war m</w>
wai ved</w>
w y</w>
w us
w ist</w>
w ent</w>
vorzu gs
vorzugs weise</w>
vorsch lä
vorschlä gen</w>
vor nehme</w>
vor neh
vorneh me
vor lesen</w>
vier t</w>
viel mals</w>
vi e.
verstanden. lassen</w>
verkehrs bedingungen</w>
verfüg ung.
verarbeit et</w>
ver su
versu s</w>
ver stehen</w>
ver sch
ver n
vern ünf
ver li
verli ert</w>
ver gessen</w>
venti- kaffee</w>
vegetar ischen</w>
vegan en</w>
ve .
val ue</w>
us w</w>
us d</w>
up stairs</w>
up date</w>
up -
up- close</w>
unter nehmen</w>
univer sit
universit ät</w>
ungezwungen es</w>
under stand</w>
under stan
unbe din
unbedin gt</w>
un assuming</w>
un -
umgeb ung.
um fasst</w>
uhr. welche</w>
uhr. was</w>
uhr. soll</w>
uhr- vorstellung</w>
uhr- vorführung</w>
uber pool</w>
uber .
u ten</w>
u g</w>
u fen</w>
u er
u ck</w>
u ar
u .</w>
u -
typ ical</w>
typ es</w>
tur ning</w>
tun .
tu e</w>
ts am
tsam es</w>
tren dige</w>
tradition ellen</w>
tr ä
tr uck</w>
tr itt</w>
tr ical</w>
tr av
trav eling</w>
tr a
tos kan
tor s</w>
tonight. do</w>
to wn
to ward</w>
to t
tisch reservierung</w>
tim es.
tig ung</w>
thing. what</w>
the m
them ed</w>
the .
thailänd ische</w>
th en.
teur er</w>
termin .
ter t</w>
tequil a-
tele phone</w>
tatak i</w>
taqu eri
tal king</w>
table .</w>
ta king</w>
ta ken</w>
ta in
tain ly</w>
t. und</w>
t. ich</w>
t- b
t wist</w>
t wi
t us
t ori
tori .</w>
t est</w>
t em</w>
t asse</w>
süßst off</w>
sü d
syru ps</w>
sweet ener</w>
sustain ably</w>
sum me
su v</w>
su r
su it</w>
su che
suche .ich</w>
stück en</w>
stät te</w>
stud ent</w>
stud ent
student en
studenten zentrum</w>
stu hl</w>
stre et
stre am</w>
stor y</w>
stop p
stopp ed</w>
sto o
stle it
stleit zahl</w>
stilvoll er</w>
stick s</w>
stell e</w>
steak haus</w>
starbucks- kaffee</w>
star tet</w>
star s.
st range</w>
st ly</w>
st ir
stir bt</w>
st ens</w>
st as</w>
spru ch</w>
spre chen.
sport stätte</w>
spiel en</w>
spie ß</w>
spezi fischen</w>
spezi elle</w>
spea k</w>
span isches</w>
spac i
spaci ous</w>
sp o
sp las
sp it
spit -
spit- roasted</w>
sor ten</w>
sor r
sor ge</w>
son dern</w>
some place</w>
sol u
soj u</w>
so aring</w>
smok ing</w>
simp son</w>
simp son
sim ple</w>
sicher zu
sicher lich</w>
sich t</w>
si e
si b
shri m
shoul dn</w>
sho ot</w>
sho e-
shoe- sh
shoe-sh ap
shoe-shap ed</w>
sha re
sha king</w>
servic e-
service- gebühr</w>
seri es.
sen se</w>
sen de
sel tsames</w>
sein. und</w>
seat ing.
se t.
se shoe-shaped</w>
se c</w>
schwar zer</w>
schwar ze</w>
schwar z-
schn örkell
schließ lich</w>
schließ en.
schla gen</w>
schick e.
sch uss</w>
sch einen</w>
sal zi
sal ty</w>
sal at</w>
sal at
sak e.
sag te</w>
sa fe
sa c</w>
s. the</w>
s. is</w>
s ort</w>
s enden.
s ell</w>
s c
rust ik
rollstuhl fahrer</w>
roll stuhl</w>
ro lle</w>
righ ty</w>
rie ch
richtlin ien</w>
ri gi
restaurant vorlieben</w>
restaurant präferenzen</w>
restauran t.
rest uar
request s</w>
reparatur werkstatt</w>
repa ired</w>
relati vely</w>
relati v</w>
regi onal</w>
reg el
regel mäß
re ten</w>
re icht</w>
re es</w>
re d.
rau chen</w>
r ü
r ice</w>
r ell
r d</w>
qui xote</w>
questi on</w>
quad -
quad- espresso-
quad-espresso- campana</w>
pum ps</w>
provi ded</w>
priva ten</w>
preis klasse</w>
preis günstig</w>
prefer ably</w>
pre pa
pos sib
popcor n</w>
po stleitzahl</w>
po sten</w>
pm. should</w>
pm. did</w>
please. and</w>
plac e.
pl ain</w>
pizza- bestellung</w>
pizza bestellung</w>
pizz en.</w>
pizz ak
pi elt</w>
personen. möchten</w>
personen. ist</w>
perfec tly</w>
perfec t.
perbac co
people .would</w>
people .is</w>
pasta gerichte</w>
par ties</w>
pa stas</w>
p- off</w>
p- dish</w>
over he
ot .</w>
ose gebühr</w>
os .
ordnung .und</w>
ord ing</w>
or gan
on ment</w>
on ce</w>
okay. yes</w>
okay. what</w>
okay. und</w>
okay. that</w>
okay. ja</w>
okay. ich</w>
okay. i</w>
okay. does</w>
okay. das</w>
okay. and</w>
okay. all</w>
ok. you</w>
of fen</w>
ob wohl</w>
o th
o il
o ben</w>
nächst es</w>
noti z</w>
noti fic
notific ation</w>
noti er
no stic</w>
no -
no- fr
no-fr ill
no-frill s</w>
ni gh
net tes</w>
ne tt</w>
ne c
natürlich .
nachhal tig</w>
nach schauen</w>
n ou
n osegebühr</w>
n ie
nie dri
müs sten</w>
möglich keit</w>
my self</w>
mus ic</w>
mus i
musi k</w>
multi -
multi- course</w>
mu ff
muff ler</w>
mu d
motor s</w>
mor gen.
moment. how</w>
moment. hm</w>
mom ent.</w>
moder ner</w>
moder at</w>
mobil e.
mo d
mod ell
modell namen</w>
mo chte</w>
mo ana</w>
mittel dünne</w>
mittags angebot</w>
mitchell .
mit tel</w>
mit te</w>
min s.</w>
min .
milch sorte</w>
milch .
mil es</w>
midd le</w>
mi gen</w>
mex quite</w>
message .would</w>
mer kt</w>
mer .</w>
men ü
mein ung</w>
mehr gängi
mediter ran
meat- lover</w>
me l</w>
me als</w>
mccor m
mccorm ick</w>
mat ter</w>
markt platz</w>
main stream</w>
m ir
m et</w>
m essen</w>
m ese</w>
m elt</w>
m all.
m -
lässi ges</w>
lässi gen</w>
lässi ge</w>
lyf ts</w>
lun gs
los sen</w>
look .
loc ations</w>
loc ation
loc ale</w>
ligh ts.
liebhab er
lie ben</w>
lie be</w>
li ve-
li ge</w>
let ting</w>
lei st
le an
lean ing</w>
lat tes</w>
lang sam</w>
lan e.
la k
la i
lai d-
laid- back</w>
la gen</w>
l t</w>
kü che.
käse ku
käseku chen</w>
kunden verkehr</w>
kunden bewertung</w>
kul inar
krusten -pizzen</w>
kreati ven</w>
kre is</w>
kosten voranschlag</w>
korean ischen</w>
kor rigi
ko mö
kno wn</w>
klassi ker</w>
kl einer</w>
kit sch
kit chen.
ki d-friendly</w>
ken nen</w>
ke y</w>
ke .</w>
kategorisier en.</w>
karamell mokka</w>
kantones ische</w>
kan ad
kaliforn ischer</w>
kaliforn ische</w>
kab in
k öst
k unden</w>
k tr
k ten</w>
k or</w>
k lei
k er.
k am
jose ph
jer e
jere my</w>
jen ige</w>
jed em</w>
japan ischen</w>
jalapen o</w>
ja zz</w>
j un-
j im
itu tion</w>
iti ons</w>
italien ischer</w>
it. so</w>
it ute</w>
isch -
is en
isen för
isenför migen</w>
irgend was</w>
irgend ein</w>
ins zeniert</w>
innovati ve</w>
innen bestuhlung</w>
ingredi ents</w>
ing .did</w>
informa l</w>
inform iert</w>
inform ieren</w>
ind ischer</w>
incre ase</w>
inclu ded</w>
in ary</w>
immedi ately</w>
ima x-
il y</w>
ik a</w>
ier tes</w>
ic e.</w>
ic -
i et</w>
i es</w>
hühnchen sandwiches</w>
hühnchen -
hö here</w>
hö her</w>
häl tlich</w>
hä ppchen</w>
hu fe
hufe isenförmigen</w>
hr en</w>
house- made</w>
house made</w>
hor seshoe-shaped</w>
hon da
honda -
honda- pilot</w>
hol z
hol en.
ho lic</w>
ho ld</w>
ho hen</w>
ho he</w>
hinter legte</w>
hin aus</w>
hilfre ich</w>
hi g
heraus suchen</w>
help ful</w>
hello .how</w>
hel p.</w>
hel len</w>
head lights</w>
he iten</w>
he bt</w>
he av
heav y</w>
hawaiian ische</w>
hawaiian er</w>
hausge bräu
haup t
hand y.
han g</w>
ham burgers</w>
haben. es</w>
habe .
ha b</w>
h ren
h is</w>
h ier
h aus
h are</w>
gü l
gängi gen</w>
gä ste</w>
gut. wie</w>
gut. ich</w>
gu r
gru ppen</w>
grill -
great ly</w>
gour met</w>
good. i</w>
gluten freien</w>
gl it
get reten</w>
get ren
gesendet. kann</w>
gesch n
gesch lossen</w>
gesam te</w>
gesam melt</w>
gesag t.ist</w>
ges pielt</w>
ges al
gesal zenen</w>
geräum igen</w>
ger ufen</w>
gen ug</w>
gen er
gen e</w>
gen an
gen .ich</w>
gemü tlichen</w>
gemü t
gemü se</w>
gelangen. wollen</w>
gelangen. soll</w>
gef all
ged ämp
gebü hren</w>
geb iet</w>
ge plan
ge hören</w>
gar lic</w>
gar den
garden s</w>
gab e</w>
g ste</w>
g riech
g on</w>
g nä
g at
fü rs</w>
fäl lig</w>
fro h</w>
französ ischen</w>
four th</w>
form ell
formell eren</w>
for der
foo ds</w>
foo d.
fleisch liebhaber
flavor ing</w>
fix ing</w>
fisch restaurant</w>
fili ale</w>
fil men</w>
festgele gt.
fer n
fen ster</w>
fe hl
fe eling</w>
fas s</w>
fare .</w>
fan g</w>
fall s
fall en</w>
fahrt dauer</w>
fahrt art</w>
fahr typ</w>
fa v
fa st-
fa hren
f y</w>
f et
fet a-
feta- käse</w>
exc use</w>
exc ept</w>
estim ates</w>
establishm ent</w>
erhö h
er te
er hältlich</w>
er hebt</w>
envir onment</w>
entspre chen
entschul dige</w>
enth al
ent rees</w>
end gül
end ed</w>
end -
en. ok</w>
en. das</w>
en en</w>
ell es</w>
ele ktr
ele c
elec trical</w>
el led</w>
eis -
eis- vanille-latte</w>
einfl uss</w>
ein schließlich</w>
ein geplant</w>
ein falls
ein f
ein e.
ein ander</w>
ed .
eben so</w>
eat -
e very</w>
e cke</w>
e ating</w>
dunk le</w>
dro p-off</w>
dr ama</w>
dr af
down stairs</w>
dol by</w>
dish ed</w>
diag nostic</w>
diag nosegebühr</w>
diab lo</w>
device. anything</w>
destination .</w>
dep end</w>
defe kt</w>
dee p-dish</w>
dec or</w>
de kor</w>
das .
d ämp
d ly</w>
d ings</w>
d icken</w>
d c</w>
d an</w>
custom ers</w>
cul inary</w>
crust .</w>
cre am
cr ème</w>
cr oss</w>
cond itions</w>
com fort</w>
colum b
columb ia</w>
color ful</w>
col i</w>
cockta il
co un
co ast</w>
class ics</w>
cic ci
cicci a.
cic c
cicc ia</w>
cho ose.
chil d</w>
chick en-
chicago- style</w>
cheap er</w>
chan ged</w>
ch .</w>
cer tainly</w>
celebr ated</w>
californ ian</w>
caf é</w>
caf é
ca jun-
c op
c oke</w>
c es</w>
c and
bur mese</w>
bur mes
bum mer</w>
bum mer.</w>
buff et.
buchen. wie</w>
buchen. und</w>
buchen. ich</w>
bu l
bu che.
brun ch.
broc coli</w>
bro wn</w>
bro ok
brin ge</w>
bread sticks</w>
bre ws</w>
bre m
br ans</w>
booth s</w>
bo ard</w>
bitte. okay</w>
bitte. das</w>
billig er</w>
big ger</w>
bi o
bevorzug tes</w>
bevorzug ten</w>
bestätig ung.
bestellen. ich</w>
beson ders</w>
beson deren</w>
beson dere</w>
berech nen</w>
ber ühm
ber ücksichtigen</w>
benut zen</w>
ben to</w>
belieb ter</w>
bela sten</w>
bel ägen</w>
bekann ten</w>
beför der
be zeich
be stimmt</w>
be sides</w>
be setzung</w>
be merkt</w>
be komme</w>
be il
be gin
be dien
be .i</w>
bbq -
basier end</w>
bar .
b road</w>
b right</w>
b n
b ier
b ein
b aked</w>
außen posten</w>
außen beleuchtung</w>
auß er</w>
auto reparatur</w>
ausgezeich ne
ausge wählten</w>
aus gehen</w>
augen bl
aufge be</w>
aufführ ungszeit</w>
auf geben.
au th
assist ent</w>
ask ing.
asiat ische</w>
as k</w>
arrangi eren</w>
arom en</w>
arbe ite</w>
ar range</w>
ar en</w>
ar ds</w>
appointment. would</w>
appointment. just</w>
apologi es</w>
any where</w>
any way</w>
angebo ten</w>
angebo te</w>
ange setzt</w>
ange sehen</w>
ange kommen</w>
ander weitig</w>
an zahl</w>
an te</w>
an spruch</w>
an s.</w>
an kommen.
an gerufen</w>
an fallen</w>
an cho
an .</w>
amphi theater</w>
amo unt</w>
alo ha</w>
aller dings</w>
all-you-can- eat</w>
all-you-can- eat-
alis iert</w>
ali ze</w>
alco holic</w>
al ong</w>
al ley</w>
al le
al a</w>
akzepti ert</w>
after wards</w>
adul t</w>
addre s
add ing</w>
ad v
ad ams</w>
acc ura</w>
acc ording</w>
acc ess</w>
ac ken</w>
ac e</w>
abzu geben</w>
abholbereit. bräuchten</w>
abhol auftrag</w>
abge zogen</w>
abge würgt</w>
abge geben</w>
ab ends</w>
a gi
a .i</w>
958 11</w>
89 .
867- 35
867-35 49</w>
8 8.
7 8.
7 4.
7 2
65. 44.
60 .
6 ,
570-19 20
555-212-36 14</w>
555-21 46</w>
555-113-424 9</w>
555- 123-456
55 .
5- sterne-bewertung</w>
5 er</w>
5 4.
46 9-9720</w>
429-530-548 2</w>
4. 1</w>
4 er</w>
33 .is</w>
30am .should</w>
3 er.
3 8.
28 .</w>
25 .</w>
24 .</w>
22. 79</w>
22. 45</w>
215-896-57 12</w>
21. 30</w>
2010 er</w>
201 5er</w>
201 4er</w>
20 .00</w>
2 u</w>
2 6.
19 .</w>
18. 45</w>
18. 44</w>
17. 30</w>
17. 00</w>
11 .</w>
11 .
10 ,
0 5pm</w>
0 00</w>
. that</w>
. paesanos</w>
. next</w>
. haben</w>
- mokka</w>
- latte</w>
, 99</w>
, 88</w>
überprüfen. sie</w>
überprüfen. leider</w>
überprüfen. ich</w>
überprüfen. hmm</w>
überprüfen. einen</w>
überprüfen. brauchen</w>
überprü fen
überprü fe</w>
überhit zt</w>
über mittel
übermittel n</w>
über laufen</w>
ü s
ü ck</w>
öff nen</w>
öff ne
öffne t.
ö t
öt chen</w>
ö h
é par
épar é
é bistro</w>
änder n
ähn liche</w>
äch lich</w>
ä ter
ä ren</w>
ä ppchen</w>
ä lt</w>
ã o</w>
zwe it</w>
zwe it
zwanglos es</w>
zwanglos en</w>
zus ätze</w>
zur ich
zun e
zum in
zumin des
zumindes t</w>
zum bo</w>
zu let
zulet zt</w>
zu gang</w>
zu fällig</w>
zu finden</w>
zu bereitet</w>
zu bereit
zubereit e
zubereite te</w>
zim tsch
zimtsch ne
zim t-
zimt- short
zimt-short bread
zimt-shortbread -latte</w>
ziel e</w>
zi gen</w>
zi ffer
ziffer n</w>
zer o.
zen ten</w>
zen eg
zeneg ger</w>
zel nut</w>
zeitgenöss ische</w>
zeitgemäß er</w>
zeitgemäß em</w>
zeit rahmen</w>
zeit präferenz</w>
zeit fenster</w>
zeig t.brauchen</w>
z tes</w>
z t.
z ok
zok ulu</w>
z lich</w>
z it
zit tert</w>
z ing
zing ar
zingar i</w>
z ich
zich tet</w>
z ent
z anos</w>
your -
your- own</w>
you. unfortunately</w>
you. their</w>
you. have</w>
you. first</w>
you. and</w>
you. amc</w>
you. 4</w>
yo y
yoy tes</w>
yo ta</w>
yes. yes</w>
yes. yeah</w>
yes. that</w>
yes. my</w>
yes. i</w>
yeah .</w>
ye p.</w>
yanke e</w>
yanke e-
yankee- stadium</w>
yak it
yakit or
yakitor i</w>
y view</w>
y thing.
y th</w>
y place</w>
y nummer</w>
y ke</w>
y gi
ygi ene</w>
y el
yel p</w>
y c</w>
y ar
yar is</w>
y a
ya kin
yakin i
yakini q</w>
xl- klasse</w>
x- vorführungen</w>
x ton</w>
x ll</w>
x is</w>
x e</w>
wähl en.
wä rs</w>
wä r
wus st</w>
wor ld</w>
wor k
wor den</w>
wood ber
wonderful .</w>
won der</w>
won ach</w>
wochen end-
wo che
woche .ist</w>
wo anders</w>
wir d
win ns
winns boro</w>
win es.
win e.</w>
will is</w>
wil son</w>
wi th
with out</w>
wi fi</w>
wi de</w>
which ever</w>
wh eat</w>
wh ea
whea d</w>
wh ats</w>
wes en</w>
werden. ist</w>
wer y</w>
wer t</w>
wer k</w>
wer fen.
wen igen</w>
wen dig</w>
wen de
wende kreis</w>
well s</w>
wel t</w>
weiß -mokka</w>
weiter hin</w>
wein sorten</w>
weg .haben</w>
week .is</w>
wech s
wechs lungs
wechslungs reichen</w>
web ster</w>
we ł</w>
we st
we hr
we burger</w>
way. do</w>
was de
wasde e</w>
was .ich</w>
wartun gs
warte zeiten</w>
warte zeit</w>
war ri
warri ors</w>
war ren</w>
war men</w>
war k</w>
wal ker</w>
wal ker.
wai pa
waipa h
waipah u</w>
wahl möglichkeiten</w>
wa y.</w>
wa gy
wagy u</w>
w sk
wsk i</w>
w ned</w>
w li
wli ko
wliko wski</w>
w lan
wlan -
wlan- zugang</w>
w in</w>
w es</w>
w ed</w>
w am
wam p</w>
w af
vorstell ung.
vornehme .es</w>
vorführ zeiten</w>
vor ziehen</w>
vor speisen</w>
vor ra
vorra gen
vor nehmen.
vor genommen</w>
vor gen
vorgen omm
vorgenomm en.
vorgenommen. auf</w>
vor fü
vorfü r
vorfür hr
vorfürhr ung</w>
vor bere
vor aus</w>
voll milch
vollmilch .und</w>
voll er</w>
vir tu
vil la
vil agi
vilagi o</w>
vier ten</w>
vier te</w>
vier k
vierk öpfige</w>
vier .
vielseiti ge</w>
viel zahl</w>
vi l</w>
vi g
vig go</w>
vi et
viet nam
vi be</w>
vi be.i</w>
verzeih ung</w>
verzeih en</w>
verste he.
verstanden. welche</w>
verstanden. was</w>
verstanden. okay</w>
verstanden. irgendein</w>
verstanden. für</w>
verstanden und</w>
versch ie
verschie den
verschieden e</w>
vernünf tige</w>
verfü gt</w>
vereinbaren. nur</w>
vereinbaren. können</w>
ver zichtet</w>
ver tr
vertr au
ver ted</w>
ver sion</w>
ver mei
ver m
verm ute</w>
ver kaufen</w>
ver gleich</w>
ver ed</w>
ver an
vent u
ven it</w>
veggie- pizza</w>
veggie- lover</w>
vegan es</w>
veg as
ve way</w>
ve stal</w>
vari ed</w>
v in
vin ta
v ic
vic tor</w>
v el-
vel- film</w>
v an</w>
us k.
us band</w>
us a</w>
ur ther</w>
ur ch</w>
up. you</w>
up. do</w>
up s</w>
up market</w>
up dated</w>
unterstüt zung</w>
unterstüt zt</w>
unter suchen.
unter such
unter neh
unterneh men
unter bringen</w>
uns ere</w>
univer sal</w>
uni que</w>
ungs problem</w>
ungs jahr</w>
ung sgebühr</w>
understan d.</w>
under dog</w>
un ver
un tain</w>
un kt</w>
un del</w>
un auf
un an
umgeb au
umgebau ten</w>
umfangre iches</w>
um -pizza</w>
ul é
ul ar
ul ah</w>
uhr. funktioniert</w>
uer wehr
uc es</w>
uber. hello</w>
uber- taxi</w>
uber xl
uber x.</w>
uber x-
u- shab
u-shab u</w>
u xe</w>
u tet</w>
u ta
uta h</w>
u ros</w>
u rein
urein stellung</w>
u pe</w>
u h</w>
u h
uh -
uh- hu
uh-hu h</w>
u a
ua hu
uahu a</w>
tä glich</w>
typ ischen</w>
typ isch</w>
twi sted</w>
tus can</w>
turn -
tur ner</w>
tur ned</w>
tun ed</w>
tu re</w>
tu lu
tulu l
tulul u</w>
tschü ß</w>
tschü s</w>
ts ächlich</w>
trä glich</w>
tro p
tren ding</w>
tren dig
tre ten</w>
tre ff
treff punkt</w>
tran s
traffic .
tr a</w>
town shi
townshi p</w>
tot ally</w>
toskan a-
toskana- liebhaber</w>
tor ti
tor en</w>
tonight. can</w>
toni gh
tonigh t.</w>
ton t
tont öp
tomorrow .</w>
tomorrow .
tom my</w>
toll es</w>
toll en</w>
today. sometime</w>
to yota</w>
to wer</w>
to s</w>
to p
to .i</w>
to -
tn om
tnom ah</w>
tn is</w>
tl er</w>
tisch service</w>
tisch plat
tin y</w>
tin sel
tinsel town</w>
tin s
tins le
tinsle town</w>
times. i</w>
time .would</w>
time .do</w>
tig er</w>
tier te</w>
ticket s.
tic ut</w>
ti v
ti ram
tiram is
tiramis u</w>
ti mate</w>
ti m</w>
ti le</w>
ti ju
tiju an
tijuan a-
ti ful</w>
ti ff
tiff any</w>
ti ert</w>
ti e.</w>
thou se</w>
the ma</w>
the m.
the ad</w>
the -
that. where</w>
that. what</w>
that. please</w>
that. one</w>
that. how</w>
thanks. how</w>
thailänd isches</w>
tha i
th man</w>
th ick
thick -crust</w>
th day</w>
th ay</w>
teu erste</w>
terras se.
termin at
terminat or</w>
teriyak i-
teriyaki- restaurant</w>
ter s</w>
ter re
terre to</w>
ter nacht</w>
ter n</w>
ter ie</w>
tequila- based</w>
ten sen</w>
tem ple</w>
tem per
temper at
tell y</w>
tell ern</w>
telef n
telefn onnummer</w>
te ures</w>
te e</w>
te as</w>
tatsäch lichen</w>
taqueri a.
take -out</w>
tag. womit</w>
tag. tschüss</w>
tag. super</w>
table top</w>
ta xis</w>
ta x</w>
ta te</w>
ta p</w>
ta kes</w>
ta hn
tahn k</w>
ta gen</w>
ta chtung</w>
t. wollen</w>
t. walker.
t. stimmt</w>
t. gibt</w>
t. did</w>
t. bräuchten</w>
t-b one-
t-bone- steak</w>
t- influenced</w>
t v
t ting</w>
t stan
t s.</w>
t ol
t karte</w>
t it
t es
tes ischem</w>
t ent</w>
t ea
tea m</w>
t au
t at</w>
t all.
t all
tall ulah</w>
süd west
swe et</w>
sushi- roll
sushi-roll en</w>
sushi .
sure. when</w>
sure. uber</w>
sure. looks</w>
sure. in</w>
sure. how</w>
sur f</w>
super .</w>
sup port</w>
sup pl
suppl ying</w>
sun days</w>
sun day</w>
summe .</w>
sum mar
summar i
summari ze</w>
sugar s</w>
sugar house</w>
suchen. sind</w>
submit ted.</w>
sub st
su pp
supp os
suppos ed</w>
su chen
su ch</w>
studi os</w>
stu ft</w>
strit t</w>
stri dge</w>
street .</w>
stre et.
stre ben
streben den</w>
stra ß
stor isches</w>
stor ante</w>
stop s</w>
stoo ges</w>
sto ck
stock werk</w>
stilvoll es</w>
sti g</w>
sti ano</w>
ster o</w>
ster n
stein fisch</w>
stea m</w>
ste p
step hen</w>
ste he</w>
ste h
ste ckt</w>
ste amed</w>
ste .</w>
stat es
states ville</w>
starbucks. the</w>
starbucks- filiale</w>
star ted.</w>
star te</w>
star n
starn dar
standard -</w>
stan o</w>
sta tions</w>
sta ke</w>
st roy
stroy ce</w>
st ro
stro ph
stroph e</w>
st r
st ori
stori c</w>
st on
ston ef
stonef i
stonefi eld</w>
st mögliche</w>
st mas</w>
st ine</w>
st icker</w>
st ick</w>
st el
stel lige</w>
st ap
stap les</w>
st am
st all</w>
st al
st ag
ss es</w>
squ ea
squea king</w>
sport stadion</w>
sport bar</w>
splas h</w>
spi rit
spezialit ät</w>
spezialit ät
spezi alisiert</w>
speis es
speises a
speisesa al</w>
spec k-
speck- ranch</w>
span ische</w>
sp äter
sp ureinstellung</w>
sp unkt</w>
sp richt</w>
sp ok
spok ane</w>
sp in-
spin- off</w>
sp elled</w>
sp as
spas s</w>
south western</w>
south west</w>
south park</w>
south ington</w>
south bor
southbor ough</w>
sorr y.</w>
sor tment</w>
soon er</w>
soon .did</w>
sonn tags</w>
son ville</w>
solu tions</w>
sol che</w>
so weit
so li
soli dated</w>
so ja
soja -</w>
so gar</w>
so fer
sofer n</w>
so da</w>
so aked</w>
sm yth</w>
sm s.
sm en
sl ices</w>
sl ap
sitzgelegenhe it</w>
sitz erhöh
sitzerhöh ungen</w>
sir upe</w>
sin i</w>
simpson s</w>
sim on</w>
silver city</w>
sil ver</w>
sil ie</w>
sie ben</w>
sicherzu stellen</w>
sicher. wie</w>
sicher heit</w>
sich etti</w>
si ze
si ert</w>
si ana</w>
shrim p</w>
show times.i</w>
show n</w>
show ing.is</w>
show gro
showgro unds</w>
shortly. did</w>
short ly.</w>
shab u-shabu</w>
sh äppchen</w>
sh ort</w>
sh ly</w>
sh er
sher ry</w>
setting. the</w>
sett ing.did</w>
sett ing.</w>
serviert. und</w>
serv iced</w>
serv at
servat or
servator y</w>
senden. brauchen</w>
sende zeiten</w>
sel ben</w>
sel be</w>
sekunde .okay</w>
sein. kann</w>
sein. ist</w>
sein. haben</w>
sein. bräuchten</w>
sehen. ich</w>
second. so</w>
second. i</w>
seat ing.and</w>
sear ching</w>
se ssi
se pizza</w>
se it</w>
se hn
se g
seg ment</w>
se .</w>
scot tie</w>
scot tie.</w>
sco tty</w>
schön ere</w>
schätz ungen</w>
schwarz- weiß-mokka</w>
schwar zenegger</w>
schwar z</w>
schrei bt</w>
schrei ben</w>
schokoladen sirup</w>
schokol ade</w>
schnörkell ose</w>
schn elles</w>
schn eller</w>
schn elle</w>
schließen. okay</w>
schli mm</w>
schlag sa
schicke. in</w>
schick es</w>
schauen. einen</w>
schaf t
sch me
sch l
sch ind
sch en
sch ar
schar fer</w>
sch all
schall dämp
schalldämp fer</w>
sc ent</w>
sau sage
sardin es</w>
sardin en</w>
sard ellen</w>
sar u</w>
sar tig</w>
sar ato
sarato g
saratog a</w>
sandw ich</w>
san tos</w>
san it
sanit ary</w>
san gri
sangri a</w>
salzi g</w>
sals as</w>
salat bar</w>
sal t</w>
sal mon</w>
sake -bar</w>
sake -
sag ter</w>
safe way</w>
sa wasdee</w>
sa i
sai d.
sa har
sahar a</w>
sa f
sa chen</w>
sa be
sabe ir
sabeir o</w>
s. what</w>
s. ok</w>
s. hello</w>
s. hallo</w>
s. got</w>
s. es</w>
s. do</w>
s. did</w>
s éparé
s worth</w>
s wan</w>
s wamp</w>
s ri
sri a
sria cha</w>
s pl
spl it</w>
s mo
smo oth
smooth ies</w>
s low
s ley</w>
s head</w>
s he
she ph
sheph er
shepher d</w>
s hal
shal a</w>
s en.ist</w>
s einem</w>
s eine</w>
s a</w>
s -pizza</w>
rück t.brauchen</w>
rü ckt</w>
röm ische</w>
röm isch</w>
rust ic-
rustic- chic</w>
run ning</w>
ruhi ger</w>
ru by</w>
rp x-
rp x
ros a</w>
room y</w>
room .</w>
roman -
roman- style</w>
rollstuhlgere cht</w>
roll s</w>
rodri go</w>
rock ets</w>
rober to</w>
road house
road .in</w>
ro ws</w>
ro whead</w>
ro thman</w>
ro phone</w>
ro man</w>
ro id</w>
ro dr
rodr ick</w>
ro d
rod ne
rodne y</w>
ro bb
robb ie</w>
ro bat
ro b
river side</w>
rie b
ride .ok</w>
ride .how</w>
ri um</w>
ri storante</w>
ri ppchen</w>
ri ot
riot t</w>
ri er
ri ed</w>
ri des
ri bs</w>
revie wed</w>
restuar ant</w>
restaurant spezifikationen</w>
restauran t.</w>
rest on</w>
rest lichen</w>
reservier t.
reservation .ok</w>
reser ved</w>
res ort</w>
request ed.</w>
repe ating</w>
reparatur .
repair .is</w>
repair .
repair. appointment</w>
rell y</w>
reis en</w>
reih en
reihen fol
reihenfol ge</w>
rei ben</w>
regulä r</w>
regulä r
regulär er</w>
reg in
regin al
reginal d</w>
red. is</w>
recomm ended</w>
recie ve</w>
rec ent
recent ly</w>
re x</w>
re ws</w>
re su
re ports</w>
re port</w>
re per
reper atur
re is</w>
re iche</w>
re feren
rau ch
rat isch</w>
ramen -
ram sey</w>
ra ße</w>
ra di
radi us</w>
r ä
r unter</w>
r t
r ou
r oss</w>
r ie</w>
r ick</w>
r a</w>
quit tun
quiet schen</w>
quer ello</w>
quad ratisch</w>
qu et
qu erst
querst raße</w>
qu e
que en</w>
qu ar
quar ters</w>
pur suit</w>
pur ple</w>
pul led</w>
prüfen. es</w>
prod uces</w>
prod u
process. your</w>
proce ed</w>
problem. that</w>
problem. das</w>
proble m
pro vol
pro per
proper ly</w>
pro m
prom pt</w>
pro dig
prodig y</w>
pro chen</w>
pri ma
pres so</w>
prepa red</w>
preis lich</w>
preis leist
preisleist ung</w>
preis es</w>
preferences. i</w>
preferenc es.</w>
prefer red.is</w>
pre mi
pp s</w>
pp o</w>
pp a</w>
pos h</w>
pos ed-
por tier
por t.</w>
por ch</w>
pop ol
popol o</w>
pop l
popl ar</w>
pool- option</w>
pol itan</w>
pol is</w>
po wer</w>
po ts</w>
po in
poin te</w>
pm. you</w>
pm. is</w>
pm. can</w>
plu g
plug ged</w>
please. the</w>
please. regal</w>
please. for</w>
pleas ure</w>
play ed</w>
plan e</w>
pla in
plain ville</w>
pl ent
plent y</w>
pl ated</w>
pizzak et
pizzaket te</w>
pizza. and</w>
pizz erien</w>
pizz eri
pist os</w>
pist o</w>
pineapp les</w>
pin n
pinn acle</w>
pil ot.</w>
pi zanos</w>
pi one
pione er</w>
pi o</w>
pi ke</w>
pi ke
pike way</w>
pi kan
pikan ter</w>
pi et
piet ary</w>
pi em
piem on
piemon tesischem</w>
pi ed
pied mon
piedmon t-influenced</w>
pi e
phil i
phili p</w>
ph o</w>
ph is</w>
ph i
phi pps</w>
ph an</w>
pet ra</w>
pet er
peter silie</w>
person al</w>
perfe k
perfek t.
per u
per sichetti</w>
per is
peris ich
perisich etti</w>
per ia</w>
per el
perel man</w>
pepperoni .
pepperoni. one</w>
pepperoni -pizzen</w>
peperoni .eine</w>
pe ar</w>
patio .</w>
pasta .the</w>
pasta .die</w>
passagi eren</w>
pas siert</w>
pas send</w>
partic ular</w>
partic ular
park er.</w>
park .
park. p</w>
par tment</w>
par sley</w>
par kland</w>
papri k
paprik a.
pal sen</w>
pal met
palmet to</w>
pal m</w>
pal ace</w>
pa xton</w>
pa wlikowski</w>
pa weł</w>
pa ella</w>
pa ell
paell as</w>
p.m. for</w>
p reston</w>
p omm
pomm es</w>
p li
p it
pit z</w>
p ink</w>
p ine</w>
p ie</w>
p alit
palit o</w>
over all</w>
out fit</w>
out doors</w>
our ite</w>
ot or
otor o</w>
os sartig</w>
os en</w>
organ is
ordnung .ich</w>
order s</w>
ord ung.
or stop</w>
or ange</w>
or .</w>
option en.</w>
option .</w>
option .
op pio</w>
op ol
op ics</w>
oni on
onion s.
one. what</w>
one. and</w>
one e</w>
on lin
onlin e-
on es.</w>
on .how</w>
om onee</w>
om as</w>
oli ven
ol ulu</w>
ol one</w>
ol e</w>
ol d-
okay. wer</w>
okay. was</w>
okay. vielen</w>
okay. thank</w>
okay. okay.</w>
okay. oh</w>
okay. können</w>
okay. jo
okay.jo e.
okay.joe. joe</w>
okay. do</w>
okay. are</w>
okay. alles</w>
ok. wie</w>
ok. sie</w>
ok. arden</w>
ok en</w>
ok .i</w>
oil .i</w>
offer ed</w>
off ener</w>
ober geschoss</w>
ober en</w>
ob servatory</w>
oa key</w>
o. venti</w>
o. albuquerque</w>
o x</w>
o wned</w>
o wa</w>
o strophe</w>
o red</w>
o per
o id</w>
o hi
o he.
o h
o fen</w>
o d
od les</w>
o che</w>
o c
nächst mögliche</w>
nächst gelegen
nächstgelegen en</w>
näch ster</w>
nä her
nä he.
nut zung</w>
now. you</w>
now. the</w>
now. alright</w>
now .did</w>
nou le</w>
not wendig</w>
north park</w>
nois y</w>
noch mals</w>
no palito</w>
no pa</w>
no on</w>
no odles</w>
no .</w>
nic er</w>
nev ad
neu e
net ten</w>
net t.</w>
nen ne</w>
nei gh
neigh bor
neighbor ho
neighborho od</w>
nehmen. kann</w>
nehm lich
nehmlich keiten</w>
nec ticut</w>
neapolit an</w>
neapolit an
neapolitan ischer</w>
ne well</w>
ne wark</w>
ne u</w>
ne opol
ne ben
ne ason</w>
natürlich .in</w>
natürlich .</w>
nat omas</w>
nap p</w>
nam es</w>
nam ed</w>
nachzu schlagen</w>
nachsehen. okay</w>
nachsehen. es</w>
nachsehen. das</w>
nachschla gen.ich</w>
nachschla gen.
nach träglich</w>
nach os</w>
nach gesehen</w>
nach gesch
nachgesch lagen</w>
nach bar
na h</w>
n yc</w>
n or</w>
n ie</w>
n ers</w>
n el
n ein.
nein. könnten</w>
n c</w>
n c
nc g</w>
n au
n .möchten</w>
n -out</w>
mög lichen</w>
möchten. ist</w>
mus k</w>
mulvan e
mulvane ys</w>
mul tnomah</w>
much. oh</w>
mu ch.</w>
mozzar ell
mov ing</w>
motor probleme</w>
mor tensen</w>
mor gen
mor gan</w>
mon t</w>
mon ic
monic a</w>
mon ey</w>
moment. your</w>
moment. yes</w>
moment. wie</w>
moment. viggo</w>
moment. that</w>
moment. bitte</w>
moment. alright</w>
moment an</w>
moder nem</w>
moder n
moder aten</w>
moder ate</w>
mobile. have</w>
mo vie.
mo ve</w>
mo untain</w>
mo unt</w>
mo m</w>
mo in
moin es</w>
mittag -</w>
mitch ell</w>
mit ternacht</w>
mit bringen</w>
mis co
misco i</w>
mir anda</w>
minutes. is</w>
minutes. can</w>
minuten. wollten</w>
mini bar</w>
min i</w>
min dest
mindest ens</w>
min .you</w>
milk .is</w>
milk .and</w>
milk .
mil y</w>
mik e.
midd lefield</w>
mid- range</w>
mid night</w>
mick ley</w>
mick an
mickan ny</w>
mi ke.</w>
mi d</w>
mi c</w>
mexikan ischer</w>
mex ic
mexic o.albuquerque</w>
metro politan</w>
met ro</w>
met ador</w>
mes a</w>
merkm alen</w>
merc ury</w>
mer ch
merch ant</w>
mer ce</w>
menü auswahl</w>
men u
men tions</w>
men schen</w>
men omonee</w>
mem phis</w>
mehrgängi ger</w>
mehr eren</w>
meeresfrüchte- restaurant</w>
meeresfrü chten</w>
mediterran e</w>
med ical</w>
med ic
medic ine</w>
mechanik er
meat lover</w>
me il
meil en</w>
me he
mehe ula</w>
me et</w>
me ans</w>
me ans.</w>
mcdonal d.</w>
mcdonal d.
mcdonald. m</w>
mc queen</w>
mc newell</w>
mc co
mcco y</w>
mc cle
mccle an</w>
may ed
mayed a</w>
massachuset ts.
mas k</w>
market fair</w>
mar vel-film</w>
mar riott</w>
mar kt</w>
mar inar
marinar a</w>
mar ia</w>
mar got</w>
mar gh
margh er
mar cus</w>
mandel milch.
mand al
mandal ay</w>
man uel</w>
man town</w>
man ch
manch mal</w>
mal paso</w>
mal fun
malfun ctions</w>
mager en</w>
made .
machi ato</w>
mach t.ist</w>
mach t.
macchi atto</w>
mac k
mack s
ma her
maher shala</w>
ma h</w>
m. that</w>
m sworth</w>
m ic
mic rophone</w>
m hmm</w>
m h
mh m.
m ck
mck noule</w>
m c</w>
m ass
mass a</w>
m am
mam oa</w>
m ack</w>
lässi g</w>
län ger</w>
lyft- fahrt</w>
luna. alright</w>
lun t</w>
lu x-vorführungen</w>
lu g
lug g
lu ck</w>
lu c
luc ile</w>
lover s-pizza</w>
look .ok</w>
lol o</w>
lokal er</w>
loc ks</w>
lo is</w>
lincol n.
lin ken</w>
like .</w>
ligh ts.</w>
lich t
li ve.
li sten</w>
li st
li qu
li fe</w>
len ox</w>
lei d.
lebhaf ten</w>
le vel</w>
le iten</w>
le go-
lego- film</w>
le f
le e</w>
le ckt</w>
le be
lebe e</w>
le .</w>
lauf enden</w>
lau te</w>
lau de</w>
lat te.
lar son</w>
lar d
lard tische</w>
lan ning</w>
lamp en-
lak es
lakes hor
lakeshor e</w>
la w
la ch
lach s</w>
l usk.
l ton</w>
l ose</w>
l ink</w>
l il
lil a</w>
l icht</w>
l ic
l er
ler oy</w>
l el
lel it</w>
l c</w>
l .</w>
l .
l. a.</w>
küchen che
küchenche fs</w>
könn en.
kur ve</w>
kulinar ische</w>
krusten pizzas</w>
kruste. habe</w>
kre ol
kr is</w>
kostenlos es</w>
kosten lose</w>
kost en.
korrigi eren</w>
korean ischem</w>
kor rek
konta kt</w>
konta k
kon nten</w>
komö die</w>
komple t
kommen den</w>
komm ent
kombin ier
kom pli
kom pa
kom bi
kombi angebot</w>
kok os</w>
klin gen</w>
klei der
kleider ordnung</w>
kle k
klek tische</w>
kle ber</w>
klass ische</w>
klar. wann</w>
klar. lassen</w>
kl ären</w>
kl ich
kl eines</w>
kinok ar
kinokar te</w>
kinderfreund liche</w>
kinder karte</w>
kinder gerichte</w>
kin ds</w>
kin dly</w>
kim mel</w>
kim ch
kimch i</w>
ki ps</w>
ketten restaurant</w>
kar yn</w>
kar ten
kar en</w>
kar a
kantones isches</w>
kann. die</w>
kanad ischem</w>
kam e
kame ham
kameham e
kamehame ha</w>
kaliforn ischen</w>
kal ten</w>
kaf fe
kaffe e
k. k.</w>
k ost</w>
k napp</w>
k m</w>
k im</w>
k ent</w>
k el</w>
ju de</w>
ju bil
jubil ie
jubilie e</w>
joy nt</w>
joseph car
josephcar rie</w>
john son
john ny</w>
jim -
jim- denny</w>
jet port</w>
japan town</w>
japan ischer</w>
jam ie</w>
jam es.
james. 2009</w>
jalapen os.
jack sonville</w>
jack son</w>
ja. mein</w>
ja. ja.</w>
ja. das</w>
ja i
jai me</w>
ja .ich</w>
j r</w>
j ones.</w>
iti on</w>
iti k</w>
iti es</w>
it. you</w>
it. yes</w>
it. one</w>
it. ok</w>
it. for</w>
it. did</w>
it. anything</w>
it. any</w>
it. alright</w>
it yplace</w>
it s
it ol</w>
it es</w>
it ems</w>
ist. ist</w>
is. parker</w>
is sini</w>
is h
ir ish</w>
ir c
irc le</w>
internation ale</w>
interest ing</w>
interessi ere</w>
interes san
inter est</w>
intelligen te</w>
int on</w>
int en
inst itution</w>
inst itute</w>
inspektion .</w>
innova tion</w>
innen beleuchtung</w>
innen -</w>
ing ham
ingham ton</w>
ing .i</w>
informa tion
indi ana</w>
ind isches</w>
ind isch</w>
in- n-out</w>
in uten</w>
in timate</w>
in o</w>
in kl
in .it</w>
in .</w>
imports. 2009</w>
imax- aufführung</w>
ima gine</w>
im pul
im b
imb ap
il ian</w>
il ian
il er</w>
ik er</w>
ih uahua</w>
ig es</w>
ier ung</w>
ier te</w>
ier en.
ich .ist</w>
ic s.
ic ed-
i st.</w>
i owa</w>
i -4
i-4 0</w>
hühnchen- speck-ranch</w>
hühnchen grill</w>
hö ch
hän gt</w>
hän chen</w>
hähnchen grill</w>
hä us
hun t</w>
hu ston</w>
hr t</w>
hr lich</w>
hot pot</w>
hot dog</w>
hon olulu</w>
home y</w>
hol d
hold ing.</w>
ho her</w>
ho ch
ho bb
hobb y</w>
ho b
hob oken</w>
hm mm</w>
hin weisen</w>
hin gehen</w>
hin gebracht</w>
hin fahren</w>
hin ein</w>
hill side</w>
hil fe
hilfe .ich</w>
high est</w>
high -
hig gin
higgin s</w>
hi storisches</w>
hi storic</w>
hi .
heute. irgendwann</w>
herstell ungsjahr</w>
herstell er</w>
heraus zufinden</w>
her vorragen
her r
her ber
herber gen</w>
hello .i</w>
hello .can</w>
helfen. wo</w>
hel fe</w>
heim weg</w>
heim at</w>
hei gh
heigh ts</w>
he msworth</w>
hawai in</w>
hausgema ch
hausgemach ter</w>
hausgebräu en</w>
haup tsächlich</w>
hat .es</w>
has ham</w>
has el
hasel nuss</w>
happ en
happen ed</w>
hand ynummer</w>
hand ge
handge ma
han na</w>
hallo. können</w>
hallo. hallo</w>
hallo wie</w>
hal t
hal f.</w>
haf ens</w>
haben. wie</w>
haben. und</w>
ha zelnut</w>
ha gen</w>
ha g
ha d
had dish</w>
h ygiene</w>
h wy</w>
h ut</w>
h usband</w>
h uber</w>
h m.</w>
h le</w>
h int
h ießen</w>
h es
hes peria</w>
h all</w>
günsti gste</w>
gü te</w>
gy ros</w>
gut. vielen</w>
gut. und</w>
gur net</w>
gu tachtung</w>
gu t.</w>
gu stine</w>
gu cken</w>
