<unk>
<pad>
<s>
</s>
,
.
und
die
sie
das
ich
der
ist
es
wir
in
zu
&quot;
ein
von
eine
nicht
dass
den
mit
wie
auf
sich
sind
aber
:
haben
man
?
für
was
wenn
als
er
so
an
diese
war
um
im
also
dem
einen
uns
können
hier
werden
oder
hat
aus
des
über
auch
einer
kann
sehr
dann
–
einem
nur
wird
gibt
ihnen
menschen
mich
sehen
sein
etwas
dieser
habe
noch
nach
--
mir
mehr
alle
vor
bei
welt
meine
ihre
-
machen
nun
leben
zum
weil
wirklich
wurde
dies
dieses
da
tun
immer
jetzt
am
durch
wissen
unsere
ihr
hatte
zeit
keine
leute
viel
viele
diesem
sagte
denn
sagen
du
dinge
eines
einfach
diesen
zwei
alles
waren
müssen
jahren
art
bin
-@@
andere
anderen
würde
wo
mein
damit
vielleicht
ver@@
bis
geht
zur
gut
selbst
mal
jahre
heute
muss
warum
schon
ge@@
er@@
einige
an@@
möchte
geschichte
ja
ab@@
tatsächlich
all
wieder
macht
gehen
davon
dort
denken
kinder
&apos;
drei
ganz
genau
ein@@
hatten
lassen
paar
ihn
aus@@
darüber
könnte
seine
jahr
werde
wollen
meiner
ob
kommen
un@@
be@@
ten
wurden
problem
ihren
gab
beispiel
auf@@
geben
teil
weg
während
gemacht
denke
jeder
frage
glaube
!
dazu
unserer
kein
wäre
sogar
unser
vom
finden
doch
ende
neue
natürlich
kommt
;
denen
sondern
nichts
arbeit
tag
einmal
weiter
ohne
zeigen
zwischen
weiß
ihrer
te
gerade
stellen
würden
dafür
s
passiert
prozent
sieht
erste
nie
vor@@
zurück
will
millionen
verstehen
vielen
unter
ersten
über@@
konnte
nehmen
daran
große
bild
ganze
land
idee
sagt
etwa
fragen
bekommen
arbeiten
sollte
letzten
ziemlich
sprechen
sollten
ging
könnten
dabei
meisten
bringen
wollte
frauen
kam
meinen
geld
meinem
welche
wichtig
sache
wasser
seite
kleinen
darauf
zusammen
daten
technologie
eigentlich
weise
besser
weniger
dollar
ent@@
danke
vier
gesehen
en
system
glauben
menge
großen
dachte
lernen
bedeutet
ganzen
kleine
jemand
ihm
brauchen
raum
unseren
gehirn
nein
10
versuchen
en@@
ihrem
jedes
mann
jeden
gen
ins
zeigt
schauen
frau
seit
k@@
ab
zukunft
grund
fall
gesagt
ort
person
essen
wer
nutzen
indem
keinen
gute
um@@
...
fünf
zu@@
ung
beim
eigenen
fast
kind
schaffen
später
spielen
ungefähr
erde
hätte
20
gegen
seiner
allen
jede
funktioniert
heraus
wahrscheinlich
pro
sicher
erzählen
richtig
sten
sch@@
mutter
probleme
wenig
bauen
konnten
arten
t@@
ter
heißt
genug
moment
oft
helfen
liebe
form
s@@
schnell
bisschen
lange
neuen
dank
ideen
punkt
möglich
sah
schule
a
halten
reden
unter@@
nächsten
lang
erst
%
begann
körper
los
überall
euch
afrika
gruppe
stadt
manchmal
unserem
okay
darum
seinen
buch
projekt
teilen
stehen
anders
leuten
planeten
milliarden
licht
sagten
energie
t
bevor
computer
hin
liegt
je
hören
gehört
anderes
sei
kennen
ische
nennen
ungs@@
entwickelt
ok
i
machte
besonders
steht
deshalb
z@@
weit
informationen
mädchen
minuten
seinem
unternehmen
eren
30
ern
ischen
bilder
liche
usa
e@@
verändern
ge
natur
bereits
durch@@
oben
tat
antwort
ungen
familie
wissenschaft
erreichen
namens
verschiedene
50
chen
gerne
sprache
sechs
de
erkennen
benutzen
musste
indien
gar
hätten
lebens
spiel
gefühl
geschichten
in@@
lichen
darin
wert
führen
st
dich
enden
nach@@
d@@
100
hand
klar
möglichkeit
musik
se@@
braucht
gesellschaft
design
oh
new
haus
verhalten
i@@
lage
recht
e
gleich
o@@
augen
gott
ere
niemand
stunden
re@@
soll
bewegen
wegen
einzige
jedem
end
treffen
al@@
irgendwie
innerhalb
besten
internet
sage
vorstellen
eins
ert
vater
gebäude
schreiben
regierung
g@@
kopf
n@@
zellen
sachen
stück
obwohl
erhalten
lich
kindern
stellt
gleiche
ma@@
de@@
tiere
m@@
st@@
verschiedenen
ch@@
entwickeln
bitte
beiden
film
schwer
menschlichen
einigen
tes
ändern
alt
china
länder
ste
a@@
wollten
mit@@
zusammen@@
unglaublich
verwenden
patienten
beginnen
ziehen
überhaupt
hoch
männer
daher
ar@@
dir
gleichen
nämlich
bringt
damals
g
herum
fand
universum
versucht
15
isch
kunst
lässt
wohl
hause
tut
nächste
lesen
verändert
eltern
gern
groß
aller
angst
glück
f@@
falls
kamen
kultur
möglichkeiten
junge
hilfe
el@@
staaten
auto
bewegung
fähigkeit
getan
gt
fühlen
führt
kurz
wort
ie
letzte
menschliche
sinn
allem
bar
unten
entwicklung
nachdem
weitere
b@@
o
setzen
tage
zurück@@
m
wirtschaft
zahlen
p@@
zwar
stelle
teile
dessen
dingen
worden
eher
fahren
jedoch
meines
lösung
lehrer
unterschied
erfahrung
schön
ted
betrachten
hoch@@
stand
l@@
lösen
li@@
roboter
hin@@
kosten
prozess
ti@@
kraft
modell
eigene
interessant
falsch
le@@
neu
anfang
beste
gen@@
her
ausge@@
fragte
publikum
solche
welches
mag
nimmt
ziel
2
deren
u@@
direkt
erinnern
york
r@@
erte
fliegen
grunde
krebs
ro@@
wahr
woche
ger
muster
tragen
genauso
laufen
ra@@
zweite
jungen
kaufen
mussten
wasser@@
sieben
maschine
schließlich
verbindung
bleiben
erten
namen
sollen
thema
wissenschaftler
autos
gedanken
guten
k
di@@
stellte
boden
danach
sen
sterben
em
monate
nahm
neues
struktur
zahl
her@@
bereich
wären
zer@@
hinter
licher
formen
video
&#91;
anderer
au@@
hast
richtung
zuvor
größte
wusste
&#93;
genommen
besteht
wochen
manche
reise
ei@@
freunde
suchen
plötzlich
h@@
la@@
40
technologien
platz
bildung
or@@
funktionieren
luft
zehn
zuerst
erschaffen
gefunden
ken
scheint
aussehen
völlig
ihres
alter
gebaut
draußen
gewesen
markt
möchten
mache
ko@@
studenten
schritt
forschung
geworden
beginnt
beide
fest
schwierig
aufgabe
ländern
alen
erklären
material
reihe
technik
ange@@
acht
bereit
bist
passieren
am@@
tages
gelernt
sehe
genannt
größe
glücklich
krieg
nachdenken
alten
brachte
gemeinschaft
miteinander
1
kleines
morgen
unseres
anzahl
daraus
ger@@
situation
team
anfangen
b
firma
jemals
lebens@@
wachsen
anstatt
jahrhundert
ischer
stimme
tieren
bekommt
schul@@
gingen
gruppen
mensch
vortrag
egal
fanden
findet
niemals
ri@@
es@@
wahrheit
ä@@
amerika
tatsache
bewusst
größten
krankheit
verwendet
5
gene
foto
gezeigt
richtige
vorstellung
umgebung
z
allein
bau@@
s-@@
karte
bekannt
benutzt
meinung
schulen
3
gerät
jemanden
oberfläche
anzu@@
schrieb
ens
gegeben
hälfte
gesundheit
grund@@
kontrolle
liches
schlecht
soziale
y@@
bücher
kleiner
straße
städte
verbunden
zi@@
bedeutung
gebiet
rolle
en-@@
entfernt
geschrieben
te@@
geboren
leicht
welt@@
ding
einfache
gegenüber
generation
interessiert
nacht
erzählt
ale
labor
mitte
rest
theorie
veränderung
be
stimmt
beziehung
mittel
systeme
erreicht
meter
politik
verloren
absolut
isches
wei@@
hoffe
se
sicherheit
fehler
mögen
ni@@
revolution
stark
folgen
fähigkeiten
heraus@@
25
den@@
freund
preis
zeige
auszu@@
bewegt
gebracht
offensichtlich
ben
komplett
on
einzelne
heutzutage
legen
links
regeln
sonst
d
n
on@@
ta@@
voll
as
dachten
finde
ansehen
nennt
gekommen
gesicht
sonne
bekam
sofort
vereinigten
herausforderung
spricht
ständig
tisch
versuche
blick
kon@@
mitgefühl
normalerweise
ck@@
hand@@
erfolg
kt
machten
seiten
studie
trotzdem
arbeitet
einge@@
geschieht
herauszufinden
liegen
wann
lieben
zen
gesamte
haupt@@
pflanzen
sorgen
ten@@
ähnlich
le
möglichen
selbst@@
taten
voller
kannst
linie
—
bilden
information
l
at@@
ergebnis
gewinnen
entscheidungen
me@@
wichtige
h
hält
monaten
80
gearbeitet
realität
statt
begannen
einander
größer
ter@@
bevölkerung
lo@@
t-@@
tagen
tier
u
gemeinsam
hoffnung
punkte
sen@@
wieder@@
denkt
gesch@@
passierte
sicht
ha@@
länger
verlieren
spaß
tod
überleben
mo@@
sk@@
ak@@
fa@@
großer
mi@@
mon@@
programm
richtigen
sitzen
anschauen
aufmerksamkeit
langsam
nachrichten
sobald
ur@@
che
einzelnen
evolution
ka@@
orte
vergessen
weg@@
übrigens
bald
beispiele
deine
si@@
weltweit
wesen
bewusstsein
künstler
men
na
sahen
schneller
12
experiment
schen
außer
bei@@
gesprochen
großes
gutes
kan@@
produkt
versuchte
arm
beobachten
bestimmt
grenzen
ne@@
ts
wussten
ebene
is
job
lei@@
sozialen
tet
vorher
4
erung
interessante
ru@@
aufzu@@
firmen
industrie
sprachen
öl
bestimmten
bleibt
medizin
tausende
wahl
zeit@@
60
hal@@
bessere
europa
führte
medien
rede
200
arbeitete
e-@@
he@@
krankheiten
mar@@
th@@
umwelt
zweiten
amerikanischen
aufge@@
demokratie
fallen
fangen
gleichzeitig
orten
spiele
wichtiger
zelle
ster
eln
geschehen
wieso
zeiten
abzu@@
alte
aussieht
außerdem
man@@
nachricht
dadurch
me
ordnung
zentrum
zumindest
/
messen
methode
pa@@
sa@@
sekunden
cht
farbe
mathematik
verbessern
neu@@
sprach
einfluss
entdecken
gestellt
hab
nenne
tier@@
ö@@
ch
der@@
konzept
papier
tische
warten
bare
david
gte
handelt
nahmen
nummer
spezies
strom
vergangenheit
al
innovation
verlassen
zustand
erlaubt
sp@@
tischen
computer@@
dna
erzeugen
klein
menschheit
gründe
wand
aufgrund
ben@@
elt
fotos
früher
lebt
materialien
schüler
ton
zeug
nachzudenken
v@@
großartige
neben
prinzip
befinden
bühne
gel@@
ku@@
schaut
verstanden
amerikaner
baren
elle
frei
grad
produzieren
sowohl
universität
wirklichkeit
dorf
fällt
geist
haut
hei@@
läuft
of
sammeln
tiert
versuch
zugang
ber@@
bi@@
einzu@@
gründen
herstellen
ozean
testen
500
artikel
organisation
spiel@@
suche
unmöglich
arzt
da@@
frei@@
ges
ges@@
stunde
toll
wer@@
bo@@
fen
gegangen
interesse
nen
personen
the
version
werte
at
designer
klasse
leisten
monat
produkte
r
sohn
typ
arbeits@@
armut
behandlung
dritte
studien
wachstum
welcher
dasselbe
entdeckt
entschieden
entweder
gi@@
hinaus
ne
rei@@
tung
»
6
antworten
eis
familien
fing
name
schicken
verständnis
biologie
diejenigen
gefragt
globalen
himmel
irgendwo
rechts
riesige
spielt
us
arbeite
betrachtet
gewalt
kom@@
lichkeit
na@@
neun
so@@
geschäft
holen
innen
laden
projekte
worte
zwei@@
google
maschinen
men@@
selben
sinne
verbinden
«
feld
naja
18
freiheit
fällen
herum@@
liste
lösungen
solchen
bestimmte
ergebnisse
nahrung
po@@
treten
zunächst
öl@@
beginn
rück@@
stimmen
tigen
vertrauen
werfen
all@@
befindet
eben
ermöglicht
fest@@
handeln
leider
million
objekt
region
2@@
hilft
ke
kollegen
schlechte
traf
architektur
bakterien
chten
erstens
fort@@
geschwindigkeit
weiter@@
zeigte
chte
ebenso
fi@@
hiv
stellten
voll@@
ers
hörte
kaum
netz
ressourcen
schönheit
to@@
untersuchen
gten
j@@
mu@@
raus
test
we@@
ca.
deswegen
ell
hielt
hände
hört
näher
bedingungen
bu@@
entscheiden
fertig
gung
hundert
komme
satz
setzt
spitze
verkaufen
super@@
umwelt@@
unglaubliche
gesetz
großartig
heit
herz
kampf
letztes
rund
fische
geschaffen
retten
dein
ebenfalls
ehrlich
extrem
iert
meer
tige
90
außerhalb
du@@
erfolgreich
gesamten
keiner
ser@@
uhr
verstand
wichtigste
bar@@
bisher
freude
mikro@@
abge@@
bezug
erinnere
f
gleich@@
plan
rechte
ung@@
verrückt
8
chance
krankenhaus
lag
lernte
rechten
as@@
beziehungen
dar@@
drehen
erwarten
geb@@
gehirns
john
leidenschaft
software
unterschiedliche
worten
auswirkungen
druck
einzigen
endlich
erzählte
geräte
ho@@
strukturen
virus
är@@
erfahren
ft
kinder@@
reaktion
ste@@
ahnung
cken
do@@
eigenschaften
einfachen
getroffen
hen
herausfinden
hunderte
konferenz
nehme
pro@@
traum
typen
w@@
wa@@
abend
c@@
fisch
gang
gehe
mehrere
seines
straßen
us-@@
angefangen
armen
c
km
landes
ließ
sche
erklärt
kamera
per@@
schlagen
auge
energie@@
finger
flugzeug
op@@
schließen
wege
zeitpunkt
hängt
regierungen
schützen
trifft
unterschiede
zweitens
behandeln
bäume
englisch
ler
regel
büro
gaben
ja@@
langen
masse
mer
nahe
netzwerk
werkzeuge
westen
öffentlichen
d-@@
drei@@
erfunden
globale
ker
wichtigsten
3@@
besch@@
daten@@
dern
gesellschaften
lasst
ms
ot@@
stattdessen
weisen
wi@@
fe@@
su@@
veränderungen
ellen
heutigen
is@@
konzentrieren
lie@@
pu@@
tionen
verantwortung
wohin
z.b.
ärzte
brauchte
gedacht
groß@@
jemandem
kern
ene
gebe
geschafft
kli@@
körper@@
position
tolle
fahr@@
guter
herz@@
kar@@
lief
online
reichen
tem
tz@@
werk
wider@@
000
16
a-@@
ans
ber
dreht
echte
enen
erfahrungen
ganzes
gesundheits@@
größere
halte
produktion
religion
sh@@
sicherlich
stecken
verbringen
waffen
wenige
entschied
farben
fühlte
gefühle
gehirn@@
herzen
hinein
hinter@@
jene
kunst@@
sekunde
tief
tür
vi@@
weiss
zeichen
chris
echt
end@@
geschah
größeren
jahrhunderts
karten
nächstes
ums
verbindungen
öffnen
bt
desto
erleben
geführt
genutzt
kl@@
tern
erstaunlich
existiert
fuß
herzustellen
hey
kor@@
leistung
loch
medikamente
physik
ß@@
18@@
brot
höhe
organisationen
produziert
schöne
ü@@
erstes
fähig
par@@
seien
sodass
spreche
ster@@
tete
vorbei
wunsch
cher
dr.
eller
entscheidung
ernst
fälle
gend
ieren
komplexität
neuronen
runter
schluss
spieler
tochter
versch@@
wählen
amerikanische
br@@
eigenes
erzeugt
luft@@
materie
qualität
el
folgendes
kostet
rate
steigen
vier@@
beeinflusst
begonnen
fühle
gel
genden
ke@@
reisen
stücke
weiterhin
zusammenhang
allerdings
auto@@
baby
bildern
bio@@
dorthin
frühen
kreativität
modernen
offen
osten
wörter
ze
300
ansatz
benötigt
fragt
hart
infrastruktur
kriegen
mars
x
7
daß
dung
endes
funktion
habt
kilometer
kte
land@@
museum
ner
steckt
ted-@@
unterstützen
us@@
wirst
and
ausbildung
ausdruck
begriff
bestehen
fenster
fernsehen
fühlt
im@@
os
beine
einkommen
fer@@
gewebe
gu@@
stern
sterne
stolz
wissenschaftliche
aktivität
aufgenommen
ck
erlauben
freunden
gegen@@
gelegenheit
natürliche
nicht-@@
verursacht
zieht
zog
fluss
großbritannien
irgendwann
tt@@
universums
wagen
investieren
reich
sex
sozusagen
tan@@
to
tr@@
zimmer
arme
ckt
einfacher
feuer
filme
haufen
hu@@
kenne
lautet
männern
verfolgen
70
bau
ff@@
kal@@
klingt
nähe
partner
roten
somit
sucht
tiger
vielfalt
entstehen
entwickelten
frieden
gende
gesetze
kämpfen
laut
mittel@@
mor@@
one
pi@@
trotz
wind
x@@
11
effekt
erforschen
kern@@
lose
scher
tig
tra@@
vergleich
afghanistan
benötigen
botschaft
ecke
einsatz
et@@
gewonnen
jährige
kontrollieren
krise
leiden
linken
natur@@
politische
riesigen
schaft
selber
verfügung
verkauft
videos
weiteres
zug
besitzen
bitten
dagegen
er-@@
ermöglichen
flug@@
kräfte
london
perspektive
politischen
quelle
soldaten
stein
zei@@
14
ar
basis
city
gewicht
leid
objekte
onen
richard
risiko
saß
staat
stoff
stre@@
städten
töten
vollkommen
aufgaben
berg
erinnert
fleisch
gemeinde
gilt
herausgefunden
hoffentlich
ki@@
lebte
lehr@@
schafft
steuern
wächst
zeichnen
ändert
band
bewegungen
elles
folge
gestalten
kurzem
lebten
perfekt
reagieren
scheinen
schutz
sitzt
sta@@
systems
ts@@
werkzeug
atmosphäre
bezahlen
dennoch
eigen@@
grenze
ige
it@@
kommunikation
modelle
mond
tief@@
verdienen
wahrscheinlichkeit
wohn@@
alität
bel@@
darf
davor
fortschritt
ig@@
kunden
ses
setzte
titel
wesentlichen
wiederum
worüber
zieren
bürger
code
entlang
gestern
letztendlich
meistens
moleküle
nochmal
san@@
schätzen
wandel
welchen
det
dieselbe
fe
gehalten
genen
problemen
rein@@
schwester
senden
teten
unbedingt
war@@
wirtschafts@@
zuhause
20.
beeinflussen
dritten
entwerfen
fragten
fuhr
gebiete
gelangen
haus@@
hervor@@
intelligenz
kten
lich@@
möglicherweise
pe@@
phänomen
re
unterschiedlichen
vollständig
zell@@
än@@
beschäftigt
cool
fehl@@
ien
karriere
kennt
klimawandel
kontakt
methoden
milliarde
weiteren
y
ad@@
are
bett
fin@@
hergestellt
hinein@@
jobs
kommunizieren
kraft@@
lauf
meilen
qu@@
reicht
sommer
sonnen@@
themen
umgehen
vermutlich
veröffentlicht
wunderbare
arbeiter
baum
chs
deutlich
irgendetwas
ismus
japan
mal@@
stische
unbe@@
unterstützung
aktiv
beschreiben
buchstäblich
ex@@
hohe
ine
jahres
jährigen
ken@@
les@@
rein
schwarze
vision
wohl@@
24
behandelt
brachten
drittel
durchgeführt
ender
erstellen
gl@@
jungs
laufe
präsident
weder
woher
2000
basiert
bin@@
entwickelte
experimente
falsche
gefängnis
hund
lachen
schutz@@
starb
stufe
wirkung
aufnahme
eis@@
forscher
fort
har@@
hauptsächlich
licht@@
lö@@
raum@@
räume
sparen
ton@@
tu@@
ziele
zufällig
zusammenarbeit
.@@
elemente
entsteht
erzähle
führung
geburt
gewissen
hohen
kümmern
ließen
morgens
see
temperatur
vergleichen
400
4@@
alleine
bildschirm
co@@
dauert
digen
erster
experten
fläche
igen
kur@@
massen@@
mission
sozial@@
sti@@
überzeugen
überzeugt
behalten
besseren
gedanke
gefahr
kurze
mer@@
mitten
mögliche
mütter
steigt
tausend
teilt
tions@@
tue
viren
wuchs
9
ah
aufhören
begeistert
gelesen
gesetzt
häuser
insekten
lern@@
losen
neuer
stischen
tion@@
tre@@
tten
verbracht
washington
zeitalter
10.000
babys
betrifft
familien@@
haft
interessieren
klang
lernt
passt
starke
str@@
teil@@
volle
wissenschaftlichen
ziert
arbeiteten
bemerkt
ern@@
gra@@
hirn@@
hü@@
kr@@
lieber
normale
schla@@
tiefe
verantwortlich
ähnliche
äu@@
übertragen
affen
aler
anderem
ds
großteil
handel
ing@@
kalifornien
legt
lu@@
nannte
pen@@
pp@@
sch
son
wunderbar
ameisen
ba@@
bekamen
brauche
buch@@
dahin
führten
gehabt
go@@
herr
hinweg
ir@@
knochen
ktion
meeres@@
organismen
schlag
schwimmen
schönen
wisst
zählen
bal@@
bereiche
blut
brauchten
dar
dr@@
erstaunliche
erwartet
existieren
fach@@
finanz@@
hintergrund
könnt
kürzlich
leben@@
los@@
opfer
per
rief
san
total
verbreitet
verlangen
versuchten
wow
ach@@
augen@@
bauern
bezahlt
echten
geschickt
landwirtschaft
nation
normalen
ol@@
passen
praktisch
stellung
verhindern
verwandeln
überrascht
berei@@
bloß
ches
drin
glaubt
menschen@@
mindestens
moderne
pan@@
rücken
schi@@
september
ul@@
verbreiten
wür@@
älter
13
aids
aufnahmen
getötet
insel
interagieren
k-@@
kontext
len
om@@
park
schaute
sowie
stisch
tri@@
uner@@
unternehmer
wahre
weile
weißt
zogen
ban@@
barkeit
bauten
chen@@
eingesetzt
einsetzen
erkannte
erkenntnis
gegenteil
gehirne
institutionen
je@@
landschaft
linien
mt
musst
rahmen
sauerstoff
schmerz
trägt
vögel
wald
win@@
abhängig
aten
bedeuten
bild@@
drüben
dürfen
ell@@
eure
galaxien
genauer
irak
minute
netzwerke
nieder@@
no@@
normal
relativ
stri@@
wal@@
werbung
y-@@
and@@
bares
bienen
erscheinen
ess@@
gest@@
gestorben
grün
inneren
klein@@
lass
lebewesen
professor
unterscheiden
anwenden
bestimmen
bildungs@@
bill
emotionen
fiel
herausforderungen
hoffen
händen
kü@@
leiten
mengen
nutzt
ober@@
schlimmer
sä@@
tischer
v
wahl@@
wahrnehmung
weißen
ze@@
zt
150
35
annehmen
ansicht
bieten
ei
erklärung
früh
fängt
generationen
krank
kreis
lan@@
lin@@
operation
paul
pf@@
por@@
schuhe
verschwinden
vorteil
wo@@
wunder
17
angenommen
bank
eindruck
elten
enten
erfinden
erhält
gehören
halbe
häufig
identität
il@@
individuen
lä@@
regionen
rätsel
stammt
tzen
verhältnis
ßen
ären
abschluss
bat
bietet
cker
grundlegende
grundsätzlich
heisst
lehren
län@@
maus
patient
quellen
schlüssel
schnitt
solch
teilchen
traditionellen
täglich
vorfahren
19@@
atom@@
boot
einheit
entdeckung
flu@@
gefährlich
gelöst
gespräch
ker@@
kurzen
körpers
lager
lauf@@
meiste
märkte
mü@@
national
notwendig
null
polizei
schicht
tierte
öffentlichkeit
1@@
beschlossen
besondere
einiger
einzel@@
fantastisch
fü@@
garten
gefahren
gegensatz
gezogen
holz
inter@@
ju@@
kurs
mil@@
müsste
schlechten
scht
spielte
stell@@
strategie
wichtigen
zen@@
afrikanischen
aspekt
ation
berührt
bürger@@
co2
dach
definieren
details
dinosaurier
elte
for@@
handy
hängen
las
mach
planet
schw@@
seitdem
signale
soviel
strei@@
the@@
unge@@
unterricht
öffentliche
$
aufbauen
beantworten
faktor
fisch@@
it
kulturen
küste
mittleren
nationen
schau@@
standen
starten
times
verfügbar
versorgung
anti@@
arbeit@@
bereichen
blatt
charles
cht@@
chtet
deinen
elektro@@
em@@
england
flü@@
forschungs@@
genom
halt
hä@@
ing-@@
ma
markt@@
p
richten
sieren
wenigen
äre
angesehen
blau
bruder
charakter
ernährung
erscheint
erungen
film@@
form@@
fu@@
galaxie
gefallen
gewisse
gkeit
heben
ka
lieblings@@
mehr@@
nachbarn
natürlichen
programme
raus@@
reduzieren
schien
schwarzen
show
stuhl
wechseln
wert@@
ß
augenblick
baut
baute
bestand
blu@@
entspricht
entworfen
ften
gsten
gäbe
hinsicht
lied
müll
regen@@
selten
sin@@
strom@@
tausenden
teuer
trag@@
tur@@
verbrachte
wobei
zeitung
5.000
dran
drücken
durchschnittliche
falten
folie
ft@@
gespielt
inspiriert
komplexe
konflikt
korruption
phase
rau@@
schaden
sicherheits@@
son@@
sor@@
unterrichten
westlichen
digitalen
fahrer
fernseh@@
früh@@
hallo
hi@@
iran
lagen
level
lichsten
malen
medizinische
nah
o-@@
pal@@
persönlich
präsentation
quasi
rot
rote
sprach@@
träume
tä@@
verbindet
wirtschaftlichen
zerstören
zerstört
asien
berichten
cher@@
college
dig
einrichtungen
entstanden
erlebt
erter
gesundheitswesen
geändert
gs
hel@@
hr@@
jedenfalls
junger
kindheit
komplex
ks
medikament
mp@@
or
potential
richtungen
ser
stein@@
studieren
tungen
viertel
web
ales
atmen
beinahe
beweise
beweisen
blieb
druck@@
dunkle
elektrizität
fabrik
fährt
gegend
george
haltung
kochen
mel@@
ment@@
norden
ren
sand@@
schwer@@
schwierigkeiten
springen
statistiken
sätze
tests
treiben
unabhängig
vermitteln
aufgebaut
denk@@
einstein
fern@@
fuß@@
führer
gelegt
höher
lektion
momente
persönliche
rufen
schei@@
ssen
streben
verteilt
wesentlich
wind@@
wirkliche
600
bekannten
cke
des@@
diagramm
ersetzen
fern
feststellen
fl@@
gebeten
he
kampagne
kerl
mund
ob@@
positive
raten
sand
tsch@@
vorne
wand@@
werten
zweck
99
architekten
bein
ehe@@
facebook
gefällt
geheimnis
gemeinden
grünen
heißen
herunter@@
hör@@
höre
inhalt
kompliziert
mexiko
nord@@
ologen
ologie
persönlichen
politiker
schlafen
situationen
stärke
untersucht
verbessert
verfahren
website
2008
45
9@@
ag@@
aufzubauen
don@@
erkennt
erstellt
g-@@
ga@@
gelassen
gew@@
glas
grosse
grüne
helden
herren
james
lau@@
lediglich
lustig
mis@@
motor
saal
school
seh@@
solange
sowas
stärker
telefon
theater
aller@@
aufregend
bedürfnisse
beobachtet
bil@@
blauen
büchern
derzeit
dro@@
els
erin
erwachsene
erwähnt
fall@@
freundin
großmutter
ht
kin@@
klima@@
langer
nötig
pri@@
schalten
seltsam
siert
sinn@@
solar@@
stoßen
tot
unterstützt
vorstellungen
weiße
wirk@@
6@@
achten
afrikas
außen
barer
besuchen
brechen
deten
digitale
entwicklungs@@
erd@@
fördern
hinten
israel
kopf@@
kriegs@@
menschlicher
my@@
nützlich
rechts@@
seht
spiegel
verlust
willst
wirken
wunder@@
zuhören
übrig
5@@
achse
bedarf
beschloss
definition
enorme
entdeckte
erfindung
flug
folgt
freien
gem
gesund
kaffee
kreieren
löcher
metapher
michael
nachts
sau@@
schimpansen
selbstverständlich
stammzellen
versteht
webseite
wen
zivilisation
züge
anhand
ani@@
brücke
car@@
chemikalien
far@@
folgende
fte
gegenwart
geld@@
gelebt
geschäfts@@
gesichter
glas@@
hielten
hinzu@@
irgendjemand
leistungs@@
lichem
moralische
physiker
sam@@
schmerzen
schrecklich
tiges
vorzustellen
welchem
wüste
zitat
ball
brach
bri@@
diskussion
effektiv
entstand
entwicklungsländern
fer
gebraucht
großartigen
hau@@
hy@@
mitglieder
molekül
proben
regen
rollen
sal@@
sam
ss
straßen@@
vorhanden
vorhersagen
wettbewerb
zauber@@
ach
anstelle
australien
beispielsweise
beschäftigen
bezüglich
bus
damen
eu@@
fischen
grafik
gras
hierher
innere
maßstab
nutzung
online-@@
setzten
spezi@@
speziellen
text
vollen
wieviel
überlegen
überraschend
1,@@
1.000
allgemeinen
anfing
beweis
big
bra@@
element
ente
gebieten
gei@@
hn@@
kombination
lokalen
menschliches
mitarbeiter
rennen
schlechter
signal
singen
stra@@
tt
unglaublichen
versagen
verteilung
volk
wenden
anteil
anwendung
ausgeben
bedenken
beinhaltet
bl@@
chemie
chinesische
cks
dan
dauerte
dienst
entfernen
gegenseitig
gekauft
grundlage
hnen
ierte
internationalen
kannte
kenia
kleidung
kra@@
kurve
liefern
mut
neuro@@
ppe
prinzipien
risiken
schuld
seid
teams
toten
unterschiedlich
vertraut
veränderte
viel@@
voraus@@
wikipedia
wofür
zugänglich
äußerst
75
ac@@
ausmaß
autor
besessen
besseres
einiges
gefähr@@
gemeinschaften
geräusche
heim@@
heran@@
holz@@
innen@@
insbesondere
interessantes
kapital
kapitel
krebs@@
meist
müssten
nahrungs@@
nigeria
nä@@
ohren
prä@@
rat
schrift
schwieriger
sei@@
serie
sse
stan@@
stoffe
sub@@
süden
tanz
telefon@@
teste
untersuchung
video@@
ys
zähne
akzeptieren
analyse
besitzt
darunter
dra@@
füllen
gar@@
gegründet
herr@@
hrt
hörten
kanada
kat@@
mach@@
malaria
nase
ner@@
ozeane
regierungs@@
schauten
sektor
trinken
tumor
verbreitung
verstehe
wirtschaftliche
21.
absicht
aufs
aussage
ausstellung
bekomme
bemerken
dichte
erwachsenen
fli@@
freie
glaubte
len@@
meinte
momentan
nasa
not@@
plan@@
ppen
ras@@
rechnen
recht@@
resultat
ruf
solcher
süd@@
südafrika
thomas
tonnen
tradition
tro@@
tze
tö@@
verwandelt
woran
wovon
2007
aufgeregt
bes@@
darstellen
debatte
del@@
deutschland
durchschnitt
enorm
ergibt
existenz
ffen
fingen
froh
gan@@
gebäuden
geln
grossen
gs@@
instrument
kam@@
kirche
konzentriert
laptop
lehre
mm@@
nicht@@
ons
organisieren
pfund
pla@@
realen
schritte
sitz
tin
unterhaltung
w
wen@@
werke
willen
zierte
übernehmen
7@@
che@@
dan@@
darwin
einfaches
ertes
gas
geholfen
geräusch
han@@
inzwischen
kabel
kontinent
kriege
lang@@
magie
male
multi@@
perfekte
religionen
sel
stehe
studio
ters
tor@@
tzt
voraus
weiterer
wirkt
zucker
aufnehmen
automatisch
blaue
dieselben
dimensionen
dis@@
enthalten
erende
erlebnis
erweitern
felder
gebrochen
gemeinsame
gemälde
genetische
gens
glücklicher
ha
haften
hl@@
jahr@@
lebe
ley
lächeln
mittels
nde
nor@@
psychologie
restaurant
schiff
schneiden
schreibt
spüren
sten@@
student
theit
tiven
twitter
vermeiden
wechsel@@
witz
worum
wünschte
zeigten
ße
änderungen
bildet
brust
einstellung
elektrische
enthält
enz
fakten
fal@@
flasche
fol@@
ig
inen
irgendeine
mess@@
nt
organe
plastik
pr@@
soweit
star@@
tritt
umfeld
vorbei@@
wellen
wohlstand
worauf
zier@@
überwinden
11.
annahme
armee
besagt
eng@@
erhöhen
fasziniert
folgenden
fra@@
gas@@
gr@@
hö@@
ie@@
ingenieure
innovationen
interaktion
komm
konsequenzen
kontrolliert
lebenden
literatur
mitglied
mitteln
nis
pinguine
schl@@
schlüssel@@
status
stu@@
tanzen
vieles
wenigstens
weshalb
wä@@
zerstörung
20@@
ansieht
ausgaben
beschrieben
betrieben
chancen
diert
dige
effizienz
ernsthaft
fach
faktoren
fen@@
fortschritte
gemeinsamen
gener@@
geschenk
golf
hän@@
indischen
inspiration
internationale
jung
kameras
lebensmittel
medizinischen
miss@@
mittlerweile
nden
nis@@
niveau
noten
proteine
rand
rü@@
schatten
schlug
schü@@
sichtbar
spät
starben
systemen
tasche
teilweise
therapie
tiv
unfall
ursprünglich
wein@@
welten
west@@
zurückzu@@
ähnlichen
19.
angeht
beenden
behaupten
beibringen
blase
brasilien
böse
dischen
entfernung
epidemie
erkannt
erkrankungen
farb@@
fehlt
gefangen
gerechtigkeit
gericht
glücklicherweise
haie
haup@@
hervor
hinzu
indi@@
jahrzehnt
kul@@
liefer@@
mehrheit
merken
mikroben
motor@@
musik@@
nachgedacht
nar@@
ph@@
programmieren
scheinbar
schließt
spektrum
spro@@
steve
sto@@
tal@@
verlauf
vierte
wissenschaften
100.000
8@@
aktivitäten
algorithmen
auseinander
berg@@
bericht
betreiben
bre@@
büro@@
darstellung
durchführen
eindeutig
gedicht
graben
grün@@
high
hunger
iger
kaufte
kn@@
leb@@
leiter
ll@@
lügen
macht@@
manchen
marke
medi@@
medium
mitnehmen
musiker
nachzu@@
nen@@
ran@@
robert
samen
schau
seltsame
spr@@
stieg
stoff@@
tiefen
trat
tü@@
university
unteren
unver@@
verbrechen
verglichen
verkehr
verschwunden
wahrnehmen
weltweiten
womit
zusätzlich
alternative
aspekte
basierend
besorgt
bibliothek
bor@@
dargestellt
decken
designs
ent
fantastische
flächen
fr@@
francisco
funktionen
genügend
gesammelt
gewisser
halb
katastrophe
kle@@
kümmert
lichkeiten
lichste
nebenbei
niemanden
oren
presse
ren@@
schwarz
schönes
speziell
tel@@
ther@@
todes@@
waffe
wel@@
wolken
alisiert
anschaut
ant@@
arm@@
branche
buchstaben
bur@@
chinesen
ckte
dün@@
eingeführt
eli@@
eri@@
erinnerung
fokus
gewinn
hen@@
hof
hunde
kostenlos
lebende
liebte
metern
moral
mächtig
national@@
respekt
sorge
sport@@
starken
stes
stift
stil
strahlung
tauchen
ve@@
ven
verursachen
vogel
vorteile
wechsel
wem
zweimal
2005
ate
batterie
beteiligt
bogen
brust@@
bung
center
drogen
ehe
ereignis
geschäfte
gewählt
harvard
heiten
inseln
interessanter
kop@@
küche
lasse
mau@@
mischen
offen@@
probe
reduziert
rie@@
schen@@
schu@@
test@@
träumen
vielmehr
vorbereitet
winter
wurzeln
youtube
zufrieden
afrikaner
anischen
bein@@
berge
beschreibt
billionen
blumen
cm
dame
darstellt
definiert
dert
din@@
eingeladen
erforscht
faszinierend
fliegt
ford
fürs
genetischen
gesamt@@
gottes
greifen
halb@@
herstellung
instrumente
isieren
islam
jener
jähriger
langsamer
machst
mangel
maß@@
medizin@@
mutter@@
nahen
neben@@
offenen
pferd
plat@@
schießen
schlussendlich
schlägt
sport
staat@@
stin
tiefer
trick
verliert
wir@@
wor@@
wunderbaren
x-@@
zte
zus@@
zusammenarbeiten
ähnliches
1.@@
aktion
aufgewachsen
bahn
bezeichnen
bibel
ca@@
chaos
chern
dauern
dunkel
erhielt
ernähren
fan@@
fein@@
feuer@@
geschlagen
glichen
gro@@
hinzufügen
höhere
ischem
ität
krieges
leichter
mc@@
min@@
ologe
pakistan
potenzial
preise
resultate
räumen
schwierige
seele
sicht@@
sozi@@
ss@@
stadt@@
trug
tungs@@
ungsk@@
verfolgt
verwendung
vorgang
weisheit
world
älteren
2010
antwortete
bank@@
bedeutete
bedrohung
begegnen
bemerkte
boston
dahinter
deiner
dh
dor@@
elektrischen
fehlen
fel@@
für@@
geleitet
gespräche
gewe@@
global
grenz@@
iges
informations@@
internet@@
investitionen
kohle
kti@@
kulturelle
mama
mathematiker
männchen
nett
netz@@
operationen
pen
plastik@@
sicher@@
spuren
stet
stoffen
sü@@
techniken
tiver
trafen
zierten
ära
19
anische
anlagen
anscheinend
anten
auen
bemerkenswert
blut@@
co
derer
dlich
dna-@@
einst
entdeckungen
flo@@
funktionierte
gabe
geteilt
gramm
grundlegenden
inspirieren
kla@@
komplexen
könig
landen
las@@
lebendig
letzter
lokale
nachbarschaft
nutz@@
population
positiv
ppt
rad
s.
schä@@
stiftung
tja
visuelle
vorher@@
vorstellungskraft
vorzu@@
wan@@
wunderschöne
wände
wär@@
ökosystem
überraschung
acht@@
angriff
arbei@@
bas@@
bezeichnet
binden
biologische
computern
decke
doppelt
eier
empfin@@
ereignisse
fahrzeuge
feiern
flügel
heu@@
hieß
hinterlassen
komponenten
kurz@@
militär
nationale
on-@@
packen
pat@@
pflanze
schichten
schn@@
schweden
schäd@@
spar@@
steine
still
studium
suchte
teufel
unterwegs
versorgen
vorge@@
wichtiges
zü@@
ägypten
ältere
är
alismus
amp
anti-@@
anzusehen
arabischen
aren
artigen
auswahl
außen@@
beachten
beruf
blei@@
blin@@
brief
chemische
digt
dynamik
funktion@@
geburtstag
gegenden
geruch
gleichung
heiß
hotel
hren
industri@@
jahrzehnte
klassenzimmer
kugel
lebenserwartung
liefert
lieren
live
magne@@
maß
meer@@
mes
milch
moralischen
neigen
obama
paris
pfer@@
planen
präsidenten
schaue
schrieben
spezielle
stei@@
technischen
tisches
tlich
trau@@
treibt
ur
vermögen
voneinander
vorhin
ziel@@
zufall
zuschauer
öffnet
ökonomen
üben
0,@@
10@@
21
abgesehen
ausgesetzt
bekämpfen
bende
betroffen
bewahren
bricht
bü@@
chicago
dete
drittens
echtzeit
einfachheit
erneut
et
fett
fliege
gefüllt
geistes@@
gesundheit@@
haiti
heim
infiziert
klima
kosten@@
lenken
ler@@
lung
ländlichen
mag@@
militär@@
moral@@
neuigkeiten
ruhe
sches
schte
schwere
see@@
stoppen
such@@
tel
tot@@
trennen
tzte
umge@@
ursprung
verdient
wahlen
weite
zentren
zy@@
übersetzen
2009
anstieg
ant
anwendungen
aufbau
ausmachen
ausrüstung
beigebracht
berühren
besucht
box
budget
chinesischen
chtes
derselben
diger
dliche
drehte
dunkelheit
eigentliche
entscheidend
eres
erhöht
erwärmung
fahrzeug
forsch@@
gh@@
hafte
handys
hil@@
island
klinik
kre@@
kreativen
köpfe
letztlich
mas@@
nannten
pfen
plattform
pläne
privat@@
projekten
ps
ris@@
samkeit
schicksal
sech@@
sel@@
selbe
spiegel@@
späten
störungen
tau@@
umgeben
vergangenen
versteckt
welle
weltkrieg
werbe@@
wissenschaftlern
wolke
wünsche
zahn@@
zeich@@
zä@@
üb@@
22
afrikanische
al-@@
angeles
ank@@
anlage
anpassen
beides
benden
berechnen
bf
blicken
bot@@
bru@@
bs
chter
dat@@
detail
dische
ed
eigenschaft
erer
falschen
flugzeuge
flüssigkeit
funk@@
genießen
geworfen
gleichgewicht
half
hinblick
hne
ide@@
insgesamt
interessanten
jahrzehnten
lig
lige
maßnahmen
meister
mö@@
müll@@
neten
nu@@
person@@
positiven
problems
riesen@@
riesiges
schild
schlechtes
sogenannte
sol@@
sper@@
sprung
ta
tierten
traurig
tter
umständen
umzugehen
vorschlag
winzig
zugeben
änderung
akt
alisierung
altern
berechnungen
besuchte
biologen
biologischen
blasen
bli@@
blätter
bro@@
cent
drauf
drucken
dunklen
ed@@
erklärte
fahrt
ff
fressen
fri@@
griff
hab@@
herunter
hyper@@
identifizieren
irgendeinem
jenseits
jo@@
kei@@
knapp
kreative
kä@@
kö@@
mehreren
mensch@@
mung
mä@@
peter
philosophie
schlu@@
sonder@@
sonnenlicht
stand@@
street
studiert
tab@@
tru@@
usw
veröffentlichen
weltraum
wirft
wozu
wü@@
zahl@@
zunehmend
zweifel
ür@@
.com
23
ali@@
ausdrücken
belohnung
besonderen
dazwischen
dienen
ehre
el-@@
elefanten
emotionale
ergeben
erinnerungen
feind
golf@@
gri@@
hassen
hoher
interessen
irgendwelche
j
kalt
lat@@
legte
log@@
länge
motivation
nten
organisiert
reaktionen
repräsentiert
sche@@
schickte
sender
stock
streiten
symbol
taucht
tenden
teure
tigung
verschiedener
1000
alisieren
ang@@
anz
auff@@
begreifen
bene
bewohner
blind
circa
empfinden
erwähnen
figur
frequenz
fünf@@
gendes
getrennt
hier@@
höchsten
ierten
isierung
kette
konfrontiert
kreb@@
krei@@
kultur@@
könne
langweilig
leuchten
mark@@
maße
muskeln
nervös
neulich
offene
oni@@
papier@@
party
physi@@
physische
plätze
saßen
schlag@@
sichtweise
stamm
symptome
teenager
teilnehmer
tende
tom
training
tte
uganda
un
verkehrs@@
visuellen
vorträge
wartet
wundervolle
wälder
zehn@@
zeitraum
zentrale
zufriedenheit
ßt
übung
&amp;
0.000
0@@
abhängigkeit
aktuelle
andererseits
anruf
außergewöhnlich
beitrag
bekannte
benutzte
bewirken
bis@@
bösen
chi@@
chter@@
dene
depression
digung
dinger
dri@@
e-mail
erfüllen
flog
gebrauch
general
gewöhnt
glück@@
haare
kasten
katze
kontroll@@
lebensmittel@@
logik
magazin
medien@@
nie@@
oberen
reiche
risiko@@
russland
schnelle
schätzung
stille
stärken
tere
tom@@
traditionelle
tz
wale
weibliche
wirklichen
zeichnungen
zugleich
ander@@
ator
auftrag
b.
bat@@
bel
berichtet
do
erfassen
exakt
fo@@
fun@@
füße
gab@@
gestartet
gesunde
gewöhnlich
hnt
ignorieren
interessanterweise
kaputt
katastrophen
kindes
kohlenstoff
kun@@
persönlichkeit
polio
protein
scheitern
schreib@@
sie@@
spannung
spe@@
star
streit@@
stufen
tag@@
tigkeit
tives
ven@@
ver
verb@@
verrückte
winkel
zes
zie@@
zone
zuzu@@
.000
adam
anführer
argument
atoren
autor@@
benutze
bevölkerungs@@
britischen
brü@@
ca
del
design@@
doppel@@
drogen@@
drückt
dä@@
eng
erenden
fasern
fließt
gemein@@
gender
gerettet
geschmack
glaubten
gold
gründete
höchste
höhepunkt
in-@@
investiert
jeweils
kongo
kreislauf
ktoren
lli@@
organismus
poster
punkten
rech@@
reparieren
schöner
sende
sequenz
spur
stirbt
szene
tee
teilung
theorien
trage
verein@@
vergnügen
verließ
weltbevölkerung
willkommen
zeichnete
zentral@@
zurückkehren
zwischen@@
zählt
17@@
27
95
alisierten
altes
architekt
ausgegeben
bahn@@
bewegungs@@
bit@@
ci@@
denkweise
derek
diabetes
dient
diskutieren
dungen
effizient
erdbeben
fache
filmen
gedanken@@
gedächtnis
gelb
geraten
gerufen
gewann
globalisierung
gol@@
grippe
gross@@
hinauf
hinunter
igkeit
ik
irgend@@
kamer@@
kb
keinem
ktionen
la
mei@@
nachhaltige
nete
open
pollen
ratten
regel@@
ruhig
schli@@
sogenannten
spenden
station
sternen
strategien
strecken
symmetrie
teren
texas
verbrauch
versprechen
vorsichtig
wetter
zukünftigen
2001
2003
2004
2006
angebot
ations@@
ausnahme
ausschließlich
begrenzt
begriffen
blickwinkel
block
chti@@
design-@@
dollar-@@
ek@@
entscheidende
erfinder
fre@@
früheren
gebildet
geh@@
gemüse
gerung
gestaltung
gewi@@
grundlegend
gän@@
güter
handlung
handlungen
hlen
ingenieur
institut
klo@@
kuchen
kulturellen
kung
käfer
lehrern
lin
macher
mechanismus
nah@@
nerven
nung
pflege
pol@@
reg@@
rum
sammlung
schein
schwe@@
schwerer
stahl
teleskop
terin
ttert
umgang
umso
umzu@@
verschieden
verschmutzung
verschwindet
vertrau@@
vorwärts
wahren
wiederholen
winzigen
zig
zit@@
zurückgehen
50.000
ast
aufre@@
babies
bekann@@
bescheid
blog
brand@@
chip
chirurgen
denselben
dichter
dieren
eg@@
einheiten
endet
fei@@
figuren
fil@@
fordern
frankreich
fro@@
geber
gegessen
gste
hang
hoben
höheren
i-@@
impf@@
irgendwas
januar
jenen
kommunikations@@
konflikte
konsum
kranken@@
leg@@
liest
mieren
miert
motoren
nte
ozean@@
physischen
pl@@
rechner
rö@@
schaften
schlei@@
sm@@
sms
stamm@@
stammen
strand
stämme
tion
trend
videospiele
weltall
wiederholt
wil@@
z.
zuge@@
120
20.000
26
aku@@
analysieren
anbieten
app@@
apple
aufrecht
ausgebildet
ausmacht
bedeckt
behörde
beitragen
besitz
billig
brüder
chung
co2-@@
den-@@
diesmal
doktor
dü@@
emissionen
ener
englischen
entstehung
erlangen
fabriken
fremden
fung
fä@@
gat@@
glei@@
gst
heilen
hre
intelligente
iphone
kanal
knopf
komplizierte
konsumenten
korallen
köpfen
lam@@
lernten
lichter
manager
nahezu
oxford
pel
poly@@
profitieren
real
reichtum
sag
schlimm
schnell@@
schwarz@@
sechs@@
sicherer
staats@@
tik
tricks
täuschung
umstände
uren
ursache
val@@
valley
wahr@@
weltweite
werdet
wieviele
wohlbefinden
wu@@
währ@@
zin@@
0er
2.000
250
3d-@@
abends
anfängt
atem
aufstieg
autismus
bergen
besitzer
bewe@@
bie@@
brustkrebs
cken@@
dienstleistungen
dlichen
dungs@@
dutzend
ebenen
echtes
einrichtung
entgegen@@
entwicklungsländer
ersetzt
erwartungen
fahrrad
festgestellt
flie@@
fließen
fotografiert
frank
fügen
gelt
gert
glich
harte
haut@@
inklusive
isi@@
jagen
kalten
kapitalismus
kohlenstoff@@
kolonie
konzepte
martin
mini@@
mochte
nachdenkt
nachhaltigkeit
nachrichten@@
pause
pflanzen@@
prakti@@
probieren
radio
reicher
roll@@
schafts@@
selb@@
sensoren
skraft
sozialer
spitzen
statistik
steuer@@
streit
stro@@
summe
säu@@
ten-@@
trans@@
transparenz
tzten
universitäten
verbrauchen
verbraucht
vogel@@
voran@@
väter
wach@@
west
westliche
wohnen
wundervoll
würdest
zer
zo@@
zukommen
…
65
700
angesichts
angetrieben
ari@@
becken
beln
bemerkenswerte
benutzten
berühmt
beschä@@
christ@@
cor@@
deckt
deinem
dumm
errichten
falle
fotografie
förder@@
gewöhnliche
gezwungen
ghana
gib
gipfel
hingehen
hitze
humor
hung
inhalte
investition
jugend
jung@@
knie
künstliche
letz@@
löst
mein@@
messer
ministerium
mmen
mus
mus@@
nimm
ou@@
polar@@
preis@@
produkten
prototypen
raub@@
sc@@
schlimmste
schlimmsten
scho@@
schreckliche
schreibe
schulter
schwarzes
sprecher
standpunkt
start
streifen
super
tat@@
tex@@
tlichen
tzu@@
uni
unterhalb
uten
verbesserung
vieler
wander@@
watt
wein
zunehmen
zurückkommen
äuß@@
übertragung
aner
angehen
außergewöhnliche
ballon
blo@@
dialog
dur@@
effekte
einzigartig
einziges
enormen
entschuldigung
erinnerte
erledigt
fis@@
fordert
frem@@
gegenstand
gemessen
gleichheit
glückliche
gold@@
hersteller
hinweis
hinweise
hirn
hiv-@@
hol@@
hr
industrie@@
institute
kauft
kit@@
klingen
knoten
ktes
kühl@@
landete
leistungen
lieder
lü@@
marketing
massen
meister@@
microsoft
mische
nerven@@
neugierig
optimismus
politisch
praxis
prozesse
regelmäßig
religiöse
ruanda
schein@@
schlau
schwanz
sicherstellen
sieb@@
sitz@@
sozial
teilte
tony
trainieren
trends
trieb
volles
vorn
wärme
wünschen
zeitungen
abendessen
aktuellen
amerikas
ard
befreien
beschreibung
bier
bus@@
chef
danken
dauer
dick
dramatisch
dreimal
durfte
ehr@@
eien
entdeckten
entwurf
enz@@
erfüllt
europäischen
fett@@
gebäudes
gesichts@@
gesunden
grä@@
güte
halben
här@@
ier@@
indiens
isch@@
kap@@
kleinere
komisch
kommen@@
kopieren
ktiv
lebensqualität
lungen
lücke
nachhaltig
nas@@
ns
offenheit
radi@@
reagiert
runter@@
schienen
schnitt@@
schwestern
seil
selektion
sierung
sions@@
speicher
stanford
tar@@
te-@@
technische
tempo
toilette
tolles
usw.
ute
van
verk@@
verliebt
verteilen
waschen
weiten
wunderschönen
zusätzliche
ältesten
ärmsten
übersetzt
..
800
abteilung
aktu@@
allgemein
allgemeine
analy@@
anreize
ansichten
antrieb
atem@@
atome
ausgehen
bedürfnis
bele@@
beträgt
bip
blö@@
bären
ce@@
chemischen
chteten
diges
erziehung
faszinierende
fau@@
freund@@
führ@@
gefä@@
gelaufen
gerü@@
geschützt
gewinnt
geöffnet
hai
heran
hinsichtlich
impfstoff
inmitten
intuition
jährlich
katzen
kg
king
kiste
komm@@
kongress
kreuz@@
last
lehrerin
ling
linke
losigkeit
n-@@
nationalen
organ
packt
pft
pie@@
plus
psycho@@
ra
restaurants
sach@@
schaffte
schlange
schülern
senken
sex@@
ssi@@
st-@@
standard@@
stigen
strecke
störung
ted@@
tigt
untersuchungen
verletzungen
verlor
vierten
vorgestellt
wissens
wissenschafts@@
wütend
zeichnung
zuletzt
zusammenzu@@
zweites
überprüfen
14@@
af@@
anzeige
artige
aussterben
aut
ball@@
bandbreite
bedeutend
beginne
benen
bord
brei@@
bäumen
chirurg
chtung
definitiv
disch
draussen
dringen
eingehen
emp@@
eröffnet
esen
fantastischen
fas@@
freuen
führenden
gal@@
gefängnis@@
gegenüber@@
gelangt
geräten
geschlossen
go
großvater
heiraten
herein
hi
hilfsmittel
howard
häusern
illusion
isiert
kapital@@
kation
klassen@@
ko
langwei@@
legten
lt
mannes
mark
mikroskop
mittelpunkt
nochmals
ohr
ologische
om
organis@@
ori@@
papa
pe
pil@@
post
post@@
ppen@@
quadrat
radio@@
rat@@
rechnung
regi@@
rio
schafften
scham
sha@@
sir
skulptur
soziales
spa@@
spiels
stag
sum@@
tages@@
taschen
teilten
terrorismus
tote
ungleichheit
unterhalten
unterscheidet
vari@@
verfügen
vielzahl
vir@@
wandern
wundervollen
zusammenge@@
ängste
allgemein@@
alter@@
anhalten
anstellen
ante
ap@@
aufregende
austausch
bahnen
beschei@@
besie@@
bruch
dankbar
dem@@
deu@@
durchmesser
erfordert
erfuhr
erkunden
erledigen
erschien
erzielen
euer
fernseher
finanziert
flaschen
frucht@@
füßen
geblieben
geh
getestet
greif@@
handelte
hebt
hle
hmen
hut
hypothese
kapit@@
klettern
kombinieren
komplexer
korea
kreativ
kreiert
kri@@
ktiven
königin
leit@@
liebt
listen
meere
mes@@
mischung
misst
mur@@
neh@@
nei@@
neun@@
niedri@@
oktober
onkel
ordnen
pfei@@
pp
privaten
prozesses
präsentiert
pyramide
quer@@
roman
same
saturn
seide
sendung
spä@@
stahl@@
stau@@
stets
suchten
tafel
tragödie
tät
unendlich
ungsprozess
verdammt
verhaltens@@
weitermachen
wirtschaft@@
wunderschön
zentimeter
zwingen
änderte
übergang
anders@@
angel@@
angepasst
anhänger
au
ausgabe
autoren
bauer
bedroht
beglei@@
beinen
beobachtung
betreten
betrieb
bewegte
bezieht
bon@@
char@@
cker@@
comics
ders
deuten
doktor@@
durchschnitt@@
durchzuführen
echter
einwohner
ele@@
energien
ens@@
erforschung
erstaunlichen
ette
februar
feedback
finanzieren
futter
gelehrt
gemeinschaft@@
gerissen
geschü@@
gewissermaßen
gras@@
heil@@
hor@@
implan@@
ina
involviert
isten
joe
kni@@
kohle@@
kolle@@
kolonien
kter
kuh
laptops
lese
ligen
m-@@
materi@@
minister
mr.
märkten
negativ
nisse
objekten
optimistisch
option
orchester
poesie
private
programmiert
rad@@
reich@@
röntgen@@
sauerstoff@@
schieben
schnee
seln
simulation
skali@@
spielten
stiegen
tens
tropfen
und@@
uni@@
unsichtbar
ursprüngliche
uss
ve
verarbeitung
verstän@@
ware
weibchen
winzige
wissens@@
wut
xi@@
yorker
zukünftige
änder
öffentlich
überlebt
0-@@
3.000
abfall
aktiven
angeschaut
angestellten
ationen
auftreten
auseinander@@
auswirkung
auszudrücken
balance
basierte
bedienen
behaupte
berechnung
berühmten
besonderes
best@@
bewer@@
blau@@
blogs
bomben
brian
brüche
dende
dig@@
dustrie
einstellen
emotionalen
erb@@
erei
erfand
erungs@@
eröffnen
est@@
fassen
geburts@@
gedreht
geheimnisse
geredet
gerüst
glo@@
hauses
hte
human@@
individuum
international
irgend
irgendeiner
juni
kab@@
kas@@
kindersterblichkeit
klassische
konta@@
konzep@@
krab@@
kurse
körpern
liert
menschlichkeit
mm
mächtige
nachfrage
offenbar
optimi@@
pres@@
prote@@
redet
res@@
ruft
scheibe
slo@@
song
stabilität
stig
strasse
stän@@
technisch
umher@@
verarbeiten
verdoppelt
verlangt
vermittelt
vermute
voraussagen
vorkommen
vortrags
weinen
wollt
zent@@
zucker@@
überqueren
übt
16@@
2,@@
abenteuer
abstra@@
anzugehen
anzuschauen
asse
aufgeben
ausgewählt
behandlungen
berechnet
bern
berühmte
betracht
blick@@
bombe
brenn@@
brett
cambridge
computer-@@
dienst@@
digital
dre@@
einführung
einschließlich
empathie
energieverbrauch
ero@@
etc
explosion
fair
florida
fremde
frie@@
gam@@
ge-@@
gelände
geno@@
gestaltet
gesundheitssystem
getragen
has@@
heimat
held
hindurch
hl
hum@@
industriellen
inner@@
inspiri@@
institution
intelligent
journalist
kannten
kenn@@
kopie
kredit@@
ktion@@
les
lächerlich
lärm
matische
mauer
maus@@
mechanismen
meint
merkmale
mern
nahme
pazifik
platte
produktivität
psych@@
psychologen
pul@@
ray
religiösen
richter
rt
schauspieler
schrei@@
schreibtisch
schütteln
selbst-@@
sorgt
spre@@
strafe
strahl@@
strahlen
sur@@
taliban
technologische
tele@@
tim
transport@@
träger
tränen
türkei
ungeheuer
ungewöhnlich
ungs-@@
ungsp@@
ungspro@@
verbrennen
vieren
virtuellen
werken
wes@@
zentr@@
zeugs
zwanzig
öfter
1-@@
1960
alzheimer
ameise
ana
aufmerksam
aufzeichnungen
ausführen
beeindruckend
befassen
beschränkt
bewirkt
blü@@
brau@@
buches
ckten
dam@@
dere
diagnose
dicht
ef@@
erbe
erfindungen
erst@@
extra
farm
fehler@@
feld@@
fotograf
freundlich
geni@@
geri@@
gerin
gesetz@@
gore
großartiges
großeltern
gründer
herauszu@@
hlt
homo
hölle
indische
irgendein
kel
kohlendioxid
korrekt
kreaturen
kreise
käme
langes
manhattan
media
mier@@
minen
mithilfe
mittagessen
moralisch
muskel@@
net
neugier
neur@@
ord@@
parti@@
perfekten
projekts
pumpen
rb
reale
reiste
relevant
rezept
rhythmus
ring
rum@@
schie@@
schlaf
schlaf@@
schmerz@@
schriftsteller
sich@@
skala
smith
sphäre
staatlichen
städtischen
ständige
stür@@
suppe
sw
tanz@@
tauschen
tode
tor
tur
umsetzen
va
verringern
verzweiflung
volks@@
wachstums
weltbank
wertvoll
wette
widerspruch
wild@@
wirbel@@
wuchsen
währung
wüssten
zeichnet
zel@@
zeu@@
zielen
‹
›
algorithmus
alternativen
alters@@
ang
ankommt
ann
annahmen
anpassung
antarktis
asteroiden
auffassung
aussah
ausschnitt
bedauern
bedeuten@@
behörden
bens
bereiten
bestes
bewusstseins
billiger
bio-@@
brown
darzustellen
diktat@@
ehemann
einblick
eingestellt
einkommens@@
einzusetzen
endste
entschlossen
fels
finanziellen
fischer
fotografieren
front
furcht@@
gates
gefolgt
gegenstände
gehend
gehör
gelegenheiten
genaue
genetisch
gering@@
gers
geschlecht
gewinn@@
glamour
greift
halt@@
herkunft
heutige
hit@@
hn
hoffnungs@@
homosexu@@
hör
initiative
internets
jedesmal
kapazität
klu@@
konstruktion
kooperation
leber
lieb@@
läu@@
marken
nan@@
nest
netze
nordamerika
oberflächen
opti@@
p-@@
pas@@
platten
pre@@
prüfen
raumes
reißen
rä@@
räder
sar@@
schaf@@
schle@@
schädel
sensi@@
setze
steigern
stress
taschen@@
teilnehmen
tend
tendenz
trei@@
tätigkeit
um-@@
vereinten
verhindert
verhält
vielmals
vo@@
warf
we
widmen
wodurch
yeah
za@@
zelt
zentralen
zusehen
züchten
1,5
28
3-@@
32
85
ah@@
alt@@
anerkennung
arti@@
auftauchen
ausprobieren
behälter
beliebt
besuch
betonen
bewahr@@
bewerten
beziehen
bienen@@
bot
bush
büros
defini@@
demokratischen
denkst
dimension
dns
dreh@@
durcheinander
effe@@
einfluss@@
eingeschlossen
einzigartige
elektronische
entropie
erfol@@
erhielten
erwähnte
ese
essen@@
felsen
finanzierung
fla@@
flughafen
folgte
for
formel
formt
frühling
fuhren
fühlten
führungs@@
gangs@@
gehalt
geheim@@
gelbe
gelähmt
geometrie
gestiegen
gesucht
gewiesen
goldene
großartiger
haar
horizont
hunderten
industrielle
intelligenten
interpretation
isst
jan@@
journalisten
kilo
kir@@
kram
krie@@
lar@@
leere
lincoln
liter
logisch
läch@@
mangel@@
mat@@
metall
metall@@
mustern
mäßig
netzwerken
neuesten
nutzten
oel
ozeans
pm
polizei@@
pra@@
programmierer
rakete
reichweite
rettung
richtet
schickten
schwei@@
schwerkraft
schätze
science
service
sierte
sonnensystem
sprech@@
stattfindet
straf@@
stör@@
subje@@
sy@@
terroristen
th
tin@@
titel@@
tollen
trainiert
treppe
umgekehrt
umzusetzen
unfälle
unterbrochen
untere
urknall
verbreitete
verkauf
verkaufte
verletzlichkeit
verurteilt
veränder@@
wachsende
warte
weh
werkzeugen
wett@@
ärzten
überlassen
überlebens@@
1.
abgeschlossen
aktive
alisierte
alltag
allzu
anwälte
anzeichen
anzug
ase
atomenergie
aufeinander
auswählen
ba
belast@@
bell
bert
beschützen
bindung
blieben
bürgermeister
chan@@
coole
di
din
disziplin
drinnen
drüber
ele
entgegen
eric
fang
fokussieren
foundation
fuer
fäden
gelder
gemäß
gene@@
geschäft@@
gewalt@@
globaler
gänge
herrscht
hierbei
hlte
holt
individu@@
italien
jack
jim
kandidaten
kehr@@
ki
klappt
kluft
knochen@@
kommenden
konsumieren
kriti@@
kurzer
ladung
lagern
larry
leeren
leitungen
linge
lle
llen
löwen
mathematische
meile
meme
mende
mitteilen
mysteri@@
negative
nern
niedrig
notwendigkeit
partei
präsentieren
repräsentieren
roh@@
sat@@
schenken
schten
schulden
schwierigen
sendet
sinken
sitze
skelett
skulpturen
spezifische
stel
stete
techniker
time
täglichen
töchter
tötet
umgebungen
unabhängige
unglaubliches
unglücklicherweise
unrecht
unwahrscheinlich
ursprünglichen
verrückten
verwandten
wachstums@@
wasch@@
wechselt
wissenschaftlich
wohnungen
zivili@@
zueinander
zukunfts@@
zulassen
zung
zwan@@
zweiter
überwachen
überzeugung
20-@@
55
analogie
anspruchs@@
anweisungen
atur
auflösung
beendet
begleitet
beruf@@
beten
bett@@
beu@@
bildschir@@
breite
bringe
business
con@@
dezember
dienste
diskussionen
ehren
einnahmen
enes
englische
entfernten
enti@@
ernähr@@
erstaunt
erzählung
forschungen
frag@@
frauen@@
freu@@
geflogen
gefährliche
gele@@
gener
genie
gereist
gewaltige
gucken
heits@@
henry
hinweisen
holte
häu@@
höhle
il
individuelle
ini@@
inn@@
interviews
kante
kategorien
kel@@
keln
klug
komplette
kühe
landes@@
ls
marken@@
mauern
menschlich
mitt@@
mmer
mobil@@
monat@@
mond@@
musi@@
muskel
muslime
natürlicher
nervenzellen
net@@
nirgendwo
obje@@
ologischen
origin@@
parks
planung
pocken
programmier@@
reihenfolge
sa
satelliten
scha@@
schokolade
schrecklichen
sicheren
sieben@@
sil@@
spannend
spei@@
stadium
standards
startete
stru@@
städ@@
symbole
säule
talent
teils
ter-@@
teu@@
tisch@@
tour
une
ungssystem
unklar
veranstaltung
vermis@@
verstecken
vertrag
vielerlei
waffen@@
werk@@
wettbewer@@
widerstand
wiegt
wirtschaftswachstum
wörterbuch
wörtlich
zir@@
zwölf
öffnete
überzeu@@
1990
2002
30.000
80ern
abel
abschnitt
abstand
angelegenheit
anliegen
ans@@
apo@@
arbeitsplätze
ash@@
ast@@
ausgedrückt
ausreichend
autorität
bakterium
balken
beleuchtung
benjamin
berühm@@
beschleunigen
bige
bob
brücken
chinas
chtete
col@@
darm
dens
diagnostiziert
dire@@
direktor
effizienter
eingebaut
elektroden
elektronik
entsprechend
erfasst
ernten
etc.
ethik
experte
fakt
fantasie
festhalten
filter
finanzielle
förderung
gelang
geschle@@
gesteuert
gewachsen
gie@@
gru@@
hai@@
halbes
halluzinationen
herein@@
herrschaft
hilfreich
hinaus@@
hindernisse
hm
händler
hügel
inder
infektionen
israeli@@
itäten
jenem
ketten
kevin
klar@@
klassischen
koch@@
kombiniert
konstruk@@
koordin@@
krea@@
kreisen
kriegt
kts
lappen
mai
maßen
motivieren
nadel
privileg
prozent@@
prü@@
rechen@@
repli@@
räum@@
rüber
schmutz@@
shanghai
sicherzustellen
solarenergie
speichern
stattfinden
steven
stimm@@
stop@@
studien@@
synchron@@
t.
tal
tiker
tliche
top@@
transport
treib@@
trocken@@
trä@@
täuschen
unsicherheit
unterrichtet
vat@@
vaters
verbin@@
verdi@@
versorgt
verwirklichen
wasserstoff
web@@
wellen@@
zug@@
ün@@
17.
50@@
ak
aktiviert
alisi@@
alters
angeboten
angekommen
angesicht
antibiotika
aufwand
basieren
berührung
bildungssystem
biosphäre
briefe
brille
britische
deutet
dilemma
dose
draht
drän@@
durchschnittlich
dy
ecken
eigentlichen
einzig
einziger
energi@@
ep@@
erend
erkenntnisse
erreichte
esse
experiment@@
feldern
fle@@
flogen
flut
flüssi@@
freue
früchte
fs
fähi@@
geformt
gelingt
gerecht
geschnitten
gesellschaftlichen
gewöhnlichen
gieren
gkeiten
glob@@
grab@@
griffen
größeres
gä@@
hall
hans
herstellt
hom@@
hs
höchst
identi@@
investoren
islam@@
kalorien
kauf@@
keines
kilometern
kleineren
klimawandels
konzentration
krankheits@@
kro@@
ktor
lege
leihen
liefen
liegenden
loser
loses
marki@@
matischen
mel
mente
milli@@
mio.
mitgebracht
nahe@@
natürliches
näch@@
opfern
oten
pin@@
proje@@
q@@
radikal
real@@
redner
republikaner
riecht
riesiger
rollstuhl
schuldig
schuss
schweine
se-@@
sele@@
silicon
sonde
sprin@@
stab
stad@@
staub
stock@@
supermarkt
säulen
süß@@
tent@@
trü@@
ttern
typische
verbraucher
verletzt
verletzung
verläuft
verraten
versehen
viertel@@
ville
wahrschein@@
wahrscheinlicher
wetter@@
wohnung
wortes
zieh@@
zoomen
zugän@@
zustimmen
zweieinhalb
äthiopien
ökonomischen
196@@
2-@@
2050
33
48
abschließen
afrikan@@
amy
anfingen
anzunehmen
ars
b-@@
bedeutungs@@
begab@@
belastung
belieb@@
bereitet
berichte
berufs@@
beschleunigt
bestandteil
beteiligen
bewältigen
blicke
blinde
breit
bs@@
chtern
daneben
daniel
delfine
denden
der-@@
diplo@@
durchbruch
dörfer
ech@@
einig
einzigartigen
eit
elf
engagement
erkrankung
erlaubnis
erstaun@@
erzählten
eth@@
europäische
exponenti@@
fachen
fertig@@
fleisch@@
fossilen
freiwillige
freiwilligen
gebunden
gelegentlich
genetik
genome
gesetzen
gewinner
gewä@@
größenordnung
ham@@
heilige
heiligen
heiße
hektar
hilfs@@
hir@@
häufiger
integriert
interview
kan
karten@@
klassi@@
klinische
kognitive
komponente
krankenhäuser
kreis@@
krähen
kt@@
künstlerin
lager@@
landschaften
lebensraum
lg
licherweise
lichts
lingen
lokal
long
ly@@
löschen
mais
marschi@@
merkt
minus
nd
nette
normales
ok@@
oran@@
ordnet
pac@@
panik
park@@
physikalischen
premierminister
rauch
redu@@
reis
relev@@
restlichen
runde
runden
rückseite
rückwärts
sammelt
schlage
schreien
schäden
seins
sexuelle
sinkt
span@@
spanien
spielzeug
staatliche
stig@@
stor@@
stö@@
stück@@
stün@@
substanz
süchtig
tation
tatsächliche
tatsächlichen
texte
treff@@
tter@@
unmittelbar
uns@@
unternehmer@@
ure
va@@
verblüffend
verdoppeln
vergrößern
verknüpft
verletz@@
verschwendung
verste@@
verständlich
verwandt
verwendeten
vis@@
vorlesen
wa
wachte
weist
wichtigkeit
wildnis
wirtschaftlich
wunderbares
wüsste
zehen
zurzeit
zutiefst
°
ökonomie
ör@@
0
12@@
18.
ack@@
aden
agieren
amen
amerikan@@
amt
ankommen
anwalt
anzuwenden
aufzunehmen
ausser@@
bam@@
band@@
bedeutende
beeindruckt
beizu@@
beizubringen
beschäftigte
betr@@
billi@@
biologisch
bislang
blinden
blume
bst
bundes@@
ce
charaktere
chirurgie
chts
computers
d.
das@@
detektor
einerseits
einnehmen
endete
ents
erfahr@@
erlaubte
erlernen
erschafft
eurer
euro
eventuell
expedition
experimentieren
fasst
feu@@
filtern
fließ@@
fried@@
ganz@@
garage
geeignet
gefü@@
gelben
geographic
geplant
ger-@@
geringer
geschossen
gestal@@
gewinne
gige
gps-@@
haar@@
hm@@
hydro@@
hütte
ing
islamischen
jenes
kerin
kolum@@
komplexes
konstruieren
koran
kurzes
lampe
leer
leinwand
leitet
leitung
lektionen
liebsten
litt
medikamenten
merkmal
metaphern
mie@@
motto
nahrungsmittel
nelson
newton
niemandem
oma
omen
para@@
parall@@
pati@@
pflege@@
poli@@
praktische
produktions@@
programmen
punk@@
quanten@@
quer
republik
sahara
schlagzeilen
schließ@@
schläge
schnei@@
schuf
schwan@@
schweren
schöpf@@
sinnes@@
sowjetunion
spannen@@
spen@@
stam@@
stands
steuert
stieß
stä@@
symmetr@@
süß
tetes
text@@
toleranz
traditionen
treibstoff
truppen
töne
tür@@
uh
unglücklich
unsichtbare
unterwasser@@
verboten
vergleicht
verheiratet
versagt
verschieben
versetzen
vertre@@
verwaltung
verzweifelt
wall
weit@@
yo@@
zettel
ziehe
zun@@
ökosysteme
örtlichen
überraschende
0ern
70ern
aber@@
angestellte
ansonsten
april
assen
auslö@@
bac@@
bauch
beispielen
bela@@
bemühungen
bestäu@@
bewohn@@
blä@@
bo
boden@@
brasili@@
bzw.
charlie
chips
cin@@
club
dankeschön
de-@@
deln
dies@@
dlicher
dosis
dschihad
durchlaufen
dutzende
ein-@@
eineinhalb
elektronen
erneuerbare
erweitert
extra@@
extreme
finanzi@@
fortschritt@@
frühe
fär@@
gehst
genau@@
generieren
gere@@
gewohnt
gien
glaub@@
gleichungen
gravitation
grippe@@
großem
gründeten
halfen
handels@@
hell@@
herangehensweise
herausstellt
hierfür
historischen
hypothe@@
ignoriert
immun@@
ingenieur@@
interpretieren
investi@@
jeff
kabel@@
kanäle
keits@@
kes
kletter@@
kliniken
konzentrierte
kritische
kräften
landet
lehrt
leidet
liegende
management
mathematischen
mati@@
matik
matrix
mike
minim@@
mitleid
müsst
nungen
nungs@@
olympischen
pandemie
perfe@@
phy@@
physisch
pir@@
popul@@
positionen
primi@@
problem@@
pä@@
quadrat@@
raff@@
raketen
rande
ration@@
rauchen
riechen
schalter
schmerzhaft
schnellen
schreck@@
schwein@@
schwimmt
sher@@
siehst
sinnvoll
spezialisten
spieler@@
spu@@
stammes@@
stationen
steinen
stephen
stern@@
sters
stimmte
stir@@
sturm
stände
ständen
tauch@@
tempor@@
teppich
tis
titan
typisch
u-bahn
un-@@
unbekannte
ungsweise
ur-@@
verab@@
vergleich@@
versionen
visualisierung
vorbild
vorschlagen
wesentliche
wie@@
wild
william
woraus
worfen
wur@@
würmer
z-@@
zehntausende
zutaten
zuzuhören
zwecke
zyklus
,@@
10-@@
15@@
2011
6.000
60ern
90ern
abhängt
ade
agenda
aktivieren
akzeptiert
algen
alisten
anderswo
andrew
angebracht
anreiz
arbeitsplatz
archie
arz@@
att@@
atz
aufgestellt
aufstehen
aufweisen
ausprobiert
auszusehen
banken
benannt
benötigte
berater
beseitigen
besserer
block@@
brief@@
cen
clip
deck@@
demokraten
demokratische
denkens
distanz
dn@@
domin@@
dringend
durchs
e-mails
einführen
eisen@@
entwicklungen
erhe@@
erneu@@
erzählungen
est
ewig
f-@@
faltet
fettleibigkeit
flossen
flucht
freiwillig
fügt
genannten
generell
gerichtet
gescho@@
geschä@@
gestalt
gewohnheiten
gle@@
gletscher
gli@@
grau@@
gross
grundlagen
grösse
herbst
höhlen
individuellen
intensiv
isierte
italien@@
jederzeit
johnson
joseph
kenntnis
kind@@
kino
klare
klaren
klassifi@@
klavier
klei@@
konstru@@
kopiert
kritiker
kräf@@
körperliche
lab
langzeit@@
lehnen
link
litten
ly
maler
mandela
massive
meinungen
ment
messungen
methan
mist
mode
my
mythos
männliche
müde
mün@@
nachmittag
negativen
ny
nütz@@
ogra@@
ol
oper
origami
original
personal
pflanzt
philosophen
pille
polizisten
prioritäten
project
radikale
reiß@@
renn@@
roboter@@
rut@@
schall@@
schief
schloss
schock
schwamm
schwanger
schwelle
schöpfung
sichti@@
spezifischen
spiritu@@
springt
spruch
sprü@@
stab@@
stabil
standard
stehlen
stischer
stol@@
stränge
studierenden
stürzen
symboli@@
talen
tam@@
tausend@@
tert
terte
toller
transportieren
treu
tu
turen
turm
ty@@
ulen
umfang
umher
ungewöhnliche
unsichtbaren
verbesserungen
vermuten
versetzt
versicherung
verteidigung
verwand@@
verwen@@
verzerr@@
virginia
virtuelle
vorder@@
wachsenden
woanders
wörtern
yp@@
zeugen
zierung
zivilisationen
zugehen
zunge
zustellen
ökologie
ökonomische
193@@
2.
2.@@
36
4.000
akte
alex
alls
angewandt
angewendet
anrufen
anwesenheit
ao
ates
auftritt
batterien
baue
bedro@@
befand
behauptet
berücksichtigt
beschaff@@
beton
betreffen
bewaff@@
bewiesen
bezahl@@
bezirk
bigen
bronx
c-@@
cam@@
chinesisch
dacht
demonstrieren
diagno@@
drucker
dörfern
dür@@
eigentum
einfallen
elen
en.
endsten
enkel
ev@@
everest
evolutions@@
existierte
fahre
feynman
flach
führe
gefühlen
gefühlt
gegner
genehmi@@
geogra@@
gerte
gestohlen
getrieben
gewaltigen
glücklichen
graus@@
gün@@
harmonie
haushalt
heilung
herausgestellt
herde
herzlichen
hob
hollywood
hundert@@
hunderttausende
ill@@
intellektuellen
jegliche
jesus
jon@@
jäger
kleinste
kleinsten
klinischen
kognitiven
krankenhäusern
kru@@
kum@@
kunde
königreich
künstlern
ladungen
lasen
lauter
lee
linse
linsen
lohnt
läden
ma-@@
manipulieren
may@@
menten
mmt
mo
mul@@
männ@@
möchtest
nac@@
nebeneinander
neigung
note
obere
passte
pizza
politischer
präzise
quadratmeter
reformen
regenwald
ressource
revolution@@
sammelten
satelliten@@
sauber
schafe
schaffe
schal@@
schlacht
schlü@@
schlüsse
schritten
schwung
scott
seiden@@
sklaverei
slums
spezial@@
spinnen
st.
stens
stie@@
stige
struktur@@
ströme
stü@@
szenario
tations@@
teuren
top-@@
tran@@
transparent
transportiert
trennung
typischen
täten
u-boot
umfasst
umfrage
unabhängigkeit
union
vergrößert
veröffentlichte
wahnsinnig
weiß@@
würdig
wüsten@@
zimmer@@
zudem
zur@@
zusammenfassen
zö@@
é@@
öff@@
übliche
1999
2,5
3,@@
4-@@
abraham
absichten
absichtlich
afgh@@
ag
aids-@@
aktivi@@
alkohol
ame
anhören
anspruch
anzeigen
anzufangen
arbeiter@@
astronomen
aufstellen
august
auszuprobieren
automobil@@
aßen
bay
beantwortet
behinderung
bemühen
beobachtungen
berühr@@
betra@@
betrachtung
betäu@@
beutel@@
blättern
boote
brauch@@
bungen
börse
can@@
carolina
chor
chse
connectome
cyber@@
datenbank
demonstration
digte
diskutiert
dritt@@
earth
effektiver
eingeschränkt
elli@@
endgül@@
entkommen
entwicklungshilfe
epidemi@@
erkenn@@
ermutigen
erre@@
erwä@@
experimenten
experimenti@@
exponentiell
feier
feinde
foie
fst
förmige
galerie
geistes
gelen@@
gen-@@
genheit
gerei@@
geschaut
gespannt
gött@@
hacker
historische
hoff@@
immerhin
installation
integri@@
interface
isoliert
iss
jugend@@
kehren
kehrte
keinerlei
klicken
kollab@@
kollege
kommentare
komplizierter
konstruiert
kontra@@
kontrolli@@
konver@@
könntest
küsten@@
leise
lern
leser
lewis
lichere
lust
mahlzeiten
markiert
mikroskop@@
mlich
mmer@@
mäuse
nien
nähr@@
nährstoffe
op
orbit
parteien
pass
patent@@
pc
pflanz@@
pharma@@
phil@@
pilot
ppte
primaten
prof@@
prüfung
redete
saubere
schachtel
schaffung
scheiße
schrecken
schriften
sichere
steckte
sterblichkeit
steten
story
studierte
stärksten
stücken
syste@@
systematisch
säugetiere
thei@@
tik@@
toiletten
transformation
treffe
tsunami
tägliche
unendliche
unmögliche
vagina
van@@
variationen
verbrei@@
vereinen
verleihen
vermu@@
verschwand
vertei@@
veränderten
wartete
weitaus
wenigsten
wort@@
wänden
wärmer
wäsche
zeitspanne
zero
zugriff
öse
übernommen
übers
übersetzung
üblicherweise
00@@
13@@
29
60er
72
ablauf
age
analysiert
anwen@@
appar@@
artenvielfalt
aufhalten
aufwuchs
ausgeht
auslösen
baby@@
bach
baten
bausteine
bedingung
beeindruckende
beeinflus@@
beru@@
betrug
biegen
blitz
brennstoffe
cal@@
chert
com@@
county
daraufhin
dest
deutschen
dien@@
dosen
dunkler
durchschnittlichen
eben@@
effiziente
einfachste
einstellungen
einzelnes
elektronischen
entspan@@
erfolgreiche
ergebnissen
erscheinung
erzähl@@
es-@@
expor@@
ey
festzustellen
feuern
ffs
flagge
fledermäuse
flüge
frieden@@
fähigen
gall@@
gang@@
gemeint
gent@@
gezeichnet
gift
glamourös
gran@@
graphie
gruppen@@
größtenteils
heimatstadt
herstell@@
hot@@
hungrig
hühnchen
hülle
id
ik@@
illu@@
information@@
innenstadt
isch-@@
jahrelang
jones
jugendlichen
jun@@
kandi@@
kanischen
kapu@@
kehrt
kers
klang@@
klatschen
kluge
kollektiven
komische
kong
konkurrenz
konsu@@
kortex
kreu@@
kunststoff
künstlichen
ll
llt
locken
malte
mand@@
massiven
menschenrechte
merkte
merkwürdig
militärische
million@@
mme
monster
motiviert
muster@@
märz
nahr@@
niedrigen
nutze
nutzte
orientiert
oxytocin
pilze
plattformen
potenzi@@
prothese
reifen
rela@@
reporter
respektieren
richtlinien
rohstoffe
rover
schizophrenie
schliessen
schni@@
schot@@
schrift@@
schro@@
schufen
schwellen@@
sendungen
sichern
sion
sische
skosten
sowieso
spinn@@
spontan
stag@@
stapel
steigerung
stisches
stoffwechsel
strahlt
stum@@
stätte
tan
taus@@
tedx@@
teri@@
these
tig@@
tiv@@
tive
trie@@
trugen
tv
venti@@
vereinfa@@
vereint
vergewaltigt
verkehr@@
versteckten
vertreter
veröffentlichten
vol@@
vulkan@@
vögeln
weiterzu@@
weltraum@@
wonach
wählt
würfel
zubringen
zugrunde
zusammenbruch
zustände
äng@@
überein
ücken
1950
34
37
43
absolute
adi@@
air
allein@@
amerikanischer
anderson
angeschlossen
angewiesen
angiogenese
anony@@
apfel
aristoteles
arthur
artig
aufgezeichnet
ausgehend
ausgestattet
ausland
aussagen
autobahn
bauern@@
becher
begriffe
berat@@
beschrieb
bestimmtes
beurteilen
bewunder@@
blich
bohr@@
breiten
bücher@@
celsius
ch-@@
chens
chin@@
clever@@
cy@@
dauernd
dd@@
denker
dinosauri@@
direkte
discher
drängt
durchgehen
durchschnitts@@
einbringen
empfangen
ener@@
enten@@
entschuldigen
erinn@@
erstmals
erwischt
ffel
fielen
finger@@
flügel@@
fotografen
freundschaft
friedens@@
fundament
fördert
füll@@
füllt
füttern
gebrauchen
gedichte
gegenwärtigen
geglaubt
genossen
geprägt
geschaltet
geschla@@
gespeichert
gesten
gesunken
gesünder
getreide
gewal@@
got@@
gramme
graphi@@
gur@@
h-@@
hals
halten@@
höhen
ick
identifiziert
identisch
ierung
immunsystem
infi@@
ingenieuren
integrieren
intellektuelle
ium
jahres@@
jane
japanischen
jedermann
joshua
juden
juli
kas
kau@@
kauften
koennen
kol@@
kommentar
kommst
kondome
kostenlose
kriminalität
ktive
ky@@
kühlt
künstlich
landkarte
le-@@
liebling@@
lunge
markieren
maschin@@
meinten
melden
melodie
model
molekular@@
mumbai
musli@@
muslimischen
mutationen
mäusen
mühe
nacht@@
north
november
nutzer
nähern
offensichtliche
oftmals
ozeanen
passi@@
path@@
pei@@
periode
physikalische
platzieren
plä@@
potenti@@
profil
präsen@@
pt
pun@@
raums
repräsent@@
ron
röhren
salz
samer
sauce
scan
scanner
schaltkreise
schneidet
schweigen
schwi@@
seri@@
ski
solches
sorgfältig
spunkte
stan
starren
stat@@
staub@@
steh@@
steuer
still@@
stoß
stung
stätten
stühle
synthe@@
süd-@@
tendieren
teres
tes@@
teurer
theoretisch
therapien
tinte
trinkwasser
tuch
tumore
umgesetzt
umsonst
unbekannten
unheimlich
untereinander
ursachen
verkauften
verpflichtet
verschaffen
vertrauens@@
ves
vollständige
vorkommt
völker
w-@@
wacht
weis
wiegen
wohnzimmer
wright
wurzel@@
zertifi@@
zeug@@
ziger
zulegen
zurecht
zähl@@
ände
ärer
ökologischen
ück@@
.org
1900
200.000
3.@@
3d
42
47
abed
affen@@
angeblich
angelegenheiten
ankam
architektonische
atlantik
ausdrucks@@
ausgezeichnet
außergewöhnlichen
ball-@@
bedeuts@@
behand@@
beherrschen
belie@@
beraten
besit@@
bezogen
bien
bildes
bir@@
blickt
brech@@
bä@@
chem@@
chemi@@
codes
cou@@
d.h.
defi@@
dekor@@
demokra@@
demü@@
dia
dick@@
dien
dollars
dringt
dunkel@@
durchaus
durften
dünne
einbeziehen
eintreten
enge
entwickler
erfüll@@
erfüllung
errichtet
erstaunliches
eurem
extremen
fan
fleck
flüsse
food
forschen
französische
freun@@
fün@@
gandhi
gedul@@
gere
gering
geru@@
gespräch@@
gesundheitsversorgung
gewaltig
gewöhn@@
glaubens@@
globales
grundschule
größen
haken
halle
hardware
harten
hausaufgaben
hem@@
hingegen
hong
häup@@
indonesien
ingen
inne@@
jüngere
kali@@
keller
kels
klick
kolli@@
konser@@
krü@@
lation
lebensunterhalt
leucht@@
life
lkw
meeting
mie
mäd@@
möbel
nam@@
nano@@
nat@@
nebel
neurowissenschaft
niedriger
nordpol
normal@@
paradigma
partnerschaft
pf
pfer
phänomen@@
pioni@@
polizist
profit
projektes
prototyp
prozentsatz
pumpe
rechner@@
refle@@
riesig
robo@@
roman@@
romantische
rufe
schalt@@
schaltet
scher@@
schlägen
schne@@
schnellsten
schnittstelle
schwachen
schweizer
schätzt
schätzungen
seti
spo@@
sprang
staates
stands@@
steuerung
stin@@
strang
strö@@
studierende
stört
sun@@
sungs@@
tas@@
teig
teller
tons
transplan@@
traurige
treibhausgase
trock@@
tän@@
tödliche
u.s.
und-@@
ungskraft
unterschiedlicher
up
urban@@
urteil
use
var@@
verantwortungs@@
verlaufen
vern@@
vertreten
voraussetzungen
vorhersage
wahrhaftig
wahrheiten
wal
will@@
wunden
zivil@@
zusammengefasst
zylinder
zz@@
½
äch@@
ärm@@
ät
üblichen
1994
1998
4,@@
40.000
abhängi@@
able@@
affe
aktivisten
alexander
alltäglichen
angriffe
annähernd
ansprechen
archi@@
argumente
asi@@
audi@@
ausgelöst
bab@@
bart
bauch@@
begeisterung
behinderungen
beinhalten
bemerkenswer@@
benzin
beobachtete
beschaffen
beschädigt
beschäftigung
besuche
betrachte
beunruhigt
bevorzugen
beweg@@
biomasse
blog@@
brand
brennstoff
bruchteil
buchstab@@
burg
chemotherapie
chines@@
cola
deli@@
demo@@
demogra@@
deut@@
dicke
digungen
drei-@@
einladen
einschränkungen
einzelner
engagieren
enter
entscheidet
entsprechen
enttäuscht
entwur@@
erdoberfläche
ermutigt
erschaffung
erschienen
erstmal
erwachsen
erzeu@@
este
evolution@@
fange
fasste
festen
flei@@
flugzeugen
fluss@@
flächen@@
flö@@
forschern
frage@@
freier
frosch
frustri@@
fundamentale
führende
fürchten
gay
gegenwärtige
gehirnen
gemü@@
geschätzt
glühbirne
gor@@
graphen
grei@@
gut@@
herkommen
higgs-@@
hinterher
hohem
häl@@
höchst@@
hüfte
ie-@@
ings
inieren
initi@@
ins@@
interaktionen
internet-@@
irgendeinen
ise
it-@@
jahrhunderte
jay
jugendliche
jüngeren
jüngste
kammer
kategorie
kil@@
klappen
klin@@
klänge
konflikten
konversation
kosmos
krat@@
kriegs
künste
künstler@@
l.a.
liebten
lim@@
logo
lud
lustige
magazine
meeresspiegel
mend
mol@@
molekülen
more
mr@@
mut@@
mutig
mäß@@
nissen
obdach@@
og@@
ologisch
ore
paare
partikel
phasen
philosoph
pilz
polen
populationen
probiert
ran
rand@@
rational
rauschen
reaktor
regal
relation
rente
rettet
rieren
robotern
rou@@
route
rückgang
sammelte
sammler
schale
schatz
schiffe
schil@@
schlicht
schließe
schritt@@
schweiz
set
shi@@
sigkeit
sing@@
software-@@
sorte
spass
spinne
stande
starkes
stattfand
sts
studi@@
tale
talenti@@
tansania
tempel
tippen
trauri@@
tv-@@
tänzer
türen
umgewandelt
umwandeln
untersuchten
verfassung
verfü@@
verfügt
verhalten@@
verhaltensweisen
vermei@@
versichern
verstärkt
viert
visuell
voran
wachsen@@
wald@@
wat@@
webseiten
weiblichen
weiterentwickelt
wertvolle
wör@@
zahlt
zeitschrift
zeuge
ähnlicher
ärger
öffentlicher
ös
ösen
überdenken
überfluss
übersehen
übertrag@@
---
000-@@
2030
3.
350
5000
98
abschließend
ai
alpha
anfühlt
anre@@
anschließend
ansteck@@
archiv
argumentieren
ater
atlanta
aum
ausbreiten
ausgangs@@
auswei@@
außerordentlich
bad
bangladesch
baum@@
beacht@@
bearbeiten
begeben
begehen
beispiel@@
benutzer
bergsteiger
bestä@@
bestätigt
bevorzu@@
bewerkstelligen
bezo@@
ble@@
boot@@
botschaften
bran@@
brennen
bun@@
by
bö@@
bürgerkrieg
bürgern
chron@@
chs@@
cia
craig
dazu@@
delhi
diagramme
dokumente
draht@@
drang
durchzu@@
ehren@@
eingenommen
eingesch@@
ellem
engagi@@
entdeck@@
entschei@@
entscheidenden
erdgas
erkannten
essenz
fantastisches
farmer
feuchtigkeit
feuert
feuerwehr@@
fiktion
folien
freizeit
frustriert
frühstück
furchtbar
fusion
gangs
gelandet
gelungen
gemerkt
gepar@@
gesicht@@
gig
gigan@@
haftes
handel@@
hawaii
hell
herumzu@@
hervorbringen
hh
hiermit
historisch
hosen
häss@@
ideale
intui@@
intuitiv
itäts@@
johnny
kalku@@
kambodscha
kanten
ket@@
kleben
koloni@@
konsequenz
konzer@@
korn
krater
kritischen
krokodi@@
krümm@@
küchen@@
kürz@@
lampen
langfristige
leder
lego
leonardo
lische
live-@@
master
mien
millimeter
mitzu@@
mochten
mutation
männer@@
nachher
neuseeland
neutr@@
niedrige
nö@@
nü@@
ographie
ohr@@
oll@@
optionen
organische
palästinen@@
parkplatz
parlament
patientin
persönliches
pfle@@
ph
phosphor
posi@@
poten@@
produzenten
publi@@
quote
rab@@
ratte
regime
reihen
repar@@
rezession
röhre
salz@@
schaft@@
schall
schickt
schlimme
schnitte
schnitten
schreiten
seltsamen
setz@@
setzung
sichts@@
simulieren
singapur
south
spart
speku@@
spi@@
standort
stert
stich@@
stiges
stimmung
stürzt
sungen
sylvia
säure
tags
tastatur
tedtalks
teilzunehmen
tigem
tigten
tätig
tötete
ueber
universen
urlaub
v-@@
verlässt
verringert
vers
verwendete
verwirrt
verwund@@
vorbereitung
wasserstoff@@
wiederhol@@
wiesen
wilde
willi@@
winter@@
wk
wolle
wählten
ya
zern
zielt
zonen
zuständig
zwischenzeit
älterwerden
ängen
äres
äußeren
é
überqu@@
überzeugungen
üsse
130
15-@@
1997
2020
30-@@
31
38
6.
ad
agrar@@
akzep@@
ali
alog@@
anatomie
anbauen
angen
angezogen
angri@@
anzupassen
apparat
applaus
arden
asen
ath@@
atheisten
aufhört
aufzugeben
ausnahmen
auszugeben
barmherzigkeit
baseball
bedecken
bedient
befolgen
behandlungs@@
beliebigen
benennen
bereitschaft
berlin
berücksichtigen
beschul@@
bese@@
bestandteile
bestätigen
betrachteten
betrügen
bilanz
breitet
briten
buddhi@@
bälle
ck-@@
clinton
diplomatie
disziplinen
dopamin
dun@@
dynamische
eck@@
einkaufen
einladung
eisen
elektr@@
englisch@@
entschloss
ereig@@
erle@@
erlebte
ernsthafte
ernte
erwartete
erweiter@@
erweiterung
essens@@
eten
explo@@
fahrrad@@
ferne
filmemacher
fischerei
flecken
flugzeug@@
fran@@
fäch@@
fän@@
ga
gebilde
gebir@@
gebühren
gegensei@@
geladen
geleistet
genom@@
geradezu
geren
geringsten
gerä@@
geschö@@
geträn@@
gliche
glie@@
glücks
gps
größ@@
gänger
haf@@
han
hauptstadt
hefe
heimat@@
helium
herbei@@
hindern
hing
hmm
hofft
horizon@@
huhn
hybri@@
ille
imitieren
informa@@
inge
inger
interak@@
interessierte
ironie
isation
jagd
junges
kant
korb
krebszellen
krist@@
kund@@
kühlen
kün@@
l-@@
laut@@
lebenszeit
legung
lett
liter@@
magnet@@
manns
meeren
meln
merk@@
mikrobi@@
milo
minder@@
mine
modifi@@
molekulare
mörder
nervensystem
netzwerks
normaler
orange
ore@@
organ@@
paar@@
passend
patente
peinlich
pfe
pfeifen
pfi@@
phänomene
produkt@@
pur@@
rannte
rasch
redeten
riff
robotik
rund@@
sang
schaltkreis
schirm
schlangen
schleife
schuhen
schwierigsten
schwimm@@
schönsten
send
sequenzen
sichtbaren
sign@@
sion@@
skelet@@
ski@@
sl@@
solle
sonn@@
sons
sperr@@
spunkt
spürt
state
statten
stillstand
stöck@@
südlich
sün@@
tasman@@
tatsachen
team@@
teilungen
temperaturen
tie@@
toren
trö@@
tunnel
umgebracht
unternehmens@@
unterschied@@
verblüff@@
verfügbaren
verhaltens
verhandlungen
verknüpf@@
verla@@
verletzen
verpflichtung
verrichten
versuchs@@
verur@@
verwende
vollem
volumen
vorgehensweise
vorzubereiten
wahn@@
weihnachts@@
weitergegeben
weizen
winde
wirtschaftlicher
witze
woll@@
worin
wähl@@
zeichneten
zerstör@@
zit
zusammenkommen
zusätzlichen
zw@@
zweig
á@@
ähnelt
älteste
äne
ästhetik
überflu@@
überlegt
übersetz@@
übrigen
-syndrom
2012
30@@
5-@@
abkommen
absoluten
adresse
agen@@
air@@
alb@@
albert
allmählich
ams
anerkennen
anfan@@
anfangs
animation
anstren@@
anstrengung
arznei@@
atomen
aufgehört
ausbruch
ausrottung
aussuchen
außerord@@
aß
bag@@
bb@@
beach
beamten
bedrohungen
belei@@
berech@@
beri@@
besorg@@
beton@@
beute
biot@@
blas@@
blumen@@
board
brauch
bucht
campus
charakter@@
chem
chemiker
chromosomen
chst
chtigen
cricket
dauer@@
dbar
dean
demon@@
demselben
derselbe
dnungen
dr
dreidimensionale
dreidimensionalen
drin@@
drücke
dsch@@
dy@@
dynamisch
dünn
einfach@@
eingebau@@
einsatz@@
einsicht
einzugehen
eltern@@
emotional
entnehmen
erden
erender
erfolgs@@
erklärungen
ernste
erwecken
erwi@@
eti@@
euren
evolutionäre
exo@@
fahrten
femini@@
ffer@@
fokussiert
fortzu@@
foto@@
französischen
fremd@@
frustration
fähige
fälsch@@
führer@@
gedauert
gefilmt
gehei@@
genie@@
geograph@@
geräusch@@
gesprächen
getreten
gewidmet
gewissem
gewissheit
gläu@@
grau
gre@@
großarti@@
grösser
gungen
götter
gü@@
hasse
health
hef@@
helden@@
heli@@
herab@@
herausfanden
hervorragend
ian
idealen
illegal
impfstoffe
impuls
infe@@
infektion
iniert
inspirierend
intensität
irr@@
isierten
jagt
jamie
jh
journalismus
jupiter
kamel
karti@@
karto@@
kleider
kocht
koffer
kohlen@@
konferenzen
konsum@@
konto
kopenhagen
kore@@
kraftwerk
krankenhaus@@
krankenschwestern
kreuzen
kriminelle
krä@@
kämpfe
käse
körperlichen
labor@@
lande
landung
leichten
leu@@
libellen
liebe@@
liehen
loswerden
längere
lücken
mam@@
marktes
massi@@
materials
mcdonald
meeresboden
meerwasser
mikro-@@
milch@@
mischer
mitgefühls
mitgliedern
mitmachen
mode@@
modellen
moskitos
mot@@
mächtigen
männlichen
mön@@
nachbar@@
nation@@
nes@@
netten
nick
non@@
näher@@
ologien
ora
organisierten
panzer
pau@@
perfektion@@
pern
perspektiven
pert
phot@@
pillen
platziert
politikern
pon@@
portrait
priester
privatsphäre
professionelle
psychische
rasse
realisieren
rechnet
reduktion
reservat
respekt@@
rick
rock
rosa
rücken@@
sarah
scannen
scans
schmeckt
schri@@
schub@@
schwach
schwein
seither
selbstmord
sierten
simu@@
sionen
sommer@@
spli@@
spri@@
sprä@@
square
starteten
stewart
stigt
stirn
stär@@
symmetrien
talente
talk
taucher
teena@@
tei@@
teilhaben
thunfisch
thunfische
tismus
tradition@@
transformieren
ty
ufer
ultraschall
unabhängigen
unend@@
verarbeitet
verblüffende
vergleichbar
verhaftet
verhältnisse
verluste
verlän@@
vernetzung
verpasst
verschlei@@
verschmelzen
verstärken
verteidigungs@@
verwirr@@
verzwei@@
visionen
vogelgrippe
wahnsinn
wahrgenommen
walmart
warm
well
wies
wissen@@
wohingegen
wohlhab@@
ye@@
zeitschriften
zwang
zwangsläufig
zweit@@
²
älterer
öhn@@
+
1995
24@@
3000
40@@
50-@@
97
abgeben
ablen@@
abläuft
absol@@
abspielen
abstrakte
alan
alice
alli@@
ama@@
amazon
american
ami
angemessen
angenehm
ankunft
ankün@@
anlegen
anpassungs@@
ansah
ansätze
anziehen
archä@@
astro@@
astronom@@
astronomie
ause
ausgerottet
ausgestellt
ausrichten
ausüben
ay
banjo
banker
bedeutsam
beeindruck@@
befreit
begegnung
beher@@
beiseite
bekannter
benutzer@@
berkeley
beruhi@@
bestanden
betrag
betreu@@
beunruhi@@
beweist
bilder@@
biop@@
blue
brilli@@
brunnen
bunker
bänder
bün@@
cha@@
child
chile
christen
cloud
comedy
dad
dampf@@
dauerhaft
designen
deutsche
diät
dlichkeit
dom@@
dreck@@
dumme
dunkeln
durchfall
ee
ehen
eingebettet
einschränkung
elegan@@
empfänger
endeffekt
engl@@
entwickel@@
erfolgreicher
erhit@@
ermöglichte
erne
erneuerbaren
ernährt
erspar@@
erzieh@@
erzähl
existierenden
fahrt@@
faser
feder
fingern
folter
format
führungen
garten@@
gattung
gebung
geheimen
geist@@
gela@@
gelan@@
gemalt
gend@@
generiert
genoms
geo@@
gericht@@
gesellschaft@@
gestoßen
ginge
gitter
glühbirnen
grafik@@
grafiken
graph
grosser
großzü@@
grundle@@
gröss@@
grösste
hack@@
handlungs@@
harm@@
herausfand
hindernis
histor@@
hoffnungen
hren@@
identifi@@
ii
impor@@
improvisi@@
index
informiert
ings@@
installieren
instinktiv
interne@@
ire
jefferson
jonathan
jungfrau
jä@@
jähriges
jünger
kaffee@@
kampf@@
kartoffeln
kat
kauf
kelly
kiefer
klassen
kleber
kommuni@@
komplizierten
komponi@@
konserva@@
koralle
kreativer
kungen
kyros
kör@@
langfristig
larven
lateinamerika
lebenser@@
lebensstil
lehrte
letzt
lichkeits@@
line@@
lizen@@
lungen@@
lädt
läufer
mahlzeit
mammo@@
maschinen@@
materielle
medikam@@
messung
molekularen
moment@@
motivi@@
nachhal@@
nachhaltigen
nder
neurolog@@
null@@
organisierte
orienti@@
ost@@
paket
paradox
parameter
partei@@
partnern
patienten@@
pflicht
piloten
pop@@
praktischen
privilegi@@
produ@@
psychologische
raketen@@
rem
ritu@@
rom
rückkehr
sagst
satzes
schad@@
schar@@
schauspiel@@
scheu@@
schiffen
schliesslich
schläft
schmelzen
schultern
schwache
seattle
seltener
sexuell
sexy
sey
sieg
sig@@
sinni@@
sklaven
skop@@
sky
solarzellen
sorg@@
space
spür@@
standes
starker
stehende
stellungen
stlich
stoß@@
ständigen
syn@@
syndrom
synthese
sätzen
takt
tanzt
telefone
temperatur@@
tesla
thailand
tions-@@
tren@@
trennt
triebenen
ttet
ultimative
umbringen
umsetzung
unabhängi@@
ungleich@@
univers@@
unterir@@
unternehmens
v.
verbesser@@
vergeben
verges@@
verknüpfen
verkäufer
verlangsamen
vermischt
vermächtnis
verschwanden
vollstän@@
vornehmen
warst
waschmaschine
weckt
weichen
wende
wick@@
wid@@
wiederaufbau
wissenschaftlerin
wissenschaftlicher
wolfram
womöglich
wortwörtlich
wurzel
wäldern
zellul@@
zerbrech@@
zucht
zufälligen
zukünf@@
zurufen
zurückzukehren
zusammenbringen
zusammengestellt
zwei-@@
zwie@@
zähnen
ök@@
überblick
übergehen
übernimmt
überwachung
üblich
ückt
16.
195@@
2015
52
7.@@
8-@@
80er
=
abo@@
ai@@
alem
ambi@@
an-@@
ane
anrei@@
ansammlung
anstrengungen
antreiben
antreibt
antworteten
anz@@
anzubieten
arabische
asche
assozi@@
ats
attac@@
aufen
aufklärung
ausgelöscht
austauschen
basis@@
baumwolle
baus
bearbeitet
bedürf@@
befür@@
behinder@@
belohnt
benzin@@
berufe
besaß
besonder@@
besorgen
betrü@@
beugen
bewahrt
bewus@@
billige
biologe
bits
bremsen
brillan@@
chten@@
clever
community
dergleichen
dete@@
dol@@
dop@@
doppelte
dos
drahtlose
eig@@
einfa@@
einmali@@
energies@@
entlich
entscheidungs@@
entschul@@
entsetz@@
erfolgreichen
erheblich
erholen
erkläre
erleuchtung
ernährungs@@
ersatz@@
ett
ewi@@
facebook-@@
fallschirm
fehlende
feier@@
feind@@
festival
folgendermaßen
folgten
forma@@
fortgeschritt@@
forum
freitag
frisch
frösche
fundamentalen
ganzer
gebenen
geborenen
gefährdet
geholt
gelten
gemein
gemeinnützige
gemeinsames
gemis@@
genauigkeit
geor@@
geres
gerten
gesang
geschicht@@
geschäftsmodell
geste
gewalttä@@
gießen
globus
glu@@
gravi@@
greifend
griechen
grob
grossartige
gärten
gö@@
halter
harry
hat@@
haushalte
haushalts@@
heit@@
hender
herausforder@@
herauskommt
hervorrufen
hierarchie
hiervon
hinterfragen
hinterkopf
hirns
hnte
hop@@
hten
ignor@@
ikon@@
interessiere
irland
jazz
jerusalem
julian
kator
kende
keni@@
klappe
klat@@
knac@@
kollaps
kompetenz
kompromis@@
konzerne
kopien
kopier@@
korrek@@
korrigieren
kostete
kreatur
kreuz
kritik
ktivität
kus@@
körner
kür@@
lande@@
laser
latein@@
lauten
lautete
leber@@
leder@@
leitete
leuchtet
libanon
lichung
liebes@@
lierte
lierung
lokal@@
lächer@@
lähmung
mall
mals
mammographie
marsch
material@@
mathe
mathemati@@
meldet
mentale
merkwür@@
mitbringen
mobilität
mobiltelefone
modern
moderner
moore
mädchens
möglichst
nadeln
nebenwirkungen
nervenzelle
neuron
news
nieren
notizen
onnen
ordentlich
organischen
paaren
patent
patenti@@
persönlicher
pinguin
plasti@@
poe@@
pool
pos@@
positives
pper
probanden
produktiv
profession@@
professoren
profit@@
programms
promin@@
reflektieren
regulierung
research
richtete
ringe
rob
robu@@
rock@@
rop@@
rose
rosling
sab@@
satz@@
schießt
schlauch
schlossen
schuh
schwä@@
sensor
sierra
sitzung
skeptisch
social
spritzen
sputnik
start@@
statt@@
stimmten
stimulation
stopp@@
streckt
südpol
tageslicht
tauchte
teilnahme
terror@@
tiefsee
tiefsten
tivität
trinkt
truppe
tteln
tun@@
tzer
u-@@
uhr@@
unangenehm
unbeha@@
unglaub@@
ungs
unternommen
vakuum
verantwor@@
vermö@@
verpassen
versammeln
versteckte
verwunder@@
verwü@@
visueller
vorgeht
vorherigen
wach
warnung
wegzu@@
wendepunkt
wiederherzustellen
wille
wirtschaften
wochenende
wol@@
wählte
wün@@
zahlreiche
zap@@
zeichen@@
zeile
zeitig
zittern
zu-@@
zurecht@@
zyklen
zügen
ßig
ähn@@
überholt
übungen
1980
1980ern
25@@
50er
6-@@
60.000
70er
90er
abfall@@
abschneiden
ahmen
akademischen
alar@@
allen@@
alphabet
anderthalb
anek@@
angefertigt
animationen
app
apps
arbeitern
ares
arktis
arktischen
aro@@
artiges
assoziiert
asth@@
ativ
ator@@
aufgefallen
auftauchte
ausbreitung
ausde@@
ausgangspunkt
ausgesprochen
ausgestorben
auslöst
ausschalten
ausserhalb
bangalore
basierten
befehl
befestigt
behauptung
beigetragen
belegt
berechti@@
beruht
bes
beschrei@@
beschrän@@
besor@@
besucher
bet@@
betrachtete
beur@@
bewusste
beängstigend
bieren
blogger
blüte
bou@@
bren@@
brennstoff@@
browser
bruce
brüdern
busch
c.
cap@@
carl
chel
comic@@
cortex
cre@@
deines
demokrati@@
demonstriert
depressionen
designern
designt
detailli@@
dichten
die@@
diplomat
diversität
dokumentieren
dokumentiert
drastisch
dächer
ebay
edi@@
ehemalige
eigentü@@
einfachsten
einfühlungsvermögen
einhundert
eini@@
einsichten
einsparungen
elektron@@
element@@
elend
enger
enor@@
ent-@@
enthüll@@
entlassen
entwarf
enzyklopädie
erbar
erdbe@@
ereien
erfassung
erfolge
erforsch@@
erhöhten
erschreck@@
erwachsener
erweise
eröff@@
esten
ethnische
etten
externe
fabri@@
ffer
fie
fischerei@@
fisches
fit@@
force
fossilien
fot@@
frequenzen
fund
fülle
gangen
gebie@@
gebro@@
gefügt
gehör@@
gelo@@
gendsten
geringen
geschichtenerzähl@@
gesichtern
gewässer
gift@@
gon@@
green
grupp@@
grünes
günstig
haft@@
hal
hebel
helm
hemd
herauskommen
herrn
hervorra@@
high@@
himmels
hochzeit
hormone
horn
höl@@
hübsch
ibm
ica
ineinander
informieren
inhalts@@
integration
intensive
interviewer
ipod
irren
issen
japan@@
jemen
journal
kais@@
kak@@
kanische
karikaturen
katastrophen@@
keit
kenntnisse
kisten
klagen
klarheit
klär@@
klären
kogni@@
kontinenten
kontrollierte
kurven
lade
lama
lands
lautsprecher
lea@@
leichte
leidenschaften
ler-@@
liber@@
lupe
lux@@
luxus
magen
maten
mechan@@
meditation
mens
misch
missbrauch
mittlere
modus
momenten
mrt
musikalische
mör@@
müttern
nehmt
neter
new@@
norm
normen
nummern
nötige
offiziell
optische
organisi@@
ox@@
parasiten
pfad
pflegen
pfleger
pingu@@
portraits
posten
präsenz
pädago@@
quar@@
raster
redak@@
refer@@
regnet
regulieren
reichlich
reist
riefen
riesenha@@
saison
samm@@
sank
satelli@@
sauber@@
scharf
schlau@@
schme@@
schnellste
schre@@
sebastian
seg@@
ses@@
shakespeare
shar@@
sicherheit@@
singt
sinnen
sli@@
som@@
source
spin@@
spra@@
sprich@@
stapeln
stati@@
statistisch
stattgefunden
stehenden
stellige
sterblichkeitsrate
sternen@@
stest
streichen
stämmen
sudan
sung
super-@@
säuge@@
söhne
südlichen
tank@@
temp@@
titelseite
tivi@@
to-@@
todesfälle
tos
traten
trauen
tzung
tätigkeiten
tödlich
töteten
unerwartete
ungsa@@
unsicht@@
unsinn
unterscheidung
unterstütz@@
untersuchte
up-@@
veranstal@@
verbrannt
verbringt
verg@@
vernachlässi@@
verschiebung
verschle@@
versich@@
verstär@@
verun@@
vielver@@
wachen
wassers
way
wecken
weis@@
weiser
weisst
weswegen
wettbewerbs@@
wilden
wissenschaft@@
wun@@
wurf
wäl@@
yor@@
zehntel
zigar@@
zigern
zimmern
zufolge
zuhörer
zusammenspiel
äf@@
ähnlichkeit
äl@@
äthiop@@
öffentliches
ökonom
überwältigt
üs@@
0.@@
1,3
194@@
5.
7.
76
8.000
abe
abfolge
abilität
abnehmen
absor@@
ack
akzeptanz
alaska
alist
allgegenwärtig
amm@@
analysis
anda
andro@@
angesprochen
antrie@@
antwor@@
aquarium
arkti@@
armstrong
artikeln
ass
assi@@
aufgegeben
aufruf
aufwachen
ausbilden
ausdrück@@
ausgerichtet
auti@@
basier@@
befehle
begraben
begrenzung
begründet
belegen
beliebige
belohnungen
belä@@
bemerkten
beratung
besprechen
betroffenen
bie
bildete
biologischer
blöcke
boom
boom@@
braun
bring@@
bär
café
cham@@
chao@@
charakteri@@
coca-cola
cousins
dalai
dank@@
darwin@@
dau@@
daumen
demut
differen@@
dimensionalen
direkten
dok@@
dreieinhalb
dring@@
drittes
drängen
ds@@
dsten
dumm@@
ego
einbauen
eingriff
eintausend
elternteil
empfindlich
enthi@@
entlichen
entwürfe
erdn@@
erie
erzogen
ess
ethische
eu
fahrts@@
fertigkeiten
firmen@@
folglich
freundes
freut
fröh@@
fund@@
fundament@@
funktions@@
funktionsweise
fußball@@
fäll@@
führern
gast@@
gau@@
gebor@@
gedeihen
gefangenen
gefährlichen
geheime
gehä@@
gelö@@
geniale
genu@@
geschrie@@
geschäftsführer
gesto@@
gewebe@@
gewinnung
gewohn@@
gie
giftigen
goldenen
grab
gram@@
grauen
gänzlich
hafter
halte@@
hass
heili@@
heilmittel
herunterladen
herzkrankheiten
hie@@
hinzugefügt
historiker
hotels
hunger@@
häuft
höherer
ia
ima@@
impfung
impulse
innern
innovativ
insekt
installiert
interessan@@
intro@@
julia
kalifor@@
karikatur
keith
kno@@
komment@@
kompletten
kompliziertes
konzert
korallen@@
korallenriffe
kosovo
krankenschwester
krieg@@
kriterien
kse
ktions@@
ktiv@@
kultivi@@
kunstwerk
kämpft
körperlich
künstlerische
künstliches
langle@@
laufenden
lebensweise
lehrplan
leicht@@
leuchten@@
line
lizenz
lon@@
lot@@
malari@@
manipuliert
marathon
marketing@@
maske
materiellen
mechanische
mem
met
meta@@
mexi@@
monterey
mord
musikstück
mythen
myzel
nathan
nem
neuem
nigeri@@
nischen
no
nuklear@@
nützliches
oben@@
oliver
onale
operations@@
os@@
ostafrika
osteuropa
ostküste
packte
pakistan@@
palästina
papiere
paradies
parallel
part@@
pfa@@
pferde
pfte
philanthropie
prin@@
propaganda
prothesen
provo@@
prozessor
quad@@
qualitäten
quallen
reak@@
rechenschaft
rechtzeitig
reichsten
reichte
reiz@@
repor@@
resistent
retro@@
riss
rollt
rump@@
russischen
rädern
saft
scan@@
schach@@
scheiben
schick@@
schiff@@
schlan@@
schleu@@
schockiert
schoss
schreitet
schuh@@
schwangerschaft
schüchtern
schützer
segel@@
sehn@@
sehvermögen
server
sexuellen
shei@@
simple
sj
skri@@
smo@@
soldat
sonderlich
sowje@@
speisen
spektrums
spielern
spinnen@@
spitz@@
sprung@@
stau
steller
stem@@
strahl
stringtheorie
stuhl@@
stößt
stür
susan
synthetische
syrien
südamerika
tanten
tasten
tchen
technologischen
tedtalk
terien
them@@
theore@@
totale
trainer
tromm@@
träge
tät@@
täuscht
tödlichen
ultra@@
umdrehen
umfassende
umgeht
unfähig
ungser@@
universelle
universitäts@@
unterdrücken
unterschieden
unterstü@@
va-@@
variante
verbrau@@
vereinbarung
verhe@@
verlegen
vermark@@
vermehren
vermie@@
vermischen
vernünftige
verschlüssel@@
versuch@@
verträge
verursachte
verwandelte
vin
vin@@
volkes
vorbereiten
vorgeschlagen
vorgänge
vorhaben
vorstell@@
wache
wahrneh@@
wahrzunehmen
waisen@@
wanderung
warfen
wegs
wehr
weihnachten
weitergeben
wesent@@
wirksam
witz@@
wohlergehen
wohltätigkeit
wohnt
wundern
wußte
you
zaun
zeichne
zenz
zeremonie
zugehörigkeit
zunehmen@@
zunimmt
zusammengesetzt
zusammenzuarbeiten
zusammenzubringen
zweier
ägypter
ärztin
äufe
äußere
öffnung
ökologische
örtliche
öst@@
überaus
übereinstimmen
überla@@
überleben@@
überprü@@
10.
1970
1984
1989
1996
2.0
60@@
80@@
96
abend@@
abweichung
adap@@
ahnen
aktionen
alistischen
allt
ama
amazonas
anblick
anfällig
angeben
angegriffen
angenehme
angreifen
angst@@
annt
ansteckend
antikörper
antwortet
ata
ation@@
atom
aufgaben@@
aufgezogen
aufpassen
aufregung
aufzeichnen
aufzeigen
ausgeführt
ausser
aussicht
auswahlmöglichkeiten
barrel
barry
bast@@
bedenkt
befanden
befasst
begrenzten
beha@@
beijing
belü@@
beruhigen
beteiligung
betriebs@@
betrogen
bevor@@
bevölk@@
bewegten
beweis@@
billion
bmw
british
brokkoli
bruch@@
brut@@
bten
bür@@
cents
chinesisches
data
datum
demokratien
depressiv
digit@@
digitales
digten
dokument
dominiert
dramati@@
dramatische
dreck
dste
dynam@@
egoi@@
eigung
einschalten
einverstanden
einzufangen
elektron
empfehlen
engel
engen
engineering
enheit
entzün@@
erderwärmung
ereignissen
erendes
erfolgreich@@
erlei@@
erleiden
erreichten
errungenschaften
ertem
erwachsenen@@
erwar@@
et-@@
faden
fans
farben@@
farmen
fehlern
fehlte
fixiert
flexi@@
flexibel
flus@@
forder@@
francis
franzö@@
fresser
freundliche
ftet
fö@@
fürchter@@
garantiert
geben@@
gebt
gefiel
geheimnis@@
gehende
gehenden
gehörte
geistige
geldes
genial
geometr@@
geschenkt
geschlafen
geschlecht@@
geschlossenen
geschwister
gesegnet
gespr@@
gesün@@
gewebes
gewöhnen
gigen
gil@@
gipf@@
git@@
glat@@
glüh@@
goliath
grade
greifbar
grenzen@@
grü@@
h.
ham
handwerk@@
hawking
herzinfarkt
high-@@
hinsehen
hole
hon@@
hormon
hunderttausend
hungen
hässlich
höhlen@@
hüb@@
hühner
iden
igte
inierte
inspirierte
instab@@
instin@@
insulin
intelligenter
intensi@@
interven@@
intrin@@
irration@@
isolation
jahrhunderten
jog@@
kaninchen
kationen
kennedy
kibera
kilogramm
kindergarten
kleid
knei@@
knöpfe
kollektive
kompli@@
komplizier@@
kon
konfli@@
konkurri@@
konkurrieren
korre@@
kos@@
krimin@@
kulturell
künfte
kürze@@
leistet
leop@@
leugnen
lippen
magische
magischen
manipulation
mar
massa@@
mck@@
meinungs@@
michigan
mikr@@
minderheit
misch@@
mobile
moder@@
modern@@
moeg@@
multination@@
mungs@@
mäßigen
münze
nachahmen
nachbar
nes
ngos
nigen
nobelpreis
notaufnahme
notfall@@
notiz@@
notwendigen
obersten
ofen
offener
oll
olog@@
onen@@
optimieren
orientierung
orium
out
passten
phtal@@
pittsburgh
plänen
pol
porno@@
preisen
produk@@
proportional
präsent
psychiater
qualifi@@
qualle
rauf
recycling
reform
rekru@@
rich@@
rituale
ruder
russen
sandwich
sauer
saurier
schlamm
schlauer
schmu@@
schulbildung
schwam@@
schweben
schwim@@
schwäch@@
schär@@
schätz@@
schütt@@
schützt
selbster@@
sensor@@
siehe
sigen
signatur
silber@@
slum
sno@@
sorten
spanne
spartner
speicher@@
spezifisch
spiele@@
spirituellen
spreng@@
sprobleme
spürte
ssen@@
stacheln
stadien
sth@@
strassen
strömen
stundenlang
stützen
sweise
szenen
tamiflu
tank
technologie@@
teleskope
terie
terror
teter
teur
tivem
top
trauer
trick@@
trost
träum@@
tsam
twi@@
umfragen
umgibt
unan@@
unausweich@@
under
under@@
unen
ungewöhn@@
unglaublicher
unsicher
unterbrechen
unterdrück@@
unterhaltungs@@
ushahidi
uss@@
verband
verbrachten
verbringe
verbundenen
verdun@@
vereinigung
verlangsamt
vernetzen
versammlung
versicherungs@@
verstop@@
verwalten
videospiel
vieh
vitamin
voraussetzung
vorberei@@
vorgehen
vorträgen
völkermord
wandert
wanderte
wehren
weitem
weitergehen
weitgehend
werben
whit@@
windenergie
wis@@
wohnwagen
wunderbarer
zapfen
zeitungs@@
zerstörer@@
zerstörte
zitieren
zuallererst
zusammensetzen
zusamment@@
zustande
ähneln
änden
überraschen
überschreiten
‟
100-@@
12-@@
140
180
1945
1991
400.000
50ern
86
abgele@@
abwärts
achtet
addi@@
afro@@
aha
akademiker
albern
aliens
ameisen@@
amerikanern
andauernd
angerufen
anleitung
anschließen
apollo
arabien
are@@
armuts@@
atr@@
atrazin
attra@@
auffor@@
auffälli@@
aufgeb@@
aufgeteilt
aufstand
aufwärts
ausgang
ausschau
authentizität
automaten
automati@@
auton@@
außerirdische
ax@@
bakterien@@
barem
beer@@
befestigen
befru@@
beg@@
begrüßen
behindert
bekämpfung
belohnen
beobachteten
beruflich
besaßen
beschränkungen
besiegen
bestechung
bestimmung
betrachter
betritt
bewege
bewusster
bezahlte
bezahlung
bezieh@@
bezir@@
bildeten
bittet
blindheit
blockieren
blocks
blutgefäße
bosnien
brad
brä@@
bräuchten
bte
budgets
bündel
chende
cheryl
christus
chromosom
cu@@
damali@@
dankbarkeit
deprimiert
deter
dex
diejenige
distan@@
don
dp
drachen
edinburgh
effektive
eil
eingreifen
einhalb
elefant
energie-@@
entfern@@
entinnen
entliche
entwickl@@
epo@@
erdöl
erkenne
erlebnisse
ernsthaf@@
errei@@
erträge
erwarte
erwarteten
erweiterte
erziehen
ethanol
evan
exper@@
fac@@
fahrzeugen
fair@@
fakultät
fda
fessel@@
fg
finanzkrise
fischer@@
flachen
flusses
flüssig
fres@@
funde
fußball
fühl@@
fünfte
galerien
galt
geburt@@
gebär@@
geduld
gefäl@@
gegenseitige
geheim
gelei@@
gemeinsamkeiten
gendste
generi@@
genommen@@
gerade@@
geringe
geschichtenerzähler
gesendet
gesetzte
gesi@@
gesteckt
gestri@@
gesundes
gewandt
gewer@@
gewiss
glamour@@
gleichermaßen
glicher
gliches
glied
glänz@@
gordon
gos
graham
grenzt
griech@@
gründet
guta@@
gül@@
handvoll
harmon@@
hauen
herausstellte
herkommt
hin-
hineinge@@
hineinzu@@
hingabe
hinteren
hohes
honig
house
hörer
illegale
immen@@
imp@@
individuell
inier@@
innova@@
innovative
innovativen
institution@@
intellektu@@
intelligentes
iq
ir
jazz@@
ji@@
jo
jüngsten
kathedrale
kaulquapp@@
kenden
klettert
klugen
knö@@
kommerzielle
kongress@@
konkre@@
konzentrierten
koopera@@
kopfschmerzen
kosmischen
ks@@
ktor@@
kürzer
lachten
laser@@
lebendige
lebensdauer
leidenschaft@@
lernens
let
linear
lock@@
louis
luden
luf@@
luther
längst
läufi@@
machbar
magneten
mais@@
massiv
maxim@@
mechanischen
medizinischer
meetings
metaphor@@
migräne
milchstraße
milliar@@
mineralien
minü@@
mittag
mität
mix@@
museen
möbel@@
nachkommen
namibia
netzhaut
netzwerk@@
neurowissenschaftler
nike
nord-@@
notwendigerweise
od@@
ome@@
organen
out@@
pel@@
peng
pennsylvania
persönlichkeiten
pfe@@
pfeiler
philip
physiologie
planet@@
politi@@
positiver
pro-@@
projektion
prophe@@
protesti@@
protozelle
prozessen
präz@@
pst
psychischen
publikums
quantenmechanik
rachel
radikal@@
rauszu@@
reaktoren
rechenleistung
rechnungen
reichhal@@
reine
religiös
reputation
resul@@
revolutionen
richtiger
ringen
rissen
rob@@
roboters
ruhen
ry
santa
sauberes
schema
schlafzimmer
schlussfolgerung
schock@@
schub
schwar@@
schön@@
schüsse
sebene
selbständig
seltene
sem
serviert
sexu@@
sexual@@
sig
simon
simpel
sischen
sky@@
smus
sonntag
spektro@@
spielzeuge
spitzen@@
splan@@
spontan@@
spor@@
sprechend
spü@@
squ@@
stabili@@
statue
steigen@@
sterbe@@
stetig
stimuliert
stipendium
strieren
strukturi@@
sturz
stückchen
sydney
takti@@
tante
tauchten
techn@@
tee@@
teln
tempest
terweise
then
tigte
todes
transplantation
traum@@
treibung
trin@@
tums
typischerweise
ue
ueber@@
umzuwandeln
ungar@@
ungeachtet
ungsprogramm
unschul@@
unterhal@@
unzählige
ups
urbane
ures
urs
ursprünge
ut
variablen
varianten
variation
vent@@
verantwort@@
vergewal@@
vergleiche
verhandeln
verkörpert
vernetzt
vernunft
verpackung
verrückter
verschwendet
verstorbenen
verstümm@@
verteidigen
verti@@
vertierte
veteranen
viereinhalb
vollste
vorherzusagen
vorräte
vt
wac@@
warren
wech@@
wertige
westküste
wet@@
wickelt
wider
widersprüch@@
widerstehen
wiederauf@@
wiederzu@@
willkür@@
wilson
wirkungs@@
wirtschaftliches
wochen@@
wood
wähler@@
währenddessen
wärts@@
wöch@@
yer
yn@@
yu@@
yves
zahlen@@
zoll@@
zugegeben
zunahme
zurückbringen
zwe@@
zweifellos
ägyp@@
äter
übel
überwältigend
-system
1,2
125
150.000
197@@
25.000
5.@@
abhandlung
abkürz@@
abschied
abwesenheit
achte
act
adop@@
aero@@
agu@@
altmo@@
analo@@
anern
anfälli@@
angehalten
angezeigt
anischer
anrufe
ansteigen
aqu@@
arch@@
asteroid
ater@@
ative
atmet
atur@@
atz@@
auflösen
aufnimmt
ausbreitet
auseinandersetzung
auskommen
autonomie
bahnbrechende
bakteri@@
bali
barriere
beam@@
bearbeitung
bedeutenden
bedien@@
bedürfnissen
befrei@@
begegnet
beit
beiträge
bekommst
bemerk@@
bemüht
bertie
beschleunigung
beschäf@@
bestellen
bestimmter
bewerben
bewundern
bieter
biotechnologie
blockiert
bloße
blätter@@
bol@@
bombar@@
booten
boten
brecher
brennstoffen
brillante
brooklyn
bräuchte
bundesstaat
bär@@
checkliste
chel@@
cho@@
cluster
columbia
company
cooper
cs
datei
delta
denjenigen
derart
derte
dezentr@@
digitaler
digkeit
dirigenten
disches
disney
dokumentar@@
dorf@@
drauf@@
drehten
drehung
dreieck
dru@@
drück@@
dynamischen
east
eigert
eignen
eilen
einbezogen
einfalls@@
eingebracht
einheit@@
einklang
einkommens
einwohnern
elementen
emily
emotion
emotionales
empf@@
enceladus
energiever@@
enkel@@
enthusiasmus
erectus
erem
erfanden
erfolgsgeschichte
erkennung
ermordet
ersatz
esst
evolutionären
explosionen
extra-dimensionen
extrem@@
fassten
fertiggestellt
feste
ffekt
fie@@
findung
flam@@
fliegenden
flow
fonds
formuliert
fortfahren
freundlichkeit
fris@@
frisst
fru@@
funktionierende
fuss
fuss@@
förmig
fötus
fügte
fürsorge
gebete
gedruckt
gedächtnis@@
gefeiert
gefror@@
geg@@
gehor@@
geistigen
gekostet
gelagert
geliebt
gesam@@
gesamtheit
geschie@@
gesinn@@
gewün@@
gh
gheit
glass
glichkeit
green@@
greifenden
grosses
ground
grun@@
grundsätze
gründung
guckt
gänz@@
günstiger
hacken
haftigkeit
hammer
handgelenk
hasst
hellen
hende
henden
hens@@
herausge@@
hervorheben
hervorzubringen
herzens
highschool
hilf@@
honig@@
hunde@@
hunder@@
ideal@@
ideologie
iere
igt
illusionen
imitiert
impfen
impul@@
ingt
inne
intimität
ira@@
iron@@
ironischerweise
irre
isoli@@
isolieren
ivan
jackson
jahreszeiten
jahrhunder@@
jar@@
jeweiligen
jonglieren
jur@@
jüdischen
kalender
kar
katho@@
kerne
khan
kiribati
klam@@
klavier@@
kleider@@
kombin@@
kommunikation@@
konservativen
konsi@@
konstant
kontam@@
kontin@@
kontinente
kontroverse
konz@@
konzentri@@
kooperieren
kran@@
kredit
kreuzung
kritisch
kuli@@
kunden@@
kurzfri@@
käfig
kämen
kühlschrank
landwirtschaftlichen
langem
langlebigkeit
last@@
lations@@
laufbahn
laun@@
lebensmitteln
leds
leidenschaftlich
leug@@
liberia
lich-@@
lieb
lierten
linksliber@@
loslassen
läufe
löste
makro@@
man-@@
maria
mass@@
massachusetts
mathe@@
matisch
meen
meistern
mensch-@@
menschlichem
mental
merkwürdige
metalle
metr@@
micro@@
mili@@
misser@@
missionen
misstr@@
mmern
modell@@
musikal@@
musikalischen
mysterium
mäßige
nahrungskette
napp@@
natasha
naturwissenschaften
neil
neocortex
netzen
neu-@@
nische
nordameri@@
nordo@@
norman
noten@@
noti@@
notwen@@
nst
nuklearen
nun@@
ny@@
nördlichen
nötigen
offensicht@@
oktopus
one-@@
operieren
operiert
orchest@@
orgasmus
orientierten
ors
orts@@
otte
parkinson
pathie
peri@@
perio@@
pestizide
pfeil
pflegt
phantom-@@
plün@@
port@@
portugal
problematisch
produzier@@
professionellen
provinz
psychiatr@@
psychologischen
pus
qui@@
rasen
re-@@
red@@
reflektiert
regelmäß@@
regenerieren
reinigen
renaissance
rep@@
replizieren
reser@@
rezep@@
riskieren
ritual
ron@@
ruiniert
rus@@
sammlungen
scharfen
schauspielerin
schlachten
schoß
schreckliches
schrei
schrif@@
schwerpunkt
schwierig@@
schwieriges
schöpfen
seil@@
seitige
selbsthilfe@@
selbstvertrauen
seltsames
si
sieh
sili@@
sn@@
sonnensystems
spaltung
spannende
sst
stammbaum
stange
starr@@
stars
staunen
steigende
stem
stickstoff@@
stockwerke
strateg@@
straß@@
strä@@
studentin
stunts
stöcke
sym@@
sänger
tabelle
tationen
tender
teppiche
theater@@
tibet
tierarten
touri@@
trank
trocken
tsch
tts
tust
tzellen
umar@@
umstri@@
unbeabsichti@@
undeutlich
ungleichgewicht
unschuldig
unternehmern
up@@
verblei@@
verbren@@
verbün@@
vergewaltigung
vergröß@@
verließen
verlor@@
verlorene
verschie@@
verspreche
vertikale
verwal@@
verwickelt
vordergrund
vorschläge
wag@@
wahlmöglichkeiten
warn@@
wars
warte@@
web-@@
weiterentwicklung
weißer
welch
werfer
werkstatt
werkzeug@@
wiedersehen
wien
williams
win
wirbel
wolken@@
yl@@
za
zehnmal
zellen@@
ziegen
zipcar
zität
zufällige
zugelassen
zusagen
zusammensetzung
zuviel
zweifel@@
ökonom@@
öls
überein@@
üpp@@
‚
110
12.
12.000
190@@
1993
44
59
8.
abgesch@@
abgestimmt
abhängen
ablaufen
abstimmung
acker@@
action@@
agno@@
aims
akten
aktiver
akzent
al-qaida
album
alp@@
alphab@@
ands
anfänger
angeb@@
angelangt
angemessen@@
angenehmer
anonym
anschaue
anschluss
anthropo@@
anthropologen
antike
anzieh@@
anziehungskraft
arabisch
arbeitslosigkeit
asthma
ate@@
atlan@@
atmosp@@
atombombe
attraktiv
aufbaut
aufspüren
aufzuhören
aufzus@@
ausflug
austral@@
authenti@@
außensei@@
außenwelt
außergewöhnliches
bade@@
bak@@
balanci@@
baumkr@@
be-@@
beauftragt
bedingt
befreiung
begangen
begeg@@
begehren
beginnend
beharr@@
beherr@@
beherrscht
bekanntes
beliebtesten
belt
bemerkenswerten
bens@@
bereitete
berichtete
berufen
beseitigt
besitz@@
bestra@@
bevölkerungswachstum
bewertet
bewertungen
bewässer@@
bi
bildhau@@
billigen
biolumines@@
blauflossen@@
blutdruck
brem@@
brillen
buckel@@
buddha
bühnen@@
cameron
carnegie
cartoons
charak@@
chtert
chtig
co2-emissionen
coch@@
cop@@
datensatz
dave
derzeitige
desaster
deutsch
digitalisieren
diskre@@
drehe
drucks
drungen
durchge@@
dvd
dämp@@
ehemaligen
eimer
ein-
einfangen
eingang
eintritt
elektri@@
elektrisches
emails
empfindet
entfernungen
entle@@
entscheiden@@
entwicklung@@
enzy@@
erachtens
erheb@@
erheben
erklärten
erkranken
ermu@@
erschwing@@
erschwinglich
erstreckt
erwartung
erwerben
erzielt
ethisch
ewigkeit
facht
familienplanung
fassung
fasz@@
fertige
fieber
flüssen
formation
fotogra@@
fotografierte
franzosen
französisch
frisch@@
frische
früherkennung
funden
funktionierten
furcht
fähiger
färben
fünfzig
fürchte
garantieren
gase
geehrt
gefoltert
gegenüberstehen
gehoben
geliefert
genannte
genauen
genuss
geräuschen
geschahen
geschei@@
geschi@@
geschni@@
geschäftswelt
gesteu@@
gestimmt
gewannen
gewässern
gezahlt
gif@@
gkeits@@
gleicht
glücks@@
goog@@
gratis
grundstück
grönland
gründlich
gyrus
gängen
hafen
hattest
hausti@@
heiratete
heißer
helikopter
hervorgebracht
hervorragende
hetero@@
hierhin
hindert
hing@@
hoffnungslos
holly@@
hubschrau@@
hungersnot
hydr@@
häufigsten
höch@@
ihu@@
ilen
image
impli@@
improvisation
indirekt
industrien
inji@@
inse@@
interaktiv
inwie@@
irak@@
irrtum
ischerweise
islamische
isse
iten
j.
japanische
jeans
jährlichen
karen
kataly@@
katrina
keiten
kennenlernen
keram@@
kerle
killer
kilo@@
kim
klebeband
klebt
klippe
klässler
klüger
knü@@
kokain
komit@@
komman@@
kompe@@
kompromiss
korrup@@
krank@@
kriminellen
krisen
kugeln
kultureller
köni@@
körpersprache
kühlung
kümmerte
lady
lagos
lan
lassung
led
lehrer@@
lei
lerne
lers
lexi@@
liebend
liger
lobby
loge
lokaler
loy@@
lässig
mari@@
mas
matt
matte
menschenmenge
merkten
mikrofon
min
mischt
mod@@
modelli@@
molekü@@
montana
motors
mte
muse@@
müsse
nairobi
nasen@@
neugierde
nigerianischen
nord
nordkorea
oberfläch@@
oi@@
ons@@
oo@@
ory
parken
partnerschaften
patho@@
peln
penis
pilzen
plankton
platzt
poin@@
politik@@
poni@@
powerpoint
prior@@
priorität
produzent
proji@@
prozess@@
prozessoren
präzision
psychopath@@
py@@
rahmen@@
rasi@@
realisiert
recher@@
recherche
rechtfertigen
recyc@@
refor@@
reise@@
reisten
rest@@
rett@@
rezeptor
ring@@
risse
river
rot@@
ruhi@@
rätsel@@
rückenmark
sauberer
saudi
sb
schatten@@
schin@@
schlepp@@
schmer@@
schmilzt
schon@@
schwingen
schwäche
schwächen
sechst@@
sehnen
sequenzierung
she@@
sicheres
sier@@
sim@@
siv
skam@@
skiz@@
skop
skrankheiten
society
software@@
spanisch
spann@@
spazieren
spenden@@
sperren
splan
sporen
sprichwort
sprozess
sri
stap@@
stechen
steigenden
sterte
stich
stickstoff
stimu@@
stoffwechsel@@
stone
strich
ständigkeit
stürme
substan@@
sum
surfen
sus@@
synästhesie
szenarien
süße
tasse
taste
tate
techni@@
technologischer
telefonen
terri@@
ti
tierung
tinten@@
toronto
traditionell
trainings@@
transa@@
transfor@@
transistoren
trenn@@
tsche
tum
tzlich
täts@@
umkreisen
umsatz
una
unbekannt
unerwartet
unfair
unglück
uno
verabschieden
verank@@
verb
verdanken
verkauf@@
verkaufs@@
verleger
verlegt
verli@@
verlieben
verlu@@
verläss@@
vernetzten
verni@@
vernichten
vers@@
versprochen
versuchung
versus
verwei@@
verwirk@@
verändernde
vibri@@
vieh@@
vielfäl@@
vietnam
vietnam@@
vollzeit@@
vor-@@
vorbeu@@
vorbilder
vorhan@@
vorlesungen
vorlieben
vorschriften
vorsicht
vorsorge
vorstellt
wahres
wandels
warteten
was@@
watson
weggehen
wegnehmen
weinte
weitrei@@
wertschätzen
who
wiederbele@@
willkürlich
winziger
witzig
wundervolles
würdigkeit
yte
zack
zeig
zeilen
zerbrechen
zigaretten
zuhört
zurei@@
zustimmung
zuverlässig
zwingt
zün@@
änge
äus@@
äußern
überlebenden
übermitteln
überprüf@@
überprüft
überschritten
14.
15.
1968
1970ern
1982
200-@@
70@@
900
ablehnen
abschluss@@
aggressiv
agnes
akteur
aktien@@
all-@@
alltägliche
altru@@
amateur@@
ani
anne
annimmt
anordnung
anschau@@
anthropolog@@
anwes@@
arab@@
areal
arizona
artefakte
arten@@
asiens
astrolab@@
aufenth@@
aufnahm
aufsteigen
auftaucht
ausdenken
ausgedacht
ausgeschlossen
auslöser
aussahen
ausseh@@
auswendig
av
baby-@@
bananen
beabsichti@@
beachtung
bedacht
befrie@@
begrenz@@
behauptungen
beheben
beiträgt
beleuchtet
bender
benehmen
benötigten
beobachter
berührte
beste@@
betont
betracht@@
betreff@@
betreibt
betreuung
betriebssystem
beträch@@
betten
betä@@
bevölker@@
bewertung
big@@
bil
biolumineszenz
bl
blaues
bleibe
bohrt
bono
box@@
brilliant
bruchs
bös@@
cassini
cat@@
chen-@@
chend
chene
chtige
clay
college-@@
computerprogramm
cyberkriminellen
d.c.
dab@@
dallas
darwins
datenbanken
day
dehnt
delt
demnach
dend
derjenige
derzeitigen
detroit
diagnosti@@
diana
differ@@
dinnen
dio@@
disku@@
dj
dna-origami
down@@
dschungel
dän@@
dünger
e.
ear@@
echtzei@@
eich@@
einblicke
eindrucks@@
einflöß@@
eingefangen
eingesperrt
einher@@
eins-@@
einschlagen
einschrän@@
einzustellen
ekel
ekel@@
elektrischer
elite
endem
enha@@
entfernte
erfolgt
erfreut
eriert
erlich
ermäch@@
erschaff@@
erschossen
erstaunlicherweise
ersti@@
ertrinken
erwiesen
erwähne
esch@@
ethischen
ethnischen
etiket@@
eur
explodieren
explodierte
fahrung
fairness
falken
falt@@
fass
faszinierenden
favelas
fell
fels@@
fenster@@
fertigkeit
fertigung
festgehalten
fettleibig
feucht@@
fili@@
fliegende
fluktuationen
fluores@@
flüchtling@@
forderte
formte
forscht
fossile
fotografien
frak@@
freigesetzt
freundlicher
fs@@
fur@@
futter@@
fäl@@
führungskräfte
füllte
fünf-@@
fünftel
fünften
gange
garanti@@
gebau@@
gebra@@
gefangene
gefängnisse
gefäß
gefühls@@
geistig
gelegte
gemeinde@@
gereicht
gesamtes
gescheitert
geschw@@
gesessen
gespendet
gestürzt
gestützt
getrei@@
gewartet
gewusst
gezählt
gezü@@
glatt
glau@@
gleicher
großbritanniens
grundlegendes
gutem
hall@@
happy
hartnäck@@
heimlich
heiß@@
herab
herumlaufen
hilfe@@
hilfsorganisationen
hill
hinab
hinauf@@
hinder@@
hochgeladen
hoden
hosent@@
hurri@@
hypothesen
häufigste
häuser@@
höhen@@
hörern
hübsche
ideo
illen
immernoch
improvisieren
ingenieurs@@
insel@@
inspi@@
instinkt
integrität
inten@@
interessierten
interpretiert
invasi@@
itä@@
jason
jemandes
joel
journali@@
justi@@
jährliche
jü@@
jün@@
kaffe@@
kamele
kansas
kapazitäten
kate
ke-@@
kennen@@
kennengelernt
kleidungs@@
kling@@
klü@@
koch
kometen
kommende
kommerziellen
kommun@@
kommuniziert
komplettes
komplex@@
komponisten
konnektivität
konservative
kontinuier@@
konventionelle
kopf-zahl-@@
korreli@@
kosmologie
kost
kost@@
kostengün@@
kramp@@
kranken
kratie
krebse
ktisch
käufer
künstlerischen
laborat@@
lakota
lebensspanne
legi@@
lehnte
leone
lette
lichtgeschwindigkeit
lik@@
ling@@
lischen
londoner
lor@@
loszuwerden
löchern
m.
mad@@
malediven
malerei
malt
mancher
mannschaft
market@@
mary
masken
mathematisch
me-@@
mechanisch
mierten
miete
missbraucht
mitfühlend
mittelklasse
mittler@@
moma
moses
mythologie
mächtiger
möbeln
mücken
mühle
nachmittags
nadel@@
names
navi@@
nchen
nel@@
neo@@
netter
ney
not
nullen
nutzlos
nächte
näh@@
offizielle
ologin
onik
onk@@
ooh
organisch
original@@
ot
papi@@
paradig@@
pharmazeu@@
phen
phi@@
philadelphia
phosphor@@
planten
plätzen
position@@
post-@@
power
predi@@
primzahl
princeton
prize
prostatakrebs
prozentige
prüfungen
psyche
puppe
rationen
reali@@
realistisch
recycl@@
rent@@
repräsen@@
reserven
respektiert
richti@@
ries@@
rigen
ro
rohr
rohre
romantik
roy
royal
rsw
sars
schadstoffe
schimpanse
schleifen
schlugen
schmuck
schmug@@
schockier@@
schum@@
schwa@@
schöpfer
schütz@@
segen
sein@@
sektoren
seu@@
shel@@
sho@@
shows
shu@@
sichtlich
simulationen
skelettmuskeln
smartphone
solltest
sop@@
soviele
spiegeln
spirituelle
spritze
sser
starrt
stattung
steckten
steig
stellen@@
stent
steu@@
stiftungen
stiger
stiker
stimmi@@
stit@@
stop
stur@@
stücks
supraleiter
symphonie
südafri@@
tech-@@
tech@@
technischer
teilchenphysik
termin
termin@@
teszler
ticket
tilien
tion-@@
ton-@@
topo@@
training@@
transition
trieben
trocknet
tumor@@
typisches
täuschungen
uchen
uk
ultravio@@
umfangrei@@
umwandlung
umweltschutz
unbewusst
ungsmittel
unheim@@
unterneh@@
unterrichts@@
unterschätzen
urheber@@
uv-@@
vagina-@@
vel@@
veranstaltungen
verbergen
verborgen
verbraucher@@
verbrecher
verdamm@@
vereinfachen
verga@@
verkörper@@
verkündete
verlasse
verletzlich
vermehr@@
vernünftig
verschieden@@
verschreiben
verschwen@@
verschwenden
verwandlung
verwirrend
videospielen
virus@@
volt
vorherseh@@
vorsitz@@
vortra@@
vorzüge
vorüber@@
wahrer
wahrhaft
wahrsten
wandeln
weites
wendet
wertes
wertet
wichtig@@
wohlhabenden
wolf
ws
wus@@
wähler
xe
xt
yp
ystem
zauber
zauberer
zenten
zentri@@
zerbrechlich
ziffern
zivilgesellschaft
zorn
zufügen
zugehöri@@
zuständen
zutrifft
zwecken
zwei-
zwi@@
ächlich
äquator
ärz@@
öffent@@
ökosystemen
östlichen
überschwe@@
überstehen
-bewegung
....
1983
1986
1990ern
250.000
300.000
4.@@
450
53
58
70.000
77
abgeschnitten
abgrund
abholzung
aff@@
akademie
akteure
aktuell
alien
allererste
allerersten
alltags@@
altet
aminosäuren
analphab@@
ander
anen
anfall
anfühlen
ange
angehöri@@
angelegt
angetan
antun
anwäl@@
apfel@@
areale
assistenten
astronauten
ativen
aufgeklär@@
aufwachsen
ausdrücke
ausgesucht
ausland@@
ausländische
authentisch
autounfall
außerirdischen
ballons
barack
barsten
baumwoll@@
beat@@
befra@@
begegnete
begei@@
begeistern
begrenzen
begrüßt
behandel@@
belan@@
belange
beobacht@@
bern@@
besagte
beschränken
beschweren
beschäftige
beschützt
besuchten
beunruhigend
bibli@@
biert
bindet
bißchen
bler
blutgefässe
bohren
bohrer
bomben@@
botschafter
bow@@
bracht
brennt
brieren
briga@@
bruttoinlandsprodu@@
burschen
böden
canyon
cas@@
chendes
cherung
controller
costa
dach@@
davon@@
deckte
dent@@
dest@@
diamanten
dimensional
dler
dnis
doug
drei-
dreidimension@@
dreiecke
dritter
druckt
durchbrechen
dylan
dächern
dänemark
dürfte
ec@@
eder
effektiv@@
ehrgei@@
ehrlichkeit
eigentums@@
einander@@
eindring@@
einzelheiten
elegant
engagiert
entdecker
enthüllt
entschlüsseln
entwarfen
erfinder@@
erfuhren
erhältlich
erhöhte
erobert
erschütter@@
erseits
erstellten
erwischen
explodiert
extrahieren
feldes
fertigten
festgelegt
festlegen
ffel@@
films
fit
fleder@@
flüchtlinge
fordere
forsche
foxo
freiwilli@@
frontal@@
fällig
förmigen
fühlst
gastgeber
geantwortet
gebil@@
geborene
gebühr
gedruck@@
gefördert
gehörten
geliebten
gemeinschafts@@
generator
genies
genü@@
geraden
gerechnet
gerichte
gerichts@@
geriet
gerlich
gerweise
geschäftsmodelle
gesichts
gesichtsausdrücke
gespürt
gesteuerte
gestoppt
getrunken
gewisses
gigantischen
gleiten
gläser
glückske@@
go-@@
goo@@
greifen@@
griechischen
griff@@
grundidee
grös@@
grössten
größerer
guardian
guinea
gummi@@
gär@@
ha-@@
hamburger
handels
haupt
haustiere
haw@@
hebe
heirat@@
herange@@
herauskam
hero@@
herrschte
herz-@@
herzleiden
himalaya
hinschauen
hinterließ
ho
hospital
hotel@@
hun@@
hältst
hühner@@
identitäten
iler
ili@@
indus-schrift
informationstechnologie
informierte
infrarot@@
ington
inhalten
input
insassen
insulinresistenz
interagiert
interaktive
inti@@
iraner
jacke
jon
juri@@
jüdische
kameraden
kampagnen
kampfes
kapitän
kari@@
karibik
kasse@@
kell@@
kindersitze
kippen
kleb@@
klienten
klimaanlage
klimakrise
klinisch
klon@@
knete
knochenmark
kollektives
kombinationen
komplexere
konfiguration
konsument
kontrast
konventionellen
kose
kranke
krankungen
krawat@@
ktiert
ktives
kuba
kulissen
kunstwerke
kälte
künst@@
kürzen
la-@@
laufende
laute
law
lebender
lebensform
lebensformen
lebensstandard
lebzeiten
legend@@
leich@@
lhc
lichtjahre
liessen
lkws
lohn@@
love
lung@@
läss@@
magnet
mahmoud
mana@@
margaret
marks
mathematisches
max
maxi@@
meeresschutz@@
mehrmals
meilen@@
meiß@@
menden
metast@@
miller
miss
mission@@
mit-@@
mobilisieren
mobiltelefon
mona@@
mono@@
montag
moschee
motorrad
mount
mund@@
murray
myth@@
mächte
mächtiges
märchen
nachdachte
nachthimmel
nackt
nahrungsmittel@@
nanotechnologie
nationaler
naturschutz
neanderthaler
neigt
nepal
nicht-nullsummen-@@
nicole
nieren@@
norwegen
nter
nähert
nützliche
o.k.
offenbart
offenbarung
offenes
offiziellen
oli@@
ologischer
olymp@@
open-source-@@
opo@@
or-@@
orleans
page
palette
palm
panbanisha
partner@@
passiv
pazi@@
pfl@@
planetar@@
plans
platz@@
play@@
pollen@@
ppel
prei@@
presse@@
produktion@@
produzierte
profitiert
programmierung
proteinen
proto@@
präch@@
präsidentschafts@@
prüft
pte
puppen
quadrate
quadratkilometer
quantifi@@
quat@@
que
ramp@@
rang
rapi@@
raumschiff
reagan
realisierte
rechenmaschine
recherch@@
rede@@
regenwasser
regisseur
reib@@
rekor@@
rekord
rennt
reproduzieren
respe@@
rezepte
ria
richte
richteten
richtiges
rin@@
roboter-@@
rod
röntgen-@@
sag@@
sations@@
savanne
schaff@@
scherz
schildkröte
schlachtfeld
schlaue
schlechtesten
schluss@@
schmecken
schrän@@
schwach@@
schwarm
schweres
schwierigkeit
schwin@@
schwärmen
schüssel
seeleop@@
selbstmordattent@@
seltenen
senator
sequenzieren
sexper@@
slager
smar@@
soeben
sou@@
spazier@@
speichert
spektakul@@
spektakulär
spektr@@
standardis@@
stechn@@
stechnologie
stecke
steins
sterberate
stießen
stil@@
stolper@@
ston
stren@@
strich@@
stud@@
studenten@@
studiere
stören
sue
sump@@
sun
swa@@
swerte
synapsen
system@@
sz@@
südasien
süßigkeiten
tagsüber
taiwan
talks
tans
tattoo
taxi
technologi@@
tedster
teilneh@@
tem@@
terie@@
tern@@
teur@@
tho@@
tional
titanic
todesstrafe
tomaten@@
tour@@
trete
tröpf@@
tseite
tul@@
twitter-@@
täter
täusch@@
u-bahn@@
umkehren
ums@@
umwand@@
undurch@@
ungeheure
ungemein
ungerechtigkeit
ungläu@@
unglücklichen
ungslos
unken
unterdrückung
unterhaltungen
unvermeidbar
unwohl
urbanen
variable
venezuela
veraltet
verban@@
verbesserte
verbre@@
verbundenheit
verdau@@
verdeutlichen
vere
verfein@@
vergangen
verhinder@@
verkünden
verleiht
verlierer
vernetz@@
verrück@@
versa@@
verschafft
verschicken
vertrieb
verzö@@
vision@@
vollständigen
vorführung
vorlesung
vorurteile
wahrlich
wellenlänge
weltrekord
werbes@@
werfe
widerstands@@
wiki@@
winziges
wired
wissenschaftliches
wom@@
wähle
wärme@@
würdet
wüsten
yr
zac@@
zahn
zeitgenössische
zeln
zerfallen
ziege
zufrieden@@
zugreifen
zusammenfas@@
zuverlässi@@
zwangs@@
älen
äquivalent
öffneten
öko-@@
öl-@@
übel@@
überlegte
übertrieben
überwacht
)
160
1957
1976
30er
49
57
6,@@
64
7.000
8.@@
83
abbildung
abgespielt
abläufe
abra@@
abschnitte
absorbiert
abstrakten
absurd
abweichungen
abzuhalten
abzuschließen
adiposit@@
agent@@
alistische
alle@@
allerlei
allge@@
aluminium@@
amer
ampu@@
amsterdam
amts@@
anbau
aneinander
anfassen
anfänge
angene@@
angeordnet
angestellt
anhalten@@
anhän@@
anhäu@@
anhört
anna
anter
antiretrovir@@
anweisung
anwender
anwendungs@@
anzusprechen
anästhesie
argentinien
athleten
aufbau@@
aufeinander@@
auffä@@
aufgefordert
aufleuchten
aufträge
augenlicht
ausführung
ausgegangen
ausgesehen
ausrichtung
ausschlag@@
ausster@@
auszubilden
auszuführen
ay@@
az@@
babbage
barrieren
bauchspeicheldrüsenkrebs
beanspru@@
bedauern@@
bedeutungen
beeinträchtigt
befragen
beh@@
belege
beleuchten
bemerkung
bereichern
bereu@@
besei@@
besessenheit
bestehende
bester
betrieb@@
bewusst@@
beängsti@@
bhutan
bibliothe@@
biene
bischen
bizarre
bla
bla@@
black
black@@
boy@@
brannt
bräu@@
bundesstaaten
busse
bän@@
california
cancer
cherin
chtigkeit
ckchen
cli@@
clo@@
co-@@
coolen
cooler
cousin
cr@@
cro@@
ct-@@
darbie@@
darfur
darstell@@
darstellungen
dawkins
debat@@
dele@@
depri@@
designer@@
detailliert
diagnostizieren
diego
diente
dierten
dirigent
display
disziplin@@
dominierende
doodlen
dorfes
durchdringen
durchqu@@
dünen
e-
effizienten
eiern
eigen
eigener
eignet
eingeben
einigermaßen
einsteigen
eintauchen
eintrag
einzelteile
einzuführen
eleanor
elektronen@@
elfen@@
eliminieren
ellen@@
ellinie
emotion@@
ena
ender@@
enthüllen
entsprechende
entwirft
entz@@
enzen
ergab
ergreifen
erkäl@@
erlangt
erlaubten
ermunter@@
erreichbar
erschein@@
erschöpft
erstellte
erwähnten
erzeug@@
essenti@@
essentiell
essi@@
etablieren
etabliert
ewige
existenti@@
existi@@
expan@@
exter@@
exzell@@
fahrer@@
faszinierender
favoriten
ferien
fernen
fertigen
fester
fig@@
filter@@
finan@@
finanziell
fire@@
flammen
flat@@
fledermaus
flori@@
flucht@@
flüssig@@
folge@@
fortsetzen
freiheits@@
fron@@
fröhlich
früchten
frühere
funken
fäkalien
führungspersön@@
galileo
galois
gb
gebrochenen
gedenk@@
gefil@@
gefroren
gegenstück
geister
gekennzeichnet
gelehrten
gels
gelächter
gemeinnütz@@
gemischt
gemäl@@
gemäß@@
genomik
gerungen
geräts
geschlossen@@
gesellschaftliche
gesetzes@@
gespart
gesprochene
gespült
gesundheitswesens
gewichts@@
gewähren
gier
gigantische
gitar@@
gottes@@
gradu@@
grand
great
großzügig
großzügigkeit
haltungs@@
handfläche
haupts@@
herausra@@
herden
hiert
hierzu
himm@@
hinausgehen
hinterlässt
hnung
hochauf@@
hoffte
holi@@
holten
hormon@@
hst
ic@@
ideal
idiot
illegal@@
imm@@
imperi@@
implemen@@
infizierten
inform@@
infra@@
initiativen
intensiver
internationaler
interviewt
ipad
irgendwer
ischste
itali@@
itäre
jahrzehnts
japaner
juan
kalte
kapsel
karo-@@
keit@@
kerze
kie@@
kissen
komplikationen
kondi@@
kondom
konkrete
kontakte
kontinuierlich
kontinuität
korrespon@@
kratische
kreide
kreislauf@@
kris@@
krö@@
ktiver
ku
kugel@@
kumu@@
kunft
kus
kätzchen
könn@@
kündigte
kürze
küssen
labors
landwir@@
lasche
lasten
lastwagen
lationen
lauschen
lerin
liebhaber
liebling
liess
lila
linksh@@
linux
llig
logi@@
lotterie
lte
lungs@@
lös@@
lüge
lügner
mac
magier
mail
mani@@
manipu@@
marker
mechanik
medical
medienunternehmen
mehl
meldungen
membran@@
mers
meter-@@
migranten
migration
militärischen
millionen-@@
miniatur@@
ministeri@@
mitarbeitern
mitzuteilen
modells
mondes
moo@@
muschel
museums
mutige
mutigen
mächtigste
mücke
müh@@
mütter@@
nachdenke
nahele@@
neandertaler
nest@@
nicht-nullsummen@@
nichtsdestotrotz
niederlage
nirgends
nischer
nm
noah
norden-bombenzielgerät
nutzer@@
nützen
objektive
obst
off@@
ogramm
ograph@@
ohnehin
ome
onie
optimale
orien
oscar
paras@@
partikeln
perfektes
personen@@
persön@@
pflaster
phantom-arm
pistole
ple@@
pos
potentielle
prie@@
primzahlen
primär@@
prinz
probi@@
prostat@@
prostitu@@
protozellen
provin@@
prozenti@@
prüf@@
pubertät
pünktlich
quadra@@
qualit@@
r.@@
radiowellen
red
redn@@
reflexi@@
registriert
reiches
reinig@@
reis@@
reißt
rekonstruieren
relative
relativitätstheorie
reno@@
resonanz
ressourcen@@
restau@@
rex
rey
romane
ross
rotten
ruhe@@
rutsch@@
rän@@
räu@@
rückgängig
rührt
sagen@@
sangen
sapiens
saugen
sch-@@
schem
schilder
schildkröten
schir@@
schlech@@
schleim
schlimmen
schläger
schmelz@@
school-@@
schreit
schrittweise
schwebt
schwefelwasserstoff
schwingungen
schütter@@
seel@@
seen
sehkraft
seifen@@
seitigen
seits
selbstwertgefühl
senen
senioren
senkre@@
sens
sequenziert
sick@@
sige
sin
sis
sitzungen
skarte
solide
sonstwo
sony
sook
sort
spalten
spannen
spende
spezialisiert
spiegelt
sprechenden
spulen
starbucks
startet
stenz@@
stik
stossen
strassen@@
strategische
streu@@
struk@@
stunden@@
städtische
sugger@@
säkul@@
sän@@
säugl@@
südo@@
table@@
tafeln
tanzten
technisches
technologen
tedglobal
teheran
teich
theke
thes@@
ti-@@
tiefgreifende
tiefgrün@@
tierrei@@
titan@@
tokyo
topf
transpar@@
treffer
treibstoff@@
trivi@@
tropen
träumt
tugend
türk@@
uhren
ultimativen
unauf@@
ungedul@@
ungsproble@@
universell
unterdrückt
unterhalts@@
unterkunft
untersuch@@
urteilen
usd
utop@@
val
vention@@
veranschaulichen
veranstalten
verbot
verd@@
verdammten
verdrängen
verfügbarkeit
vergesst
verinner@@
verkür@@
verl@@
verlangte
vermittler
verschmu@@
verstreut
verwaltungs@@
verzeihen
verzer@@
verärgert
veröffentlichung
viktori@@
vollziehen
vorm
völker@@
wahrnehmungen
wart
weihnacht@@
weltmeister@@
weltwirtschaft
wendungen
westens
wiederver@@
willens
wirkte
wirtschaftskrise
wissend
wärmen
yale
ypen
zele@@
zensur
ziere
zoo
zurückgeht
zurückgelassen
zurückzukommen
zusammenbringt
zusammenfassung
zusammenhän@@
zuversichtlich
zuzugeben
zweifeln
zweige
zweitgrößte
zähler
änder@@
änderten
äste
äugige
äußert
ó@@
ökologisch
östro@@
übereinstimmung
übernahm
überraschen@@
überraschte
überwach@@
überwiegend
15.000
18-@@
1973
1975
1985
20ern
4.
46
54
6.@@
7,@@
73
92
94
99@@
abenteu@@
abgebaut
abgebildet
abgelegenen
abheben
action
agentur
ahn@@
aimee
akkord
akti@@
aktivist
algebra
alko@@
amanda
amor@@
ana@@
andauern@@
ando
andy
anfertigen
angebor@@
angegangen
angemessene
angeregt
angreift
angucken
anlass
anmerk@@
ansehe
ansässigen
antennen
anzuhalten
ape@@
appeti@@
architekton@@
arkansas
arr@@
arran@@
aspekten
atheist
atomkraft
aufführung
aufgelöst
aufnahme@@
aufsicht
aufstre@@
aufweist
aufzug
augenblicklich
auges
ausbeu@@
ausstoß
auswertung
auswirken
auszeit
autofahren
autonome
außergewöhnlicher
avenue
barbara
basteln
bb
beachtet
bedanken
bedauer@@
bedingte
bedroh@@
beerdigung
beethoven
befördern
begrün@@
begründung
begün@@
behör@@
bekämpft
benachteili@@
benutzung
bereitgestellt
bers
beschleunigte
beschwerden
besonderer
besprechungen
besprochen
bess@@
bestellt
bestmögliche
bestraft
besu@@
beutel
bewussten
bewusstseins@@
bewäl@@
bezugs@@
bildungen
biologisches
bisch
blauer
bleib
bloß@@
blüten@@
bonobos
boss
bote
brauchst
brei
brocken
brothers
caltech
carbon@@
cd
cds
cen@@
charta
cheln
chender
chirurgischen
cholera
chop
choreogra@@
chr.
chronischen
cla@@
cnn
cooles
crowd@@
cul@@
cus
daheim
dahin@@
dak@@
darle@@
dasein
deckung
delfin
delphin
delphine
demograph@@
dentum
derjenigen
deser@@
dez@@
dezi@@
dich@@
dimensionale
divi@@
doha
domini@@
druckerpresse
drückte
dubai
düne
eames
eb@@
echn@@
echo@@
ehrfurcht
ehrliche
eindrücke
einfließen
eingebunden
einges@@
einkaufs@@
einkaufszentrum
einsetzt
einzubeziehen
eldrehung
elektromagne@@
elisabeth
embry@@
empfän@@
ene@@
entwick@@
erbaut
ere@@
erfin@@
erfindet
ergän@@
erkran@@
erlebnis@@
erläutern
ernsten
erschließen
erstaunlichsten
erzeugte
eröffnung
essens
etten@@
eva
ex-@@
existierende
expansion
experiments
extre@@
fabel@@
falsches
fangschrecken@@
farbigen
faszin@@
faszinier@@
fel
fesselt
fibonacci-@@
flach@@
flache
flexibilität
fliehen
fließend
flughäfen
flücht@@
flüssiges
fon@@
formu@@
forscherin
fortgeschrittene
fraktale
frau@@
frequ@@
freud
frischen
funk
funktionierenden
fähr@@
gan
ganzheit@@
gary
gebern
gebot
gebote
gebrauchs@@
gebur@@
gebü@@
gecko
geeig@@
gefertigt
gefährdete
gefär@@
gefäße
gegebenheiten
gehe@@
geheilt
geldgeber
gell@@
gemeinnützigen
genei@@
gerad@@
gerechte
geringere
geschenke
geschichten@@
geschlechts@@
geschmol@@
geschäften
gesehen@@
gesellschafts@@
gesetzten
gewand@@
gleichberechti@@
gler
glücklichsten
google-@@
grace
graue
grausam
greife
grossartig
gruselig
größen@@
größerem
grüner
gurte
gültigkeit
hackt
hafen@@
handschrift
heiligkeit
heitlich
heizen
helfer
herzerkrankungen
hi-@@
highway
hinausgeht
hinunter@@
hinweg@@
hinüber
hiv-positiv
hnen@@
hochschule
hochzu@@
honie
hose
hunden
hung@@
hur@@
hänge
hären
häufigkeit
hüpfen
iker
illegalen
imitation
immer@@
immobilien@@
implikationen
indianer
infolge
inhaf@@
inhal@@
injizieren
innovations@@
insi@@
inst@@
instal@@
intelle@@
intensivstation
interaktiven
interessantere
interpre@@
intervention
interviewen
invasion
ipods
iq@@
iranischen
jeglicher
jekt
jennifer
jerry
jet
jill
jüng@@
kacheln
kalk@@
karriere@@
katoren
kehr
keineswegs
kennenzulernen
kepler
kids
kins
klapp@@
klares
klische@@
koen@@
koff@@
kollaborativen
kollision
kolon@@
koma
komfort
komischen
konferenz@@
konflikt@@
konfron@@
konstan@@
konstante
konsumiert
kontrollen
korean@@
korrid@@
kosmische
krankheitserre@@
krieger
kritz@@
kuchen@@
kämpften
kästchen
körper-@@
kündigt
lab@@
lag@@
lagen@@
lake
landeten
langfristigen
leist@@
leo
liberalen
licheren
lichte
lichten
lichtstrahl
lieferanten
linear@@
listet
lokalisieren
lässi@@
läßt
lösbar
mac@@
maden
mage
mail-@@
manage@@
manuskri@@
marine
mathematik@@
maßnahme
meda@@
melan@@
melo@@
ment-@@
met@@
mexikaner
mierte
milliard@@
ministerin
misshand@@
mist@@
miter@@
mithalten
mittelschicht
mittelt
mitternacht
mix
mmerung
mmes
mobili@@
moskitonetze
motiva@@
multiplizieren
muti@@
mächti@@
möglich@@
möglicher
müllhal@@
nachbarschaften
nack@@
nagel
naiv
nano-@@
narben
natalie
nationalpark
navigieren
ndes
nehm@@
neig@@
nenner
neusten
niedrigsten
nigerias
nimmst
nonverb@@
nr.
nukleare
nutzern
nächst@@
offizi@@
olympi@@
one@@
ope
ordner
ortes
orö@@
ostasien
ostens
paradox@@
passierten
pav@@
pazifi@@
pein@@
pentagon
perman@@
pessimi@@
pest
pfan@@
phantasie
phas@@
philippe
philippinen
phoenixinseln
phänomens
pink
pipeline
plakat@@
player
potentiellen
pps
primä@@
prinzipiell
priv@@
proble@@
produktive
produktiven
projekt@@
projiziert
propheten
prägte
psychologe
pullover
qual@@
rabbi
raumfahrt
reales
rebel@@
redest
regelrecht
regieren
reguliert
rehabilitation
reichten
reiter
religi@@
resultiert
rettete
revolutionäre
rg
rigi@@
risd
roger
rollen@@
ruhige
run@@
russ@@
räften
rückgrat
saat@@
salat
samstag
saul
schaf
schaffen@@
scham@@
schere
schieß@@
schildern
schlagzeile
schlechteste
schlief
schlä@@
schmetter@@
schnappte
schnelles
schokoladen@@
schottland
schrie
schrump@@
schulsystem
schwankungen
schwarz-@@
schwul
schö@@
schütten
schüttet
segment
seltsamerweise
senf
sensorische
serien@@
servieren
setzlich
sichtbare
simulator
sischer
skelett@@
skript
skype
smann
soetwas
sofor@@
soli@@
soll@@
son-@@
sonen
spannungen
spaziergang
spezielles
spielplatz
spieltheorie
sproblem
stanley
station@@
statisch
steil
steilen
ster-@@
stif@@
stiften
stopp
straßenrand
streich@@
ständiger
stärk@@
stünde
subventionen
suey
sweeney
symbiose
symbolisiert
sähen
sämtliche
säuren
tagebuch
tags@@
taube
tauchgang
taxi@@
teilchen@@
tennessee
textil@@
thun@@
tiefen@@
tieferen
tiefgründige
tierwelt
tivsten
transpor@@
treasure
tritt@@
trop@@
tta
tuberkulose
tunesien
tung@@
typischer
türme
ult
umfassen
umfassenden
umweltverschmutzung
unab@@
unfähigkeit
uniform
unmengen
unmittelbare
unt
unterrichte
unvorstell@@
unvorstellbar
uralten
urheberrechts@@
user
vas@@
vegas
venter
venus
verabschiedet
verallgemein@@
verbieten
verblüfft
verdiente
verdrahtet
verdreht
verdreifacht
verdäch@@
veren
verfasst
verflo@@
verfolgten
verfügbare
vergebung
vergif@@
vergnü@@
verhand@@
verhältnis@@
verkündet
verlängern
vermutung
verschiedensten
verschoben
verschul@@
versie@@
verspricht
verspüren
versöhn@@
vertikalen
vertrautheit
vertrie@@
vertrieben
video-@@
vielfältig
vielfältigen
vietnames@@
visi@@
visualisieren
vize@@
volk@@
vorantreiben
vorfall
vorhandenen
vorrat
vorschein
vorsitzende
waldes
walter
ward
warme
warmen
weib@@
weiterentwickeln
weizen@@
weißes
wendig
werker
werks
wertvollen
west-@@
widerspiegeln
wiederherstellung
wimm@@
winden
windows
wirren
wolkenkrat@@
wood-@@
wärts
wölfe
yste@@
zar@@
zep@@
zeugnis
zielten
ziemliche
zufalls@@
zufälle
zufälligerweise
zugrunde@@
zunu@@
zurückblicken
zurückgreifen
zusammengearbeitet
zusammenhänge
zusätzliches
zuversicht
zuwachs
zuwenden
zwillinge
äpfel
ästhetische
öhnen
überraschenden
überraschenderweise
überreste
überträgt
überwältigende
ücken@@
.a.
1500
1918
1949
1978
1987
1992
24-@@
29@@
3,5
39
56
62
74
84
87
90@@
aa
abbau
abbauen
abbrechen
aben
abgegeben
abhalten
abnahme
abseil@@
absolventen
abstrakt
abu
abwei@@
adres@@
agen
aktiv@@
akustik
alfred
algorith@@
alles@@
allo@@
amer@@
amphi@@
ance
anerkannt
anfän@@
angaben
angerei@@
angio@@
ank
anpassungen
antenne
anzugreifen
aph@@
arbeitsleben
argumentiert
ari
arin
artigkeit
arts
ash
assoziieren
atemberau@@
atemberaubend
aten@@
atten
aufblühen
aufgeführt
aufmerksam@@
aufrechterhalten
auftauchten
aufzeichnung
aufzuhalten
aura
ausch
ausdehnung
auseinandersetzen
ausgebildeten
ausgerechnet
ausgleich
ausländischen
ausnutzen
ausstellen
ausstellungen
austausch@@
auszeichnung
auszurotten
außer@@
back@@
bahamas
bai@@
bakterielle
barkeits@@
barungen
baseball@@
baumkronen
beck
beeinträchtigen
beendete
befriedi@@
befördert
begi@@
begrü@@
beibehalten
bekämen
beleben
benach@@
benan@@
benutz@@
bequem@@
berau@@
bereit@@
bereitstellen
berges
bergs
berichterstattung
berry
berufung
berühmtes
beschleuniger
besetzt
besprechung
bestech@@
bestehenden
bestim@@
bestrafen
bestrahlung
bestre@@
bestände
betreiber
betrüger
bibliotheken
bier@@
bigkeit
binde
biomimikry
birgt
bisher@@
biss
bizar@@
blen
blutzu@@
bo-@@
bogen@@
bond
brannte
braunen
bron@@
brot@@
budd@@
busch@@
bögen
börsen@@
captcha
carter
ces
chaotisch
charakteristika
chemie@@
chemikal@@
chemo@@
clu@@
colorado
couch
dagewes@@
dale
darpa
ddt
debatten
deckel
deep
delph@@
delten
dementsprechend
denes
dens@@
derten
designer-@@
deutlicher
dg
dicht@@
dicken
diebstahl
dienstag
dienstleistung
digem
digital@@
dingern
dings
diver@@
doktoranden
dokumentation
dollar@@
dominieren
dopamin@@
dopp@@
dringlichkeit
dros@@
durchführte
dusche
dynamiken
dünnen
dürften
edel@@
edward
effizient@@
ehrgeiz
eifri@@
eigennütz@@
eindeu@@
einfügen
einsparen
eisbären
eite
ek
elektromagnetische
eliten
ella
ellenbogen
elung
empfand
empfehl@@
empor@@
empör@@
endeten
energiequelle
engt
enkt
entbe@@
enten-@@
entlegenen
entwal@@
erforderlich
erfordern
erfährt
ergänzen
erhalte
erholt
erholung
erhöhung
erleichterung
ermuti@@
ermü@@
ernen
erneuer@@
erniedri@@
ernsthaften
erobern
erraten
erregung
errichtung
erschü@@
erwachsen@@
erwer@@
erworben
erwärmt
erzeugung
esi@@
etabli@@
evange@@
ever@@
exklu@@
expedi@@
explizit
extremi@@
extremismus
fachmann
faltete
fantastischer
fassade
favor@@
federn
femin@@
ferin
ferti@@
fertigt
ffe
filme@@
finanzier@@
finnland
flan@@
flechten
flickr
flugbahn
flügeln
folgen@@
fond
foot@@
forderten
forschungsarbeit
fortpflanzung
fox
freaks
freuden
frühesten
fundamental
fungi
furchtbare
furchter@@
fußabdruck
fänger
för@@
führungspersonen
fünfmal
ganges@@
gavi@@
gefangenen@@
gefe@@
gefängnissen
gegenmittel
gegenwärtig
geheimdienste
geheiratet
gehirnaktivität
gehr@@
gehälter
gelangwei@@
gelassen@@
gelegenen
gelehr@@
genesung
gerecht@@
gerechten
geschwor@@
gesehenen
gespon@@
gestres@@
gestört
gestü@@
gewa@@
gewähr@@
gewür@@
giert
giftige
gkeit@@
glich@@
gliedmaßen
gläs@@
glücklichste
gott@@
gou@@
gouverneur
graph@@
grasland
grauen@@
gravier@@
greg
gremium
gros@@
großteils
größenor@@
größter
gummi
guru
gy@@
gänse
halbkugel
harter
hebrä@@
hebung
heilt
heiz@@
heißes
helle
hemisph@@
herauszuholen
herkömmlichen
herrsch@@
herrschen
hertz
hervorruft
herz-kreislauf@@
hex@@
hierarch@@
higgs-teilchen
hilflos
hinbekommen
hinsetzen
hintergrund@@
hirte
hitler
hnten
hochhaus
hochladen
hochschul@@
hu
humani@@
hundes
hungern
hyp@@
härter
idealismus
idioten
iel
ignoranz
implantat
indu@@
informationsqu@@
inhaber
ini
inku@@
innerlich
insekten@@
institutionelle
intelligen@@
interaktions@@
intergalak@@
interne
ital
ity-@@
ität@@
jag@@
jahreszeit
japanisch
jargon
jeder@@
jemen@@
jersey
jo-@@
juwel@@
kanadischen
kanne
kanälen
karb@@
karikaturisten
karton
karzin@@
katastrophal@@
kaus@@
kehrten
kelt
kerzen
ketten@@
khmer
kindersitz
klammern
klarer
klarstellen
klauen
klopfen
kna@@
kodieren
kognitiv
koll@@
kommunismus
kompa@@
konkreten
konsens
kontakt@@
kontro@@
kontrover@@
konzent@@
konzipiert
koordination
korallenriff
kot@@
kreation@@
kredite
krisen@@
kristall@@
kräftig
kt-@@
ktieren
ktierte
kubik@@
kumpel
kunstform
kyoto
köder
königsko@@
körpergröße
kümmer@@
landwirtschafts@@
lanka
latte
lebensräume
lebenszyklus
leer@@
legal
lehm
leidens
leite
lenkt
letzen
lichtsch@@
limonade
linearen
lobby@@
locker
logarith@@
logische
lord
lymph@@
längen
lärm@@
mamma
manifesti@@
map
maximieren
medienlandschaft
mediziner
meldete
meme@@
menschenleben
mentor
meth@@
mierend
mikroorganismen
minu@@
mitmenschen
mittelalter
mitzumachen
mmert
modedesigner
modellieren
modernes
modul@@
mon
monsun
mosk@@
motive
movember
mozart
mrd.
mten
multipli@@
muscheln
mutterleib
mög@@
nachah@@
nachforschungen
nachhaltiger
nachhaltigkeits@@
nachsehen
nachvollziehen
nee@@
nenden
nettes
network
netzes
neuartige
neutral
neutralen
nevada
nieder
niere
nin@@
nordafrika
numer@@
nutzbar
nutzpflanzen
nährstoffen
oberflächen@@
oberhalb
objekts
oc@@
oliven@@
ommen
onalen
ont@@
onym
open-source
opera@@
opern@@
oregon
orin
oster@@
packten
pake@@
palä@@
pande@@
passage
passagiere
passende
peking
pepsi
performance
pfeile
phan@@
philosophischen
pigmentierung
pinsel
platten@@
platzen
plötz@@
politisches
por
porträ@@
pot
pracht
prag@@
praktizieren
predigt
preises
pressen
pro-kopf-einkommen
prob@@
produktiver
produzierten
profi@@
prognosti@@
protest
protokoll
prozedur
psychisch
puls
pumpt
punkt@@
q
qatar
quantentheorie
quarti@@
quet@@
quäl@@
r-@@
radius
ral
ram
rauch@@
raumzeit
rechte@@
referenz@@
reflex
regelwerk
reichste
rettungs@@
reu@@
ris
risikofaktoren
rna
robust
rotes
rotieren
routin@@
ruf@@
rückmeldung
sac@@
sais@@
sanft
sanit@@
sationen
sattel@@
schade
schalen
schande
schenkel
schicke
schizop@@
schnappen
schnurrbart
schnü@@
schockierend
schrank
schrumpfen
schuss@@
schwanger@@
schwarzer
schweinen
schwert
schwieger@@
schwing@@
schüchtern@@
screen
seife
seiten@@
seli@@
seligkeit
seltsamer
sha
shoots
shor@@
sibirien
sichten
sichtig
side
siedeln
siedlungen
signifikant
sinnlos
sisches
sive
siven
skep@@
skeptiker
skizzen
sklaven@@
skräfte
skur@@
slogan
sms-@@
somalia
sonnen
sorgte
sorry
sound
spaghetti-@@
speise@@
spender@@
sphase
spir@@
spirale
sprechende
staatlicher
staatsober@@
stabilen
stabilisieren
stadion
standard-@@
stechnik
steckdose
sterns
sticks
stifte
stigmati@@
streckte
streng
stres@@
stroh@@
studios
stunden-@@
stärkere
stühlen
summen
sw@@
systematische
sähe
säugetieren
südbronx
tattoos
taub
tauben
tausch
tauscht
technologisch
teilgenommen
teilnehmern
tekton@@
teleskop@@
teppi@@
terten
tesch@@
tester
teufelskreis
thr@@
tifikation
tigungen
tika
tner
tol@@
tonne
tools
tourismus
tra
tragische
transforma@@
transzendenz
trauben
traurigkeit
treibende
treibhausgas@@
trie
trockenen
trommel
trägen
tumoren
tumors
twittern
tönen
u.s.-@@
ubuntu
umstand
umwel@@
umwerf@@
unerwar@@
unfass@@
ungewöhnlichen
ungskosten
universellen
unmittel@@
unmittelbaren
unordnung
unterfangen
unternehmertum
unterstützten
untersuche
unvermeidlich
unwahrschein@@
urheberrecht
ursprün@@
urteile
us-dollar
veranla@@
veranschau@@
verarbeit@@
verbannt
verborgenen
verbundene
verdiene
verdor@@
vereinheit@@
vereinigte
verfahr@@
verglich
vergraben
verlan@@
verle@@
verletzte
verlock@@
vermin@@
verpackt
verpflich@@
versau@@
verschickt
verschmutzen
versu@@
verteil@@
verursachten
verwandte
verwir@@
verzei@@
vielschi@@
virtu@@
visu@@
voranzutreiben
vorgenommen
vorzugs@@
vulkan
vätern
wack@@
waisen
walen
walker
wandte
warnen
websites
wegwerfen
weihnachtsmann
weltanschauung
weltrau@@
wesens
westeuropa
wickeln
wide
wiederhole
winkeln
wissenschafter
wn
wohltätigkeits@@
wood@@
wuerde
wuerden
wunde
wundere
wuß@@
wächter
wägen
wörterbücher
your
zahle
zahnbürste
zeitalters
zeitliche
zeitraffer
zenti@@
zesses
zielte
ziemlicher
zimbabwe
zimmers
zins
zip
zten
zufälli@@
zugute
zurückkam
zurückzuführen
zusammenbauen
zusammenzufassen
zuschauer@@
zusetzen
zuspielen
zutat
ästhe@@
ön@@
ören
übergeben
überschnei@@
übersetzungen
‒
-projekt
00
1.500
14-@@
1950ern
1967
1969
1990er
200@@
3d-drucker
40ern
41
5,@@
50.
7-@@
82
a.
abertausende
abgelenkt
abholen
ablagerungen
ablegen
absoluter
absolutes
abstammung
afghani@@
agi@@
agiert
akzeptabel
ala
alber@@
alla@@
amateure
amkeit
analysen
anas
anatom@@
anfängen
anklicken
annäherung
anom@@
ansatz@@
anstalt
ansteigt
anth@@
antidepressi@@
anwesend
anzukommen
archimedes
architek@@
argumentation
arzneimittel@@
asiatischen
association
asym@@
atemberaubende
atheismus
ati@@
atomaren
audio
aufführen
aufgestanden
aufheben
aufklär@@
aufregender
aufzustehen
ausführ@@
ausgebildete
ausgeklü@@
ausserdem
auszutauschen
auszuweiten
auszuwählen
auto-@@
ba-@@
backen
bahnbrech@@
ballast
barbar@@
bau-@@
baustein
bay@@
bbc
bc
beantwor@@
beauf@@
bedeu@@
beeindrucken
befragt
befriedigen
befürchten
begleiten
begri@@
beider
beinhaltete
bemü@@
bequem
berühmtesten
beschissen
beschreibungen
besetzen
besser@@
besteh@@
bestimmungen
bet
beteiligten
betrat
betre@@
betriebe
betroff@@
bewegliche
bias
bilität
billy
biographie
biologi@@
bische
bissen
bodens
bom@@
bos@@
botswana
braun@@
breit@@
brillant
broadmoor
browne
bulgarien
burger
butter@@
cad@@
cannt
cartoon
chirurgische
christopher
cock@@
com
computerspiele
courage
daf-2
dauerhafte
definierte
dekade
demen@@
dener
desig@@
diener
dir@@
diskri@@
do-@@
dot@@
dramatischen
dreißig
droht
drähte
drüse
durchgemacht
e8
echnik
effektivität
ehefrau
eier@@
eigenartig
eigent@@
einflüsse
eingerichtet
einheimischen
einigkeit
einkauf@@
einzeln
einzelpersonen
einzigartiges
eises
eistungen
elementarteilchen
elizabeth
emis@@
empfinde
empfo@@
energiebedarf
energiequellen
entnommen
entsprach
enttäuschung
entum
entwicklungsland
epilep@@
era
erfahrene
erhaltung
erhell@@
erieren
erkenntnissen
erkund@@
ernden
ernstes
erregt
erscheinungen
erschuf
europäer
event
experimentellen
expo
fabrik@@
fallschirm@@
famili@@
fantas@@
faser@@
faszinierendes
fbi
fehlenden
feine
feln
fert
fesseln
festland
festzuhalten
field
flag@@
flüssigkeiten
fokus@@
folgender
ford-@@
formul@@
formulare
formulieren
fos
fos@@
friede
friedens
ful@@
fügten
füß@@
gebauten
geboten
gebäu@@
geckos
gefahr@@
gefasst
gefri@@
gefährlicher
gehry
gelb@@
gelähm@@
gemachten
gemä@@
gens@@
gerer
geräumt
gesammel@@
geschehn@@
geschichts@@
geschlechtsverkehr
geschlossene
geschmacks@@
geschnei@@
geschwindigkeits@@
geschäf@@
geschäftsleute
gesehene
gesetzgebung
gesiedelt
gespür
gestopft
gewährt
gik
gitter@@
glaubens
glori@@
glos
glü@@
glücklichsein
gna@@
goldr@@
grafie
griechenland
grube
gänse@@
haaren
halts@@
handzeichen
hase
heftig
heimatland
helix
herausragende
herkömmliche
higgs-feld
hinab@@
hindu@@
hirnrinde
hlten
hollän@@
homini@@
hrchen
hrer
hyperbo@@
händ@@
härtesten
hättest
hüllen
ideen@@
ih@@
imper@@
indischer
inje@@
interess@@
interessantesten
interessen@@
internation@@
irri@@
isaac
isra@@
jack@@
jazeera
jekte
jer@@
jetzigen
jonas
js
ju
kabin@@
kanal@@
kaner
kapseln
kardi@@
karl
keyboard
kind-@@
kine@@
kio
klassischer
kle
kolben
kollabor@@
kollaboration
kompeten@@
konsequ@@
konvention@@
konzerte
kopernikus
kostengünstige
kostspie@@
kritisiert
kräu@@
kuns@@
kupp@@
käf@@
kämpfer
kämpfte
köche
könig@@
künf@@
künstlers
laboren
lai@@
langley
langsam@@
lap@@
leib
libr@@
liby@@
lichkeit@@
lick@@
lifestyle
lisa
lithium
logen
lungenkrebs
lyrik
länder@@
längste
machine
mali@@
maliger
manifestation
massenvernichtungs@@
maßstäben
menschenverstand
menschheitsgeschichte
mentalen
mentalität
mer-@@
messbar
meter@@
metri@@
mexico
miami
miner@@
mins
mir@@
mitglie@@
mitta@@
monats
monitor
morph@@
moslems
mosphäre
motiv@@
nanometer
nass
natür@@
nektar
nerv
neurologische
nich@@
nicholas
niederlanden
nuklearer
nullsummen@@
obdachlosen
offensichtlichen
olo@@
ologi@@
orang-u@@
ordnete
orientierte
origam@@
osama
our@@
pago@@
parabel
patri@@
philosophische
pho@@
phon
photo
pic@@
picasso
pigmen@@
planer
plant
plato
plötzlichen
polio@@
port
portland
ppar@@
ppm
praktiziert
preis-@@
prinzess@@
privatleben
problematik
produkts
profile
programm@@
protokol@@
präg@@
prägt
prävention
psen
pulver
qualifiziert
que@@
radiologen
rang@@
rannten
rassismus
rauf@@
reagierte
reaktions@@
rebecca
rechteck
rechtlich
rechtliche
redwood-@@
redwoods
regier@@
regionale
regionalen
reguli@@
reiten
republi@@
reservate
resi@@
rezen@@
rezero
rhythmen
richtlinie
riffe
rinder
rindfleisch
riskiert
riverside
rohe
rohstoff
romo
roosevelt
roots
rory
ros@@
rupi@@
räumliche
rückzug
saf@@
sage@@
sally
salter
salzwasser
sass
satt
schadet
schallwellen
schauf@@
scheck
scheren
schiffs@@
schleppen
schlichtweg
schlussfolgerungen
schmei@@
schmetterlinge
schnelligkeit
schnu@@
schrau@@
schrauben
schriftstell@@
schritts
schulter@@
schweiß
schwerelo@@
schwächer
schwän@@
schämen
sean
sechsjährigen
see-@@
segeln
sehnsucht
selbstbewusstsein
selbstorgan@@
selbstorganisation
senkt
sequen@@
sergio
sernen
side@@
siebeneinhalb
sied@@
silikon
sinnvollen
sioux
skalieren
skor@@
so-@@
solar
solly
songs
sonnenuntergang
sorienti@@
spektakuläre
spflege
spielregeln
spott@@
spray
spring@@
spüre
stabile
stal@@
stans
statistiker
statuen
staus
steak
stere
stillen
stimmts
stockholm
strafen
straft@@
strahlen@@
strationen
strebt
strecken@@
strenge
strömt
stärkste
stärkt
stöcken
stütze
subsahara-afrika
supercomputer
susie
sy
symptom
süßwasser
tabellen
table
tabu
tai@@
tation@@
telekommunikation
tenden@@
tera
terrain
testosteron
texten
thand@@
theoretiker
therapeu@@
tiefste
tierende
tieres
tiers
timing
tlicher
tling
tod@@
todesursache
tors
toyota
trade
tragbare
trennte
treue
trip
trockene
ttene
tus
tw@@
tze@@
türe
u.@@
ue@@
umfasste
umgekehrte
umkehrung
umkreis
umweltschutz@@
unbeschrie@@
unerwarteten
ungefä@@
united
universi@@
unregelmäß@@
untergebracht
untergraben
untergrund
unterseite
unterwasser-@@
unüber@@
urhe@@
urin
vancouver
vaskul@@
vegetarier
verabreichen
veranlassen
veranlasst
verben
verder@@
verdeutlicht
verdächtigen
verfassen
verfolgung
verge@@
vergiften
verhaltens-@@
verkab@@
verkabelt
verklein@@
verliebte
verlinkt
verringerung
verschlossen
verschä@@
versenden
verseu@@
versorger
versprach
verursa@@
verwurzelt
verzeichnet
verzichten
veräng@@
videokamera
vie@@
viermal
village
vio@@
visualisiert
vokabular
vollsten
vorderen
vorführen
vorhergesagt
vorhersagbar
vorlage
vorspielen
vortragen
vorzunehmen
voyager
völlige
wahnsinni@@
wandel@@
warnt
webs
weggenommen
weht
weitergeht
weitesten
well@@
weltklasse
werf@@
wertschätzung
wich
widersprü@@
wiederholte
wiederholung
wiese
wirkungen
wischen
wohnte
word
wunderschönes
wurm
wußt
würdige
ye
you@@
zahlungen
zahnarzt
zau@@
zehntausend
zeitlichen
zeitplan
zentral
zid
zierenden
zitate
zk
zugenommen
zukommt
zunehmende
zuräumen
zurückgeben
zurücklehnen
zusammenbrechen
zwill@@
zwin@@
zwöl@@
zünden
ähnlichkeiten
äqu@@
ökonomisch
übeln
übereinstimmt
übergegangen
übergewichtig
überlegungen
überquert
überraschungen
überwälti@@
übri@@
ünge
-test
100@@
13.
170
1962
1965
1974
1981
1988
30ern
4000
60-@@
66
79
80-@@
81
89
93
abdruck
abstoß@@
absur@@
acumen
aden@@
adrenal@@
aggressi@@
allererst
anforderungen
anregen
anstreben
arena
arithme@@
artiger
asphalt
ateli@@
attraktiver
aturen
aufrech@@
aufschluss@@
augu@@
ausgelegt
ausgibt
außenminister
avatar
ban
bangladesh
basketball
bedingten
beein@@
behaup@@
behinderte
beizutragen
belohn@@
berfläche
berüchti@@
beschi@@
beschleunig@@
betriebene
bewegende
bewegenden
bezwingen
bia
bien@@
biogra@@
biolog@@
biom@@
biomedi@@
blitz@@
blutfluss
blutgefä@@
boxen
brin@@
business-@@
bäckerei
call@@
can
card
carol
cello
cer@@
cern
charis@@
chefs
chil@@
chol@@
chri@@
chtetes
chu
cle@@
cocktail
commons
cow@@
cra@@
crick@@
denheit
derung
des-@@
dierte
dimitri
dley
dnis@@
dog@@
dokumentierte
dote
dra
dul
dul@@
dummen
dung@@
durchläuft
economist
eduardo
egel
eh
eile
eingeschrän@@
eingriffe
einschlag
einzigarti@@
einzunehmen
elementar@@
embryo
empir@@
ends
entführt
entschlossenheit
erfolgrei@@
erforder@@
ergie
erklär@@
erkundet
ermöglich@@
erschufen
ertrag
essex
europä@@
eve
ex
exemplar
exi@@
expertise
extra-@@
extremer
feder@@
fellow
ferien@@
fernbedienung
festivals
fi
filmte
flexible
floss
fluktu@@
fon
fossi@@
franklin
free@@
freiheiten
freizeit@@
fremd
fts@@
funktionier@@
förmi@@
g.
gando
gefun@@
gefühl@@
gehirner@@
gekleidet
gekämpft
gelegten
gelenk
gem@@
georgia
gerie
geschma@@
geschwindigkeiten
gespen@@
gestehen
gestör@@
getränke
gewaltiger
giga@@
gour@@
grundsätzliche
guer@@
gängigen
gürtel
harris
harv@@
hasste
heirat
hh@@
hig@@
high-tech
himmels@@
hipp@@
hlen@@
hof@@
holocaust
hudson
humanitären
hydra@@
höf@@
höflich
hürden
i.@@
ib@@
iga
ihr@@
iles
illon
inie
instan@@
instru@@
inta@@
intel
interagi@@
internen
interview@@
istanbul
its
jam@@
jama@@
jan
jetz@@
jimmy
kappen
kara@@
katalog
katastrophalen
ken-@@
ket
key@@
kis
klasse-@@
klassisches
klini@@
kommerziell
kompri@@
konfrontieren
konkur@@
koordinieren
kos
kosm@@
kostü@@
kratzen
krebsarten
ktors
kuh@@
kurator
kuri@@
kurzweil
ky
laden@@
landwirtschaftliche
langsamen
laster
leads
lebensrett@@
led-@@
legiti@@
lem
liberale
lies
locke
lossen@@
luckt
luftfahrt
luke
lungenentzündung
madagas@@
mail@@
make@@
manu@@
manöv@@
mao
marco
mass
master@@
mata
matthew
maximum
mcdon@@
megawatt
membran
ments
mere
methodi@@
mikrosk@@
mindest@@
mister
mitchell
mitfühl@@
mittel-welt
mobilen
mom@@
monu@@
moores
mor
mountain@@
muni@@
musikin@@
muß
mär@@
nahme@@
naht@@
nervö@@
netra
neuronen@@
ng
ni
nick@@
nobelpreisträger
nollywood
num@@
nördlich
o.@@
ografie
ony@@
oprah
orni@@
orthodo@@
orthop@@
our
ous@@
oxid
oxyto@@
pagne
paläont@@
pam@@
paran@@
parlaments@@
passive
pausen
pendeln
penny
phen@@
phili@@
photo@@
photosynthese
plas@@
pli@@
posti@@
prallen
prima
privati@@
professioneller
prognose
prostitution
protein@@
protonen
prototyp@@
prämisse
präsentationen
ps@@
pur
quarks
queen
quetschen
radikalen
ratschläge
raubtier
raumstation
rebellen
reed
regalen
regler
reinen
religiöser
remix
reproduktion
res
retina
rhetor@@
rica
richtungs@@
riesen
rigiert
rinde
robben
roh
romantisch
romantischen
ronald
rucksack
ruhm
rundherum
rupt
ryan
rändern
räuber
röntgen
saechlich
sammel@@
scharf@@
schel@@
schiebt
schiffes
schlaganfall
schmie@@
schnapp@@
schran@@
schreiber
schreibung
schriftstellerin
schränken
schung
schwangere
schwitzen
schwärme
schädigen
schönste
schöpfer@@
sees
seher
seitig
sekun@@
selbstmor@@
sende@@
sent@@
sergey
sern
signifi@@
silber
simplen
sisch
skol@@
skunst
smartphones
sofa
sohnes
spender
spielerisch
sproble@@
spülen
ssern
ssig@@
star-@@
steam
steck@@
stefan
sten-@@
sterb@@
stere@@
steri@@
steuerzahl@@
stoff-@@
streitigkeiten
sturm@@
sty@@
styro@@
stäbchen
ständiges
such
symbol@@
synchr@@
tac@@
tak@@
taktik
talität
tch@@
technik-@@
teer@@
telef@@
telescope
tell
tha@@
themati@@
theoretischen
ther
therape@@
thinking
tickets
tigere
tintenfisch
tm
touch@@
tox@@
trag
trainings
transi@@
transplantieren
tribut
trieben@@
trink@@
triumph
tropischen
tumortherapie@@
typ-@@
tzei@@
tzent@@
tzer@@
u.n.
uc@@
umfassen@@
umlaufbahn
unden
unendlichen
ungeheu@@
ungsprojekt
unheil@@
universal@@
unterteilen
unterzeichnet
unzu@@
uralte
urkn@@
urspr@@
urteil@@
vaginas
vens
verachtung
veran@@
verborgene
verbreiteten
verbun@@
verdam@@
verein
verfolgte
vergangene
verhaltensmuster
verhaltensänderung
verhungern
verkehrt
verkla@@
verlei@@
verne@@
verpflichten
verschlechtert
verschli@@
verschrieben
verschwörung
versi@@
verskla@@
versor@@
verteilten
vertreiben
verwaltet
verweigern
verzögerung
veröffentlich@@
via
vielfältige
vinci
virtuell
virtueller
vismus
vitam@@
vo
voranzubringen
vorderseite
vorgibt
vorhersehbar
vorstellte
vorstellungs@@
wales
wandelt
warner
wartezimmer
wechselwirkungen
weh@@
wehr@@
weisung
wendung
wetten
widerspiegelt
windet
wit@@
wohltä@@
women
wünschten
würdigen
yes
zahlreichen
zahlte
zeitgenössischen
zeiträume
zerlegen
ziem@@
zig@@
zitiert
zium
zoom@@
zugunsten
zuhalten
zurückgekehrt
zurücklegen
zusammenschließen
zuschauern
zweidimensionalen
à
ähm
è@@
ñ@@
öre
österreich
übergreifende
übernahmen
übertreffen
überzogen
üren
-up
1800
1947
51
67
68
78
8,@@
91
a.@@
abgeordnete
abgeordneten
academy
aka
akadem@@
ald
alg@@
alhambra
alo@@
alumini@@
anbe@@
andau@@
anor@@
ansprüche
ansässi@@
anthony
ara
ario
arma@@
arms
arot
ary
astero@@
astron@@
athle@@
atten@@
audio@@
aufrufen
ausgerüstet
ausreich@@
autom@@
außerir@@
barri@@
batman
beatles
beding@@
bee
befürwor@@
begrenzte
bekämp@@
beob@@
bihar
bizarr
blogo@@
blue@@
bonobo
bonus
boy
boys
bp
bra
branchen
breiten@@
brett@@
bridge
britan@@
brow@@
brun@@
bruno
bud@@
bug
cape
ce-@@
central
ceo
channel
chenden
chi
chirur@@
cin
coach
cochrane
collider
colum@@
connecticut
cover
cp
cyber-@@
dai
dampf
danny
dat
deck
denten
dge
diale@@
die-@@
dimension@@
ding@@
diskus@@
dolby
drama
drum
drüsen
dv@@
eck
eden
elegante
ement
emi@@
empire
engel@@
engli@@
enth@@
entscheidungsträger
enzyme
ergeb@@
erhö@@
erleu@@
erläu@@
erlösung
erschreckend
ethi@@
ets
etz
extro@@
fahr
fat@@
faul@@
feed
fers
fes@@
fet@@
fft
fingerabdruck
fitness
food-@@
froren
führend
führungsk@@
gabriel
galapagos
gans
gebe@@
gefangen@@
genes
geschleudert
gese@@
gesp@@
gespei@@
gespro@@
gess@@
gestalter
gin
glenn
gles
grafi@@
gram
grey
group
grove
guten@@
haber
hadron
hard@@
has
hawai@@
hea@@
hein@@
helen
here
heres
hiroshima
hol
hul@@
humanitäre
häus@@
hühn@@
hür@@
i.
ier
illi@@
ind
indus
inno@@
inso@@
installationen
insulin@@
interfer@@
introver@@
iphones
ira
iro
iser
isla@@
itären
jacqueline
jahre@@
jahrzehn@@
janine
jen@@
jewei@@
john@@
julie
junior
justiz@@
k.
kabul
kanad@@
kanzi
karri@@
kartografi@@
kateg@@
katholischen
kavi@@
kay
kennung
kenya
kies
klemp@@
kolo@@
komple@@
kontinu@@
kraten
kredi@@
krämp@@
kämp@@
käu@@
könige
lesterland
lesters
letzten@@
lingui@@
logos
lohn
lol
look
lotto
lou@@
lucy
lustigen
mahatma
mangro@@
mans
mantra
marathons
marc
marin@@
marshmallow
mega-@@
mittelalter@@
mohammed
molekul@@
montage
mri
mun@@
musikern
män@@
nature
nazis
negroponte
niederlän@@
niens
nom@@
o.
oakland
obser@@
ohio
okap@@
ola
oly@@
onlin@@
optimal
pa
pack@@
parade
passagi@@
pation
pedi@@
peer-@@
pension@@
peru
pete
petr@@
petro@@
pflich@@
philanthrop@@
phoenix
photoshop
pier@@
plo@@
pop-@@
portal
praktiken
premiere
profil@@
prognosen
präfrontalen
pure
qualitäts@@
quell@@
raffinierte
rap@@
ration
rationale
rausgehen
rd
realistische
reduzierung
redwood
regul@@
rekord@@
repariert
report
rezeptoren
rohr@@
rosen@@
rus
russell
sack@@
sad@@
saddam
sager
samen@@
samuel
scheiden
schlie@@
schmeißen
schnecke
schnurr@@
schrö@@
scratch
screen@@
seit@@
semester
sep@@
seth
shirky
sinnig
skap@@
skate@@
skr@@
sobule
soft
sollst
sopa
sorgfäl@@
sos
spalte
spil@@
spinnenseide
spru@@
späteren
staats
stadtt@@
statistische
steige
stemp@@
stenz
stiefel
storben
strat@@
strato@@
striert
studierten
stütz@@
subti@@
sudhir
sul@@
survey
symbio@@
syner@@
synthesizer
t-shirt
tagtäglich
tatsäch@@
tausch@@
tax@@
technology
tedmed
terence
terrors
thal@@
therap@@
thin@@
til
til@@
tischem
toiletten@@
town
train@@
transistor
trauma
tres@@
triceratops
träglich
tschernobyl
tten@@
tum@@
u-boote
uen
ulose
umfas@@
unbesch@@
unfall@@
ungskette
universal
unternehmen@@
unterschätzt
unvermei@@
unverändert
unvorhersehbar
unzurei@@
valent@@
vege@@
verbrennt
verehr@@
verkleinern
verlinken
vermehrt
vernünf@@
verrät
verschiedenste
verschmutz@@
versicher@@
versorgungs@@
verstein@@
verteilte
verwo@@
verä@@
verändernden
virgin
vorfinden
vorherrschende
vorles@@
vre
vs
vul@@
w.
wachstum@@
wandertaube
weblogs
wegkommen
weibo
widerstandsfähigkeit
widerstandskraft
wiegend
wirkliches
worf@@
xte
yan
yl
yo
za-@@
ziff@@
zusammeln
zwingend
zwungen
ält
és
í@@
öko@@
ü
1979
198@@
40-@@
5,000
63
71
750
9.@@
abc
aben@@
accenture
ace
adoption
agra@@
aid
akade@@
alarm
alexandria
almo@@
aly@@
analog
andre@@
anga
anäs@@
aorta
apartheid
applikationen
ar-@@
argent@@
arro@@
arte@@
as-@@
ato@@
aussen
austr@@
automobile
autorin
auß@@
außergewöhn@@
avi@@
babysi@@
back
bad@@
balls
basket@@
benki
beobach@@
berücksichti@@
bestand@@
bestimm@@
beverly
bike
biome@@
blat@@
ble
bmi
boeing
brain
bremse
brid@@
brie@@
bul@@
bush-@@
c.@@
camp
cent@@
cephal@@
cha
chenen
chin
chop@@
cl@@
clar@@
clark
clips
cohen
cool@@
copyright
crash@@
creative
cri@@
cy
da-@@
date
dauern@@
davis
dead
deal
deen
dentin
dep@@
depressi@@
derweise
dia@@
diam@@
differenti@@
dimen@@
disson@@
dka
dney
domesti@@
dou@@
drum@@
edison
ela
elefan@@
ellip@@
elvis
email
eman@@
emmanuel
enthusiast@@
entin
entsch@@
era@@
erik
erlei
ernest
erosion
erreich@@
eröffnete
esot@@
esses
esti@@
eur@@
exempl@@
fang@@
fass@@
feed@@
feiert
fer-@@
feyn@@
figu@@
fin
fle
forderungen
forschungsergebnisse
friedman
fruchtfliegen
fter
full
fundam@@
gate
gebnisse
gehir@@
gehirnzellen
gelöscht
gemüse@@
georgetown
geschen@@
gewalttätig
ghet@@
gigkeit
gilbert
glied@@
gphin
grat
gratu@@
guatemala
haha
hamp@@
hansen
hilfrei@@
hillary
hindi
hmen@@
hmmm
hob@@
hock@@
horr@@
how
hussein
id@@
iden@@
igkeiten
illa
illinois
inflation
inging
inner
ino
intelligent@@
irrational
irre@@
is-@@
isen
ison
j.@@
jabbar
jac@@
jah@@
jessica
ji
johan@@
jor@@
jordan@@
jury
justin
ka-@@
kahn
kathe@@
keines@@
key
kh
kick
kim@@
kin
kis@@
kleidet
knüpfen
kraftvolle
kran
kum
kw@@
lak@@
legal@@
li
lider
lings
lis
list
lyn@@
läufig
madison
maer@@
maga@@
manchester
marshall
martha
math@@
mathematica
matri@@
meg@@
mega@@
mi
milit@@
milzt
mini-@@
mississippi
mitochondri@@
mittl@@
mm-@@
multi-@@
münzen
n.
nab@@
nai@@
nano
negatives
neurotransmitter
nive@@
nk
noma@@
nuan@@
nukle@@
odysseus
oecd
oel@@
off
oklahoma
oney
ong
onnen@@
opp@@
optimist
optischen
ores@@
ort@@
ose
other@@
output
over@@
pack
packung
palästin@@
paro@@
pass@@
pasta
patrick
pcs
permanent
pers@@
pfel
physikal@@
pipa
pit@@
pluri@@
po
pole
pots
potter
primitive
proteomik
präsi@@
psychopa@@
puzzle
quantita@@
queme
raket@@
recke
regimes
reka
reli@@
remix@@
repertoire
resistenz
reson@@
resour@@
rhex
ri
robin
ros
row
rufus
ruhestand
sal
saurus
schee
schlacht@@
schlüs@@
schmalen
schossen
schr@@
semp@@
sene
separ@@
separate
serotonin
servi@@
sexualität
seymour
sheila
shirt
signal@@
simul@@
sinus@@
sir@@
sk
sla@@
sle@@
smart
sogenan@@
splashy
stand-up
standar@@
stechniken
sterili@@
stick@@
stigma
stim@@
storbenen
store
stress@@
strömungen
stun@@
sty
supermacht
superstar
sutherland
synapse
systemati@@
taler
tarahumara
tas
tata
taylor
tbp
tedx
teili@@
terr@@
tnis@@
toll@@
tora@@
tragödien
trance
transfer
tree
triebene
trom@@
trum@@
turbin@@
tyran@@
tzahl
ucla
ukra@@
uli@@
umweltprobleme
unde
ungehe@@
untergang
unterm
unterschei@@
upp@@
uri@@
usc
usda
ust
vage
verabschie@@
verbie@@
vermeer
verständnis@@
verständnisses
versums
vertik@@
verzi@@
vibra@@
visualisi@@
vollkommen@@
waff@@
wahrhaf@@
wall@@
white
wies@@
winzi@@
wirt@@
wochenenden
woods
world@@
wy@@
würfe
yam@@
yang
yle
zipi@@
zitiere
zurech@@
zy
án
überfischung
überge@@
überzeug@@
-mann
000@@
16-@@
1858
1940
1966
1971
365
650
@
ada
afel
affe@@
ages
aida
ak-@@
alia
alie
alisch
alligator
ambulan@@
america
ames
amis
amy@@
andal
anger
angola
ann@@
anpas@@
ansamm@@
anten@@
antibio@@
arb@@
argumen@@
asia@@
atives
austin
australi@@
autop@@
av@@
aviv
babylon@@
bal
barefoot
bars
base@@
beau
beauftra@@
befehls@@
berü@@
beschü@@
beteili@@
betrei@@
bewä@@
bik
bing
bit
bitter@@
bj
ble-@@
blühen
boards
bobby
bowl
boyle
brah@@
bras
bring
budapest
building
butter
by@@
camp@@
carolyn
carson
celine
chad
charlotte
chat@@
chau@@
chee@@
chro@@
chromosom@@
chtern@@
chuck
cir@@
cit@@
cks@@
cl
cleveland
clin@@
codi@@
comic
corn@@
coun@@
court
cradle
ct
dah
dee
deka@@
demo
demor@@
dennis
deregu@@
diagra@@
diaspora
diensten
diff@@
doberfläche
doku@@
drew
drich
dt
dus
dys@@
dyson
effizi@@
ego@@
einfl@@
ela@@
elli
eni@@
eno
enriquez
ensemble
enter@@
episode
equ@@
erkl@@
erkun@@
erläutert
erober@@
erwei@@
ese@@
eson
esther
evelyn
events
expres@@
ey@@
face@@
falt
fana@@
fant@@
fax
fettlei@@
filmmaterial
fing@@
fix@@
football
foren@@
fotografi@@
frühe@@
fusi@@
fäng@@
gaga
gand@@
gaza
gefan@@
gelegen@@
geo-@@
geschaff@@
geschwi@@
gewaltlosen
ght-@@
glä@@
gorillas
gosla@@
gould
graffiti
greifende
grö@@
gun@@
gurus
gymnasi@@
gängig
h5n1
happ@@
harlem
have
hay@@
herbie
hes
hieren
hills
hippo@@
hiv-positive
hub@@
hurt
hus@@
hyderabad
hygiene
hypo@@
hysi@@
ic
icons
ics
idy@@
ies
if
ikea
iken
ima
imagin@@
independent
infla@@
infor@@
infr@@
inn
institu@@
intensiv@@
invest@@
iran-@@
isot@@
israelis
jahrel@@
jeep
jes@@
jesse
jude
judy
jähr@@
karikat@@
kentucky
kerry
kodi@@
kommerzi@@
käl@@
labyrinth
leblo@@
leg
leiden@@
leidenschaftlichen
leon@@
leton
levi@@
ley@@
lit@@
loh
lucas
lun@@
lynn
macintosh
mack@@
main@@
maitreya
maje@@
maker
makoko
malcolm
mandel@@
mann@@
manö@@
marcus
mcluhan
medicine
messen@@
michel@@
michoac@@
mid@@
mies
millen@@
millenni@@
minimum
minnesota
minto
missouri
models
moderator
mosa@@
moskit@@
mubarak
mungen
myo@@
nancy
natu@@
nega@@
nerds
netflix
niger
ning
no-@@
nobelprei@@
noch@@
notation
novogratz
now
nör@@
oec@@
old
op-@@
operative
ops
ota
outsour@@
over
pad
pag@@
parab@@
parkin@@
pas
pascal
passen@@
passion
pat
patrio@@
peak
peers
performan@@
peripher@@
peter@@
phil
pianist
piano
pipelines
pix@@
pixel
plau@@
plot@@
point
popu@@
portu@@
pro-kopf-@@
proteins
proz@@
pyrami@@
pyth@@
quit@@
quo
quot@@
r.
random@@
rats
reagi@@
reality
region@@
regisse@@
religiö@@
repres@@
requisi@@
reste
rhyth@@
richards
rm
road@@
robicsek
rockefeller
rockstar
roll
rott@@
rückkoppl@@
rückmel@@
rüstung
sack
sagmeister
sala
sargas@@
sas@@
sation
sburg
schlagan@@
schna@@
science-fiction
score
sediment
selam
sell@@
selten@@
sert
setzungen
share
shilfe
shir@@
shire
shot
signi@@
single
sis@@
skarten
skrise
sm
solidar@@
spani@@
spit@@
sponsor
sponsor@@
spring
spur@@
sta
stehung
stereot@@
stimuli
stipendi@@
stomatopo@@
stuart
superman
superno@@
surfing
synago@@
t-shirts
tahrir
td
tech
tell@@
tent
textur
than@@
tide
tium
toaster
torna@@
total@@
trand
turbul@@
typo@@
ultr@@
undenk@@
unruhi@@
uruguay
verbündete
verdrei@@
verfall
verfol@@
verhältnissen
verse
versorg@@
verän@@
victoria
viol@@
voranzu@@
vos
völ@@
völli@@
wan
wi-fi
wick
worben
wund@@
yahoo
zeitgenöss@@
zent
zetas
zhou
zi
zon
zon@@
ärgert
ökosystems
#
(
10,000
13-@@
1929
1953
240
360
45-@@
88
able
achil@@
adoles@@
ae@@
aer@@
aggression
agnor@@
ahmed
airbnb
airstream
alis@@
alisa
altar
alterna@@
altos
amazon@@
ament
andes
arbeitsp@@
argu@@
army
art@@
asp@@
atlas
atoms
atrice
atu@@
auschwitz
auslän@@
australopithe@@
aw@@
bachel@@
banal
bandura
barcode
beginn@@
bell@@
belo@@
ber-@@
berk@@
besi@@
bilbao
bio
blackberry
blah
blues
boli@@
bollywood
bonnie
book@@
br
brit@@
brutal
bund@@
bury
busines@@
button
cab@@
cargill
caroline
casey
chaz
chester
children
chinese
chr@@
christ
church
chy@@
cis@@
cloud@@
conne@@
container
corporation
couch@@
country
crack
curtis
cynthia
d.c
dant
dating
db
defe@@
demie
demonstr@@
denburg
dennett
derartu
designers
dev@@
diabe@@
diag@@
dik@@
dill@@
dis
disne@@
dl
dog
dom
down-@@
drake
dravi@@
drink
dum@@
e.@@
echo
ed-@@
edith
ee@@
egos
einspar@@
eja@@
emer@@
emergen@@
emma
emper@@
ende@@
endo@@
energe@@
english
entscheidung@@
ep
epiphy@@
erhol@@
erkan@@
erkrank@@
europ@@
exxon
eye
ezra
fa
fab@@
feature
festi@@
fibro@@
fig
flick@@
forbes
fortune
fracking
fraser
freak
fried
frö@@
futuri@@
galvao
garden
gedei@@
gegent@@
geiger
gentleman
geschri@@
get
gewandelt
gewis@@
gigab@@
giraffe
gni@@
gorilla
grades
greenpeace
greg@@
grenzte
grin@@
grizz@@
gupta
hart@@
haven
haz@@
headset
heimischen
helikop@@
himi
hippocampus
his@@
hler
hlich
hmt
hna
holland
home
home@@
homo@@
hoo
horror
human
hungers@@
hy
hydropho@@
höri@@
iland
ils
immense
immuns@@
indiana
indire@@
insky
instrument@@
integra@@
invasive
invol@@
iowa
ipcc
irrelevant
isis
ite
jab@@
jacob@@
jacques
jake
jas@@
jean
jean-@@
jere@@
jim@@
jordan
jordans
jose
josh
joy@@
juli@@
jurassic
kath@@
kerala
kick@@
king@@
klas@@
kleiber
kler
kofi
kompon@@
konkurren@@
konzipi@@
ktu@@
königrei@@
langfri@@
laparo@@
laramie
latr@@
lawrence
lazar@@
lear@@
lein@@
lett-@@
lett@@
lev@@
lex@@
library
lien
light
lindbergh
lk@@
lock
lux
lyn
mad
maeda
mahab@@
mainstream
malaysia
manhat@@
manifest
maps
marduk
marie
marx
maryland
masch@@
mast
mation
maui
maßstä@@
mbi
megab@@
mellon
melt
merito@@
metro@@
michel
militä@@
mith@@
mittags
mittel-@@
ml
module
monter@@
monum@@
motion
muffin
mug@@
multimedia-@@
myhrvold
na-@@
najmuddin
nap@@
nashville
nee
neon@@
nerv@@
neumann
newton@@
nib@@
nier
nik
nikol@@
non-@@
nyu
office
olith@@
opec
orch@@
orie
oth@@
otto
oxy@@
oz
pacific
parado@@
parlam@@
paula
peace
peripe@@
phar@@
philips
pierre
pine
play
plur@@
plutonium
pont
pop
pore
prax@@
prego
press
profess@@
prop@@
protag@@
prozac
prägten
psychop@@
psychopath
pyg@@
pün@@
quant@@
queens
quor@@
rag@@
raleigh
rami@@
ranger
rap
relation@@
rem@@
ret@@
rhino@@
rho@@
rich
riet
riv@@
rockett
rockwell
romegal@@
rr@@
rup@@
rät@@
sak@@
salman
sarajevo
schlimm@@
schlus@@
scot@@
scre@@
sea
senegal
sense
seroton@@
session
shakespe@@
shal@@
shaw
shmi
sine
sives
smi@@
soft@@
sole
sound@@
sousa
south@@
spare
spekta@@
spiderman
spoofer
sprodu@@
stage
start-@@
stech@@
steel
stelli@@
stero@@
stetho@@
stick
stimul@@
stunt
stuntman
suns
symme@@
symphon@@
tb
teds
terry
testet
thin
think
tica
tivitäts@@
tivo
tn@@
tofu
tool
torium
tow@@
transzen@@
traumati@@
trek
tribun@@
troffen
träch@@
tscher@@
tter-@@
tunes@@
turn@@
tweets
tyranno@@
unaids
unic@@
ura
usi@@
ution
vaku@@
value
vention
ventionen
verdrah@@
verfüg@@
verheirat@@
vernicht@@
vernun@@
vic@@
villa
vivian
vog@@
wade
walt
wards
warm@@
water@@
webcam
week
wells
wey
white@@
whitney
wilder@@
willie
wolf@@
woo@@
wöl@@
wörter@@
xen@@
yi
yoga
young
young@@
zeitraff@@
zel
zen-@@
zerem@@
zumin@@
zurückge@@
zusammensch@@
zusprechen
zuver@@
öster@@
überrasch@@
überzeugend
β@@
1,000
175
1939
1954
1958
2100
25-@@
747
aa@@
aaron
ablen
ac
adams
ader
adventi@@
agency
agent
ahm@@
airlines
alabama
alain
alan@@
alberta
alds
alei@@
alexis
alition
allan
allison
ampli@@
annan
annäher@@
anonymous
ansä@@
ant-@@
anti
ap
apartments
arbeitsplä@@
archet@@
archive
ariely
arnold
arsenal
arthritis
at-@@
ati
atlantic
aug@@
aur@@
aurora
ausbrei@@
ausger@@
bang
barcelona
barmherzi@@
bass
baugh
baxter
bedienung
begeister@@
beleu@@
bend
beno@@
benö@@
berners-lee
bess
beth
better
betty
biaf@@
bies
bingo
bionic@@
blair
blan@@
blind@@
boar@@
boltzmann
bon
book
boots
borough
bpa
broadway
brochen
bronze
brook
brunel
bu
buck@@
buckminster
budrus
buff@@
buffet
bulldo@@
burkina
but
by-@@
bäcker@@
cafeteria
calci@@
captain
car-@@
carl@@
carmen
chat
check@@
ches@@
chim@@
chirurg@@
chlor@@
chlorop@@
cholester@@
christian
chterung
chts@@
ci
clubs
cocktails
collins
comp@@
content
cour@@
cox
d.@@
dakota
dama@@
dameri@@
dc
defen@@
degra@@
deng
deo
deri@@
descartes
desktop
detail@@
diane
dioxid
dist@@
diszipl@@
dium
dod@@
dood@@
dot
dow
dum
durga
dutz@@
dyst@@
e.t.
ebola
eeg
een
einwohn@@
entran@@
ernsth@@
errungen@@
espres@@
ethan
euro@@
evalu@@
extremes
faso
felt
festh@@
ffeln
first
fisher
flash@@
formaldehy@@
fred
frontal
frost
frü@@
frühl@@
ft-@@
fts
fuller
galaxi@@
gegenwär@@
gelenkt
gemeinsam@@
geoffrey
gerie@@
gesie@@
gesu@@
gger
gi
glen@@
glän@@
gon
good
goodall
googl@@
google@@
griffe
grundsä@@
gue
gui@@
guitar
gurt
gus@@
gymnosop@@
habitat
hamlet
hannah
hardy
harr@@
hc
head
hens
herzer@@
herzin@@
hit
hman
hobby
holfen
holly
homer
honey
hopkins
horizontal
hospi@@
houston
huh
hunter
hyper-@@
ibu@@
ice
ide
idi@@
idol
ike@@
ikr@@
ila
ile
illin
illusion@@
improvis@@
infan@@
instruments
intra@@
intuitive
ischer@@
ita
ius
iv
iy@@
jai@@
jared
jenny
job@@
joplin
joystick
jpl
julius
kaaba
kac@@
kaluza
kev@@
kid
kiki
kindle
kings
kot
kuwait
label
lac@@
laura
lauren
laurie
law@@
lessig
leviathan
levin
lifes@@
linus
liz
lo
lob@@
lok@@
lot
louise
lovins
low
lows
lud@@
lär@@
mahl@@
mails
maine
malawi
mapping
marsh@@
maslow
mato@@
matthieu
mauritius
max@@
mechanical
med
media-@@
mem@@
metaboli@@
meteori@@
metron@@
mich@@
middle
million-@@
mind-wandering
minimal
moglobin
mont@@
monument
mp
mr
mrs.
mt@@
muff@@
mulla@@
musch@@
muti
müs@@
navigation
nbc
neanderth@@
nell
neugi@@
neuro-@@
neutrin@@
neutrino
newcastle
nih
nuggets
od
odys@@
ogen@@
okin@@
okol@@
olly@@
ols
onal
ony
oops
open-@@
oper@@
oping
ori
orion
osop@@
oste@@
oter
ous
p.
pads
pants
papua
part
pastor
pearl
perrt
pes@@
pessi@@
pesti@@
phant@@
phone
phone-@@
phrase
pi
pie
pig@@
pinker
pis@@
plum@@
podium
polis
pollock
polymer
popcorn
potent
power@@
programmi@@
protot@@
präfron@@
public
puer@@
pump@@
quanti@@
quantitative
queensland
rabbis
race
radar
ralph
ram@@
randi
rca
reader
rebellion
recy@@
reddit
redund@@
regenerative
regional
regu@@
rendi@@
reserv@@
reserve
resili@@
restri@@
ret
review
rhi@@
rhode
rick@@
rie
rier
rise
robbins
rober@@
robinson
rosie
rossy
rotation
rs
rush
saint
salaam
sari
sat
sati@@
satur@@
saub@@
schimpan@@
schmel@@
schwefel@@
schüs@@
scient@@
security
seller
seman@@
seminar
seni@@
sensible
senti@@
sever@@
shekhar
shopping
shri@@
sier
silhouette
silver
simpson
sinclair
situ@@
sko@@
skydiving
sleep
smith@@
solo
sori@@
soundtrack
spam
spec@@
spee@@
spencer
spie@@
sser@@
stadi@@
stall
starts
statisti@@
stattet
stchen
stelligen
stipen@@
strategi@@
strings
subsahar@@
subtra@@
sultan
supralei@@
sushi
symp@@
säm@@
tanks
tast@@
techno@@
teddy
tedwomen
teme
temper@@
tennis
terrori@@
testoster@@
tetr@@
tetra@@
th-@@
theatre
thermodynam@@
thi@@
thri@@
thro@@
tie
tigkeiten
ting
tk
toler@@
tolerant
tore
toris
tradi@@
trilli@@
trium@@
troph@@
troy
tsun@@
tti
tti@@
turk
twee@@
tyler
täu@@
u.s.@@
ula
ultimati@@
ultra-@@
umar
umgeb@@
unbelie@@
unterhalt
utah
vac@@
vali@@
vam@@
vani@@
vegetation
vene@@
veranst@@
verdopp@@
vergan@@
vergiftung
veri@@
vernach@@
verstre@@
vest@@
vet@@
vibrio
vili@@
volvo
wal-@@
warcraft
water
weltre@@
wh@@
whiskey
wikileaks
willig
win-win
wingsuit
witness
workshops
worldchanging.com
worth
wri@@
wurzelt
wärmt
xon
yen
yin
yn
yochai
zab@@
zet@@
zide
zufä@@
zukun@@
äqui@@
äs@@
äumen
ürf@@
1850
1977
2013
21@@
46@@
abent@@
abili@@
ables
acr@@
acre
add@@
addition
afri@@
after
ager
aggressive
ago
agt
aka@@
alberto
ale@@
aless@@
alley
ambigu@@
amd
amit@@
analog@@
and-@@
andin@@
angel
angeneh@@
anil
anima@@
annie
antiqu@@
antonio
antor
aor@@
apartment
appl@@
aqua@@
area
aris
arre@@
aspe@@
asper@@
ators
auditorium
aufhin
austri@@
autonom@@
aver@@
babb@@
bach@@
bands
banking
bard
base
beck@@
bed@@
bee@@
began
bemer@@
besag@@
best
bewerk@@
bhu@@
bird
birthday
bles
bombenziel@@
bombenzielgerät
bomber
books
bos
bose
bour@@
bourne
brainstor@@
brin
broo@@
buchstä@@
buddh@@
burn
bypass
byrne
bör@@
caf@@
capture
car
car-sharing
cast
catherine
cdc
cell@@
cesar
chan
chandler
chap@@
charakteristi@@
charts
chevy
chicken
chit@@
chor@@
christina
chu@@
chungen
chur@@
cky
clarke
coast
coc@@
cock
cockpit
cod
coke
cole@@
colle@@
colleges
comedian
cornell
corti@@
cover@@
cowboy
crash
crew
crick
cru@@
curi@@
cyborg
dal@@
daphne
deniso@@
desk
det@@
deutsch@@
dieb@@
dinner
dirty
discovery
displays
dissi@@
distri@@
dm@@
do-it-@@
doc
dodo
dokument@@
dopam@@
dor
down
downlo@@
dred
drä@@
dschi@@
dson
duke
dvds
dör@@
ecks
eco@@
einfühl@@
einkommen@@
eisenhower
eloqu@@
els@@
embryos
empath@@
ence
encoder
ennen
enri@@
entzündung
epi@@
eren@@
erien
erleb@@
ermor@@
err@@
erup@@
esa@@
establishment
eter
extrover@@
fakul@@
fam@@
famil@@
farm@@
fedex
fiction
financial
finder
fir@@
flor@@
fluctus
fly
fläch@@
formal@@
former
fossil
frankie
früher@@
fum@@
gad@@
galax@@
gallery
galvan@@
game
ganges
garrett
gedan@@
gefol@@
gefühls
gegeben@@
geneti@@
ghe@@
girls
git
gla@@
gogh
golden
gombe
good@@
graff@@
grundsätz@@
haas
haftet
hangs
hanna
harbor
harn@@
heads
hedon@@
hend
heroin
heter@@
hew@@
hilflo@@
hirshhorn
his
histori@@
hoe
hot
ht@@
humane
humor@@
hunt
huntington
häufi@@
icke
icon
impact
inda
influen@@
interfaces
interval
investor
ires
irgen@@
itunes
jam
jenige
jets
jm
joan
joey
johns
jose@@
joy
juarez
june
kaplan
kelley
kes@@
kew
kid@@
kilome@@
kiva
klebe@@
klä@@
knee
know-how
kobe
koka@@
koperni@@
kopf-@@
kryp@@
kton
kön@@
l.@@
laboratory
lagerungen
lar
large
ld
lear
leslie
lets
levine
leys
lie
limit
lingu@@
little
lium
live@@
liver@@
locks
lolcats
low-@@
luci@@
m.@@
macar@@
maestro
mafia
magnes@@
manufacturing
masters
mell@@
menop@@
meteor@@
mik@@
mimi@@
ming
mini
miser@@
mmi@@
modernis@@
mola
morgan
moskitone@@
mosle@@
mountain
mountains
mp3
mps
multi-touch
multiple
multitasking
music
mäch@@
naomi
neander@@
neuse@@
nikola
nirgend@@
nixon
non
norden-@@
nur@@
olla
ology
opi@@
opium
osaurus
osi@@
ote
oxi@@
oy
packard
pam
pani@@
paraly@@
patricia
patriot
paulo
pay@@
pcbs
peer-to-peer
perspe@@
pflan@@
phantom@@
phe@@
philosoph@@
piero
pisa
place@@
placebo
plex
plu@@
poet
point-@@
police
polye@@
port-au-prince
portfolio
pose
postu@@
pradesh
prakash
pranav
proportion
pros@@
proze@@
präsident@@
psychiat@@
pto@@
raghava
randy
rar@@
ratet
reb@@
red-@@
reformation
regeneration
repu@@
reti@@
rice
ridge
rift
riski@@
room
rotterdam
routine
rug@@
ry@@
s.@@
sachs
sacramento
sandwiches
sao
sauer@@
savage-rum@@
schan@@
schlam@@
scrat@@
seligman
seme@@
sh
shack@@
shop
shreddies
sia
sing
sit@@
skul@@
skulp@@
skycar
solar-@@
sonst@@
sophia
sopran@@
sp
spac@@
spaghetti
spal@@
spin
spot
stalli@@
starck
starter
steurop@@
strate@@
stron@@
sträger
stungen
suffi@@
sug@@
sunitha
supernova
synäs@@
szen@@
t.b.
tahri@@
talgam
tamil
tawa
teamwork
technolog@@
technologies
tele-@@
terrorist
testam@@
tha
thai
thanksgiving
theremin
thers
they
thryn
thus
timothy
todd
tolsto@@
torosaurus
tou@@
tourist
tracy
trucks
ttar
ttes
tulu
tweet
tyr@@
ug@@
umt
unser@@
upwake
urlau@@
vc
venture
verblü@@
vermitt@@
ves@@
veter@@
vetson
vi
viagra
view
vik
vis
volu@@
vorherrsch@@
vorhersag@@
vu@@
wachs
wage
wain
walk
whole
wichti@@
wisconsin
wohner
woman
wong
work@@
wra@@
www.@@
xia@@
yan@@
your@@
ype
zusätz@@
zäh@@

äd@@
überra@@
ürzt
1908
1948
1956
2,000
23@@
70-@@
^
abgeord@@
abwes@@
achilles
admi@@
administration
after@@
ahen
ain
akzeptab@@
alex@@
alph@@
alto
alzhei@@
amo@@
anden
anim@@
anspru@@
aravind
archae@@
architecture
arien
aristot@@
arrogant
aspen
atala
athei@@
atori@@
att
avat@@
award
b.@@
babylon
back-@@
bath
bauchspeicheldrü@@
beats
beetho@@
bege@@
bene@@
benjam@@
beschleuni@@
biotechn@@
blogging
body@@
bone
boo@@
bor
boson
bots@@
bottom@@
bright
britannica
burma
burn@@
burns
but@@
camps
canada
cany@@
cap
capit@@
cardo
cas
cash
cau@@
ceos
chase
chic@@
chill
chry@@
chsen
cing
city-@@
ckers
climate
coin
collect
connectomes
conservation
contain@@
control
cpu
cript
cur@@
curriculum
cyberspace
daily
daisy
dal
dana
dance
day@@
dd
dden
ddy
dengue
derzei@@
desk@@
deter@@
development
diab@@
dialo@@
diamond
dian
dil@@
dilemmas
direct
disper@@
diverse
dizzy
doc@@
dogs
dokumen@@
dome
drucker@@
dunkl@@
duolingo
dur
ea@@
ecuador
eds
ef
eff@@
einflus@@
electro@@
eli
elo@@
elu@@
enab@@
end-@@
energ@@
energy
enga@@
ensler
epit@@
esa
esh
essay
ession
ete
ethiop@@
ethn@@
even
evident
evol@@
exu@@
face-@@
fallschir@@
fanta@@
fere
fermi
ffe@@
fford
fine
flakes
flir@@
fluid
flying
fo
foot
forest
fortgeschri@@
fragment
frank@@
franken@@
freedom
freestyle
fung@@
gag@@
gamble
geck@@
geek
geleg@@
genes@@
gerüstet
gesun@@
ging@@
gladwell
gly@@
goldman
golfer
goth@@
grant
grass
grateful
grundi@@
gruse@@
gul@@
halluzin@@
hand-@@
har
hard
heal@@
heather
herd
herzinfar@@
highways
hillis
him
him@@
hip-@@
hip-hop
holocau@@
hour
htt@@
hurdy-gurdy
hybrid
höher@@
igbo
imagination
inch
india
ine@@
ines
inf@@
inien
ining
inklu@@
inputs
instant
int@@
integr@@
interstell@@
ip
islands
ites
jenigen
joshu@@
jr
kenne@@
kens
khal@@
kill@@
knight
layma
lebe@@
lest
levels
lian
life-@@
like
linke@@
lithi@@
lol@@
lone
lus@@
lyndon
maccready
made
magazin@@
magic
marath@@
marilyn
marines
market
mba
mccain
med@@
medicare
memo@@
metal@@
methan@@
metropolitan
meyer
migr@@
mill
miner
minister@@
mmm
moderni@@
mons
mouth
movi@@
mysti@@
nant
nathaniel
nato
nerd
nichts@@
night
nina
nir@@
ographic
ohne@@
ona
opa@@
opho@@
organs
orgas@@
orkut
orn
ornish
orts
ots
ough
overflow
owitz
parame@@
parlament@@
parties
patch
penicillin
persi@@
personi@@
phantom
philosophi@@
pioneer
plane
ples
poll@@
pond
portion
pran@@
prestige
prim@@
prinzi@@
profan@@
program@@
progressi@@
propor@@
propulsion
proton
präsent@@
ps-@@
publik@@
punk
puzz@@
quadri@@
quez
quisition
rajasthan
ree
rehabili@@
rel
reservo@@
ressour@@
rever@@
rid@@
rieb
riel
right
rigor@@
rosal@@
row@@
rumi
rwanda
sacks
salt
samarit@@
sandel
sanghamitra
sardin@@
saunders
sav@@
schnur@@
seem@@
sell
sels
selts@@
semi@@
sensing
seoul
serra
services
shah
shand@@
shared
sharing
she
shred@@
shuttle
singul@@
sivers
slash
small
sman
smiley
snow
softwar@@
source-@@
sourcing
spaces@@
span
speed
spek@@
sphere
spirit
springs
spun@@
staf@@
stake@@
stalt
statement
sterblichkeits@@
stereotyp@@
stimulus
stine
strand@@
stream@@
street@@
strong
supreme
sur
sus
synap@@
tage@@
tahl@@
tail@@
tanzania
tape@@
taskrabbit
tastat@@
taxon@@
tedsters
teen
terminal
theo@@
thermostat
thesen
this
thor@@
throw
thy
tibet@@
tic@@
ties
tile
tili@@
tinkering
toast@@
tornado
trine
trivial
trotz@@
tso
ttel
turbine
turbo
umines@@
umkehr@@
unzäh@@
upgrade
ury
usen
utopia
v-day
ve-@@
vic
vide@@
viell@@
virtuo@@
visit@@
voo@@
vä@@
wartung
wayne
ways
wende@@
wertung
what
whe@@
when
whirlwind
widder
wide-@@
wildlife
win-@@
window@@
wler
wonder
wr@@
wurman
ya@@
yellow@@
yus
zach
zers
zeugt
zin
zusam@@
älter@@
ç@@
übertra@@
80,000
aaaa@@
aby@@
acc@@
accounts
achtung
active
acy
adul@@
aga@@
ahme
aid@@
aires
airport
aje@@
akademi@@
aks
alliance
amaz@@
amputation
ang-@@
angi@@
ano
anthrop@@
any
applied
arte
ass@@
assist@@
attribute
aufmerk@@
austau@@
automo@@
axi@@
babwe
backs
bag
bags
bao
bap@@
barbec@@
barbie
barmher@@
beau@@
bec@@
beeinträch@@
bennett
bili@@
biol@@
biology
blac@@
blade
body
bonnet
brain@@
brother
buffalo
cad
cand@@
capital
caro@@
carri@@
case
cel
centers
challenge
chari@@
chmal
chore@@
chtest
cities
citizen
ckens
cles
cn@@
cole
coll@@
collagen
colli@@
colom@@
comedi@@
computing
concer@@
conser@@
cot@@
coup
crews
cum@@
cursor
cybor@@
defin@@
dei@@
denz
dermaßen
designed
destru@@
dias@@
dictionary
dine
diri@@
dmca
domen
douglas
downtown
doyle
dry@@
egal@@
egg
eld
electric
elek@@
elephant
elev@@
ells
ement@@
enco@@
entre@@
erhäl@@
ering
erken@@
erlan@@
erm@@
ethan@@
evaluation
everywhere
exc@@
exist@@
explorer
face
fast-@@
favel@@
fiel@@
flop
flugh@@
flyer
fmri
foods
forever
fou@@
fox@@
franzo@@
frederick
free
futur@@
future
g.@@
galak@@
gation
geographi@@
geschwindi@@
gesti@@
gestop@@
gewisser@@
ghraib
gio
gira@@
glam@@
gle
gleicher@@
glücklich@@
gman
god
god@@
government
gs-@@
guinness
hallu@@
hamas
happiness
hare
harm
heart
heck
hem
hemis@@
herbi@@
herkömm@@
higgs
highlight
hirsh@@
history
hne@@
holder
hominid
hore
hou@@
hubble
humanity
hygi@@
hype
hypertext
höhe@@
ib
ido@@
ignorant
ill-@@
illing
imf
immt
improv
ims
indo-@@
indones@@
iness
infer@@
inferior
influenza
ino@@
int
intel@@
intention
intervie@@
intu@@
inuit
invent@@
investments
ish@@
israeli
ists
iter@@
ith
junk
kambodsch@@
kanin@@
kans
katastrop@@
kathedr@@
kläss@@
koko
kommunika@@
koso@@
kry
kten@@
kömm@@
kümm@@
labs
lap
laps
lava
lay@@
leah
legos
letter
leum
lever
lib@@
lift
limb
lind@@
link@@
linu@@
lip@@
lips
liqui@@
llo
lovel@@
ly-@@
magi@@
maj@@
makers
males
mandarin
marrow
mart
mash@@
match
memes
mia
mite
mium
mohamed
mole@@
mom
monit@@
myri@@
nachrich@@
nate
navy
neo-@@
ners
neugieri@@
news@@
nex@@
ngo
nine
noble
norwe@@
obsessi@@
ocean
offensive
offline
oil
olly
ometer
onder@@
ong@@
onia
oo
opar@@
open@@
opera
opposition
orig@@
ours
outs
ow@@
oxide
ozo@@
palin
pan
param@@
participant
partners
paste
pedal
peer-to-@@
penelope
people
pers
pes
pet@@
phr@@
phän@@
phänom@@
pick@@
pill@@
pitt
plac@@
pone
pools
portra@@
posit@@
power-@@
pre-@@
preston
pricing
prick@@
prime
pris@@
priva@@
prosp@@
prototyping
pseu@@
psy@@
pub
puri@@
pus@@
puzzles
q.
qua@@
quas@@
quie@@
quiz
radik@@
read
reading
rebs
recap@@
register
regulation
rene
renti@@
resnick
resol@@
rett
revi@@
rian
ric
rieben
risi@@
rives
robot
robotics
rocky
ross@@
run
safe@@
sagan
sale
salon
sanc@@
sandy
save
schildkrö@@
schlussfol@@
schlüsseln
schokol@@
schwieri@@
science-@@
sco@@
scri@@
sear@@
self
self-@@
semin@@
senior
sequ@@
serious
serre@@
shang@@
shi
shots
shuff@@
skla@@
skrank@@
sleepy
slow
smoking
snow@@
sor
sore
sour@@
southern
spaghetti@@
special
spon@@
stack
stalin
step
sterber@@
sting
stirling
stolen
stream
strip
strips
stro
sub-@@
sub-sahar@@
sufi
suspen@@
swar@@
tables
take
tans@@
tari@@
tasking
tcha
tea
temple
tempo@@
tering
than
therapie@@
thermo@@
thom@@
thos
ths
thu@@
thy@@
tic
tick@@
tman
today
tower
trade-@@
train
transducer
transit
treibhaus@@
tro
troll
true
tude
tunnels
tup
tus@@
ty-@@
tyrone
u.
ues
unds
unes
ungsper@@
universe
unterricht@@
updates
urban
use@@
utili@@
vana
vation
veling
venezu@@
verlangsam@@
verme@@
verring@@
veteran
vey
vibration
viet@@
virtual
virul@@
voila
vy
vö@@
wash@@
watt-@@
watts
western
western@@
whis@@
who@@
wig
wireless
with
worldwide
wounded
während@@
ypal
zeital@@
zens
zugs@@
züglich


¥
änger
äume
ö
1.5
100,000
20,000
99.@@
abs
absen@@
absolu@@
access
ada@@
ade@@
ades
administra@@
advanced
af
age-@@
agr@@
agra
airline
al-q@@
americ@@
amino@@
anes@@
aparthei@@
apples
apri@@
arbeitung
archime@@
ardu@@
aria
arios
arium
ark
array
arrogan@@
arsen@@
ases
asis
aters
athan
attitude
auffas@@
aufrechter@@
auspro@@
auth@@
aversion
awards
bby
bchen
bere@@
berries
bespre@@
bikes
bion@@
blood
bloom
bomb
bonds
booms
bridges
broad@@
brutto@@
burst
buster
buy
bürste
cafe
cafe@@
cage
califor@@
canopy
care
cars
cel@@
census
cer
cet
chai
chand@@
change
changing
chant
check
chemical
chers
chromosome
cies
cisco
cket
clare
clean
close
clou@@
coli
comfort
communities
congress
cook
copper
corps
council
craw@@
crun@@
crystal
ct@@
ctions
ctor
curr@@
curricul@@
dam
dates
death
dec@@
def@@
dent
dere@@
diarr@@
digerweise
digungs@@
diplom@@
director
discover
dishman
diversi@@
dn
dock
doing
doll@@
dominant
dominier@@
doo
doodle
dotcom
double
dow@@
downs
dry
dschun@@
durchschni@@
dwell
editor
education
efs
eicht
elimin@@
eline
elisab@@
elyn
emergence
emission
emit@@
emo@@
empiri@@
emu@@
entertainment
enthü@@
entreprene@@
entschlossen@@
enzyklopä@@
ermög@@
erob@@
essig
ests
ethni@@
eval
ever
expli@@
export
express
ez
fassa@@
federal
feel
feri@@
fibonacci
fic@@
figuring
fire
footprint
formats
foster
frame
frames
franc@@
franch@@
fry
fur
gadget
galac@@
galler@@
galva@@
games
gap@@
gapminder
garti@@
gases
gateway
gebrau@@
gee@@
geläch@@
genö@@
gesamt
gesund@@
getr@@
gewes@@
gging
giant
giants
gir@@
gone
got
grand@@
gration
gray
gren@@
gressi@@
guide
gun
gus
gy
habit@@
hack
handle
hers
himalay@@
hippie
hitch@@
holiday
holl@@
holo@@
häufig@@
ids
il-@@
ilfe
ilfe@@
ill
illustr@@
immersive
impossible
ination
infil@@
innovator
inst
intri@@
investig@@
investment
ion
iron
irs
ises
ish
ist@@
ister
ity
jaws
joint
jumping
just
kalien
karikaturi@@
karo@@
katastro@@
keys
kidna@@
kie
kingdom
kit
kne@@
koh@@
koppl@@
lane
latin
lay
lder
leaf
left
legacy
lem@@
lep@@
less
liberal
lic@@
lier
limits
lincol@@
lion
liquid
lling
loads
lov@@
low-tech
low@@
lower
lum@@
lunch
make
makeup
margar@@
marshmal@@
mathema@@
meadow
metrics
milk
millennium
mills
ming@@
minority
modi@@
moments
moon
mop
moz@@
mutant
nachth@@
naive
naktivität
nam
nami@@
nanome@@
nas
nations
natural
naz@@
nazi
nel
ness
nets
neuroscience
nia
nichol@@
nobel
nobel@@
novo@@
nullsum@@
nylon
obsession
odor
of@@
oid
ois
oming
opy
orchestra
order
organi@@
organization
orph@@
orth@@
osc@@
packs
pagnen
panel
passa@@
pate
pc@@
pe-@@
pedia
peg
pension
pent@@
pep@@
pepper
per-@@
perfor@@
petition
philosop@@
phon@@
phosp@@
photograph@@
photos
pin
ping
pins
place
platform
pling
plot
pointer
pope
porn
pper@@
ppers
pr
president
printing
program
prophet
proportion@@
prostate
protection
prou@@
provi@@
pts
py
ques
quest
rabbit
rain
rain@@
rama
random
ref@@
reicht@@
reiter@@
rel@@
rent
republic
revol@@
rez@@
richt@@
rid
rien
river@@
road
rodri@@
rome@@
roy@@
rul@@
räfte
rönt@@
sands
scape
schild@@
schools
sci@@
scientific
script
scu@@
seal
sequel
seren@@
sets
sett@@
shepherd
show@@
siege
sies
signals
singularity
smart@@
snack
snap
standing
state-@@
statements
stewar@@
stration
streng@@
string
stry
suite
supp@@
swahili
swe@@
swimming
t.@@
tagging
tales
tali@@
talking
tara@@
tek@@
telegraph
theat@@
theor@@
thur
thur@@
tick
ticut
tim@@
time-@@
tis@@
tissue
tle
tnissen
toma@@
tracking
traffic
transformative
trate
treatment
trickster
trigger
truck
trust
truths
ttle
tuberku@@
ture
turing
turk@@
twin
type
uell
undercover
unge
upper
uri
usch
ush
utes
ution@@
uts
vae
ved
veg@@
vehi@@
velo@@
ventil@@
vereinig@@
verkün@@
verr@@
verscho@@
vertr@@
veröffent@@
viking
vil@@
virg@@
viron@@
vitro
vokab@@
von@@
vorrä@@
walking
want
wel
wenig@@
whist@@
whoa
wing
wing@@
wire
within
work
workshop
wrest@@
ww@@
yards
yemen
yland
ynam@@
yo-yo
yx
zhei@@
zuschau@@
zwil@@
zykl@@
zzy

­
â@@
ã@@
äfte
ängsti@@
äuft
ó
überwäl@@
ück
ürt
-in-@@
0,000
101
2.5
404
50,000
`
a-afrika
abli@@
abor@@
account
aches
acle
acu@@
adaptation
admini@@
administrat@@
ado
africa
african
aggre@@
agile
agri@@
air-@@
aire
airs
alab@@
alas@@
ally
alternatives
alu@@
aly
amateur
ameri@@
amster@@
anal@@
analyst
ance@@
angiogen@@
angu@@
ania
another
anta
anthro@@
apor@@
appe@@
arc@@
architects
arctic
are-@@
aron
arrangement
ascen@@
asian
asters
astrop@@
ated
ath
atmosphere
atri@@
ausgang@@
ausrott@@
aust@@
ausweich@@
author@@
autis@@
awa@@
ballet
band-@@
banglades@@
banks
barrier
bases
basic
beam
befe@@
began@@
behind
beinhal@@
belief
betrie@@
billion@@
bine
biographi@@
boarding
bow
bread
break@@
brill@@
brookl@@
bugs
built
bump@@
bureau
buzz@@
cain
cairo
cake
cal
cali@@
call
cam
camer@@
camera
carb@@
carpet
carto@@
cell
century
chair
challen@@
champion
character
charity
charlot@@
choice
christi@@
circle
citizens
class
cliff
clinic
clon@@
coca-@@
coins
come@@
con
cont@@
controll@@
coo@@
cran@@
creek
crime
cros@@
crowd
cruise
cup
dark@@
dars
daw@@
ddin
ddle
ddler
dead@@
deadline
deliber@@
denti@@
department
depres@@
dic@@
diffuse
dilem@@
dimit@@
disaster
distribu@@
dit
divide
dnung
dots
dough@@
drag
drah@@
dream
dron
drop
dump@@
dy-@@
dynamics
e.u.
economics
educational
eg
einzi@@
electr@@
elef@@
elements
eleph@@
ely
emaker
emergency
ems
encyclopedia
engine
entde@@
enthusi@@
entr@@
entrepreneur
environment
eps
ergehen
erlaub@@
ernä@@
ersta@@
espe@@
eth
event@@
evi@@
eviden@@
evolu@@
exploit
expon@@
expos@@
exquisite
extern@@
extr@@
extrater@@
eye@@
fade
fahrenheit
falls@@
family
far
fashi@@
fashion
fate
fault
fed
feet
fellows
fields
fif@@
fifth
figh@@
find
finite
fins
fish
fix
flip
floating
fluidi@@
flä@@
formers
four
fragi@@
fragile
france
french
fruit
fuck
funding
fundraising
führungsper@@
gadgets
gal
galapa@@
galaxy
gali@@
gap
gapmin@@
garbage
ged
gefr@@
gekenn@@
genan@@
genten
geomet@@
george@@
geret@@
geräu@@
gespan@@
gespi@@
geweb@@
gho@@
ght
gia
gill
girl
gling
gn@@
goli@@
gouver@@
greenhouse
großbritan@@
guards
guil@@
guts
h5@@
hacking
harb@@
hazard
head@@
hemisphere
hero
heroes
hes@@
high-speed
hindu
hip
hold
hoo@@
hood
hook
hope
house@@
hri@@
hunderttaus@@
hälter
iegen
imit@@
immigr@@
immigrant
immigration
imperial
indian
industries
industry
iner@@
infinity
ingenie@@
ingo
ingu@@
ink
instit@@
intelligence
interessi@@
interpret
inv@@
inve@@
inver@@
io@@
irrever@@
isol@@
itos
janu@@
jar
jem@@
jewel@@
jum@@
jump
juni@@
jähri@@
kei
kein@@
kilogra@@
kilos
kitchen
kog@@
kontr@@
labels
labyrin@@
lapse
lasers
lassi@@
later
latz
leader
league
leap@@
legis@@
lester@@
let@@
letters
lia
lifest@@
listen@@
logy
lost
luck@@
lym@@
macy
mae@@
mafi@@
major
malware
manife@@
manifest@@
manuel
marble
margin@@
marke@@
massenvernicht@@
mat
mee
membrane
memorial
mend@@
messages
mete@@
meters
metropoli@@
mher@@
micha@@
might
migra@@
millimeters
mineral
minerals
mira@@
mississi@@
momentum
monade
monolo@@
monthly
more@@
mos
mou@@
moun@@
mov@@
movement
mud
mulative
muslim
n1
nails
naked
nanot@@
nanotechn@@
napp
naturally
nau@@
nests
networks
nev@@
nice
ninth
noise
nor
nordafri@@
northwest
notebook
nov@@
nut
oa@@
obli@@
obs@@
obsc@@
ocean@@
och@@
olds
olive
omin@@
oner
ones
ones@@
onies
onist
only
operations
orable
ordin@@
oreg@@
ores
oring
orith@@
oud
out-@@
oxygen
p.@@
papu@@
parap@@
pardon
path
penic@@
pet
ph.d.
phantas@@
pher@@
philadelphi@@
photogra@@
photograph
phthal@@
pizz@@
platt@@
play-do@@
pler
poetry
polar
pollution
popular
posts
pou@@
powers
ppe@@
pping
pragmatic
primor@@
princet@@
print
prinzipi@@
proc@@
professors
progression
promotion
prostatak@@
prot@@
protons
prämis@@
ption
pulse
punc@@
put
quarter
quir@@
quisi@@
rabbits
rais@@
raz@@
rea@@
reach
rebel
recording
records
reef
related
remot@@
render
repeti@@
resources
respon@@
retin@@
retri@@
rider
ridi@@
rig
rings
rip
robot@@
rolling
rolls
rooms
rors
rough@@
rut
sabbatical
sali@@
saturday
savan@@
says
schnelli@@
schwie@@
schöpft
sciences
scotland
screening
scul@@
sea@@
search
seawater
seba@@
secret
sedi@@
seele@@
seins@@
selbsth@@
semi-@@
sensation
sergeant
sf
shadow
sham@@
shape
shell
ship
shr@@
shrimp
sible
silent
simp@@
simpler
site
six@@
skeptic
sketch
slide
slides
snake
sneak@@
sni@@
soc@@
sohn@@
sol
sole@@
solution
som
spears
speichel@@
spelling
spider
sports
sprawl
sprüche
sput@@
sque@@
states
statist@@
sterile
stic@@
stift@@
stocks
stories
stran@@
strie@@
studies
style
substit@@
sui@@
sunday
sunshine
supermassive
surge
surro@@
sweat@@
sweet
swi@@
swiss
syl@@
syndro@@
tablet
tail
tail-@@
tain@@
talents
tape
targe@@
tative
tatto@@
tax
teach
tei
tells
tentei@@
tesz@@
that
therine
thie@@
things
third
thyl@@
tia
tigkeits@@
tipping
tooth
topics
tops
tor-@@
tory
tos@@
towers
toy@@
transistors
transmitter
trillion
trou@@
tst
tters
ttest
tural
ture-@@
tutor
uh-@@
umin@@
unger
unterschie@@
update
upon
upper-@@
uses
usion
usual
vaccin@@
vagin@@
valent
vations
venice
ventilation
verbess@@
verbor@@
verdeut@@
verknü@@
verlin@@
verschwör@@
vivi@@
voices
wal-mart
walls
warmer
waters
wax
way@@
wea@@
weal@@
well-@@
wiki
winden@@
wise
wiser
won@@
woo
words
xes
xic@@
yal
yard
year
yfish
ze-@@
zero-@@
zim@@
zitäten
zuru@@
zusä@@
³
¼
×
ä
ê@@
í
önt@@
überfis@@
β
-a-@@
.7
1,500
1.2
199@@
20th
25,000
3,000
3.5
300,000
4,000
400,000
`@@
aba
abad
abalone
abholz@@
abhän@@
accum@@
acts
add
adel@@
ads
advan@@
adventures
agents
aging
airplane
ais@@
al-qaeda
albu@@
alian
allel
allmä@@
alum@@
ambia
amin@@
amount
anderth@@
ane@@
anian
ankli@@
answers
antere
antoni@@
ants
anx@@
apar@@
apocalyp@@
appeal
arbit@@
arch
archite@@
architectural
arguments
aring
arist@@
around
arrangements
arrest
artist
ase-@@
aser
asha
asia
asing
ask
asking
assem@@
assu@@
astronomical
atomic
atra@@
atro@@
attribu@@
au-prince
aud@@
augenblick@@
augmented
automated
away
awesome
aya
backup
bail@@
balan@@
bang@@
barrels
bauchspeicheldrüsen@@
bean
beard
bed
beef
befesti@@
behavi@@
beina@@
bekan@@
besessen@@
beson@@
best-@@
bey@@
beyond
bible
bicycle
bill@@
biotech
bird@@
bloo@@
blood@@
bn@@
boat
bold
bolt
boltz@@
bono@@
booth
bound
breath
brew
bris
broccoli
brus@@
brush
bruttoinland@@
bug@@
buil@@
buildings
bulg@@
bull@@
burial
business@@
buzz
byr@@
cals
can-@@
canal
carbon
cassin@@
castle
casual
cat
catalog
cathedral
cats
caution
cav@@
centi@@
cet@@
chart
charter
cheap@@
chev@@
chief
chir@@
choices
christop@@
chun@@
citi@@
ckets
cking
clas@@
climber
clock
coal
coalition
coding
cold
colony
color
colors
come
comm@@
common@@
communications
condom
confidence
contr@@
convention
cop
core
corn
corporate
cos@@
cost
course
crea@@
credit
cris@@
crisis
crocodile
cross
crowds
cun@@
cups
cure
cycli@@
dation
dawn
days
dder
deb@@
decomp@@
ded
degree
dehy@@
dence
denial
derick
deta@@
determin@@
device
diagram
diamonds
diesel@@
diffusion
dip
dipl@@
direc@@
directors
disc@@
disco@@
dispar@@
disrup@@
district
diver
divers
doctor
dokum@@
door
dopamine
download
dows
drift
drug
drums
drü@@
duc@@
duld
dule
dutch
ean
ear
earth-@@
earth@@
eastern
ec
ech
ecuad@@
edin@@
edited
edu@@
eigh@@
einflö@@
elder
electrical
electronics
elling
embar@@
embassy
embrace
ences
encyclo@@
engine@@
enough
ental
environmental
epide@@
episo@@
equipment
equivalent
erlau@@
ery
essive
every
everybody
evo@@
exam@@
excellence
exer@@
exploration
exports
fantasy
farmers
farther
fat
fatal
features
fide
fies
fighters
filters
final
fingers
fits
five
flag
flash
flight
flower
foli@@
forschungser@@
fortun@@
fossils
foun@@
four-@@
four@@
freest@@
fren@@
friend@@
friends
from
fungus
fuse
gator
gdp
geeks
geeky
generative
genomics
geny
genöss@@
geome@@
germ
german
gesche@@
gesell@@
gessen
ghost
ghra@@
gian
giften
girl@@
give
globe
gments
gner
gom@@
goodbye
grams
grave
gravity
greater
gression
grid
griechen@@
groups
growth
guar@@
guay
gyp@@
habili@@
had
hammad
happen
head-@@
heaven
hed
heights
hidden
highl@@
himal@@
himalayas
hio
hip@@
hiro@@
hiroshi@@
historic
hits
honey@@
hop
horizon
hour@@
hous@@
housing
humble
hump@@
hund@@
hunter-@@
hunters
höh@@
ice@@
icy
illas
illin@@
illness
illum@@
imi@@
immobili@@
impres@@
impulses
indivi@@
infin@@
inher@@
inid
inland@@
inside
instruc@@
inte@@
inter-@@
interactive
intern@@
interstate
interviewed
into
ipo@@
isha
issi@@
itre@@
jihad
jokes
jong@@
journ@@
jul@@
justice
juven@@
kapa@@
kapitä@@
kilometers
kinds
kiss
kles
knife
know
kommer@@
konne@@
kop
krankheit@@
ktori@@
laboratories
laugh@@
leaders
leadership
least
lectures
legen@@
legend
legs
lemm@@
leth@@
liebl@@
life@@
likes
limitation
lines
linked
living
log
long@@
lords
lymp@@
lyri@@
maccre@@
macinto@@
magazines
main
mainfra@@
malig@@
mandate
maneu@@
manipul@@
masterpieces
mate
mats
matthe@@
may
mble@@
memor@@
message
messaging
messing
metho@@
method@@
metric
mic
micro-@@
mild
mile
miles
mind
minde@@
minds
ministers
minnes@@
minutes
miserable
mitter@@
mock@@
modular
moglo@@
moham@@
molas
mone
month
mos@@
mother@@
mouse
multinational
mushroom
muslims
naj@@
narrative
nash@@
near
ned
nerve
netfli@@
neur
next
night@@
nings
nitri@@
nity
nonprofit
norm@@
notes
nucleus
nug@@
occu@@
occupy
of-@@
offi@@
officer
offshore
okla@@
ologist
omen@@
omet@@
oms
onic
onics
oon
operator
opping
opport@@
opportunity
optimis@@
oral
organic
origins
osau@@
oth
othe@@
ottet
oven
oy@@
paci@@
paid
pakistani
paleont@@
paradise
partnership
passes
pathogens
patients
pavilion
penguin
performer
perha@@
perpetu@@
pets
pflanzung
philanthro@@
phones
phosph@@
physical
pian@@
picas@@
picture
pielen
pig
pinn@@
pit
pl
plaque
plastic
play-@@
ple
polizi@@
potatoes
powerful
ppi
ppy
prince
privi@@
profession
profitable
profits
progress
progressive
promis@@
promp@@
pron@@
propag@@
proposition
prosper@@
proteom@@
proteomics
pup@@
purple
push
puts
qat@@
quali@@
queline
quick@@
radical
ramen@@
ranging
rapid
rati@@
read@@
reas@@
rec@@
redesign
reihen@@
relief
rendering
rentice
reper@@
resolution
resource
respir@@
retreat
reverse
rhe@@
rhin@@
rhythm
ribb@@
richt
ries
rights
rind@@
robots
rockef@@
rout@@
rub@@
sabba@@
sacred
safety
sala@@
say
scar@@
scared
schied
schrecken@@
scientist
scottish
searches
second
sed
series
serv@@
shack
shake
shall
shield
ships
shook
shooting
shop@@
shrin@@
sibi@@
simpli@@
singular
sins
sixth
ske@@
sket@@
sklaver@@
slauf
slim
slope
slu@@
smooth
soccer
soci@@
soup
southwest
spag@@
spark
species
spikes
spins
spl@@
splas@@
spoo@@
spots
squat@@
stac@@
stages
stair@@
stat
stead
sted
stereo
stian
stones
stores
story@@
strands
streams
subsi@@
suck
sud@@
surround
suspension
symbo@@
symptom@@
syndrome
tagged
tain
takes
tana
tap
tapes
target
tayl@@
tehr@@
term
teurs
texts
theft
there
therlands
thesie
thieu
thought
thousand@@
three
thumb@@
tial
ticals
tics
tifi@@
tiles
times@@
tionist
tions
tish
tissu@@
tles
tment
toi@@
tok@@
tone
too
tool@@
top-down
touch
tral
transduc@@
transfer@@
transfers
transmit@@
treas@@
trips
trum
tty
tube
turi@@
turtles
two
type@@
tzchen
u.s
ubi@@
ulate
ulture
ungsvermögen
univer@@
untersu@@
uplo@@
usalem
ushahi@@
uter@@
uv
vag@@
varie@@
vau@@
vegetari@@
vehicles
vei@@
vels
vents
verhin@@
vermäch@@
vet
vice
viewers
vine
virgini@@
visual
voice
vory
wait
watch
waving
wee
weed
ween
weih@@
welcome
westerners
wet
whale
wher@@
whi@@
why
widerstand@@
winds
wisdom
with@@
wonder@@
wooden
world-@@
worm
worthy
wö@@
wüs@@
yed
yesterday
yi@@
ym@@
yo-@@
yourself
zahl-@@
zine
zing
zist
zones
zuwerden
zz
©
®
äle
äufer
å@@
ön
ø@@
ú@@
ürtel
ā@@
*
-fi
.b.
1,100
12,000
14th
15,000
2,500
200,000
500,000
6,000
60,000
\
_
about
above
acade@@
access@@
accor@@
accountability
achie@@
aching
aci@@
acity
acqui@@
acres
across
acting
activ@@
activities
adaptive
address
adequ@@
adh@@
adju@@
advent@@
advis@@
aerodynamic
affir@@
again
aged
agert
agon
agre@@
airbn@@
aked
akes
alexand@@
alive
already
ambassador
ambition
ambulance
amei@@
americas
amie
aming
amounts
ancy
angiogenesis
angle
angry
animal
annen
antiretro@@
anwei@@
any@@
apart
appli@@
application
appreciate
appreciation
appropri@@
arc
arche@@
archives
arez
arian
arians
aries
armu@@
arn@@
arri@@
artefa@@
arthri@@
asse@@
assembly
assess@@
asset
assets
associated
aster
astern
astic
astronau@@
asy
asyl@@
ations
atmospheric
ature
au-@@
aufgab@@
aunt
australia
australian
authority
automatic
aviation
awar@@
awes@@
awi
axis
background
bacteri@@
bai
baker
barak
bath@@
bats
battery
bax@@
bears
beat
befehl@@
behalf
benef@@
bent
bequ@@
berichter@@
berkele@@
berück@@
bettet
bever@@
biased
bicycles
bid
bills
biomimicry
biosphere
biotechnology
bipolar
birds
bitter
black-@@
blast
blauf@@
blend
bling
blink
blob
blow
bomb@@
boo
boomers
border
botan@@
bottom
boun@@
bral
bras@@
brave
brazilian
brea@@
break
bribes
brick
britain
brium
broad
broadcast
brok@@
bubble
bubbles
bucks
buddhist
buddy
build
bullet
bump
bust
busy
butt
butt@@
calcium
calcul@@
calculator
cally
calm
campaign
candi@@
capac@@
carbon-@@
carbonate
cardboard
cardi@@
care@@
caregi@@
carne@@
carni@@
carol@@
cart
cartoonist
casting
catch
cate
cause
ced
cement
cence
centr@@
centu@@
ceram@@
cere@@
cers
ces@@
cess@@
chain
chains
chal@@
champi@@
channel@@
charge
cheap
checklist
cheese
chemist
chie@@
child@@
ching
chocol@@
choir
christians
christmas
chy
cial
cil
cils
circuit
civil
clari@@
clash
classic
cle
clear@@
cler@@
click
clinical
clone
clusters
coast@@
coffee
collective
color@@
coma
combin@@
coming
commander
commer@@
commerce
commercial
commodity
common
commun@@
complex
compli@@
compos@@
compu@@
computation
computational
concepts
condi@@
conduc@@
cone
conference
connect
connected
consciousness
conservative
const@@
construction
consumer
contact
contemporary
contest
continents
continuum
controllers
copy@@
cord
corner
correctness
corrup@@
cosmic
cotton
count
counter
coura@@
craft
crawling
crazy
creation
crimin@@
cro
cross-@@
cross@@
crossing
crow@@
crying
cryp@@
cting
cts
cular
cultural
culture
curve
cus@@
customer
customization
cut
cyber
cycle
dafri@@
damerika
dancers
danger
dark
dattent@@
day-@@
dding
deci@@
decision
dee@@
deer
defense
defle@@
degradation
degrees
delight
demand
democratic
demographic
demos
deni@@
depen@@
dependen@@
dependent
deprivation
deriva@@
desert
deshow
despre@@
destination
destiny
destruc@@
destruction
detection
detro@@
developer
devices
devil
devo@@
dges
diagnostics
dial@@
dic
dice
did
diet
digest
digi@@
dinosau@@
dinosaur
direction
dirt
dise@@
disease
disk
dispu@@
dispute
distingu@@
distribution
dity
dive
divine
diving
division
dle
domain
done
dones@@
doub@@
dove
dreams
dress
drill
drinks
drive
drop@@
drunk
duck
due
dug
dumping
duol@@
dust
dwar@@
däch@@
däne@@
early
easter
eat
ebol@@
eco-@@
ecological
ecology
econ@@
econom@@
economy
edge
eding
effect
egyp@@
eing
eland
elections
electri@@
electricity
electronic
elementary
elephants
eless@@
elessly
eling
else
else@@
ema
ema@@
embr@@
emergent
employee
empowerment
enemies
engineers
engines
enh@@
ening
enterprise
entrance
entrepreneurship
entrop@@
environment@@
epic
eping
epiphany
equals
equi@@
eral
erder@@
erfü@@
ernt
error
erzä@@
escape
esis
esn
essential
eternal
etes
europe
european
euros
evapor@@
even@@
evening
everything
excell@@
execu@@
expe@@
expensive
experience
explained
explor@@
explorers
expression
expressive
exquisi@@
exten@@
extension
extraordinary
eyes
ez@@
fabric
facial
facili@@
factors
fai@@
fake
falcon
fame
families
fare
farms
feeds
feminine
fertili@@
fibonacc@@
fic
fied
fier@@
fifty
fighting
figuration
figure
files
fill@@
finance
finding
fingertips
firm@@
first-@@
fiscal
fishing
flipped
flowers
flush
flüs@@
foc@@
focal
folding
follo@@
foo@@
fool
fora@@
foreign
fores@@
formal
forms
forward
found
founder
frac@@
fragments
freeway
frequent
fresh
friday
frog
front-@@
frontier
fruits
fty
fu
fuel
ful
fun
function
furi@@
gage
galactic
gallon
gamma
garb@@
gardens
gate@@
gear
gedäch@@
gefäng@@
gement
genetics
genius
geography
geological
germaßen
germs
geseg@@
gesprä@@
gespü@@
gets
gewaltt@@
ght@@
ghter
ghts
gled
glow
goat
goes
going
gosh
gotta
gover@@
grabs
graduate
grandchildren
grass@@
grassroots
grew
grip
grow@@
guarantee
guard
guided
guine@@
guinn@@
guns
guy
gym@@
gymn@@
habit
hackers
haltens
handi@@
hard-@@
harmony
harvesting
haul
hava
health@@
healthcare
healthy
hearing
hello
help@@
hid
hide
hire
hive
hmung
hockey
holders
holes
holm
holy
homeland
hometown
honesty
honor
hori@@
horse
horses
hosp@@
hospit@@
host
hub
humanities
hurricane
hurts
hydrogen
hyperbolic
hypothes@@
ial
ians
ical
iceland
icon@@
idea
identity
ign
illumin@@
illustration
images
imagine
imaging
immel
immersion
imperative
implanted
import@@
impression
inches
inclusive
incorpor@@
incredi@@
ind@@
indians
indus-@@
inferi@@
infrar@@
injury
innocent
innov@@
inser@@
instinct
institutional
intense
interest
interrup@@
inters
ints
inven@@
invi@@
invisible
iny
ireland
irgendet@@
irrigation
iso@@
issues
itation
items
iti
ito@@
jacket
jaze@@
jeden@@
jelly
journals
judge
jungle
justify
kable
kee@@
kens@@
kent@@
kenyan
kill
killers
killing
kland
klear@@
konfer@@
kord
korri@@
kyo@@
lack
ladies
lamb
lanes
language
lative
laughing
launch
laure@@
lawr@@
laws
lawyer
lead
learned
learning
leave
leaves
lebanon
lec@@
lemon
leopard
less@@
lesser
lever@@
lic
ligh@@
light-@@
lights
like@@
limited
lindber@@
lip
local
location
logic
london@@
long-@@
loo@@
losis
loss
lossen
loud
lovers
luck
machin@@
machines
macin@@
macro@@
mada@@
madagascar
madness
magin@@
makes
making
malay@@
manian
mantis
manual
many
marri@@
marvel
mash
mask
mass-@@
masses
mates
mathematical
matters
mauri@@
mauriti@@
mble
mclu@@
mea@@
meet
meets
memories
menschheits@@
mentation
mentors
metab@@
method
mexic@@
mexican
mid-@@
midd@@
migran@@
mile@@
mines
ministry
minster
mirror
mise
misery
missile
mitoch@@
mize
mmers
money
monopo@@
monopoly
monsters
mood
moor
morning
most
mother
moti@@
move
mption
much
mum
mum@@
mush@@
musical
must
mutually
myhr@@
nago@@
nail
najmu@@
named
nanotechnology
narra@@
neck
need
networking
neum@@
neurological
neurons
never
neys
nian
nic@@
niem@@
nimm@@
nitro@@
nitrogen
noby@@
nomin@@
non-profit
nonsense
northern
nose
nostal@@
nothing
nove@@
novel@@
number
nuts
obe@@
oblivi@@
observation
octopus
of-the-@@
off-@@
offic@@
oles@@
ological
olympics
omi
once
ond
oped
operated
oppon@@
opportunities
optical
ored
organized
orient
ories
origin
ortho@@
otro@@
ough@@
oul
ousa
outcomes
outdoor
outsi@@
over-@@
oze@@
pages
pain
pain@@
paki@@
pal
palace
paper
parasi@@
pare
partici@@
participat@@
partis@@
parts
patents
paths
patter@@
patterns
paus@@
pcar
peac@@
peaks
pean@@
peanuts
pear@@
ped
pede@@
peel
penel@@
penet@@
penn@@
percent
percep@@
perception
performances
perpe@@
ph.@@
phasi@@
phic
philipp@@
philosophy
physics
pid
piece
pies
pill
pilots
pip@@
pipe
planets
planners
planted
plastics
players
playing
pleasure
plen@@
plug
plug@@
pluto@@
pluton@@
ply
pment
pneum@@
political
pon
poor
pop-up
pops
portfoli@@
posters
potat@@
pounds
poverty
powder
predators
predic@@
premi@@
premier@@
presence
present
presi@@
prevent@@
pride
primate
printer
priori@@
prise
prison
probability
probes
proce@@
process
processor
producer
product
progno@@
progra@@
programmed
programs
prohi@@
projects
proli@@
prolifer@@
proliferation
propri@@
prospect
prox@@
psychological
puber@@
publishing
purchasing
pursu@@
pünk@@
qaeda
qi
quake
quality
quantum
questions
racy
radiation
rage
raid
railroad
rainbow
rainforest
rane
ranges
rant
rass@@
rates
rather
rating
ratings
ratio
rations
rays
readers
reads
realm
receive
receiver
reci@@
recognition
record
recovery
reflective
refra@@
refu@@
reinventing
relations
relatives
relativitäts@@
relax@@
rele@@
release
rels
remote
repe@@
reports
represent@@
representation
republican
republicans
requ@@
requi@@
residen@@
resilience
resort
response
responsibility
responsive
ressing
restore
rethink
retirement
revealed
rhy@@
richar@@
ride
rides
rip@@
rises
rituals
robin@@
rocket
rolled
roo@@
room@@
root
rouge
round
round@@
rovers
rows
rucks@@
ruins
rule
runner
runs
russi@@
sad
safe
safer
sages
said
sake
sales
samar@@
sandwi@@
sanghamit@@
saraje@@
sations
sava@@
scale
scanning
scare
scat@@
scenario
schafter
scheinend
schieden
schizophren@@
schlicht@@
schließend
school@@
schwier@@
scope
scra@@
screens
scru@@
seas@@
seasons
secon@@
second-@@
seeds
sek
select
self-assembly
sensitive
sensors
sensus
separation
sequest@@
sers
serve
sest
settlement
seus
sev@@
sh-@@
share@@
shark
sharp
sheet
sheit
sher
shift
shine
shirts
shock
shoes
shut
sic
sick
sight
silhou@@
silic@@
silik@@
silk
silly
simil@@
sincla@@
singapore
single-@@
sisters
sitting
six
size
skeletal
skeptical
skies
skill
skir@@
slam@@
slas@@
slave
smarter
smells
smil@@
smile
smit@@
sna@@
snap@@
soap
sober@@
solu@@
some@@
something
soon
sophi@@
sors
sorts
sourced
sover@@
sowjet@@
spaces
speak
specialist
spect
speeds
spfle@@
spheres
spinal
spiral
spiri@@
spread
sprochen
square-@@
squared
squid
stability
stable
staff
stard
stare
started
stations
statistical
stered
steward@@
stewardship
storen
storms
stral
strangel@@
strated
strategic
straw
streets
string@@
strug@@
stuck
study
stuff
subjects
success
success@@
suff@@
suit
suitable
sulfide
summarize
summit
supernatural
support
supports
surface
surgeons
surgery
surveillance
surveys
sustain
sustainable
sweat
swee@@
switching
sylv@@
symmetri@@
symmetry
symphony
synchroni@@
synthesi@@
synthetic
tably
tad@@
take@@
tality
tami@@
tangible
tant
tar
tarahum@@
tary
taskrab@@
tating
tch
teaching
teenage
teenagers
telecommunications
telescop@@
tention
tepp@@
tered
terior
terior@@
terran@@
terrible
teufelsk@@
tex
textile
thank@@
thanks
thanks@@
theory
therem@@
thermal
thes
thetic
thing
thir@@
thou@@
thoughts
thousand
thouse
threat
through
through@@
ticul@@
tied
tiefst
tigers
tiny
tip
tist
tition
tivity
tlen@@
tnis
toile@@
toilet
toire
token
tomato
tomorrow
tonight
topic
touched
tougher
toxic
toy
track
tracks
trading
traff@@
trage@@
trait
traits
transmission
transp@@
transparency
transportation
travel
tress
trials
triangle
tricky
tropical
trun@@
try
ttaus@@
tuber@@
tubes
tuesday
turkish
turn
turtle
tutor@@
twe@@
twenty
twice
twist
twisted
two-@@
tza@@
u.k.
ual
uit
ully
ulti@@
ultima@@
ultrasound
ultraviolet
umfan@@
unclear
under-@@
underground
underwear
unit
units
unlock
unst
updated
upright
urbani@@
uru@@
usst
utter
vals
valu@@
values
valve
variables
vary
vatory
vehicle
veillan@@
vel
veland
velocity
vent
verbal
verhäl@@
versions
verte@@
very
vibr@@
vices
victor@@
viewer
viral
visitors
voic@@
vola@@
volcan@@
volum@@
volun@@
vores
vors
voting
w.@@
wachst@@
waiting
wake
walked
walks
wana
wanden
ware@@
warfare
warrior
wash
waves
wear
wed
wedding
wee@@
weekly
weltan@@
weltanschau@@
went
wers
wheel
wheel@@
wheels
whip
whirl@@
winn@@
winning
wins
wis
wiscon@@
witn@@
wives
wiz@@
wl
wolfra@@
wonders
worker
workers
working
worl@@
writer
xy
yel@@
yellow
yemen@@
yep
yers
ying
yor
yos
younger
youngest
ywood
zambia
zept
zeros
zess@@
zho@@
zop@@
£
¾
à@@
á
ädt
è
ë@@
ï@@
ô@@
ökon@@
ý@@
ō@@
œ@@
š@@
к@@
€
你@@
葱
送@@
﻿
，
