<unk>
<pad>
<s>
</s>
,
.
the
and
to
of
a
that
i
in
it
you
we
is
&apos;s
this
so
&quot;
they
was
for
are
--
have
what
on
but
with
can
?
&apos;t
there
about
be
as
all
at
do
not
one
&apos;re
my
people
like
if
from
now
he
an
these
just
:
or
our
very
because
when
how
out
me
know
by
up
them
going
here
more
think
see
which
had
really
your
get
who
were
their
would
then
&apos;ve
us
&apos;m
world
some
time
don
actually
has
into
things
way
years
will
where
other
well
go
no
want
could
said
make
been
right
something
she
first
two
look
those
than
little
thing
also
got
new
his
much
back
say
most
life
over
work
only
even
take
kind
did
need
many
good
why
lot
around
;
&apos;ll
down
let
different
every
come
through
her
use
doing
same
put
being
three
day
called
any
percent
&apos;d
made
today
great
tell
after
able
talk
year
big
its
another
human
fact
didn
last
change
find
own
went
idea
before
should
started
thought
give
never
course
story
better
show
again
off
important
does
problem
thank
him
next
start
ago
still
system
came
might
part
each
brain
together
technology
bit
place
few
used
water
between
long
mean
looking
too
end
done
doesn
maybe
question
found
love
children
example
point
sort
&apos;
million
wanted
data
whole
school
understand
four
man
un@@
real
away
may
try
re@@
everything
live
call
person
believe
always
10
women
ever
working
five
trying
less
money
kids
feel
ed
using
second
design
country
space
times
took
number
power
help
ing
old
!
thinking
light
information
create
food
quite
in@@
means
enough
future
ted
probably
become
getting
comes
energy
best
making
am
small
interesting
sense
without
left
africa
es
building
play
happened
stuff
home
says
talking
body
social
dollars
ask
coming
pretty
anything
science
goes
earth
room
simple
city
else
side
half
happen
makes
told
lives
living
saw
ways
basically
happens
imagine
project
seen
-@@
bad
countries
picture
across
such
20
days
okay
once
moment
build
hard
yet
asked
move
case
having
experience
health
ideas
care
family
high
later
learn
book
while
inside
problems
reason
everybody
process
six
nothing
business
computer
hand
young
planet
both
states
car
almost
billion
line
looks
mind
ok
within
global
history
single
age
child
wrong
cells
remember
set
men
saying
true
already
far
oh
cancer
form
keep
possible
heard
looked
guy
sure
yes
bring
music
ated
war
beautiful
nature
matter
answer
hope
often
top
dis@@
y
months
built
open
amazing
piece
whether
face
art
god
india
video
works
universe
isn
read
o@@
sometimes
someone
education
decided
order
per
since
united
under
instead
...
myself
words
couple
until
group
taking
exactly
places
stories
species
research
language
community
government
s
30
turn
kinds
control
somebody
everyone
yeah
completely
word
level
middle
state
de@@
house
though
minutes
mother
ourselves
became
public
wasn
stop
students
50
itself
job
internet
must
animals
woman
co@@
turns
head
news
rather
heart
game
run
gets
c@@
share
happy
red
themselves
environment
america
company
huge
large
learned
model
ones
ate
ating
o
er
study
guys
happening
china
hours
name
perhaps
third
created
di@@
hear
won
couldn
night
along
sound
ting
100
lots
s@@
disease
society
worked
front
natural
a@@
friends
oil
questions
knew
li@@
particular
e@@
con@@
en@@
learning
land
ma@@
ocean
figure
&#91;
&#93;
al
air
gave
american
finally
machine
least
moving
against
early
others
seven
takes
during
past
wonderful
area
century
ts
ability
difference
needs
taken
close
thousands
culture
outside
shows
y@@
d@@
market
based
changed
entire
systems
image
parts
ro@@
view
free
population
whatever
given
yourself
cannot
audience
cell
eight
interested
15
turned
easy
beginning
difficult
ers
green
leave
ation
terms
seeing
eyes
grow
spend
buy
size
powerful
black
certain
economic
p@@
king
behind
ous
york
media
ti@@
walk
e
week
began
death
paper
center
fish
full
amount
team
common
tried
cities
gone
hands
test
rest
simply
value
cost
father
born
humans
longer
needed
scale
parents
g@@
local
self-@@
feet
incredible
force
growth
led
structure
field
deal
lost
step
i@@
quickly
realized
stage
surface
c
sitting
spent
either
complex
se@@
books
wouldn
known
behavior
companies
pay
watch
weeks
blue
dna
eat
girl
national
south
reality
fun
d
friend
ly
white
animal
changes
fly
brought
felt
opportunity
die
growing
b
sea
feeling
write
anyone
street
nice
miles
son
developed
poor
wrote
technologies
average
ground
ri@@
t
theory
t@@
u.s.
economy
act
material
images
patients
p
scientists
patient
political
short
speak
forward
ding
morning
u@@
40
po@@
an@@
discovered
program
ar@@
ice
climate
cut
cars
movement
numbers
seems
film
giving
absolutely
gives
met
shape
starting
map
attention
literally
areas
knowledge
k
nobody
playing
challenge
ded
personal
bottom
deep
individual
physical
sun
running
phone
ra@@
ates
realize
anybody
chinese
english
creating
over@@
recently
understanding
dark
result
fast
tools
alone
key
seem
compassion
designed
hold
im@@
incredibly
late
relationship
ch@@
issue
knows
modern
telling
access
millions
obviously
rate
changing
died
focus
wall
solution
b@@
developing
hundreds
industry
save
showed
evolution
lab
le@@
north
product
clear
cool
pro@@
car@@
lived
blood
law
generation
haven
kid
perfect
available
normal
table
guess
please
als
be@@
box
development
experiment
innovation
ds
girls
university
materials
writing
hour
major
12
especially
k@@
le
pictures
reasons
web
am@@
medical
revolution
talked
becomes
games
support
west
begin
bigger
happiness
l@@
produce
inter@@
office
ac@@
baby
m@@
present
teach
type
allow
beyond
explain
resources
solve
stand
digital
drive
meet
tiny
aren
m
voice
online
situation
color
europe
action
special
groups
lo@@
robot
schools
computers
rules
si@@
teachers
involved
network
pe@@
25
dead
device
effect
similar
ab@@
activity
impact
sts
v@@
general
pre@@
quality
scientific
al@@
east
towards
several
truth
fear
bo@@
ings
issues
nine
worth
boy
ic
security
hundred
putting
as@@
basic
minute
soon
asking
certainly
indeed
sounds
suddenly
uses
vision
bu@@
everywhere
examples
low
ni@@
projects
chance
mass
class
evidence
risk
notice
particularly
th@@
anyway
eye
listen
ready
wants
ks
starts
totally
wait
bed
de
moved
object
out@@
per@@
skin
student
under@@
walking
e-@@
choice
for@@
moral
com@@
month
village
nuclear
showing
smart
ze
ans
biggest
exciting
hiv
positive
potential
stay
fall
grew
h@@
message
solar
wish
mine
mo@@
sit
wind
page
pattern
ended
journey
ha@@
n@@
send
software
/
hit
tells
follow
non-@@
reach
code
largest
ons
pick
college
measure
connected
forms
n
r@@
road
teacher
hospital
onto
version
medicine
add
carbon
speed
develop
further
me@@
ses
watching
buildings
democracy
jobs
poverty
african
extremely
named
pa@@
strong
break
fire
google
h
likely
lose
period
te@@
ist
or@@
success
visual
ant
approach
plan
products
safe
ve
—
60
board
door
extraordinary
gas
points
biology
continue
electricity
ged
impossible
lead
du@@
mom
usually
ent
except
mis@@
sent
standing
tions
eventually
objects
rich
traditional
cause
david
ps
&amp;
among
expect
peace
larger
movie
sa@@
sc@@
screen
series
serious
stars
trees
allowed
conditions
essentially
plants
so@@
doctor
g
list
organization
position
results
80
beauty
brains
creative
fantastic
goal
international
l
st@@
wife
11
perspective
seconds
sh@@
sorts
spread
crazy
f@@
older
somewhere
x
ally
at@@
fine
reading
taught
w
written
ca@@
himself
mi@@
source
supposed
foot
killed
somehow
bacteria
camera
individuals
lines
meaning
thousand
complicated
crisis
excited
ge@@
mon@@
shot
shown
upon
worse
on@@
site
truly
physics
se
ta@@
higher
interest
models
sex
therefore
tree
vi@@
expensive
square
successful
architecture
drug
ho@@
tic
training
trust
es@@
famous
fight
finding
kept
leaders
treatment
z@@
above
fully
te
200
cu@@
western
drugs
faster
main
military
ru@@
ty
zed
zero
er@@
response
u
context
dream
favorite
pieces
sell
alive
families
he@@
pain
region
role
smaller
to@@
touch
fundamental
ne@@
sub@@
ad@@
ar
concept
dad
genes
is@@
meant
mental
studies
th
throughout
tool
est
hot
neurons
service
talks
communities
listening
thanks
actual
cases
clearly
content
including
mar@@
rise
bunch
ex@@
ine
invented
price
town
earlier
machines
math
18
beings
central
choose
costs
kill
recognize
slow
virus
connection
hey
however
progress
tion
tra@@
y-@@
active
aid
connect
dance
driving
familiar
increase
legs
although
dog
greater
income
patterns
production
rights
sky
solutions
direction
dollar
hi@@
j@@
la@@
lower
magic
mu@@
policy
strange
ties
americans
bi@@
humanity
zing
dangerous
decisions
waiting
draw
president
skills
su@@
tend
travel
arm
none
record
store
tv
ce
ch
el@@
flow
wonder
2
allows
freedom
protect
remarkable
slide
teaching
violence
d-@@
der
exist
hole
john
song
do@@
floor
healthy
waste
500
ants
anywhere
function
ity
ment
plant
plastic
sing
surgery
anymore
conference
forget
glass
robots
becoming
bodies
critical
ction
forces
gu@@
immediately
museum
pi@@
practice
ran
range
rule
ship
tive
conversation
current
effective
high-@@
intelligence
it@@
no@@
op@@
religion
subject
train
um
understood
unfortunately
values
useful
weren
flying
gra@@
par@@
press
provide
self
specific
babies
clean
fi@@
gene
minds
photograph
politics
18@@
bank
cold
consider
des
final
les
man@@
ness
r
survive
creativity
enormous
evolved
fl@@
genetic
loved
pull
treat
w@@
ci@@
cultural
doctors
environmental
fuel
lights
mars
massive
sorry
star
1
90
obvious
performance
speaking
consciousness
walked
website
artist
directly
eating
greatest
mostly
raise
various
wi@@
2@@
aware
bar@@
engineering
feed
focused
instance
possibly
produced
ations
decade
chemical
cover
following
ge
indian
private
television
types
win
cor@@
genome
ling
original
stick
super@@
daughter
fe@@
institutions
ism
near
park
birds
extra
search
whose
16
financial
london
mer@@
mission
passion
quick
sat
secret
below
forth
helped
meeting
services
shared
weight
dr.
island
networks
push
re-@@
societies
tu@@
ahead
capacity
career
diseases
governments
police
summer
sustainable
aids
character
mobile
nation
one-@@
paid
sp@@
ten@@
bought
experiments
go@@
levels
recent
related
temperature
charge
chris
ck
slightly
twice
unique
ality
communication
complete
complexity
designers
funny
markets
moon
path
worry
300
afghanistan
ba@@
em
emotional
explore
industrial
laws
sleep
tri@@
birth
capital
degrees
etc
fit
heat
inspired
straight
terrible
wa@@
ancient
artists
bill
causes
cra@@
devices
infrastructure
ked
ms
ou@@
carry
conflict
mor@@
significant
spending
task
trade
biological
challenges
molecules
played
atmosphere
broken
discover
har@@
memory
ors
published
scientist
10,000
bs
california
decision
dying
purpose
ter
track
urban
$
ders
event
oxygen
pass
sharing
willing
workers
1,000
boys
effects
z
bringing
closer
electric
hu@@
micro@@
pressure
structures
trouble
ves
war@@
yellow
apart
asia
bri@@
differences
drop
na@@
qu@@
race
rock
trial
3@@
ator
ators
blind
check
communicate
decide
sign
ste@@
supply
total
corner
highly
party
passed
richard
seemed
standard
answers
bird
em@@
forest
foundation
hearing
particles
argument
ches
condition
ct
cur@@
efficient
ian
noticed
popular
radio
term
ess
gi@@
phenomenon
x@@
70
address
can@@
ces
easily
ful
return
worst
14
agree
choices
colleagues
creates
da@@
nearly
organisms
possibility
responsibility
tremendous
improve
knowing
mouse
programs
surprising
window
-year-old
decades
fied
giant
gotten
her@@
leads
necessarily
notion
prison
studying
achieve
ah
balance
coffee
farmers
feels
fix
helping
iraq
noise
planets
star@@
ton
bone
diversity
el
figured
interact
lucky
basis
bio@@
bread
citizens
differently
flight
fy
landscape
mountain
ously
reduce
religious
up@@
stopped
ter@@
typical
ance
ars
core
da
moments
professor
relationships
turning
aging
brings
ce@@
cks
fairly
hand@@
japan
lt
missing
pu@@
respect
stem
ters
text
tissue
ball
boat
civil
discovery
fa@@
faces
ging
imagination
influence
ments
opportunities
painting
throw
3
bur@@
cal
definition
designer
dy
easier
elements
emotions
holding
ma
mathematics
mr.
organic
organizations
pen@@
shift
suffering
ultimately
year-old
5,000
calls
colors
despite
effort
flu
forever
join
ke
lesson
mark
ring
slowly
trained
benefits
competition
engine
engineers
french
graph
hair
leading
mit
nations
os
sting
bits
bridge
fields
matters
meat
meters
negative
ol@@
otherwise
sand
stone
24
afraid
begins
benefit
breast
card
fu@@
ga@@
ir@@
streets
trans@@
apply
circle
creatures
engage
foreign
held
ja@@
opposite
profound
sister
visit
adults
ages
ary
base
block
degree
distance
entirely
female
grade
il
photo
seriously
sold
attack
billions
campaign
finished
net
offer
om@@
opened
report
responsible
river
san
shouldn
statistics
bra@@
enjoy
experiences
hopefully
il@@
languages
magazine
members
ot@@
sha@@
sta@@
tional
traffic
afford
british
consumption
facebook
fold
legal
ten
tes
us@@
400
cheap
describe
edge
events
extreme
factory
heads
helps
identity
invest
ph@@
sal@@
sick
speech
washington
catch
engineer
era
finger
insects
moves
print
prize
wing
airplane
brother
capable
caught
coast
cting
cycle
date
galaxies
galaxy
investment
loss
necessary
ology
perfectly
quote
saving
ying
9
au@@
br@@
brilliant
count
cts
ent@@
labor
leaving
normally
phones
raised
res@@
sequence
wisdom
argue
article
background
desire
dra@@
fashion
oceans
predict
station
studied
tumor
wood
wow
2,000
5
apple
believed
desert
failed
harder
husband
ig@@
importantly
justice
link
male
mouth
shoes
stuck
survival
tomorrow
ver@@
13
cally
ck@@
creation
cs
ctions
designing
dreams
fourth
jo@@
mal@@
principles
sector
ur@@
17
according
advantage
agriculture
arms
beat
ber@@
crime
damage
due
failure
fighting
hate
intelligent
majority
metaphor
names
pping
spaces
steps
sudden
the@@
ved
versus
walls
wealth
wild
zation
bl@@
chair
driven
electrical
ends
enter
fair
invisible
operating
sted
theater
virtual
viruses
warming
wide
ad
ag@@
civilization
deeply
des@@
everyday
fascinating
lets
note
organized
shapes
weird
wh@@
yesterday
ard
cal@@
che@@
commercial
compare
cre@@
dimensions
followed
lack
managed
medi@@
molecule
muscle
photos
principle
puts
spirit
tens
thinks
tough
toward
treated
unless
ver
co2
covered
debate
dinosaurs
drawing
ies
pages
paint
paying
pounds
represent
row
transform
v
whenever
constantly
equivalent
filled
increasingly
paul
professional
protein
ser@@
surprise
two-@@
vast
wearing
appear
bal@@
bees
camp
charles
childhood
den@@
distribution
economics
einstein
fat
generations
ic@@
independent
opening
ordinary
spot
suppose
universal
worried
compared
concerned
continent
copy
currently
deliver
email
gs
hell
hidden
invited
lies
losing
mortality
mothers
prevent
pri@@
soil
surprised
tor@@
bear
described
dri@@
european
exists
expression
gre@@
honest
iran
jump
keeping
launched
leaves
planning
proud
rural
ry
sad
seat
vehicle
ving
4
4@@
arts
associated
church
collective
corruption
hasn
institute
leadership
mentioned
mexico
producing
random
sed
separate
sexual
smell
sphere
ster
weapons
19@@
20th
brand
britain
coral
direct
f
farm
feelings
gl@@
grandmother
japanese
neighborhood
pl@@
signal
sive
strategy
valley
well-@@
artificial
belief
caused
detail
dinner
emotion
equal
evil
george
ins
interaction
kenya
letter
limited
lunch
motion
pat@@
&apos;@@
ably
affect
awful
chemicals
classroom
cloud
experts
flies
forced
heavy
highest
houses
israel
killing
malaria
multiple
plane
re
roughly
signals
spoke
teeth
threat
wear
whom
35
6
ced
consequences
cr@@
double
emerging
essential
finish
ing@@
ingly
ker
layer
nu@@
respond
rid
sharks
bright
conscious
contact
cted
cy@@
holes
joy
molecular
resource
steel
sti@@
union
voices
chemistry
collect
construction
dynamic
facing
grown
leader
lie
ned
nervous
ning
pleasure
trip
army
businesses
chicken
closed
cognitive
curious
daily
fell
fill
horse
ia
importance
lessons
married
miss
newspaper
northern
sites
soldiers
stream
t-@@
thoughts
three-@@
users
we@@
wire
accident
breath
cat@@
considered
deeper
definitely
dly
dots
dry
et@@
fellow
gold
homes
ically
interface
library
match
min@@
minister
mountains
nigeria
practical
prime
tail
150
adult
bor@@
budget
ence
equipment
et
garden
ges
graduate
lady
mathematical
mile
por@@
possibilities
studio
twitter
ve@@
vers
8
alize
alized
australia
avoid
canada
cultures
dealing
department
depression
folks
gravity
id
leg
letters
los
notes
organs
player
roll
round
solved
sugar
suggest
transformation
typically
waves
100,000
absolute
bar
fresh
ie
intellectual
introduced
james
ley
master
photographs
plus
pre-@@
prove
rain
s-@@
stri@@
weather
affected
alternative
anti-@@
brown
clinical
controlled
dan
demand
efficiency
england
ents
existence
liked
marketing
picked
pole
selling
stood
technical
testing
underneath
wave
worldwide
3,000
bus
cul@@
dogs
drink
ec@@
empty
fication
gap
generate
hadn
ish
ka@@
kilometers
nasa
property
protection
reaction
regular
sion
sources
spectrum
status
sur@@
transition
vote
zes
99
a-@@
account
bing
brothers
chain
characters
define
disaster
je@@
laptop
liquid
long-term
lu@@
personally
remote
scene
shares
shop
spring
tons
whereas
2008
calling
comfortable
democratic
effectively
flat
gain
ladies
load
method
restaurant
spe@@
sun@@
theme
trials
va@@
valuable
winter
ca
cli@@
col@@
cooking
cross
cy
darwin
details
exchange
gen@@
gift
identify
kitchen
mention
michael
ping
radiation
relatively
represents
sentence
spo@@
target
accept
acts
bang
beach
crash
diet
exercise
experienced
formed
fossil
goals
land@@
lation
lifetime
management
movies
players
saved
setting
soci@@
southern
specifically
wired
wo@@
addition
arrived
buying
clo@@
convince
dar@@
depends
dr@@
epidemic
feedback
metal
novel
pal@@
radical
rates
reward
senses
sides
sli@@
trick
videos
writer
600
advanced
back@@
bat@@
battery
bush
carefully
credit
cri@@
evolutionary
fail
gay
generally
introduce
invention
medium
mistake
naturally
partner
primary
received
recorded
researchers
roof
section
stupid
ute
variety
wikipedia
.@@
7
7@@
analysis
ap@@
brazil
broke
carrying
ched
connections
factor
fire@@
fund
hall
infected
lat@@
location
meter
perception
processes
techniques
to-@@
tradition
tur@@
wars
alism
amp
behaviors
consumer
continued
error
express
germany
grand
gri@@
honor
ical
increasing
inner
instrument
ise
motor
ner
penguins
requires
risks
safety
sets
sho@@
situations
st
struggle
swim
switch
tests
u.k.
unlike
ven@@
visible
1@@
3d
appropriate
atoms
axis
bre@@
centers
click
comp@@
cutting
display
driver
ecosystem
employees
environments
explanation
gar@@
goods
gr@@
ils
manage
maps
peak
politicians
psychology
rare
sending
silk
stic
strength
technological
9@@
acting
added
ancestors
ats
blocks
destruction
eastern
emissions
expected
faith
former
fying
hotel
ke@@
movements
neighbors
pan@@
percentage
prepared
previous
serve
string
trillion
ultimate
watched
wondering
wor@@
al-@@
applied
arab
architect
battle
bro@@
burn
cap@@
capture
co
components
computing
defined
empathy
in-@@
ky
lying
med
milk
pped
quantum
reached
replace
runs
ther@@
thomas
unit
user
vulnerable
45
75
amounts
awareness
ber
cat
cking
collaboration
convinced
crowd
curve
discussion
exploration
ff
five-@@
ger
hoping
ished
joke
neuro@@
opinion
platform
poetry
promise
properties
proteins
shake
shark
shoot
style
therapy
three-dimensional
traveling
unusual
warm
2007
6@@
accurate
ble
burning
cards
cked
down@@
ears
gers
healthcare
hi
hits
interests
logic
marriage
mirror
mistakes
operation
ours
pollution
pop
presentation
profit
protected
require
roads
sample
sees
shall
sight
sir
ths
tics
tracking
bomb
bottle
ching
closely
combination
confidence
correct
cure
director
economists
electronic
element
ely
entrepreneurs
explained
fishing
gulf
ines
le-@@
member
my@@
occurred
quiet
relate
sk@@
solving
tre@@
ul@@
2000
5@@
ative
bling
cameras
cro@@
don@@
en
encourage
facts
falling
fewer
fil@@
francisco
gt
harvard
hydrogen
lay
nar@@
ob@@
ought
pacific
ride
rocket
smile
tru@@
vaccine
wake
youtube
algorithms
aspect
cent
cla@@
clip
collection
comfort
dramatic
dropped
existing
fake
far@@
gentlemen
hospitals
ii
include
keeps
ki@@
laboratory
manufacturing
microbes
nose
ny
organ
outcome
patent
polio
post
prote@@
relative
satellite
sensitive
skill
sophisticated
ta
tonight
ward
wed
ak
bubble
clouds
collapse
conventional
creature
doubt
fed
flowers
flu@@
inspiration
linked
literature
productive
pulled
pun@@
rec@@
remain
robert
shaped
subjects
suggests
topic
tors
tube
windows
attempt
band
ben@@
coal
combined
figures
framework
gun
hero
illness
institution
islam
islands
marine
passionate
pollen
queen
radi@@
regions
religions
steve
stra@@
sunlight
survey
taste
technique
tr@@
transportation
van@@
younger
birthday
channel
cl@@
features
fer@@
gdp
grid
hurt
increased
ized
length
monkeys
neither
ns
obsessed
pack
presence
relevant
roots
shame
stronger
tan@@
title
treating
violent
vo@@
actions
authority
bag
bones
boring
boston
challenging
detect
dro@@
engaged
expand
factors
feeding
fundamentally
generated
gh@@
ha
horrible
ited
musical
nor
piano
rapidly
rein@@
remains
reverse
signs
solid
stands
tape
wine
worlds
-
activities
ban@@
cas@@
cing
combine
cortex
decline
determine
dies
eggs
exact
explains
fo@@
funding
heroes
hy@@
insight
mc@@
men@@
operate
option
pair
rooms
singing
sustainability
thin
van
21
afternoon
applications
blog
climb
clothes
dense
educational
falls
films
grain
innovative
instruments
ju@@
low-@@
measured
ologist
options
performing
physically
pres@@
processing
raw
selection
september
sin@@
stable
statement
tested
ture
u.n.
vehicles
1,@@
and@@
behavioral
boxes
concrete
court
cru@@
dancing
defense
drives
els
finance
gender
lake
launch
mid-@@
mix
odd
ologists
partners
plans
poem
sal
simplicity
sters
surgeon
teams
telescope
touched
transformed
underwater
upper
well-being
wireless
ys
2010
20@@
actor
africans
architects
chicago
circumstances
dh
ear@@
entertainment
equation
evening
flew
ford
frankly
genius
gro@@
hal@@
lan@@
meaningful
mechanical
mystery
obama
paintings
pakistan
paradigm
phase
ple@@
shut
sions
somewhat
surely
tea
wherever
yed
zone
admit
advice
author
bike
button
cents
chapter
component
conclusion
congress
connecting
ctive
election
embrace
frame
functional
german
han@@
hor@@
indi@@
lighting
mate
messages
not@@
paris
pr@@
prices
release
remind
required
staff
stayed
sticks
suit
swimming
tic@@
unclear
victims
whales
wondered
abstract
celebrate
co-@@
cook
ff@@
fra@@
ger@@
globe
golden
handle
implications
incentives
infinite
joined
ko@@
largely
ler
mechanism
perform
philosophy
potentially
quarter
recording
scan
split
squ@@
symmetry
trend
uni@@
volume
wheel
wise
19th
breaking
carried
chose
danger
dge
distributed
enable
eu@@
false
fingers
fore@@
four-@@
functions
haiti
hello
identical
input
invent
magnetic
measuring
nowhere
occur
origami
pile
plate
printing
proof
puzzle
released
resistance
scared
sculpture
stress
tall
villages
walks
yo@@
10@@
60s
air@@
ash@@
bas@@
circuit
clinic
collected
deaths
density
designs
divide
grand@@
head@@
ics
illegal
interview
ken
lifestyle
parking
particle
passing
post-@@
records
ships
spider
sto@@
sty
unexpected
usual
welcome
win@@
2005
2009
21st
breathe
cker
concepts
cry
depend
der@@
directions
dirty
divided
egypt
end@@
ently
estimate
existed
expert
exploring
fre@@
furniture
grass
greenhouse
grows
gue
interactive
ites
korea
la
laugh
lovely
lung
organism
physicist
pregnant
reference
romantic
severe
silence
ss
standards
struck
sweet
translate
unknown
zoom
.com
20,000
50,000
angle
automatically
bell
berg
bible
chan@@
christmas
conservation
dolphins
dramatically
economies
equally
extinct
intense
ize
ll@@
mur@@
muslim
narrative
nest
ol
participate
root
russia
savings
scary
score
session
slides
soft
soul
sum
sweden
symptoms
tasks
ure
ws
year-olds
19
appeared
arguments
aside
atory
awesome
bf
busy
causing
centuries
charity
chip
classic
conver@@
disappeared
ear
granted
happier
inspiring
interestingly
internal
latest
makers
march
meetings
ori@@
ory
phrase
placed
que
ray
ren@@
shock
spiritual
tac@@
u.s
uganda
vessels
1.@@
8@@
ads
agreed
apparently
balloon
border
careful
cies
commitment
congo
consumers
cup
del@@
dent
disappear
disorders
educated
ending
flower
forming
grab
gray
hide
iled
iphone
islamic
j
kingdom
legacy
matic
mess
monkey
multi@@
obesity
organize
painful
parent
peter
pla@@
remove
san@@
silicon
songs
suffer
till
virtually
x-ray
22
alist
appears
appreciate
chart
claim
clay
constant
cop@@
cow
desk
destroyed
distant
dor@@
dozen
elephant
ered
fac@@
faced
feature
fortune
gam@@
half-@@
hardly
height
higgs
housing
hunger
links
mainly
nor@@
offered
opposed
overall
pocket
powers
productivity
pure
samples
speakers
spoken
tered
toxic
weak
whale
17@@
70s
adapt
ash
assume
atten@@
behave
cam@@
chocolate
conversations
dan@@
depending
dish
drawn
embedded
ev@@
fin@@
funded
fusion
gps
hill
hum@@
ideal
ink
inspire
iron
jack
judge
latin
liver
long-@@
mad
motivation
non@@
ped
photography
populations
presented
rational
recovery
secure
shell
snow
son@@
spreading
stations
tively
tly
tom
val@@
16@@
accessible
agency
ase
asks
autism
backwards
bet
bles
clever
club
derek
determined
dynamics
entered
ese
facial
fiber
fifth
friendly
gates
headed
heaven
hip
ide@@
ignore
immune
increases
journalist
nets
optimistic
orange
orbit
papers
pig
prototype
psychological
reaching
repair
shoulder
so-called
symbol
telephone
texas
tour
tragedy
via
vis@@
academic
adam
agenda
ali@@
all-@@
app@@
atlantic
boundaries
chest
copyright
curiosity
dependent
destroy
disorder
enemy
ethical
extent
fortunately
frank
frequency
habitat
hydro@@
illusion
january
lin@@
maintain
microscope
ming
ots
outcomes
personality
probability
properly
ran@@
reduction
represented
ridiculous
rising
script
season
sheep
sor@@
spots
st-@@
stanford
stock
surrounded
synthetic
tie
tower
transparency
truck
tures
water@@
work@@
,000
advertising
afterwards
allowing
astonishing
bel@@
bias
bility
breathing
corporate
courage
dig
dignity
dot
ei@@
exhibition
fla@@
floating
france
frozen
geographic
hang
herself
historical
ine@@
kers
loop
ls
maker
muscles
neuron
oc@@
parallel
pen
photographer
poly@@
pos@@
produces
seats
secondly
shed
shi@@
smoke
sol@@
thrown
tically
vulnerability
worker
26
27
95
ak@@
all@@
anger
ari@@
attacks
bicycle
blow
calculate
capit@@
capitalism
classes
contra@@
contrast
demonstrate
drinking
ell@@
ering
flo@@
ft
grandfather
hat@@
involves
landed
locked
memories
mic
mul@@
oldest
pin@@
plenty
pool
poorest
precisely
prefer
providing
raising
reputation
sis
sle@@
sy
tied
tor
traveled
val
vely
wil@@
2003
2004
angeles
anti@@
application
architectural
bee
ble@@
bly
borders
chaos
chimpanzees
clock
collecting
colony
continues
counter@@
diagram
drill
earthquake
elsewhere
fascinated
fixed
fle@@
gang
gener@@
lift
microsoft
muslims
n-@@
nurses
official
overcome
oxford
pace
pers
ph
pilot
plays
pointed
privilege
provided
pur@@
pushing
pyramid
shooting
signed
soviet
sports
succeed
tag
units
wanting
writers
-like
80s
achieved
adding
affordable
angry
attached
blo@@
breaks
cheaper
chosen
controlling
crying
darkness
dedicated
diabetes
din@@
dy@@
ed@@
electro@@
emergency
federal
fri@@
globalization
golf
guide
inch
k-@@
lecture
letting
martin
morality
on-@@
opens
photographed
provides
quar@@
reflect
rever@@
seed
sensory
sheet
supp@@
th-@@
toilet
tries
tting
va
wn
23
ach@@
ale
alization
amongst
arctic
articles
aspects
ben
cash
cast
cell@@
consequence
currency
cute
dioxide
encounter
ens
eric
ethiopia
excellent
excuse
extract
fan
farmer
fli@@
flip
ghana
governance
harm
hearts
holds
len@@
lens
license
likes
limits
naked
native
new@@
o-@@
ooh
powered
ra
recognition
recognized
relations
rice
robotic
rwanda
smallpox
speci@@
super
tank
tech
terrorism
tile
tired
trends
vable
zz@@
0.@@
airport
apartment
ases
bars
bay
beer
bin
brief
by@@
colle@@
dominant
edi@@
fabulous
figuring
fis@@
focusing
fuels
gate
glamorous
globally
gut
humor
inches
ined
jewish
june
killer
knee
lam@@
linear
manhattan
mil@@
om
openness
origin
quest
reduced
removed
rush
searching
she@@
shor@@
silent
speaker
static
surfaces
sw@@
tax
tricks
vertical
volunteers
wal@@
zo@@
2001
65
ach
af@@
aircraft
alien
announced
biologists
bul@@
by-@@
capita
cats
consume
controls
customers
diverse
ecosystems
electronics
ets
evolve
facility
fears
filter
finds
fluid
footprint
forests
gathering
glasses
hire
hom@@
imagined
includes
interactions
kar@@
limb
mammals
op
palm
pe
permanent
positions
poster
pump
qualities
reef
ris@@
saturn
storm
suicide
super-@@
talent
tation
tom@@
trucks
und@@
0,000
2006
4,000
90s
accidents
artistic
bla@@
boom
brian
classical
conclude
discoveries
discuss
economist
emerged
escape
explaining
foods
gram
hanging
highway
hollywood
improvement
ingredients
initial
jail
ka
kb
laid
layers
mas@@
mit@@
monitor
neuroscience
opera
orchestra
output
policies
precise
ration
rescue
retro@@
review
rocks
sen@@
separated
sharp
sleeping
sport
stu@@
sub-@@
tations
thick
tribes
underground
wards
watts
wings
witness
-to-@@
250
agricultural
alzheimer
amazon
aries
barely
bis@@
cau@@
cher@@
chi@@
chief
circles
climbing
colleague
committed
contains
drove
dust
elections
engagement
footage
green@@
gy
honey
hungry
im
informed
innovations
invite
lands
lawyers
lea@@
liberal
loud
mice
mixed
multi-@@
observation
optimism
ore
owned
pac@@
perceive
pit@@
proper
pulling
rats
react
realm
rebuild
richer
sensors
sl@@
smo@@
spar@@
stages
tele@@
tives
tter
ugly
unbelievable
underlying
upset
yer
0@@
1990s
700
800
ain
allo@@
ant@@
auto@@
bon@@
briefly
cambridge
cave
clients
contemporary
contribute
cooperation
corn
crossing
depressed
diagnosed
dinosaur
dive
dress
drew
efforts
emerge
fathers
favor
fiction
football
fortunate
garbage
graphic
howard
ing-@@
kit@@
methods
missed
neighbor
neural
nobel
offers
onal
picking
pink
post@@
protecting
receive
regret
reminded
returned
seeds
senior
shadow
shelf
shifting
shopping
silly
soli@@
spectacular
spinal
stores
strategies
suggesting
swe@@
transparent
transport
tro@@
tumors
um@@
unlikely
vagina
viral
weapon
alities
ba
boards
bronx
c.
characteristics
cher
computation
concern
debt
explo@@
exposed
failing
frog
gather
glamour
graphics
hardware
historic
industries
insurance
integrated
laser
lin
meal
memes
memor@@
mines
mode
mus@@
musicians
nerve
occasionally
originally
phantom
photo@@
practices
predicted
rarely
rely
resi@@
resolution
sales
salt
scales
sentences
served
shit
smooth
someday
stones
stre@@
subway
tar@@
teenagers
tension
ther
thin@@
toes
tony
treatments
utili@@
vital
wat@@
winning
with@@
1960
1980s
abuse
amed
aring
armed
asteroid
bears
bers
cartoon
cho@@
conflicts
consistent
council
cour@@
crops
crucial
damn
deli@@
detection
domestic
essed
essence
extended
flexible
florida
flows
founded
genetics
gore
guns
henry
injury
instructions
interacting
lac@@
les@@
marks
micro-@@
nurse
october
oni@@
person@@
poet
pound
predictions
rio
rolling
sam@@
scratch
seek
shots
sil@@
sisters
skeleton
skull
sla@@
suspect
symbols
tated
theories
tuna
unds
variation
whatsoever
ye@@
yours
14@@
30,000
actors
advis@@
alists
ams
array
balls
baseball
bats
begun
beliefs
cable
char@@
coloni@@
contract
ctor
daughters
description
diving
dness
dolphin
earn
engaging
ep
expectancy
february
fruit
gged
gli@@
hing
hot@@
intuitive
kno@@
lawyer
leverage
luck
males
mation
mechanisms
mer
merely
miracle
ne
ner@@
painted
pitch
plan@@
plot
pointing
preserve
programming
reform
regime
regul@@
replicate
reports
revenue
robust
shrimp
simulation
soup
struggling
surprisingly
syndrome
tip
turkey
twi@@
vacuum
viol@@
wash
-up
ang@@
attract
bac@@
backs
belong
bizarre
blame
buil@@
cations
cheese
conf@@
consciously
contain
cycles
dd@@
dear
depth
describes
dimension
domain
eness
exponential
extinction
forgotten
glad
gotta
harvest
hitting
hypothesis
ining
inten@@
jellyfish
joe
journal
kills
limit
lincoln
loc@@
mall
may@@
mel@@
mid@@
mri
operations
ored
outer
owner
pandemic
pay@@
pigs
pil@@
plastics
pt
reported
sacred
sely
spin
sub-saharan
successfully
surgeons
tap
tiles
tin@@
tracks
trajectory
translation
uns@@
winds
za@@
ading
advance
airplanes
ani@@
ately
audio
bags
banks
buried
cake
chairs
clothing
collaborative
colored
communications
cou@@
county
dating
delivered
devil
dictionary
discipline
dopamine
dozens
fabric
fires
fits
flash@@
fting
generating
gentleman
host
hyper@@
ids
ina
initi@@
initially
iting
kan@@
liber@@
ll
mail
mining
neat
ners
ological
oned
ony
panels
promote
q@@
rel@@
rope
sheets
sher@@
sits
smith
subtle
suggested
supported
taliban
tate
terribly
terror
threw
tical
tissues
transplant
uncomfortable
views
analyze
answered
ass@@
besides
bin@@
biodiversity
bom@@
bound
capability
captured
cement
channels
continuing
cord
cotton
discovering
eless
ensure
entrepreneur
ep@@
expanding
expectations
expecting
experimental
explosion
external
fastest
feynman
fraction
fragile
geometry
gol@@
homo
iling
ill
ir
jazz
jesus
keyboard
lations
luckily
moore
nat@@
oxytocin
parties
permission
persi@@
plug
pm
pockets
polar
pra@@
pul@@
pushed
rb
reliable
repeat
resilience
resistant
rings
robotics
rose
route
scra@@
serving
shu@@
six-@@
sixth
sky@@
slavery
sm@@
steven
sw
toy
tune
uncle
universities
washing
worms
120
13@@
15@@
1970s
accepted
affects
agent
altitude
antarctica
blogs
bottles
breakfast
bubbles
bucks
bulb
cap
caring
charges
consul@@
cosmic
ctors
dawn
demographic
demonstration
dest
document
doors
edges
eli@@
enables
extend
extra@@
flag
fts
horizon
imaging
immediate
iness
inevitable
inst@@
intuition
ists
jim
kin@@
ku@@
mapping
mayor
mushroom
needle
pants
paralyzed
partly
penguin
pet
portion
portrait
prepare
pretend
proposed
pursue
remaining
remembered
researcher
restore
russian
scores
shanghai
shelter
signature
stat@@
staying
ster@@
str@@
sum@@
sy@@
tain
tan
tears
tendency
tends
thir@@
tion@@
traditions
trains
ty@@
unding
visited
warning
wildlife
algorithm
ambi@@
amy
ances
antly
app
arrive
atomic
christian
clear@@
coke
comics
comparison
compassionate
compli@@
covering
cows
deaf
dropping
elderly
elementary
elephants
ene
entropy
esses
extension
facilities
first-@@
gallery
gan@@
glo@@
grandparents
gras
grateful
ham
harmony
homework
imagery
improving
inequality
infection
insights
instantly
italy
kes
life-@@
lon@@
measures
methane
mol@@
motors
obje@@
objective
open-@@
ot
ownership
play@@
rapid
realizing
reducing
restaurants
ridge
sa
sciences
stops
strangers
stroke
summit
the-@@
translated
tribe
tt@@
tubes
ville
wers
wheat
wheels
-and-@@
2002
28
32
50s
85
abilities
abraham
administration
analogy
appearance
ast
attitude
black@@
blank
bob
bot@@
cin@@
citizen
confident
confused
cuts
demands
detailed
ecological
empire
entering
enti@@
established
fibers
flowing
foot@@
frustrated
gained
gaps
gonna
gradually
grandchildren
ham@@
hea@@
hear@@
holy
hon@@
hur@@
identified
impression
initiative
instant
inv@@
investig@@
loves
mt
musician
no-@@
nowadays
nuts
odds
open-source
pad
pas@@
pause
phenomena
phosphorus
pizza
pon@@
procedure
profits
profoundly
reli@@
rent
reserve
seas
shirt
slo@@
smallest
sons
stability
stry
supplies
thus
transfer
trash
verse
visions
youth
20-@@
acted
adap@@
adapted
ai@@
ana
association
assumptions
bat
beneath
benjamin
bli@@
bug
che
circuits
client
comedy
comic
comment
cont@@
criminal
cross-@@
curriculum
database
den
dialogue
eaten
egg
elected
elled
endangered
engineered
experiencing
factories
fancy
fer
fro@@
garage
genetically
graphy
heart@@
home@@
human@@
impacts
included
independence
innocent
insulin
interpretation
inventor
isolated
laughing
leap
leather
magical
mathematicians
offices
participants
passive
phot@@
physician
planes
pose
posing
primitive
promised
proportion
prostate
quit
rat
recover
reefs
remained
reminds
representation
republic
reveal
ries
sand@@
sar@@
sauce
scanning
scre@@
sel@@
shar@@
spain
strike
substance
supporting
sustain
tackle
tam@@
tent
threshold
tone
ts@@
uncertainty
unhappy
vegetables
vol@@
w-@@
wan@@
wheelchair
wires
worthy
wright
10-@@
30-@@
33
accounts
achievement
agencies
ah@@
annual
anonymous
antibiotics
ass
astro@@
attractive
builds
canopy
cartoons
ceo
clu@@
colonies
command
compelling
completed
conservative
correctly
counting
crack
december
defining
delhi
deserve
di
district
documents
drivers
earliest
electron
eted
expedition
ey
gathered
ghts
hired
hook
huh
incentive
infections
interior
invested
judgment
jumped
marketplace
mat@@
microbial
miserable
mysterious
neck
nerves
ngos
observe
oning
over-@@
pairs
performed
persu@@
physicists
pic@@
pollin@@
printer
prisoners
psycho@@
ral
ratio
rock@@
skeletal
smarter
suck
sunday
technically
threats
tim
toys
tragic
versions
widely
woke
ya
1990
6,000
adopted
adventure
ai
alig@@
approaching
ast@@
autonomous
bangladesh
barrier
bend
biologist
biosphere
blan@@
blin@@
bo
boats
bond
bow
brain@@
branches
burden
cham@@
choosing
classrooms
cle@@
connects
constructed
contrary
convert
crew
de-@@
dean
deception
download
engines
estimated
eve
exception
expansion
firm
flash
folds
foundations
freely
ful@@
genocide
goo@@
gorgeous
grades
greek
handed
hat
hei@@
hong
hunting
i.@@
illustrate
ination
influenced
insect
investing
jet
johnson
kevin
kick
knife
laptops
larry
lg
loaded
moder@@
narrow
neighborhoods
oms
oring
package
passenger
philosopher
plum@@
purposes
refer
relation
renewable
replaced
rhythm
rivers
sandwich
selfish
shocked
significantly
smoking
stack
strands
suffered
tia
tized
tsunami
vel@@
voting
wealthy
wider
yourselves
yu@@
12@@
2050
alistic
alizing
alpha
arabic
assemble
audiences
aw@@
bble
bite
bled
boo@@
branch
breeding
broad
bulbs
calories
cha@@
chil@@
chips
civilizations
closest
collapsed
competitive
conducted
construct
continents
deals
defen@@
delicious
delivery
despair
distances
dough
dressed
dutch
elite
errors
expertise
explored
expressions
eye@@
file
full-@@
grasp
hans
hard@@
headlines
hed
homeless
hunt
int
intervention
joshua
law@@
lee
lic
limitations
lock
lowest
matrix
mentally
nutrients
obstacles
occurs
origins
panel
philanthropy
picks
pleasant
pled
potent
prevention
pride
prior
privacy
professionals
proven
puzzles
qui@@
recipe
scenario
secrets
seeking
sensation
shine
shocking
shortly
smiling
soldier
spanish
steal
straightforward
strongly
tables
targets
terrifying
terrorists
titan
top@@
troops
tured
ubiquitous
ures
virginia
wooden
55
a.@@
abo@@
ace
additional
anxiety
april
arguing
arti@@
ased
assumption
beating
believing
bit@@
blown
blu@@
bru@@
cab@@
capabilities
categories
ceiling
charged
cian
communic@@
competing
connectivity
construc@@
cratic
crows
daniel
dec@@
deci@@
diameter
digit
distinct
domin@@
dominated
electrodes
electrons
empowered
ery
essing
extraordinarily
fate
formula
four@@
free@@
fres@@
g-@@
gation
gear
generous
glue
helium
helpful
hun@@
impressive
improved
indians
insu@@
intensity
intent
jeff
jihad
koran
labs
leaf
literacy
located
logical
lord
lungs
mandela
masses
mathematician
mating
mechanics
mike
mini@@
missions
mo
mosquito
myth
namely
nearby
newspapers
nigerian
offering
p-@@
packed
plain
predictable
prediction
previously
primarily
profile
proposition
realistic
reasonable
reflection
retirement
ron
santa
scope
seti
sh
similarly
stepped
storage
stretch
tail@@
tear
tedtalk
teenage
ticket
tioned
tongue
torture
tran@@
two-thirds
urge
vietnam
waters
wea@@
zi@@
é@@
20s
activist
affecting
aked
animation
ax@@
ay
badly
ban
bold
bombs
bowl
brush
category
cellular
civili@@
clon@@
clubs
coat
day@@
decrease
denial
difficulty
disabled
dre@@
ecology
eling
ess@@
exam@@
fallen
formation
fought
gal@@
gases
gated
gging
goodbye
gor@@
gran@@
hardest
healing
helicopter
heritage
ignored
ill@@
insane
installation
investors
italian
jan@@
kindness
lined
lists
locations
mal
meanwhile
monitoring
motivated
nelson
parliament
partnership
ph.d.
pills
poli@@
pp@@
predators
preparing
proposal
prosthetic
psychologists
reactions
reactor
seal
see@@
selected
silver
sink
socially
spreads
suits
swi@@
swiss
tab@@
telescopes
theoretical
tolerance
traits
transforming
transmission
tual
unable
vaccin@@
victim
visualization
voted
whi@@
william
yield
ze@@
3.@@
48
absence
absor@@
actively
addi@@
alcohol
aming
applying
approved
arily
arrested
authentic
authorities
batteries
bee@@
beijing
bes
binary
book@@
bored
burned
calculations
calculus
camps
cancers
catching
cer@@
challenged
chamber
clinton
commit
communicating
consu@@
contribution
coo@@
corals
creator
dal
defe@@
duck
dumb
dung
educate
eight-@@
ek
emergence
enabled
encouraging
ented
equality
equations
est@@
ethnic
eting
folded
forgot
fur@@
gods
guarantee
healthier
hiding
hills
historically
hr@@
human-@@
inci@@
inf@@
integrate
joseph
ken@@
kidney
lar@@
lions
lli@@
mainstream
manipulate
marry
mes@@
milli@@
mindset
mud
mutation
nan@@
newton
occurring
ongoing
oth@@
participation
peers
perfe@@
personalized
planetary
power@@
precious
propose
rainforest
recycling
restri@@
sacrifice
sale
sections
simultaneously
sna@@
st.
stephen
storytelling
stro@@
structural
syn@@
tale
tanzania
tering
threatened
thro@@
throwing
tin
tionally
ton@@
trace
ty-@@
ular
vaccines
var@@
vessel
vice
volunteer
woods
zealand
29
acid
adver@@
alle@@
amazed
andrew
approached
approaches
backyard
banking
bert
blowing
bridges
carpet
carries
cen@@
chances
charlie
chee@@
choir
cians
cir@@
clue
comparing
concentrated
continuous
cooperative
corporations
courses
coverage
cricket
cube
cus@@
cyber@@
cylinder
ddle
decor@@
dependence
dial
dimensional
disagree
distra@@
donor
dose
doubled
drum
eds
elegant
eliminate
enjoying
estimates
favorites
feeds
females
fence
follows
friday
gesture
gy@@
habits
halfway
heating
hin@@
institutional
interviewed
interviews
items
ium
journalists
manual
mates
migr@@
minus
mp@@
mushrooms
narratives
nation@@
neutral
obese
olympics
organizing
passes
pill
pir@@
plates
poison
posted
pot
publi@@
read@@
redwood
regard
renewables
reserves
responses
rob@@
scenes
secretary
sei@@
sexy
sni@@
spi@@
surgical
swa@@
systematically
teaches
tedtalks
terrain
texting
thri@@
unprecedented
venture
weigh
zones
1960s
36
72
abed
academy
adjust
aggressive
alex
an-@@
arity
aro@@
ater
attitudes
august
award
bab@@
bacterial
berlin
boss
breakthrough
brow@@
calm
camel
candidate
carolina
census
cheat
closing
compete
concert
condoms
copenhagen
customer
cyrus
dated
dents
dilemma
dirt
disability
drag
drops
elling
ency
enemies
ental
equ@@
everest
evolving
exc@@
excitement
farms
founder
fran@@
frightening
fs
fun@@
genomes
grant
graphs
guilty
heading
honestly
horses
household
icon
ints
israeli
july
kis@@
kong
landing
lifespan
ligh@@
likelihood
listened
lottery
luxury
magnificent
marrow
measurements
ment@@
na
norden
od@@
oes
outs
overhead
panic
paradox
parks
peaceful
peoples
phenomenal
posed
poses
posi@@
pris@@
probe
profession
provo@@
publish
publishing
pursuit
radically
recession
regardless
residents
resolve
restor@@
rotate
rubber
run@@
scaling
sch@@
scott
sen
sensor
sett@@
slums
spec@@
strings
succeeded
surgeries
switched
tarian
temp@@
temperatures
thers
thr@@
truths
tunnel
u.k
utes
visually
websites
wedding
worrying
x-@@
yards
é
200,000
2011
40,000
8,000
aching
acquire
acquired
acy
ade
adju@@
aesthetic
aim
amazingly
ampli@@
and-@@
angiogenesis
arthur
asi@@
authors
bed@@
believes
bills
biomass
blood@@
break@@
bun@@
burst
canvas
cer
chur@@
cious
civic
column
commodity
compromise
contributed
controversial
copies
crossed
dation
dding
deployed
determines
dic@@
discrimin@@
doc@@
downtown
eg@@
elev@@
empower
fal@@
filling
foie
frequently
gains
gent
glimpse
graduated
great-@@
hallucinations
hemisphere
hol@@
hometown
index
inevitably
inging
intact
integration
intensive
iranian
ireland
keys
landscapes
legislation
leonardo
lit
locally
magician
magnitude
mary
meals
mentation
mind@@
minimum
multiply
murder
officer
og@@
onstage
patents
periods
ple
portraits
presents
printed
processor
programmers
pulls
rain@@
raped
realization
relief
remarkably
roll@@
rough
safer
sau@@
scri@@
seemingly
selves
shore
simpler
sm
sometime
spacecraft
span
spill
stays
stics
stored
striking
taxes
territory
themes
thermal
topics
tun@@
ultrasound
understands
useless
variations
virgin
whoever
witnessed
wrap
zer
&apos;clock
0-@@
1950s
1999
2.@@
25,000
37
accelerating
advances
aims
aliens
assets
assignment
atu@@
automobile
autonomy
beam
beautifully
boundary
but@@
campus
cape
cares
cation
chim@@
cia
claims
classi@@
cliff
coin
conductor
conser@@
continuously
convey
copied
correc@@
criminals
curves
cus
dam@@
deepest
demo@@
demonstrated
destiny
destroying
dete@@
detector
drawings
eigh@@
embarrassing
ements
eri@@
ert
exposure
expressed
failures
farming
fired
flavor
folding
grace
harbor
hen@@
high-tech
hil@@
ick
indonesia
installed
intriguing
introduction
jane
jones
kin
ko
large-scale
lic@@
life@@
lifted
logo
longevity
loving
manager
masters
matched
maximum
medication
mere
ministry
mixing
navigate
nevertheless
november
obser@@
observations
olympic
overwhelming
passage
pie
platforms
pling
pouring
pper
privileged
prosperity
rap@@
recommend
request
respe@@
retina
revealed
right-hand
satellites
scanner
scans
scrip@@
senti@@
separation
shakespeare
sible
significance
simplest
sively
sized
smells
spare
spinning
stairs
streams
strip
surveillance
ted@@
teen
teenager
temporary
til@@
tion-@@
transformative
trigger
twenty-@@
vation
veri@@
wa
wer
wishes
xi@@
youngest
+
2,@@
accountability
activated
aff@@
aters
atom
ature
bad@@
bath
bedroom
bian
chromosome
coach
cocaine
computational
concentration
connectome
consumed
contemp@@
corporation
corresponds
damaged
deck
depos@@
diplomacy
dist@@
distinction
division
documented
door@@
double-@@
dur@@
encyclopedia
epidemi@@
er-@@
exploit
famine
fr@@
frontal
functioning
gandhi
gle
hawaii
heal@@
high@@
hopeful
hostile
ibm
immense
implant
indus
ingredient
inhi@@
install
intended
interpret
investments
ja
judgments
juice
korean
label
labeled
leopard
lied
loan
lou@@
managers
mcdonald
meditation
milo
mimic
mobili@@
mobility
monterey
mood
mumbai
nant
nearest
networking
off@@
ome
oy@@
para@@
pharmaceutical
physicians
practicing
prints
priority
psychologist
readers
recur@@
repeated
reveals
riding
risky
sadly
safely
sectors
self-interest
sequences
shifts
shy
six@@
speaks
stewart
stically
stolen
storms
storyteller
strategic
suggestion
supermarket
switzerland
symmetries
synthesis
tags
temple
thrilled
travels
unconscious
universes
ut
wel@@
welfare
whit@@
wind@@
workforce
workplace
yeast
abandoned
accelerate
adopt
advoc@@
agreement
alexander
algae
ali
anderson
apartments
approximately
apps
aristotle
asian
bacterium
behold
belly
bic
bio-@@
blew
blindness
bother
broader
bugs
cables
canadian
cattle
celebrity
chase
chasing
chemi@@
ck-@@
ckers
clinics
codes
collectively
compute
concerns
contributing
craft
dancers
deb@@
demo
dence
diarrhea
dic
disciplines
disgust
eled
elu@@
emplo@@
encouraged
enjoyed
ent-@@
equals
exten@@
fan@@
fever
firing
fores@@
generates
gles
grave
habit
hierarchy
holders
hormone
hormones
horror
ica
imit@@
ini@@
insi@@
intention
interconnected
intimacy
jay
junk
jupiter
keepers
kets
key@@
ki
kn@@
l.a.
laden
lessly
lewis
lion
livestock
loads
loose
mankind
marked
materi@@
medicines
mes
millimeter
minority
mot@@
mutations
mycelium
neanderthals
ney
nitrogen
non-zero-sum
nonprofit
nutrition
open@@
orders
organi@@
overwhelmed
parachute
parkinson
pencil
philosophers
philosophical
pin
plu@@
poles
prisoner
profitable
prototypes
proved
psych@@
rays
reas@@
recommen@@
reproduce
rethink
rewards
ritual
rolled
sac@@
sam
seals
secular
sey
single-@@
sizes
slower
sma@@
staring
steam
stered
stor@@
surrounding
sylvia
synchroni@@
tants
tar
textbooks
texts
tiger
touching
towns
trading
transmit
triangle
trivial
tuned
ual
ulating
univers@@
unseen
visiting
visualize
weighs
winner
wore
za
,000-@@
.org
12,000
350
60,000
abundant
acids
activists
afghan
after@@
aged
aling
ally-@@
alphabet
arians
assumed
astronomy
atlanta
attacked
barrel
beef
belongs
bol@@
ce-@@
celebrated
ceremony
chef
circum@@
cluster
comm@@
concentrate
confront
consuming
coordination
corners
counts
covers
crea@@
critic
ct@@
dden
destination
devastating
dian
disap@@
dity
diver@@
economically
emails
enormously
exclu@@
eyed
ffs
firms
frogs
ft@@
geo@@
ght@@
girlfriend
grains
grams
gues
gui@@
hall@@
hand-@@
harry
highlight
hop@@
ich
iconic
id@@
ima@@
inse@@
intimate
ish@@
item
joint
ker@@
lanes
lasting
laughter
lips
lun@@
manner
mask
melt
mentor
metric
mies
momentum
mosquitos
mp
obe@@
octopus
odor
off-@@
oppres@@
pan
paste
pays
pel@@
perceived
piles
pipes
pity
planned
polari@@
ppy
pray
premise
prey
priorities
pulse
punishment
purple
rape
reaches
recall
recru@@
recycled
reflected
revol@@
revolutions
rob
rs
rul@@
s.
sake
saudi
schizophrenia
school@@
sculptures
sensing
sexually
shing
shoots
shr@@
singapore
ski
specialized
spell
spiders
squid
stan
stated
stum@@
symphony
tagged
tel@@
terrific
terrified
thesis
thy
tious
toilets
tooth
transi@@
trapped
tropical
tum@@
unfortunate
utterly
vari@@
vary
verbal
wage
whoa
worm
wrapped
ye
zers
1998
2020
activ@@
acu@@
addiction
admi@@
adoption
agents
alan
ama
and-a-half
anesthesia
apples
appreciation
ared
associate
attracted
beaten
bia
calculated
caps
captain
cart
chapters
chile
chronic
cially
cleaning
composition
consider@@
craig
cro
crop
cular
dat@@
deadly
decision-making
defend
democrats
dev@@
documentary
dom@@
dul@@
dun@@
editor
embracing
ences
enter@@
enterprise
exploded
fai@@
fol@@
frequencies
friction
frustration
funds
gas@@
gled
gling
guard
hes
hood
hopes
horizontal
horri@@
implement
jer@@
johnny
jun@@
kat@@
lear@@
lego
lity
loses
main@@
mechan@@
meme
metals
modi@@
mom@@
monster
motivate
nasty
nick
nonsense
observed
occasion
occupy
of-@@
ologically
oma
opinions
optical
pes
pig@@
pipeline
ples
poems
politically
producers
programmed
projection
promises
pros@@
quarters
receptor
republicans
roofs
royal
sahara
seattle
seawater
selec@@
shat@@
shifted
shoe
shorter
shoulders
squares
squir@@
stomach
sty@@
survived
tains
talented
tokyo
tool@@
trips
tter@@
twin
tz
unity
ups
upside
vegetable
vent@@
visi@@
was@@
well-known
wells
wir@@
wound
yemen
1,500
17th
1950
1980
1994
2030
30s
47
97
98
abundance
accomplished
accoun@@
accuracy
alarm
albert
aluminum
ama@@
anatomy
ancestor
answering
artifacts
assistance
au
awkward
bathroom
beetle
beg@@
behalf
berkeley
berry
bil@@
boun@@
broad@@
buddhist
budgets
bull@@
cambodia
catholic
cheating
chemotherapy
chromosomes
coding
color@@
comments
commons
compe@@
conduct
consensus
constitu@@
cool@@
copper
copying
cousin
cracks
cream
crimes
criteria
critically
cups
dama@@
debris
delivering
depic@@
desktop
desperate
diagnosis
differenti@@
digging
disasters
dru@@
dvd
eats
ego
ell
ells
emotionally
en-@@
entry
equity
ethic
ethics
expen@@
fantasy
farther
findings
form@@
foster
friendship
fulness
gel
gest@@
gestures
ght
gies
gross
han
hard-@@
heavily
humanitarian
hyper-@@
improvements
incident
infinity
investigation
irony
jac@@
jews
joy@@
jud@@
jum@@
l-@@
lamp
lebanon
lobby
low-cost
ly@@
mach@@
mag@@
magnet
mammal
mand@@
marathon
melting
mented
messy
metabolism
milky
mirrors
mon
mount
ocean@@
offen@@
ols
oran@@
ordered
oriented
owners
pain@@
parenting
passions
pathetic
pc
pit
planted
playful
port
pour
powerpoint
prayer
predator
preparation
pro-@@
professors
propaganda
protocell
quot@@
reasoning
reck@@
recognizing
refer@@
refugee
reporter
revenues
ric
richest
rop@@
ross
sends
seventh
ski@@
sms
soap
spiral
spon@@
stein
stic@@
symmetrical
tal@@
tanks
tedly
thailand
than@@
tioning
tis
titles
translator
treasure
tted
tuesday
ulated
unfair
unle@@
ush
vent
viewing
warmer
washed
wk
wr@@
150,000
18th
1900
190@@
194@@
3,@@
34
4.@@
42
43
50-@@
accum@@
adaptation
addressing
adul@@
alike
analy@@
analyzed
angles
ao
apo@@
archive
assembly
asset
aston@@
astronomers
authenticity
authoritarian
bandwidth
banjo
beds
bombsight
borrow
brands
bribe
broccoli
buttons
cage
calculation
candidates
caves
charter
chat@@
chemist
climbed
coastal
collision
columbia
columns
composed
condu@@
considering
constraints
contained
convicted
convincing
cooling
cope
correlation
couch
counted
counter
cousins
cruel
custom@@
daddy
dare
decent
deforestation
democra@@
deny
describing
diplomat
disappears
doses
ea@@
earth@@
elizabeth
embarrassed
emp@@
ena
enhan@@
estate
eternal
exceptions
exotic
exponentially
far-@@
fix@@
formal
format
frames
frightened
fungi
gasoline
gecko
gic
gradu@@
greatly
guards
hacking
hai@@
hoo@@
humility
iceland
incre@@
indigenous
introver@@
inventions
islam@@
journalism
kins
kit
lately
lectures
left-hand
lo
lum@@
maintenance
mers
mia
millennium
million-@@
mixture
mother@@
nights
nonetheless
operated
ora
our@@
patch
paths
perceptions
pets
philip
phoenix
pick@@
pleased
pond
presidential
preventing
pricing
prince
pumps
rains
randomly
receiving
refuse
rejected
resist
rituals
rockets
sage
sarah
satisfaction
sco@@
sensitivity
shepherd
shining
shipping
shops
sierra
simulate
spatial
spr@@
spray
sputnik
sticking
stimulation
stock@@
stopping
strations
surfing
sus@@
tales
tangible
teri@@
terrorist
thi@@
tick@@
tight
touches
traces
transit
trusted
ums
uniform
vations
ven
viewer
vitamin
vocabulary
von
web@@
wilson
wins
wiring
wra@@
wri@@
yers
zero-@@
0
0s
1.5
1930s
2012
31
52
acceptance
accompanied
acou@@
age-@@
aled
ambitious
ards
artwork
asleep
assembled
assuming
asthma
attacking
audi@@
b-@@
balanced
ball@@
barriers
baseline
basking
beha@@
belt
bent
bikes
biop@@
blessed
blogging
bluefin
brave
bureau@@
calcium
catastrophic
chimpanzee
chimps
chin
clips
clusters
coca-cola
committee
common@@
comple@@
confronted
congestion
convention
countless
crap
credi@@
ctable
curi@@
dates
declared
democracies
descen@@
diamonds
direc@@
dishes
divi@@
dome
draws
dys@@
ebay
ella
embar@@
equilibrium
escal@@
establish
exhibit
fabri@@
fat@@
favor@@
fda
filmed
filmmaker
fir@@
flesh
forcing
forgive
frontier
galapagos
generosity
ght-@@
glorious
goat
govern
grabbed
grow@@
gru@@
h-@@
headline
headquarters
hel@@
helmet
hmm
honored
hospit@@
hurricane
imagining
indicate
indicates
infectious
instruction
interviewer
involve
ion
irrational
isolation
jan
jerusalem
jh
jonathan
jug@@
jumps
juvenile
kelly
kidding
kilometer
kindergarten
kiss
lap
laughed
liberty
log
logging
lonely
losses
lower@@
m-@@
machinery
marker
mature
max
mesh
microphone
mmed
modest
moment@@
monsoon
natasha
negle@@
nes@@
nity
norm
observing
occasi@@
oper@@
ops
orized
palestinian
path@@
pathways
penalty
perspectives
petro@@
pois@@
potatoes
praying
prece@@
predic@@
predicting
prescription
promising
reader
rei@@
relativity
rep@@
replacement
reporting
representative
resses
road@@
rome
rosling
screening
select
sequencing
serves
shaking
shelves
simul@@
sketch
slice
slope
snake
spa@@
specialists
spontaneous
spra@@
staircase
statistical
stranger
strikes
stunning
summarize
surviving
talents
targeted
tat@@
tel
tem@@
tesla
th-century
therapies
tho@@
tomato
towers
tricky
tt
tz@@
uh
ultra-@@
ultraviolet
variable
ve-@@
vin
wet
whe@@
who@@
wiped
wolfram
wrist
year@@
130
1997
2.0
400,000
absorb
acceler@@
ack
acknowledge
acres
adds
afterward
alice
alright
altered
alternatives
ambition
ame
analyzing
ank@@
apes
arri@@
arrow
attach
bag@@
bangalore
blue@@
brad
breakdown
browser
bust
c-@@
calculating
candy
carl
cataly@@
cence
cerebral
cloth
commission
commit@@
commodities
consent
cosmos
counter-@@
crashes
crude
dancer
deep-@@
degra@@
delight
dering
deserves
desperately
dia
diamond
diplo@@
disabilities
disappointed
disney
disturbing
divergence
dragonflies
dum@@
easiest
egyptian
eighth
eit
electri@@
eng@@
ern@@
essive
etary
expanded
facili@@
fails
famously
fault
festival
fifty
finan@@
finger@@
finishing
flat@@
freezing
fru@@
fruits
full-time
gaining
gardens
gens
gently
ghter
glacier
goliath
gover@@
hab@@
hacker
hal
happiest
happily
haw@@
heroic
hh
hut
hydr@@
ians
illumin@@
implemented
injured
injuries
innovate
insur@@
intend
ipod
ishes
jefferson
joining
julian
jur@@
kosovo
lean
learns
legitimate
lighter
lim@@
linking
loo@@
mac
mama
manipulation
manufacture
marke@@
markers
mexican
mind-@@
mm
mor
motiv@@
motor@@
nam@@
nau@@
netherlands
night@@
nine-@@
node
norms
nucleus
occupied
offspring
olo@@
onia
operates
optimi@@
ore@@
origin@@
orph@@
outbreak
overnight
part@@
participating
peer
persuade
pigeon
pipe
plankton
poin@@
politician
poll@@
powder
practically
presenting
prevalence
primate
primates
processed
progression
projected
protest
psychiatric
pump@@
q
quad@@
ration@@
rations
regrets
regularly
rehear@@
relatives
repe@@
respected
responded
rolls
roo@@
scheme
scientifically
sebastian
segment
self-assembly
sells
shield
som@@
spectro@@
spheres
stare
stimul@@
stine
sucks
supports
supreme
symbolic
tal
tating
tattoo
tedsters
temporal
tenth
textbook
texture
thumb
ti
timing
toss
tribal
twist
unded
under-@@
uniquely
usa
variables
vas@@
verb
vering
victory
vin@@
wasted
weekend
wives
-based
000-@@
38
40@@
40s
7,000
96
acc@@
accumulate
accurately
achieving
aci@@
acknowled@@
adh@@
affairs
airline
alling
ami
ane@@
anes@@
anxious
arise
arose
asteroids
atheists
awake
awe
beetles
bery
beside
bir@@
blah
bloody
bono
brazilian
broadcast
bruce
calendar
cardboard
cared
carto@@
cathedral
chains
checking
chickens
child@@
cholera
chop
cky
combat
compound
compounds
condom
conven@@
cop
cost-@@
cybercriminals
decre@@
defeat
delay
dele@@
demanding
deplo@@
destructive
detected
diagnostic
discussing
discussions
distribute
doub@@
dp
dr
du
el-@@
electromagnetic
elevator
embodied
emphasize
encountered
energi@@
enlightenment
enters
entrepreneurship
environmentally
ethanol
ever-@@
exercis@@
expectation
feminist
filters
fishermen
fit@@
forum
geography
gold@@
greenland
guilt
guitar
hackers
heavens
households
hs
hugely
illu@@
illusions
immuni@@
implic@@
individu@@
intentions
interpre@@
interrupted
interventions
intra@@
invasive
ire
ishing
j.
jaw
jewelry
juggling
keith
kicked
lau@@
lay@@
levi@@
limit@@
log@@
louis
ly-@@
mammography
margin@@
meets
migration
mimi@@
min
mir@@
modeling
monit@@
multinational
mysteries
naive
neocortex
nick@@
nike
noisy
nutri@@
obsession
obsolete
oo@@
ow@@
pair@@
partnerships
pathway
peculiar
photographers
pis@@
plug@@
popul@@
prisons
proce@@
purch@@
quantities
rage
rainforests
reduces
refined
refriger@@
refugees
regulations
replacing
representing
reproduction
republican
researching
resilient
rises
rover
rows
sang
scripts
second-@@
secu@@
shower
spaghetti
squared
stac@@
stam@@
stamp
sudan
sul@@
supportive
susan
symbio@@
tali@@
tary
tas@@
tasmanian
tates
tch@@
teszler
thood
thousand@@
tide
tivity
tization
tories
trou@@
tters
tty
turing
un-@@
utility
velocity
viewed
vor@@
waste@@
whistle
wished
woo@@
xy
yard
yment
yp@@
,@@
00@@
11th
125
1995
2015
24@@
76
ac
access@@
accountable
activate
acute
adaptive
aggre@@
agile
agrees
alert
alo@@
alties
analog
ann
anticipate
apollo
appliances
appreciated
arabia
ashamed
aspi@@
assure
atro@@
augmented
auth@@
aver@@
awa@@
barrels
basement
bc
bi
biases
bonus
bot
bottom-up
bou@@
bow@@
breath@@
breed
brooklyn
camels
cellphone
checklist
chun@@
chunk
cide
cigarette
circulation
clapping
clarity
climbers
clues
colli@@
colorful
competi@@
compu@@
computer-@@
confined
confli@@
constitution
contin@@
controversy
convenient
coun@@
culturally
dave
deciding
dedic@@
default
deficit
derived
dest@@
developmental
devoted
digi@@
disk
distribu@@
dom
dow@@
dreamed
drunk
duty
e.@@
earned
ech@@
edinburgh
elbow
elegan@@
empowering
entrance
entrepreneurial
equipped
eradication
ero@@
erup@@
ession
esti@@
evaluate
ex-@@
exam
examine
expense
expose
fairness
fatal
fixing
float
folk
francis
frequent
frustrating
func@@
funeral
galleries
gallon
ge-@@
gen
genuine
gh
gigantic
globalized
gon@@
gordon
guinea
hammer
hawking
herd
hooked
hoped
house@@
humble
hybrid
icons
impaired
imperative
improvis@@
indic@@
infant
infinitely
inger
inherently
inje@@
instinct
instru@@
integrity
interfaces
inti@@
intrinsic
iter@@
jar
jumping
kennedy
knock
lama
leap@@
lei@@
lethal
lever@@
magazines
market@@
marvelous
matches
meta@@
michigan
microscopic
mild
millennia
misery
modified
modul@@
moreover
morph@@
mouths
needles
negotiate
neutr@@
novelty
nt
nurturing
ography
oops
or-@@
orgasm
painter
paralysis
pation
phy@@
plat@@
pol@@
portable
portugal
potato
precision
pregnancy
pressures
problematic
prophe@@
ption
purchase
purely
pursuing
quietly
real-time
recognizes
refused
regenerate
remembering
repeatedly
reser@@
reson@@
returns
rick
rier
rod
roles
rou@@
rowed
rub@@
ruins
salary
saturday
savan@@
sb
screaming
se-@@
seasons
secondary
sequ@@
sheer
shipped
sig@@
simon
sity
sj
skeptical
slip
snakes
solo
specu@@
squeeze
stance
statistically
statue
sten@@
strand
strangely
stressed
submit
sufficient
surveys
sustained
systematic
ter-@@
termin@@
tex@@
thful
threatening
traditionally
tren@@
unic@@
unstable
upright
upward
ushahidi
vacation
valu@@
viable
votes
waited
walker
well@@
wonderfully
yor@@
1-@@
1984
1989
200-@@
300,000
abroad
accepting
accomplish
accounting
acious
acre
aded
advan@@
agu@@
alaska
allies
amino
ani
anniversary
apparatus
applies
arable
arch@@
aria
armstrong
arrange
asing
ath@@
atheist
attempts
aud@@
auditorium
babbage
barry
basket
basketball
beneficial
biologically
bioluminescence
biotechnology
bless
bosnia
bran@@
brick
buddha
bullet
bump
bund@@
buses
butter@@
cafe
carbon-@@
carnegie
characteristic
chess
christ
christians
cis@@
clean@@
cling
cockro@@
cocktail
coincidence
collaborate
collaborator
coma
command@@
commissioned
compar@@
condi@@
conducting
confir@@
conservatives
consideration
consists
cooperate
corrupt
courageous
cracked
critici@@
crystal
d.c.
dalai
daylight
dead@@
deca@@
declining
delta
denti@@
dered
deta@@
devo@@
diagnose
dick
digits
dio@@
displays
disruptive
distingu@@
drama
een
emerges
entities
episode
exagger@@
explanations
expor@@
extending
fear@@
flights
fog
fort
free-@@
fuzzy
ga
gat@@
generic
gentle
glory
goodness
gosh
graduates
grass@@
greeks
grocery
grou@@
guardian
guidance
handful
hated
hatred
heal
heated
heck
heights
high-speed
humankind
humili@@
hung
hunters
identi@@
ideological
ideology
iming
improvise
impulse
ind
influences
inform
infrared
investigate
involvement
irri@@
irs
jungle
kibera
kidna@@
labels
lasts
league
lenses
lers
liberals
liberia
listed
locks
logy
louder
lows
mage
managing
manufacturers
mapped
mar
marin@@
mck@@
membrane
menu
minded
minerals
monday
museums
mythology
myths
namibia
nap@@
nathan
navi@@
negoti@@
neys
ninth
noble
nodes
notions
numerous
nurture
nut
obstacle
omed
one-on-one
ories
oven
owe
paper@@
parasite
pat
pedal
peri@@
personalities
physi@@
pione@@
planting
pleas@@
plot@@
poll
pollutants
poss@@
post-conflict
prescri@@
princeton
procedures
projections
prototyping
puppe@@
qualified
que@@
racing
radar
radius
ram
randomness
rat@@
recycle
red@@
redefine
reforms
regi@@
regulation
releases
render
rendering
resem@@
responding
responsibilities
rewar@@
rna
rowing
rupt
sadness
sanitation
satisfied
semi-@@
sequenced
settle
simpli@@
skep@@
snow@@
soccer
spends
spike
spills
steady
stealing
strengths
stun@@
stunt
subsidi@@
substantial
sue
suitcase
surplus
surround
suspended
syria
t.
tage
tant
tches
theirs
thes@@
tibet
ticul@@
time-@@
towel
transported
type@@
typing
uk
unt
vali@@
valid
vel
veterans
vibrating
virtue
vivid
voters
voyage
vy
warren
warrior
watson
wheel@@
wonders
zoo
-in-law
15,000
1945
1991
24-@@
3-@@
86
a.m.
accommo@@
admini@@
adolescence
aero@@
alb@@
alongside
amateur
angel@@
angels
ans@@
antibodies
appeal
applause
appropriately
aquatic
archi@@
are@@
argued
astronomical
attraction
aug@@
augu@@
automobiles
axes
b.@@
backed
bamboo
bea@@
beethoven
belie@@
bench
biased
blocked
bmw
bonds
brand@@
breakthroughs
burns
bury
bus@@
calculator
camer@@
candle
cardiac
catastrophe
cate
celebration
centimeter
certified
chaotic
checked
checks
chin@@
chron@@
circular
clari@@
close@@
cochlear
coined
combining
composer
conceptual
constrained
contamin@@
continually
continuity
contradiction
conve@@
converted
countryside
crab
cracy
cursor
defines
delicate
denmark
din
disappearing
distinguish
divine
divorce
donors
dreaming
dumped
dylan
edit
edited
editors
eff@@
egyptians
elaborate
employed
employment
enceladus
encing
endeavor
enhance
enthusiasm
equator
eradicate
erectus
eth@@
evan
excess
explorers
fetus
fg
fier@@
fisheries
fossils
fragments
frau@@
fted
fulfilling
germs
gically
glu@@
gon
governmental
graham
graphi@@
gras@@
grassroots
gravitational
grief
grim
hairs
hence
holi@@
holocaust
hotels
hotter
hump@@
hus@@
hypo@@
iceberg
idiot
imed
implanted
imple@@
instruc@@
intern@@
interven@@
intervene
involving
jar@@
ji
ji@@
jo
jokes
jour@@
ket
kiribati
knees
lage
lane
larvae
laundry
limitation
lining
linux
longest
luther
maintaining
manifestation
mat
mess@@
migraine
mite
net@@
nicely
non-lethal
norman
notation
nuclei
officials
oming
onists
optimize
ous@@
packaging
palestine
paradise
parked
patience
pearl
pediatri@@
peripher@@
pharma@@
phe@@
pher@@
philadelphia
physiology
pinn@@
pittsburgh
policing
poorer
pops
portra@@
posters
pristine
promoting
publicly
punch
puzz@@
queens
rachel
rd
reads
reagan
reasonably
referred
reflects
regimes
registered
relax
remix
renaissance
rendered
ressing
retired
screens
search@@
self-organizing
seven-@@
shred@@
shrink
sighted
singers
skilled
slept
slight
sno@@
sooner
spades
speeds
spine
spite
squee@@
stadium
stake
standpoint
starbucks
starvation
statements
stepping
sterile
stimulate
suburban
summary
surroundings
survivors
sweat
tad@@
tained
tamiflu
tch
terri@@
thinkers
tickets
tightly
tips
tortured
tos
tracked
transmit@@
trap
trin@@
twins
two-dimensional
ue
ung
usable
vac@@
valve
vege@@
voluntary
vs
watches
watt
weak@@
wer@@
ype
yves
zipcar
1.2
1.3
180
1996
250,000
59
64
900
ab
aby@@
aches
add@@
admit@@
aggregate
album
ambiguity
annoying
anytime
apologize
apparent
archy
ark
arly
arrest
ata
athletes
atrazine
attend
australian
avenue
avian
bankers
banned
barefoot
battle@@
beans
bending
bes@@
bj
black-@@
blade
boom@@
box@@
brus@@
bumps
cabinet
campaigns
caregi@@
caribbean
cassini
cele@@
censorship
cheap@@
ckets
coherent
coll@@
collaborators
collar
collider
colum@@
com
commandments
commerce
comparable
comprehensive
configuration
confron@@
conscience
constit@@
convenience
cookie
cooper
correlated
correspond
cot@@
creators
crowd@@
crum@@
crushed
cum@@
dark@@
darwinian
das
decides
defi@@
demographics
demon@@
demos
dening
deple@@
deploy
deser@@
diana
dictionaries
disgusting
displaced
documenting
dop@@
duc@@
dump
dune
e.
eco-@@
eing
elders
elec@@
eller
emily
employee
enabling
endless
envelope
environment@@
eradicated
erotic
evolves
exce@@
f-@@
fibonacci
fing
firmly
fitting
flourish
foam
focuses
forbid
foun@@
fox
frac@@
freeze
geese
ger-@@
glucose
goats
god@@
gratitude
grove
hair@@
hamburger
harvesting
head-tail-@@
hero@@
historian
hitler
hive
holder
honesty
hunter
ignorance
ili@@
impressed
improvisation
independently
individually
inte@@
invitation
ironically
ised
ivan
jill
jordan
kal@@
kle
know@@
lagos
laugh@@
launching
laure@@
lean@@
left-@@
lements
lever
libraries
light-@@
likewise
literal
loans
lobe
locking
low-income
luci@@
m.
magnets
mastery
mediate
medications
mega@@
metabolic
metropolitan
minor
mix@@
mola
morally
mou@@
mustard
nairobi
nano
ni
nin@@
northwest
num@@
occupation
oecd
operational
optimal
orn
orphanage
ort
packing
patho@@
peaks
pier@@
pioneer
plac@@
poets
pressing
priest
principal
prizes
progr@@
qaeda
questioning
rail
realities
reed
regional
rehabilitation
reinvent
relates
rem@@
requ@@
resolved
respiratory
revi@@
reviewed
revolutionary
rides
roman@@
rotating
russians
sailing
sars
scar@@
scat@@
scotland
scream
screw
secre@@
sel
sensi@@
sensible
server
settled
seven@@
shallow
signing
sing@@
singer
slogan
slu@@
slum
sovereig@@
spac@@
specialist
spect
sperm
sprin@@
sri
stan@@
sticky
stigma
stres@@
strictly
subjective
submersible
successes
swedish
swee@@
sydney
synesthesia
tability
tagging
tape@@
tastes
thereby
tick
tionary
tionist
torial
trailer
transcend
treaty
tremendously
ttered
tup
turn@@
tweet
unemployment
unified
utter
valued
veil
vibra@@
volcano
williams
worries
worthwhile
writes
ya@@
yale
yo
you@@
young@@
zy
00s
140
1970
2.5
4,@@
450
7,@@
94
abandon
accelerated
accompli@@
accor@@
addressed
advocate
agnes
agnostic
allen
altogether
amateurs
anda
andro@@
ands
anten@@
archae@@
arena
argentina
ari
arithmetic
ashed
aspirations
assistant
associ@@
atri@@
attributes
balloons
bananas
barbar@@
basics
beaches
beginnings
bell@@
beloved
benign
billboard
biom@@
biomimicry
bl
blast
block@@
blows
blur@@
boost
boots
bounce
briga@@
bud@@
burg
buys
caltech
camp@@
cand@@
cane
canyon
carcin@@
casting
centigrade
champion
charcoal
charts
chers
compatible
competitors
conc@@
conception
concer@@
conclusions
conditioning
consi@@
contagious
contest
controller
correspon@@
cris@@
cubic
curved
darfur
day-to-day
deceased
decei@@
degradation
degraded
deliber@@
delighted
delivers
demonstrates
depressing
depths
der-@@
desertification
deserts
detroit
dged
differ
directors
disconnected
dissemin@@
distorted
dividing
dod@@
dodo
dog@@
donation
doubling
drinks
drowning
dug
dunes
duration
ease
educating
elessly
embassy
ement
empiri@@
ette
evident
evo@@
execution
exit
explode
explores
expres@@
falcon
fall@@
fertili@@
fertility
fighters
finite
flock
fluores@@
fool
founding
fundraising
galileo
gallons
gar
gating
genomics
georgia
ghtest
gil@@
git@@
glow
good-@@
governor
grey
grounded
habit@@
harmful
harness
hint
holiday
hopeless
icy
ideo
illa
imagin@@
imposed
incidentally
incomplete
indoors
industrialized
informal
inher@@
inherent
inner@@
innovators
insecure
instances
instinctively
interviewing
intricate
intrinsically
inventing
isi@@
isol@@
jackson
jam
jamie
jason
jerry
jury
kable
katrina
kilos
kim
kings
kl@@
ky@@
kyoto
laboratories
leds
len
leone
lifes@@
lightning
limbs
lized
lled
magi@@
malnutrition
manages
massachusetts
master@@
matching
matt
mediterranean
memorial
menting
mites
modes
mold
moma
montana
monum@@
mortal
mosque
multiverse
mum
mutual
nails
nation-@@
natur@@
nectar
nee@@
neil
nightmare
nings
nur@@
offshore
ograph@@
olly
omy
one-third
ong
onic
oping
opo@@
orientation
ough
pads
panbanisha
pancreatic
parameters
patri@@
penetr@@
penis
pennsylvania
percep@@
pervasive
pesticides
phil@@
pilots
placebo
poland
potter
preservation
preten@@
prising
produ@@
programmer
province
publication
qatar
question@@
rainfall
raises
rap
rating
recep@@
recipro@@
register
reject
relevance
replicating
rescued
respectful
riots
romance
rooted
routine
roy
ruled
sands
satisfying
scanned
scape
scarce
scare
scholars
schooling
scop@@
scrat@@
scul@@
sculp@@
searches
selective
sent@@
separ@@
settlement
sex@@
share@@
simulated
skies
skip
slave
slowed
sound@@
space-time
spin@@
spli@@
spontaneously
spouse
staggering
stal@@
state-of-the-art
steer
sten
stin@@
streng@@
stru@@
struc@@
stunts
submer@@
suff@@
summar@@
supermassive
swing
synapses
tapped
temper@@
tennis
testosterone
textile
theft
theor@@
thirdly
tled
toll
tops
tourist
toxins
translating
transmitted
trauma
troubled
tu
tude
tural
twen@@
twenty
uc@@
ung@@
unintended
unpredictable
urban@@
variability
varieties
venezuela
vents
vil@@
vis
visceral
volcanic
wandering
wee@@
wol@@
worship
wre@@
wrest@@
yn@@
yorker
zational
193@@
1968
1993
53
57
58
80,000
absorbed
academics
accidentally
addicted
advantages
algebra
alliance
alter
alter@@
ambassador
ambiguous
amsterdam
andy
animate
anom@@
appearing
appeti@@
approval
argues
arian
arizona
arrows
artic@@
assessment
assi@@
asto@@
astrolab@@
athlete
atives
attachment
attempted
attra@@
autistic
automatic
avatar
band@@
bank@@
barack
beats
benef@@
big@@
bind
biography
bited
blink
bloggers
boil
bos@@
boyfriend
bra
bucket
butt
cameron
cartoonist
cated
censor@@
centered
chair@@
charging
chat
chie@@
chord
circuitry
cleaner
colom@@
combinations
compla@@
complaining
concei@@
conceive
conqu@@
contacts
container
contents
contexts
contradi@@
contribu@@
cooked
corrid@@
counsel@@
crow@@
crowds
ctivity
custom
darpa
decentralized
dee@@
depri@@
desires
developers
directed
disciplinary
doc
donated
donations
doodling
doug
dow
drift
dude
dwar@@
earning
ef@@
eline
employ
empowerment
enced
entity
envy
enzyme
ere@@
essi@@
evalu@@
evol@@
excer@@
explicitly
explorer
exquisite
extensive
ey@@
fame
fans
favelas
fellows
fies
figu@@
fills
fiscal
floors
fluctuations
fon@@
formu@@
fulfill
gall@@
gather@@
geek
gifts
glaciers
gour@@
gram@@
grandmothers
grip
gyrus
hadron
heli@@
helpless
highways
hman
hob@@
hop
humani@@
hurts
identities
illnesses
impac@@
implication
indoor
industri@@
inefficient
iner@@
ingenuity
inhal@@
inject
injection
injustice
inmates
instincts
intellec@@
intentional
interro@@
intersection
intri@@
introducing
invaded
inventors
investigating
inviting
ipad
ira@@
iranians
ironic
irrelevant
irrigation
ison
jacket
joel
judges
justify
juven@@
kansas
kenyan
khan
lakota
lement
limestone
linguistic
literary
lyri@@
macro@@
mad@@
maldives
mammogram
manipulated
mantis
manuscript
mark@@
mas
massively
matics
meantime
measurable
melody
mentary
mermaid
metaphors
method@@
metrics
midst
mill
mini
mming
moms
moses
mozart
murray
mustache
myth@@
nail
nanotechnology
natalie
needing
negotiating
nepal
news@@
ngo
nie@@
northeast
norway
noticing
numb
observer
officers
old-@@
oli@@
olive
oney
operator
oregon
ounce
parall@@
partial
patter@@
penetrate
pentagon
periodic
personnel
plic@@
pools
preserved
prevents
processors
producer
prop@@
psychopath
pts
quo
ranging
reactors
recipes
reco@@
recovered
redesign
reflective
regulate
reinventing
reje@@
rel
res
resonance
respects
ression
restricted
retreat
revolution@@
right-@@
rightly
risd
ro
rot
rsw
s-on
saint
salmon
sation
saves
schedule
scru@@
sect
serendi@@
shadows
siblings
sidewalk
sign@@
sin
sketches
skype
slate
snap@@
sne@@
sou@@
spiritu@@
steering
stering
stimulus
stocks
ston
strokes
stumbled
styles
subje@@
submitted
subscri@@
suburbs
sup@@
sustaining
sweeney
sympathy
sync
synthesize
tails
taiwan
take-@@
tality
taller
tattoos
tching
te-@@
tech@@
tedglobal
tedx
tehran
terminal
thirds
thor@@
thread
titanic
topo@@
toronto
tory
tos@@
transistors
traumatic
tress
triangles
trum@@
trunk
ually
ues
um-@@
und
underway
update
ur
use@@
vague
venter
violin
visitors
visu@@
wages
wei@@
weir@@
whistling
widespread
willingness
winners
wning
worldview
wrin@@
xes
zer@@
zu@@
10th
110
12-@@
15-@@
1975
2,500
40-@@
44
50@@
70,000
77
absurd
abu
acceleration
accent
acceptable
acquisition
actu@@
admire
adolescent
aerial
aesthetics
affir@@
ag
agre@@
aire
airports
ais@@
aks
analytical
ancy
animated
animations
anna
anth@@
anthropologist
anticipated
appealing
arab@@
arc
archimedes
artifi@@
ashes
asis
attribu@@
atur@@
aunt
av
ay@@
bak@@
bal
bali
band-@@
bands
bare
basin
bath@@
beck
belts
bertie
billion-@@
bioluminescent
birth@@
bites
blessing
blocking
boson
boy@@
bulg@@
bulk
bump@@
cairo
cali@@
capacities
carbonate
carri@@
carrot
carved
cative
cd
celebrating
centric
ceos
ceram@@
certainty
chalk
chariot
cion
cists
cket
claws
clever@@
closure
clou@@
cognitively
comet
commonly
commu@@
compen@@
competent
complain
compos@@
compose
conceived
concent@@
consistently
contracts
coordinate
cosm@@
cosmology
costa
crank
crater
cros@@
cross@@
cruise
cuba
curator
currents
d-up
dallas
dam
dangers
dder
decep@@
def@@
deliberately
dental
dependen@@
deri@@
desc@@
detectors
deter@@
developer
developments
digitally
dil@@
dious
discussed
diver
dj
dou@@
dragged
drilling
drought
editing
ee@@
elder
eliminated
embarras@@
embraced
emission
empath@@
engths
ening
entertaining
epiphany
europa
excellence
exceptional
execu@@
exhausted
exhi@@
existential
export
eye-@@
faint
fairy
feminine
ffer
fights
fitted
flap
footprints
for-@@
foxo
fragmented
freak
galois
gangs
gaze
generator
ggles
grabs
graders
gun@@
hallucin@@
headaches
heel
hex@@
himalayas
ho
humane
hypothetical
i-@@
ie@@
imbalance
imp@@
impor@@
inclusive
incremental
inexpensive
infra@@
integrating
interference
iny
iq
ises
issued
ital
jam@@
julia
junior
kam@@
karen
keen
kel@@
kepler
kes@@
kine@@
knocked
kur@@
las@@
laying
lays
leak
lec@@
lessness
liberation
lie@@
lifelong
lings
lump
mac@@
madness
mahmoud
manipul@@
margaret
margin
mash
meadow
mics
midnight
migrate
miller
million@@
mind-wandering
minimal
miracul@@
mista@@
mister
mity
mons
mov@@
movember
mr
mundane
murdered
nano-@@
neanderthal
near-@@
negotiation
nerd
neu@@
neurological
neuroscientist
nicole
noises
nonviolent
novels
obtained
of-the-@@
officially
ola
ologies
oppon@@
orbiting
orleans
os@@
oscar
oting
outrageous
owns
ox@@
oxy@@
p.@@
parap@@
paro@@
passionately
pathogens
pavilion
payment
peac@@
pel
pepper
permanently
perpetu@@
persons
phen@@
phthalates
pies
placing
plato
playground
plying
popped
posts
pots
ppers
profession@@
professions
profiles
propulsion
protective
puppet
pus
py
quotes
r.
rabbits
races
rand
recei@@
recon@@
refu@@
regenerative
relax@@
reminder
remotely
ren
repli@@
replied
reporters
retail
retin@@
reviews
rex
rhythms
rigid
rouge
routinely
sab@@
sanitary
scaled
seafood
sealed
senator
sham@@
shaping
shells
short-term
shouting
shuff@@
similarities
six-year-old
slowing
sole
solves
sony
sought
sounded
square-@@
stag@@
stand@@
statistic
ste
stell@@
stence
sth@@
stly
strains
strous
subtra@@
suggestions
sulfide
superior
swap
sweeping
sym@@
symboli@@
technician
tedx@@
temptation
testimony
thouse
throws
tian
ticals
tigers
top-@@
trait
transcen@@
transistor
translates
treas@@
trek
triggers
triumph
tually
tuberculosis
turbul@@
turkish
turtle
twin@@
underestimate
unemployed
unite
unsustainable
urgent
us-@@
usage
valent@@
varied
veling
venus
victor@@
vietnamese
viewers
vir@@
visualizing
vors
wal-mart
walkable
wallet
ware
wasting
weekly
whist@@
wilderness
wipe
witn@@
wood@@
world-@@
wounded
x-rays
yr
zimbabwe
15th
1976
1983
1986
25@@
30@@
49
80@@
83
84
abalone
ables
abused
accused
acity
acle
acoustic
acumen
adventures
adverti@@
advertise@@
aka
ala
aler
algorith@@
alizes
alled
alls
amphi@@
ampu@@
ander
ane
anecdot@@
announcement
anony@@
anthropologists
apartheid
ape
appe@@
aquarium
ara
arbitrary
archie
arized
arou@@
arteries
articulate
aspiration
assau@@
atmospheric
automotive
availability
avoi@@
awards
baker
balcon@@
ballet
banker
barbara
bb@@
bhutan
bili@@
billion@@
blind@@
bloo@@
boiling
boot
booth
bp
brea@@
breasts
brutal
call@@
capsule
casual
catalog
cds
cel@@
cent@@
centimeters
centralized
cephal@@
cess@@
cha
characteri@@
characterized
charming
cheated
check@@
chor@@
cigarettes
cils
cinema
circul@@
cist
civilian
cleaned
clicks
cnn
cognition
coins
collabor@@
commands
commentary
communal
compass
comprehen@@
conduc@@
confusing
congratu@@
connectedness
contaminated
convergence
convi@@
cooler
coordin@@
couples
criticism
crocodile
crowded
crun@@
cumulative
cyber
dable
danish
databases
ddled
dealt
declined
defending
defini@@
delete
denied
denomin@@
devi@@
dictator
dictator@@
diego
dig@@
dimin@@
disconnect
dispen@@
dissi@@
distinctive
disturbed
divers
dol@@
dor
dos
dove
dread@@
eager
echo@@
ed-@@
educators
efficiently
eliminating
elle
eman@@
embryo
emi@@
emitted
encryp@@
enjoyable
enlightened
enrich@@
entitled
enzymes
eps
erase
eries
erness
euros
eva
evapor@@
excuses
executive
exhilar@@
experimentation
experimenter
experimenting
explosions
expressing
extremes
extrover@@
famili@@
fashi@@
fast-forward
fatty
fbi
feasi@@
ffed
fic@@
fifteen
filming
filmmakers
finland
flexibility
flickr
flood
flooding
forehead
foremost
forgiveness
formul@@
fort@@
founders
fractal
fried
fulfilled
fum@@
furthermore
gehry
gency
genic
ghtful
gian
gifted
glas@@
glori@@
gn@@
grace@@
habitats
halls
handy
harn@@
has@@
haul
hears
hers
hertz
hig@@
highl@@
hir@@
his@@
hour@@
hug
hyperbolic
hyun-sook
ight
ignor@@
illustrates
imaginary
imaginative
imitation
immensely
implants
improves
incomes
indul@@
inflation
ingenious
ington
ingu@@
inhabited
ini
inno@@
inputs
inser@@
intel
internation@@
ist@@
it-@@
ivory
jeans
jennifer
jon
juan
khmer
kick@@
kil@@
kilo@@
kilograms
kindly
lab@@
labor@@
lastly
legendary
legos
let@@
lhc
libr@@
liqui@@
lithium
live@@
locom@@
m.@@
macy
maj@@
malig@@
manufacturer
marcus
margins
mari@@
mathematically
mble
metast@@
mineral
ministers
missile
mmer
motions
motorcycle
navy
nazi
needless
nests
newly
ninet@@
nollywood
non
numer@@
obli@@
oblivi@@
ogram
ographic
oiled
oliver
ologi@@
ony@@
opped
opposition
orable
outsi@@
overlap
overwhel@@
pakistani
palace
paraly@@
passengers
pedestri@@
pepsi
philippines
photographing
physiological
pirate
placement
plo@@
poke
poorly
pr
practiced
pragmatic
presumably
preventable
prone
protocells
provi@@
publisher
puri@@
quantitative
quantity
quiz
rab@@
railroad
rank
rar@@
ras@@
recipi@@
reconciliation
recor@@
rectangle
references
refers
refin@@
remembers
remin@@
resour@@
responsive
ressed
returning
revealing
rift
rip
roger
rus
sacrifi@@
sat@@
saul
seller
semi@@
sessions
settings
sexuality
shout
sic
simplistic
sket@@
slaves
smartphone
smiles
southeast
squat@@
sque@@
ss@@
stabili@@
stanley
steak
stereo
stretched
strict
stries
sums
superhero
surge
surrounds
swar@@
swear
switches
t-shirt
taboo
tahrir
tain@@
taxi
technolog@@
telephones
tell@@
tempest
tempor@@
thankfully
third-@@
threaten
three-year-old
throat
thrust
thu@@
ticism
tieth
tim@@
timber
timeline
tionists
titude
tiveness
tizing
tling
tolerate
tooth@@
toral
toughest
tribute
trilli@@
triple
trust@@
tunas
turtles
una
ust
uter@@
vals
vector
verbs
verge
verte@@
vet
vibrant
vic@@
vinci
visuals
volts
warfare
will@@
wned
yel@@
zable
-free
1,100
12th
1918
1957
195@@
1985
50th
6.@@
60@@
92
93
aa
ades
adjacent
af
afflu@@
aimee
alfred
altruism
amanda
anatom@@
ancestry
ang
anne
anno@@
antenna
antiangiogenic
antidote
ap
ape@@
appointment
aqu@@
arkansas
arranged
arrangement
assigned
atheism
attendance
attribute
auditory
aus
automated
autonom@@
az@@
bach
backward
bbc
beard
bet@@
bitten
bladder
bleeding
blobs
bonobos
bottlen@@
brakes
broadcasting
bronze
calculators
canal
captures
cardiovascular
categ@@
celebr@@
cello
cereal
certificate
ch-@@
champion@@
charis@@
chewing
chop@@
chore@@
christopher
citizenship
class@@
clinically
cod
coinci@@
collaborating
colorado
commercials
compact
concus@@
conferences
connecticut
conspiracy
containers
containing
continuum
contributions
corresponding
coupled
crabs
crafts@@
crashed
crat
crawling
crises
croch@@
crus@@
cultiv@@
cutting-edge
d.@@
dawkins
ddler
death@@
decisi@@
del
delu@@
delusion
dentist
depended
deprivation
determination
devastated
diagrams
differential
digitize
dining
disbelief
discre@@
displayed
dley
docum@@
doha
drank
drip
drums
easter
ecolo@@
ecologist
eden
edible
eding
edward
efficacy
eleanor
elevated
elites
emit@@
emphasis
encounters
enduring
enthusiastic
ere
escaped
estrogen
europeans
evolution@@
exclusive
expands
expeditions
exposing
expressive
fees
fertilizer
fishes
fitness
flags
flipping
floo@@
floods
flourishing
flown
fluidi@@
fmri
followers
fooled
foreground
fry
fungus
gan
genesis
geometric
ghten@@
giants
gla@@
gler
gloves
glowing
go-@@
graffiti
grapes
grasses
gratification
gridlock
groundbreaking
guar@@
guided
hable
handsome
harmon@@
harsh
hay@@
haz@@
hazard
headphones
helix
hes@@
hiv-positive
holistic
humming@@
hunter-@@
hyp@@
hypotheses
ial
ikea
ills
ily
imf
impose
inadequate
inc@@
incorpor@@
incubator
indication
induced
inhabit
inherited
injected
ino
insist
insul@@
intellect
interfere
intergalactic
intuitions
ipods
istic
izing
jeal@@
jersey
junction
killers
kite
kles
kling
lamb
lasted
lative
legally
legged
legiti@@
lightweight
listen@@
longing
loops
lousy
lover
low@@
lure
maggots
magni@@
man-made
manifest
maria
marines
mass-@@
maternal
meaningless
measurement
medieval
melan@@
microwave
middle-aged
middle-class
mills
mitted
mock@@
month-@@
monthly
mortgage
moun@@
mounted
munici@@
mutually
nas@@
navigation
nel@@
nex@@
nian
nm
nment
not-@@
nour@@
nursing
nutritional
ny@@
obligation
obscure
of@@
ogra@@
olds
ont@@
oon
ope
optics
oral
orbital
otic
out-of-@@
outdoor
oxide
ozone
p.
pains
paleont@@
paradox@@
paragra@@
pasted
pathology
payments
peace@@
peanuts
peel
penny
performer
performers
performs
persist
pet@@
philippe
pianist
pie@@
pill@@
pillars
pine
pix@@
plaque
pli@@
polls
pollu@@
ponds
popping
positively
posture
poured
practition@@
prayers
preferences
prescribe
presentations
preserving
prin@@
prioritize
progressive
proje@@
promp@@
protects
prou@@
proving
pulses
punish
quir@@
radioactive
rant
reacting
rebuilding
recap@@
reconcile
reconstruct
refle@@
refrigerator
reg@@
regain
regar@@
remot@@
rented
repertoire
replic@@
residential
resort
rest@@
restra@@
resurrec@@
retain
revelation
reverber@@
rg
ria
ribb@@
righ@@
ringing
roman
romo
ruption
sank
sapiens
satur@@
sav@@
schizophren@@
scholar
scholarship
scopy
scot@@
scuba
secretly
self-esteem
senate
sensu@@
separating
seriousness
serotonin
sevent@@
sever@@
severely
shes
shortage
shrinking
shuttle
si
siberia
skeletons
skyscra@@
slam@@
slices
sman
smartest
smug@@
snap
som
somalia
sop@@
southwest
specimens
spir@@
sponsor
spre@@
springs
sta
stabilize
stand-up
startling
stereotypes
stewardship
stical
stole
strips
structured
struggled
succ@@
suey
suffici@@
suite
supercomputer
superconductor
superstar
supposedly
suring
surprises
susceptible
suspicious
switching
syll@@
symptom
tched
technicians
technologists
tedster
tennessee
tes@@
thick@@
thou@@
thrive
titan@@
titled
tles
top-down
touch@@
tourism
tra
transcendence
transferred
treadmill
treat@@
trick@@
triggered
tropics
trusting
tte
tunisia
typed
ug@@
unacceptable
undergraduate
unequal
unlock
unvei@@
upgrade
uph@@
uploaded
uranium
urgency
uv
vegas
vermeer
versa
ves@@
vola@@
waking
walter
wavelength
wax
whistles
windmill
womb
wrong@@
yan
yemen@@
yl@@
1,200
160
1949
1973
1978
1982
1987
5.@@
500,000
54
74
80-@@
87
abnormal
abstra@@
accidental
accumulation
acronym
ada@@
adi@@
akes
aking
aky
alian
ambulance
analo@@
anders
anim@@
antarctic
anthropology
any@@
appreci@@
ar-@@
arch
arguably
arises
armor
assembling
asser@@
astronauts
asym@@
ateral
ath
atori@@
aviation
avoiding
awar@@
babylon
backgrounds
bahamas
balancing
banana
bart
bases
bearing
behaving
belonging
benki
bid
billy
biofuels
blob
blueprint
boar@@
bomb@@
bonobo
borne
borrowing
branded
brilliance
broadly
buck@@
burger
burial
bye
campaigning
captcha
capturing
careers
carni@@
carter
casu@@
cators
caution
cav@@
chant
christi@@
chu
chuck
cible
cit@@
clash
cled
clin@@
cochrane
collide
commander
commun@@
communism
commute
complexi@@
compressed
confirm
contempl@@
contributes
convul@@
cookies
copy@@
costly
counterintuitive
creatively
creepy
cried
criticized
crux
cue
cues
cult
cultivate
cun@@
customization
d.
dai
dances
dazz@@
ddling
ddy
declar@@
defeated
definitions
defle@@
degrade
demonstrating
denser
dent@@
descriptions
determin@@
develops
disgu@@
disparate
dispersed
distracted
distress
doctrine
domestic@@
dominate
downstairs
dried
durable
e.u.
ee
effectiveness
ein
emaker
emergent
emes
enco@@
end-@@
ened
energetic
energy-@@
enhanced
enjo@@
enth
epic
epilepsy
epo@@
erosion
esive
et-@@
ethni@@
evange@@
evaporate
even@@
excites
executed
experim@@
explicit
expo
extracted
extremism
eyebro@@
face-@@
faculty
fahrenheit
fascination
fe
fea@@
ffing
fi
fic
fif@@
files
fin
financially
fine-@@
fishery
fluids
freud
friend@@
fron@@
frontiers
fundament@@
furi@@
gadgets
gamma
gando
gary
gateway
geniuses
genuinely
geographi@@
germ
ghost
gir@@
gle@@
gline
glob@@
good@@
gossi@@
got@@
greece
greg
grounds
guests
guidelines
handi@@
hebrew
hedron
hetero@@
hives
homeland
homo@@
hoods
humidity
hybri@@
i.
i.q.
ideals
illi@@
illustration
impres@@
improbable
impulses
inability
inconvenient
incorporate
inde@@
indicated
infe@@
infect
inhabit@@
ins@@
intangible
integra@@
intelli@@
interfer@@
interpreted
intimi@@
intrigued
intuitively
ired
isaac
iss
jaws
je
jelly
jonas
ju
juxta@@
kay
kh
kir@@
kni@@
kt
ladder
lakes
langley
lanka
lawn
lawrence
leg@@
leo
lesters
leum
levers
licen@@
lip@@
lish
lobes
logi@@
lot@@
mamm@@
mani@@
mans
manure
mao
marijuana
marshall
marshmallow
marvel
masks
mately
mats
maximize
melted
membran@@
meme@@
memorable
mentality
mentors
metaphorical
microscop@@
mighty
mile@@
milit@@
mimics
minimize
miracles
mmers
mod@@
modeled
monolo@@
moo@@
moscow
moti@@
multi-touch
nancy
nanotu@@
negotiations
nevada
nicholas
nomin@@
non-profit
notebook
occupa@@
ome@@
one@@
ones@@
onies
opaque
oped
optic
orchestras
osama
ota
p.m.
pa
paint@@
palestini@@
parti@@
partially
partisan
peer-to-peer
penicillin
per-@@
percei@@
performances
perpetr@@
persistent
pest
ph.@@
phases
phers
phili@@
photographic
picasso
pigmentation
pins
pioneering
planners
polish
polite
polymer
populated
posting
pple
predat@@
predicts
prefer@@
preferred
presidents
primal
prob@@
progressively
projecting
promotion
pronoun@@
proposing
prospect
providers
provin@@
psychotic
py@@
quie@@
rabbi
rabbit
racial
racism
raging
rati@@
rear
rebel
receives
rediscover
reduc@@
reflecting
regarded
regulated
rela@@
relaxed
releasing
replication
representatives
reproductive
reptiles
requests
requirements
responds
resulted
retire
rhetoric
rider
ridicul@@
rigorous
riverside
roosevelt
roughness
ruined
rus@@
sages
satisfy
scalable
scarcity
scenarios
scheduled
scissors
scottish
seasonal
seat@@
seminal
sergio
serial
sha
shade
short-@@
sick@@
side@@
simplify
simulator
skiing
skinn@@
slime
snu@@
soils
solly
some@@
sor
south@@
spaceship
spark
spines
spins
sponsored
spores
stakes
statisti@@
stirling
stit@@
stop@@
strain
strated
straw
submarine
subsidies
suffers
sugars
sulfur
sunny
superman
supernova
swam
swarm
sweat@@
sweet@@
take@@
tectonic
tense
thanksgiving
thur@@
thylacine
tiniest
tionality
tless
tm
token
toothbrush
tot@@
tougher
toyota
traded
transplants
transpor@@
tutoring
ubuntu
ulate
unaware
understandable
underwear
unfolding
unrelated
uns
unted
upload
urine
v.
vaginas
valves
veness
ventil@@
ventilation
vie@@
vised
vocal
wander
warmth
warn
warriors
weaker
weekends
weigh@@
weighed
weight@@
wels
wetlands
world-class
y-based
yte
zip
14th
1962
1967
1969
196@@
404
56
73
79
8.@@
82
89
99.@@
abstraction
academia
ached
achievements
adopting
advanta@@
affec@@
affor@@
air-@@
alarming
ald
aly
ames
an-american
ania
announce
announcing
antidepres@@
apocalyp@@
archives
arma@@
artery
asion
asive
assign
astronomer
asy
aura
aus@@
austria
auto
aven@@
back-@@
bakery
bass
bean
beat@@
bedro@@
bern@@
berries
biblical
bicycles
bie
biographi@@
bitter
bloom
blues
boarding
boomers
boreal
botswana
bour@@
bread@@
bribes
broadmoor
browne
buddy
bumble@@
business@@
c.@@
canary
carol
castle
centr@@
centri@@
cern
cers
cet
channel@@
chu@@
cides
clar@@
cler@@
clicking
clini@@
clone
closet
coc@@
collagen
collap@@
collapses
communist
companion
complained
conceptions
concerts
conclu@@
cone
consol@@
contex@@
copernicus
corrup@@
cowboy
cradle
cran@@
crash@@
crawl
credible
crust
crystals
ctively
cucum@@
cule
daf-2
darwin@@
deer
dend
deni@@
desal@@
destined
devote
dg
diagno@@
diagnostics
diff@@
diffusion
dimitri
dip
disa@@
disagreement
dispar@@
dispu@@
dispute
distri@@
divin@@
divor@@
dominance
downstream
dra
dubai
dynamically
echo
efully
eins
emailed
embodi@@
empires
emu@@
enas
ential
envision
epit@@
esi@@
establi@@
establishment
esy
ethiop@@
ett
eviden@@
excruci@@
exi@@
exploitation
extern@@
extinctions
extracting
exu@@
fade
faul@@
fax
feed@@
fern@@
fertilizers
festivals
fibro@@
fill@@
fisher@@
flames
fleet
fluctu@@
flush
focal
fora@@
forbi@@
foreig@@
fossi@@
freeway
fresh@@
front-@@
fty
funders
fuse
gal
gb
gene@@
genetic@@
genom@@
geo-@@
geographical
gi
grandma
grape
gravi@@
guaranteed
guts
hack
halt
handling
hid
high-resolution
hiroshima
hness
honeybees
hub
hubble
hudson
hul@@
humanities
hundred-@@
hurry
husbands
illiterate
imm@@
immersed
import
incarcer@@
inex@@
infants
infer@@
influential
innate
ino@@
insisted
installations
intensi@@
interrupt
invites
ira
ires
irrever@@
isions
israelis
ities
ity-@@
jacqueline
jargon
jazeera
jon@@
journals
js
judaism
justi@@
kanzi
kee@@
kened
kid@@
kidneys
knives
lap@@
lassi@@
leisure
lesterland
leu@@
leys
lich@@
line@@
ling@@
lingu@@
lip
lisa
logically
lovers
low-tech
loyalty
lux@@
lymp@@
madagascar
magnetism
mainframe
makeup
malcolm
mali@@
maneuver@@
mann
manufactured
meanings
merge
metaboli@@
mi
miami
mili@@
mississippi
mitchell
molas
mond
monk
monopoly
monument
moons
mr@@
multitasking
mun@@
mutant
myo@@
necessi@@
neighbor@@
neurolog@@
newton@@
oakland
odd@@
onset
orient
orthodo@@
oused
ousness
outsour@@
overweight
packaged
packs
pardon
particip@@
participatory
partments
pastor
paus@@
pe-@@
perpe@@
pessimi@@
phrases
pinpoint
pneumonia
polluted
pop-up
portal
pper@@
praise
predi@@
prefrontal
prejudice
premi@@
prevalent
prised
proliferation
propri@@
prosper@@
prostit@@
prostitution
protocol
proves
psychiatrist
puberty
puppy
pus@@
pushes
qi
qua@@
quali@@
quarks
questioned
queue
railway
rainbow
rang
ranges
realizes
receiver
reception
reclaim
reconstruction
rect
rectly
redund@@
reflex
reloc@@
reluctant
removing
rene@@
replicator
reposit@@
resemble
reserved
resonate
rezero
rig
ris
robin
rode
roommate
rory
rotten
ruin
runner
rupees
rushed
russell
sad@@
sail@@
salad
sally
samuel
sanc@@
sanctu@@
scaffold
scaffolding
scal@@
scarf
scen@@
scroll
sean
sediment
sequel
ser
servant
shah
shal@@
shaw
shel@@
shelters
shook
shortcut
show@@
sia
side-by-side
sideways
similarity
sioux
sliced
societal
soluble
specialization
spectac@@
speeches
speeding
sponsor@@
spoo@@
sporting
spring@@
stacks
stances
steep@@
stir@@
stockholm
story@@
strangeness
stripped
succe@@
sued
supermarkets
surve@@
susie
suspension
swallow
swallowed
systemic
t-in
table@@
tackling
tactics
tally
tators
taxpa@@
taylor
teapot
tedmed
teens
template
tence
terior
theoretically
therapist
there@@
thest
threads
thriving
tipping
tiv@@
tivi@@
tivism
tobacco
tofu
tours
trade@@
transc@@
transducer
transformational
transforms
treaties
trun@@
tso
ture-@@
tus
twe@@
twel@@
two-way
tying
u.@@
ucla
uh-@@
umin@@
unbe@@
unbelievably
undersea
unfold
unhealthy
unlimited
unnecessary
urbanization
ury
usda
user-@@
utter@@
vancouver
vani@@
vascular
vatory
vc
vered
vertically
vest@@
vibration
vibrations
virtu@@
visionary
voic@@
volcan@@
volumes
volunteered
voyager
walmart
warehouse
wash@@
waterfall
weal@@
weaving
weed
weibo
whatnot
whisper@@
wi-fi
wild@@
wondrous
workshop
workshops
wu@@
xicon
yan@@
yelling
yields
yo-yo
zin@@
zk
zzing
)
-a-@@
0,@@
101
170
1974
1988
1992
2-@@
200@@
21st-century
29@@
360
39
41
62
71
750
78
81
achilles
adolescents
advent@@
african-american
aggression
aimed
al-qaeda
alia
alizations
anas
angel
anima@@
ann@@
anthony
antiretro@@
aorta
aph@@
applau@@
arb@@
arm@@
arriving
assu@@
at-@@
athle@@
ational
attemp@@
b.
bai@@
bail@@
balances
bald
best-@@
beverly
bill@@
biting
blend
bollywood
booms
botan@@
bothered
brilli@@
buffalo
bulldo@@
butterflies
cardi@@
carriage
cel
chad
chari@@
charitable
chro@@
ci
cial
cker@@
classified
cles
coalition
colleges
colo@@
comedian
conce@@
concep@@
concluded
conductive
conne@@
controllers
conveni@@
coordinated
cords
courts
crafted
cryp@@
cycli@@
daunting
day-@@
ddt
deadline
decreased
demen@@
dep@@
derer
desperation
deva@@
diabe@@
dictators
diffuse
digest
disposal
distin@@
dock
dolby
doll@@
dot@@
downs
dragging
drake
duke
dumping
dynam@@
e8
eames
eck
eduardo
eful
eh
ele@@
embryonic
emphasi@@
encoura@@
encouragement
ener@@
engli@@
enting
eping
essay
essex
eti@@
ex
exac@@
examined
exhau@@
exp@@
expan@@
exports
extra-@@
farm@@
fast-@@
fau@@
feder@@
femin@@
film@@
fingertips
fins
fo
follo@@
forecast
formers
fortun@@
franklin
freedoms
fuck
fur
futur@@
galvao
geeks
gel@@
geny
geological
georgetown
geri@@
geria
gery
gger
gharial
gical
giga@@
gilbert
governed
gurt
hab
hamlet
hangs
harb@@
hardy
harm@@
harris
heada@@
heroin
hilarious
hindu
histori@@
horrific
hosti@@
hy
hypertext
ier
ignorant
il-@@
illumination
immersion
immigr@@
immigrant
immigration
impress
inary
incenti@@
indu@@
inity
inquiry
inspirational
institution@@
inter-@@
interrup@@
inters
invade
invasion
invi@@
invisi@@
istanbul
ister
itable
jama@@
jewel@@
jimmy
jor@@
julie
kahn
kamen
kans
karl
kilogra@@
klein
kurzweil
las
lazy
leaks
legend
legi@@
legis@@
ler@@
lexi@@
lian
liberating
lier
lock@@
luke
mahatma
mandate
maneu@@
manife@@
manifest@@
mantra
marc
marco
mathematica
matthew
maxi@@
mba
me-@@
meg@@
mem@@
messaging
messen@@
metri@@
mid-
migra@@
millimeters
ming@@
mop
mosquit@@
motivates
moz@@
mrs.
nanome@@
nanoscale
nas
nega@@
nes
netra
nic@@
nis@@
nitri@@
noah
o.@@
occu@@
offensive
ogen@@
ohio
old-fashioned
olith@@
oll@@
op-@@
orphan@@
oted
out-@@
overseas
pable
pagne
pale@@
palette
parab@@
parade
paras@@
participant
passi@@
payoff
pedi@@
petr@@
pharmaceu@@
phi@@
philanthropic
pho@@
plen@@
plur@@
poetic
porno@@
port@@
possessions
precipit@@
premature
prie@@
printers
priva@@
programmable
proli@@
propag@@
propelled
proportion@@
proto@@
proton
punk
purse
quadri@@
quantify
quick@@
rais@@
ramp@@
ratings
readily
real-@@
real@@
rebel@@
recordings
recruit
rede@@
redwoods
ref@@
refra@@
reka
relational
reno@@
repu@@
ress
restored
reu@@
reuse
reven@@
ring@@
rip@@
robo@@
ronald
rotation
round@@
rovers
row@@
rut
ryan
saddam
sali@@
sants
sargas@@
sas@@
sati@@
schwarz@@
seren@@
sergey
sers
situ@@
skins
skydiving
small-scale
sment
sn@@
sopa
sophistication
sourced
spikes
spl@@
sprawl
spu@@
stake@@
standardized
stats
stes
stial
stimulating
stles
straig@@
stral
strat@@
stupi@@
substan@@
substitute
suspected
swept
swine
synthesi@@
t.@@
tablet
technologi@@
teen@@
telecommunications
tely
tention
terrestrial
theatre
therapeu@@
thered
thylac@@
tides
time-lapse
times@@
tinkering
tis@@
tist
titudes
tize
tle
to-one
torn
traffi@@
trafficking
traw@@
trickster
tucked
tutor
twisted
ula
ull
umbr@@
undercover
unimaginable
upli@@
usi@@
v-day
vage
vastly
vei@@
vicious
vienna
view@@
virtues
vividly
volu@@
vores
vot@@
vre
warner
waving
wednesday
where@@
whisper
wick
wiz@@
wreck
xen@@
yep
ywood
zambia
zeros
zi
#
.7
11@@
1965
1981
5-@@
51
68
7.@@
70@@
8-@@
accenture
achie@@
ada
administrat@@
aer@@
aerodynamic
affe@@
aires
alhambra
alley
alligator
amo@@
analyst
andre@@
anian
anni@@
anthropo@@
antici@@
arche@@
archet@@
arrangements
art@@
ascen@@
aspen
asper@@
asse@@
assign@@
aster
astern
ate@@
ation@@
aut
autop@@
av@@
aversion
ballast
bam@@
batman
beatles
bench@@
beri@@
bihar
biomedi@@
blogger
blogo@@
boeing
bolt
bonnet
borough
brate
bruno
buster
cad
cancer@@
carbons
cathe@@
centi@@
cep@@
chment
choo@@
chor
chs
chy
clare
clark
cle
climber
cock
cohen
combin@@
comfort@@
commerci@@
complic@@
compul@@
concentr@@
consisten@@
constru@@
correctness
cos@@
coup
cp
crats
crimin@@
crocodi@@
cry@@
ct-@@
ctu@@
dads
dale
danny
dar
dars
davis
daw@@
dengue
dens
dently
dges
dice
dick@@
difficulties
dilemmas
discipl@@
disper@@
disson@@
distor@@
dives
domini@@
doo
dotcom
dough@@
drop@@
dt
dump@@
earth-like
econom@@
eded
educ@@
eeg
ein@@
electrode
elf
ellip@@
encies
epi@@
equi@@
ests
evaluation
event@@
exhibitions
experiment@@
extrater@@
exxon
ezra
fas@@
feathers
fel@@
fers
fest
flam@@
flaws
flop
flor@@
formats
friedman
gaga
gamble
gaza
geor@@
ghet@@
gia
gigab@@
glenn
gorilla
gould
great@@
guatemala
guer@@
gul@@
gyre
h5n1
hansen
head-@@
heim
helen
helicop@@
hem@@
hippo@@
hn@@
hockey
homosexu@@
honey@@
hoo
hr
humanoid
hungarian
hussein
hypothes@@
hysi@@
ices
ila
iles
ille
illed
illinois
ima
immersive
influenza
inn@@
interstate
interval
inver@@
issu@@
itali@@
itarian
janine
jesse
jets
johan@@
justin
kabul
kate
km
kore@@
kris@@
lang
laun@@
lemon
lesser
lest
libya
licensed
light@@
lling
lob@@
logarith@@
lol
lor@@
lucy
maje@@
mam@@
manage@@
marble
marriages
mash@@
mati@@
mbi
meas@@
meen
mellon
melo@@
menop@@
merito@@
messing
minim@@
mitochondri@@
mm@@
mmm
moderni@@
modular
monsters
mos@@
mous
multiplied
musi@@
nac@@
nano@@
negroponte
nesses
never@@
ng
nostal@@
noti@@
nove@@
okap@@
oles@@
oly@@
onics
onion
opec
opho@@
oprah
orch@@
ordin@@
orthop@@
osc@@
oth
overfishing
paired
pande@@
paradig@@
paran@@
pathy
patrick
pean@@
pension
peru
phon@@
pipa
pisa
plau@@
play-do@@
police@@
policemen
pore
porn
portland
posite
pover@@
pp
presum@@
prevail@@
prevented
primor@@
princess
princi@@
priori@@
priv@@
problem-@@
proceed
promotes
prophet
proteomics
protons
psyche
psychopathic
ptions
purchasing
quer
quicker
racy
rane
real-world
reconstructed
recycl@@
relie@@
relieved
represent@@
requirement
resol@@
resul@@
revel@@
rian
rica
richness
rid@@
rin@@
rockefeller
ron@@
rup@@
sabbatical
sail
sandwiches
sations
scan@@
scap@@
schild
scho@@
screen@@
seam@@
seas@@
seth
seymour
sh-@@
shack
shirky
shment
shop@@
short@@
sie@@
siege
sis@@
skirts
smi@@
smiley
snor@@
sober@@
sobule
souls
sourcing
spears
specifi@@
splashy
stant
stefan
stereotyp@@
stion
stran@@
strate
strato@@
strive
subsequently
suburbia
sudhir
suitable
superpower
suppliers
suppress
survi@@
survivor
suspe@@
sutherland
swahili
synapse
syner@@
syringe
taining
taped
tapes
tarahumara
tb
team@@
tent@@
terence
thal@@
thorough@@
thoughtful
thumb@@
ticking
tism
tium
tour@@
touri@@
trade-offs
trage
transnational
triceratops
troubling
troy
ttle
tum
tus@@
tweets
typo@@
ude
uncles
unfinished
unk
upper-@@
utop@@
vegetation
venice
villa@@
virg@@
virul@@
vo
vul@@
wering
westerners
whip
whirlwind
whis@@
white@@
wick@@
width
wiki
win-win
wolf
xic@@
zero-sum
zy@@
án
í@@
–
100-@@
1947
23@@
3.5
46
8,@@
=
abc
ade@@
aden@@
adequate
administra@@
adv@@
alexandria
alli@@
alog@@
alterna@@
alty
amaz@@
americas
analog@@
ance@@
andal
ander@@
anec@@
apologi@@
ares
ase-@@
asphalt
assumes
astic
asyl@@
ati
atlas
atom@@
atta@@
aurora
autos
babylon@@
backup
bandura
beck@@
bei@@
belon@@
bies
bilbao
biotech
bird@@
blac@@
bmi
bombar@@
bon
bottom@@
bows
bren@@
broo@@
buff@@
bug@@
bureaucracy
burma
butter
bypass
calcul@@
care@@
casey
caus@@
celebri@@
champi@@
chand@@
chap@@
charlotte
chemo@@
chi
christ@@
cient
constra@@
consum@@
contagi@@
coura@@
creek
crete
cryst@@
curity
d.c
dations
dem@@
demand@@
dennett
depres@@
deriva@@
destro@@
dial@@
diaspora
die@@
dies@@
disco@@
discus@@
dizzy
dka
dote
dwell
eco@@
edison
eg
ek@@
eless@@
elli
elvis
emmanuel
ende@@
endo@@
ens@@
entation
envel@@
erik
ernest
esot@@
eval
evelyn
ever@@
explor@@
extremi@@
ez
fab@@
ference
ferti@@
fet@@
flakes
flipped
fond
foren@@
franch@@
fraser
fren@@
g.@@
gabriel
gadget
gang@@
gesti@@
gho@@
ghtly
ghty
goth@@
gphin
grab@@
grad
greg@@
gressi@@
grin@@
grizz@@
guru
harlem
hein@@
hemis@@
heres
hierarch@@
hipp@@
hippie
hit@@
hitch@@
hiv-@@
hl@@
hoe
homini@@
hominid
horn
humor@@
hung@@
ice@@
identifi@@
idol
implan@@
inferior
infil@@
introduces
iphones
itely
iv
j.@@
jabbar
jacques
jean
jen@@
jessica
johns
kara@@
ket@@
kli@@
kne@@
know-how
kw@@
latr@@
lava
leton
ley@@
lider
lifest@@
lux
lyn@@
mach
macintosh
madison
malware
manchester
mandarin
manu@@
manus@@
martha
maslow
masterpieces
matri@@
med@@
megab@@
memo@@
mexic@@
michoac@@
mini-@@
minnesota
mission@@
missouri
mp3
ms.
mum@@
najmuddin
nazis
nd
negatives
nel
netflix
nobyl
noma@@
norwe@@
odysseus
onist
optimist
ori
ority
other@@
oxi@@
pau@@
phar@@
philosophi@@
photoshop
pipelines
pluri@@
po
policymakers
popcorn
pope
positives
postcards
preference
probable
probes
proc@@
promin@@
promot@@
propor@@
proportional
psychiat@@
psychiatrists
pur
pursu@@
quet@@
ram@@
random@@
ranger
raz@@
recla@@
recreate
reframe
reiter@@
rentice
repeti@@
repres@@
residen@@
restrial
retri@@
rhex
rhin@@
ri
ripped
rufus
sane
sburg
scu@@
sea@@
sec@@
seni@@
sergeant
ses@@
sheila
sies
simu@@
sins
sion@@
sk
slideshow
snack
sneak@@
so-@@
solar-@@
solar-powered
solic@@
spells
spirits
spor@@
starter
steri@@
stero@@
street@@
strongest
studios
subsi@@
substit@@
sucked
sunshine
supernatural
suppor@@
sures
suspi@@
synchr@@
tably
targe@@
tasman@@
tata
tax@@
tbp
td
ted-@@
teddy
tently
thetic
thetics
thre@@
threat@@
thy@@
tially
toaster
tolerant
tora@@
trance
transfers
transplan@@
tts
tul@@
ukra@@
uli@@
usc
vam@@
vern@@
victoria
vivian
voc@@
wales
weapon@@
webs
whiskey
wiser
wy@@
yal
yang
yellow@@
yiel@@
yl
yle
yoga
ze-@@
zen
zhou
zon@@
zur@@
00
14-@@
16-@@
18-@@
1858
1966
1979
240
365
60-@@
63
66
91
adrenal@@
afford@@
agen@@
ager
airbnb
airlines
ak-@@
alabama
alco@@
alg@@
alisa
amen
amputation
anga
angola
angu@@
antor
approxima@@
arro@@
asth@@
atmosp@@
ause
austin
aviv
baugh
baxter
bay@@
bby
beau
beginn@@
bien@@
bio
blackberry
bobby
boltzmann
bras
brid@@
broadway
budapest
bunker
bureau
cafeteria
cans
car-sharing
carolyn
carson
celine
cerem@@
chefs
city-@@
cl
cleveland
cockpit
coher@@
commer@@
concern@@
confer@@
connectomes
conserva@@
corn@@
craw@@
crews
dab@@
dah
dame
dd
demor@@
dennis
deregu@@
dialog
dine
disc@@
disrup@@
distur@@
diversi@@
dless
domen
doodle
dows
dred
dry@@
dyson
eloqu@@
emper@@
endea@@
engel@@
eno
erie
eson
esther
extrem@@
fair@@
fare
fascin@@
fiel@@
fig@@
fisher
flus@@
flyer
fool@@
forma@@
frag@@
fragi@@
frederick
frost
fusi@@
fuss
gad@@
gell@@
gence
gent@@
gie
git
golfer
goli@@
gosla@@
gree@@
gress@@
guinness
gus@@
haha
hamp@@
hannah
hare
harvest@@
hausti@@
hawai@@
headset
herbie
hillary
hindi
hirshhorn
hn
hobby
hopkins
hore
hyderabad
hydropho@@
hyperbo@@
iden@@
ig
ik@@
ile
iler
illusion@@
illustr@@
immun@@
imperial
influen@@
informa@@
insky
instin@@
intro@@
intu@@
invasi@@
iowa
irration@@
isot@@
israeli@@
itation
jose
judy
jurassic
kas@@
kentucky
kerry
kiki
kim@@
klu@@
knight
knowled@@
kr@@
kro@@
ku
l.@@
lak@@
laps
liche
life-saving
lindbergh
liter
long@@
loser
lucas
lynn
magne@@
maitreya
makoko
malaysia
mammo@@
mato@@
matthieu
max@@
mcluhan
medic@@
mega-@@
minto
mir
miser@@
mist
moglobin
mole@@
mona@@
mono@@
mos
motto
mubarak
mus
myhrvold
myri@@
nah
neo-@@
neo@@
newcastle
nib@@
nie
nih
nixon
nonverb@@
normal@@
novogratz
nylon
nyu
offs
oklahoma
omet@@
omin@@
opa@@
opar@@
oter
oz
pack@@
pal
pam@@
pani@@
papua
pascal
pati@@
paulo
peer-@@
pent@@
pep@@
perio@@
petition
phil
pitt
plas@@
pluto@@
plutonium
poisoning
policy@@
pone
poni@@
pont
ports
poten@@
power-@@
ppe@@
preci@@
preg@@
prestige
prohi@@
pron@@
prozac
psy@@
psychopa@@
pto@@
punc@@
pyth@@
q.
ques
queu@@
r-@@
rail@@
rapi@@
red-@@
redu@@
reformation
religi@@
reme@@
reservo@@
respon@@
rhino@@
ridi@@
ried
rm
robicsek
rockett
safe@@
sagmeister
sala
salman
sarajevo
sch
sculptor
sedi@@
senegal
sequest@@
shack@@
shir@@
shire
shirts
singularity
skeptic
slash
smartphones
soft@@
sol
sopran@@
sousa
spam
spelling
stair@@
stalin
stery
stigmati@@
stimuli
stomatopo@@
stream@@
streaming
stuart
styro@@
suc@@
sushi
sustain@@
synago@@
synthes@@
t.b.
tah
tainment
taxon@@
teach@@
tee
telev@@
tenden@@
terior@@
tery
thai
thank@@
theo@@
tial
tici@@
tier
tition
tment
toler@@
transforma@@
trate
tres@@
troll
tta
turbine
turk
tyran@@
ulose
ulture
un
unaids
understand@@
up-@@
ura
urbani@@
urges
uruguay
uss
vement
vented
versa@@
veter@@
veteran
viking
vitro
wag@@
wan
watt-@@
way@@
weakness
webcam
west@@
wey
wide-@@
wig
wl
wom@@
yahoo
zar@@
1850
1929
1940
46@@
5,@@
650
67
88
abor@@
adams
agnor@@
agri@@
ahmed
airstream
albu@@
alla@@
allan
aller@@
altar
altos
amy@@
ana@@
and-a-@@
ank
annan
antibio@@
appli@@
applic@@
arc@@
argent@@
argu@@
arrogan@@
arrogant
arthritis
ato@@
atrice
attac@@
auschwitz
australi@@
australopithe@@
avo@@
baby@@
banal
barcode
bard
bb
bene@@
berners-lee
betra@@
bingo
bipolar
boli@@
bonnie
boyle
bris
brit@@
brook
brunel
brut@@
cad@@
caf@@
capsu@@
cardo
cargill
caroline
cational
celsius
cere@@
chan
chandler
chau@@
chaz
chen
chill
chlorop@@
chocol@@
chy@@
cism
cken
cken@@
come@@
commodi@@
controversi@@
corti@@
cow@@
cox
ctives
curren@@
curtis
cust@@
cyberspace
cynthia
daisy
danger@@
dant
db
delic@@
dem
denburg
descartes
deu@@
dir@@
dis
dium
dl
dle
dmca
dney
dood@@
douglas
dravi@@
ds@@
dson
dum
dus
dvds
eal
eb@@
ebola
edith
edly
egal@@
egos
elly
emma
enri@@
enriquez
enz@@
epiphy@@
eral
erb@@
erec@@
erer
es-@@
esa@@
eu
eur
euro
evi@@
exem@@
fa
favel@@
fei@@
fen@@
fermi
ffe@@
ffel
ficial
forbes
fou@@
fracking
fragment
fuller
gag@@
gand@@
garrett
gate@@
gau@@
geeky
gement
gen-@@
generative
geneti@@
geomet@@
gering
gible
gill
gin
giraffe
girl@@
goldman
govern@@
graph@@
gren@@
gut@@
gymnosop@@
hammad
hedon@@
hen
herbi@@
herr@@
hh@@
himi
hip-hop
hippocampus
hna
holland
homer
hori@@
hose
hospi@@
hype
ide
igbo
illary
immer@@
imper@@
indiana
influ@@
infr@@
innovator
inven@@
ishment
iy@@
jab@@
jacob@@
jas@@
jean-@@
jec@@
jeep
jim@@
kaaba
kath@@
ke-@@
kerala
kev@@
kew
kies
kindle
kleiber
kofi
kon@@
kor@@
kri@@
kuwait
laparo@@
laramie
lasers
laura
lev@@
leviathan
lia
lick@@
lis
literate
logos
loh
lone
lust
lyn
machin@@
maeda
mahab@@
marathons
marduk
marie
marx
maryland
mast
math@@
matically
mau@@
maui
medicare
mei@@
ment-@@
metaphor@@
meter-@@
michel
middle-@@
miner
mise
ml
modernis@@
monade
mort@@
mosa@@
mption
mt@@
muffin
muti
nab@@
nashville
nato
nerv@@
neumann
nigeri@@
nikola
nish
nk
nuan@@
o.
o.k.
obsessi@@
oce@@
oid
oll
olog@@
ometer
ong@@
opium
opping
organ@@
orion
ornish
otto
oud
overflow
oy
packard
pakistan@@
parasi@@
paula
pear@@
peg
penet@@
pert
pessi@@
pesti@@
phan@@
pic
pierre
pinker
pointment
pol
port-au-prince
pos
prego
pro
profan@@
prox@@
pub
pyg@@
quake
qualit@@
quanti@@
quor@@
rad@@
raleigh
randi
rebecca
rebellion
reddit
ree
remix@@
rene
rey
rhi@@
rhy@@
rhyth@@
robinson
rockwell
rocky
romegal@@
rough@@
roy@@
rying
sachs
sacks
samarit@@
saurus
sche@@
secon@@
semester
sensor@@
sf
shi
shmi
shri@@
simpson
singular
skycar
soc@@
solidar@@
sore
soundtrack
sp
spaces@@
spiderman
splas@@
stab@@
stetho@@
strategi@@
stress@@
stron@@
subsequ@@
sufi
sug@@
sui@@
tans
tative
techno@@
tedwomen
telegraph
tender
terr@@
terry
tha
thei@@
thes
thos
tibet@@
tili@@
toll@@
toma@@
tore
tornado
trade-@@
tragedies
trainer
tral
transfer@@
transplantation
tribun@@
tunisi@@
tunnels
turbin@@
tutor@@
tyranno@@
ularly
und-@@
unge
updated
updates
uri
utopia
vau@@
vec@@
vels
vet@@
vi
vic
vide@@
vine
virtuo@@
vity
vor
wall@@
warf
wavel@@
whitney
wikileaks
willi@@
willie
wing@@
wingsuit
winter@@
wollen
woo
world@@
wurman
www.@@
yam@@
yi
yochai
zetas
zu
ó@@
175
1800
1939
1953
1954
1971
2100
25-@@
45-@@
6-@@
747
@
a.
acade@@
acr@@
aden
adop@@
adventi@@
aha
alan@@
alberta
ale@@
alexis
allison
amd
americ@@
annu@@
ant-@@
anti
appropri@@
ardu@@
ariely
ario
aris
arium
arnold
aser
astron@@
axi@@
babysi@@
bacteri@@
barbec@@
barcelona
barri@@
ber-@@
berk@@
bess
beth
biaf@@
bins
bionic@@
blair
boot@@
bose
bpa
br
bt
bu
bub@@
budrus
buffet
burkina
buzz
calcu@@
cam
carbon@@
carl@@
carmen
catherine
cdc
certi@@
cesar
chem@@
chen@@
ches@@
chevy
cholester@@
coast@@
collins
compan@@
compani@@
con
confi@@
corps
cpu
ctly
cutt@@
cyborg
daphne
decomp@@
deen
dei@@
deng
dentally
derartu
dex
diag@@
diane
dient
dit
dn
down-@@
duced
durga
dyst@@
ecks
eder
effici@@
eine
ela
elimin@@
ellen
embryos
emer@@
encoder
ensemble
err@@
esa
escap@@
espres@@
ethan
eur@@
expec@@
fanta@@
faso
fedex
fide
fili@@
fle
flexi@@
flir@@
flour@@
fluctus
forest@@
formaldehy@@
frame@@
frankie
freaks
fred
freestyle
freu@@
frie@@
fund@@
g.
gage
ganges
gans
gapminder
geist
geoffrey
ghraib
gladwell
gments
gni@@
goodall
gorillas
gratu@@
greenpeace
ground@@
gs@@
guil@@
gupta
gur@@
hc
hell@@
hier@@
hm@@
hmen
hoff@@
holly
horizon@@
houston
hundre@@
huntington
hurdy-gurdy
hydra@@
hygiene
ibu@@
idi@@
idy@@
illing
impli@@
impro@@
improv
incu@@
infan@@
inge
inspir@@
inuit
invent@@
investor
ipcc
iran-@@
isis
isla@@
ite
itly
itunes
ius
jai@@
jared
jenny
joan
joplin
jordans
josh
jpl
jr
juarez
julius
k.
kaluza
kan
kaplan
kens
kis
kiva
kle@@
kler
kobe
kol@@
lag
lan
lar
lauren
laurie
lear
leb@@
leop@@
less@@
lessig
levin
lex@@
liest
lihood
lingui@@
linus
lit@@
liver@@
liz
lobby@@
lol@@
lolcats
lords
los@@
louise
lovins
loy@@
lyndon
macar@@
maccready
maestro
mail@@
maine
make@@
malawi
manipu@@
mathema@@
mauritius
mcdon@@
mea@@
metal@@
meth@@
metron@@
mik@@
missi@@
modifi@@
mohamed
mont@@
morgan
mulla@@
multipli@@
muster
muti@@
mw
mysti@@
naomi
nate
nbc
nec@@
nei@@
nerds
neutrin@@
neutrino
niger
nina
noon
note@@
notic@@
obs@@
odys@@
offline
okin@@
okol@@
org
orium
oste@@
ousy
paci@@
palin
parach@@
parli@@
partner@@
pate
patricia
pcbs
peripe@@
peter@@
philips
ply
podium
pollock
pou@@
pradesh
pranav
prick@@
profil@@
prolifer@@
protag@@
pyrami@@
qualifi@@
queensland
quisi@@
rabbis
ralph
rca
recogni@@
rectan@@
regre@@
rele@@
rem
reper@@
replac@@
responsi@@
resur@@
ret
rho@@
rich@@
richards
rick@@
rie
ritu@@
rosie
rossy
rug@@
rum@@
rumi
rwand@@
salaam
sanghamitra
sao
sardin@@
sari
scha@@
scient@@
selam
seman@@
seoul
servi@@
shekhar
shreddies
sinclair
sit@@
skul@@
slas@@
sleepy
slim
small-@@
smil@@
smith@@
sofa
sophia
sori@@
space-@@
spencer
standardi@@
stark
still@@
stle
strand@@
strom
strug@@
sultan
suspen@@
synthesizer
tages
tai@@
tamil
tari@@
tational
teamwork
tee@@
tele-@@
tetr@@
theremin
thermodynam@@
thier
through@@
thum@@
tible
tica
tivo
tk
tn@@
toast@@
torna@@
tou@@
trajec@@
trig@@
troph@@
tti@@
tulu
turbo
turi@@
tyler
typ@@
u-@@
umar
uniqu@@
unting
unts
uplo@@
urs
utah
vana
veg@@
venue
vibrio
vid
video-@@
vier
voila
volunte@@
volvo
vos
w.
wack@@
wain
warcraft
wayne
web-@@
wee
wel
window@@
wisconsin
wonder@@
yi@@
yin
ypal
zeit@@
zen@@
á@@
%
(
1000
13-@@
1500
1958
1977
6,@@
7-@@
70-@@
aaron
aband@@
abel
aber@@
accep@@
ack@@
adequ@@
ado
aes@@
agi@@
alain
alberto
aless@@
altru@@
ament
amer
amt
ando
annie
announ@@
ano
antiqu@@
antonio
appar@@
appear@@
aristot@@
arsenal
as-@@
assem@@
atala
auge
author@@
awk@@
bachel@@
bap@@
barbie
be-@@
beau@@
betty
bhu@@
bibli@@
biologi@@
bomber
brainstor@@
brin
brot
buch@@
buckminster
budd@@
burn@@
busines@@
buzz@@
byrne
campaig@@
cany@@
caro@@
cas
celebra@@
ception
certain@@
chens
chester
chir@@
chit@@
christina
chry@@
cht
cin
cision
clarke
clim@@
cloud@@
cocktails
cole@@
continu@@
coperni@@
cornell
couch@@
cover@@
crick
dago@@
dakota
dana
deniso@@
deo
deutsch
dients
dill@@
dimension@@
dinger
dise@@
dn@@
duolingo
dy-@@
e-mail
e.t.
eisenhower
eja@@
eld
electr@@
elli@@
elt
embra@@
emergen@@
ender
ensler
enthusi@@
ese@@
essenti@@
exer@@
extr@@
fam@@
famil@@
fana@@
fford
fischer@@
flan@@
flung
foli@@
franken@@
funk@@
gab@@
galactic
galvan@@
geiger
gend@@
gered
gest
ghe@@
glen@@
glimp@@
gly
gly@@
gogh
gombe
google@@
gros@@
guit@@
gyp@@
harv@@
hau@@
heather
hem
hew@@
htt@@
icon@@
iel
ign
ikr@@
ill-@@
inda
innov@@
instit@@
institu@@
int@@
integr@@
interstell@@
ip
ita
ith
jack@@
jake
jere@@
jm
joey
journ@@
joystick
jung
kel
kelley
kinder
kra@@
ks@@
kton
kun@@
laden@@
layma
lder
legen@@
leslie
lett
levine
li
liar
liers
linear@@
llo
locke
lud@@
lus@@
ma-@@
mafia
magnes@@
maid
man-@@
mandel@@
mangro@@
mated
mccain
metropoli@@
michel@@
module
monu@@
mosqu@@
mously
mutter@@
n1
nai@@
nell
neuro-@@
nikol@@
nom@@
norm@@
nuggets
occurr@@
oi@@
ok@@
olla
ordinarily
oren
ores
ores@@
osi@@
osity
ozo@@
pam
pass@@
pc@@
pers@@
perv@@
pes@@
pi
piero
pixel
pless
point-@@
polis
polye@@
por
portfolio
portu@@
postu@@
prakash
prepar@@
preser@@
prof@@
prosp@@
puer@@
pulsion
quarti@@
quit@@
rag@@
raghava
rand@@
randy
rationale
rels
rescu@@
reti@@
rhode
robbins
rotterdam
ry@@
sacramento
savage-rum@@
sche
schedul@@
schul@@
schum@@
schwar@@
seligman
sell@@
sels
seminar
shei@@
sher
side-@@
simil@@
sir@@
skir@@
slow@@
span@@
specim@@
spee@@
sper@@
spit@@
spoofer
ssi@@
stalli@@
starck
state-@@
stein@@
stent
stere@@
stereot@@
stern
stin
stoma@@
stration
stro
stur@@
success@@
sunitha
suns
suns@@
swal@@
symmetri@@
t-shirts
talgam
tawa
techni@@
tecton@@
tedness
tera
teries
testam@@
thie@@
thryn
tier@@
til
timel@@
timothy
tish
tle@@
todd
tolsto@@
tor-@@
toris
torosaurus
toug@@
tox@@
tracy
transmitter
ttar
turally
two@@
une
upwake
urable
uri@@
uring
uten
v-@@
vens
venti@@
verti@@
vetson
viagra
vices
vik
visit@@
vitam@@
wac@@
wade
wander@@
warm@@
wen@@
wes@@
wet@@
widder
wler
wong
worldchanging.com
worth@@
xia@@
year-@@
yen
yn
yor
zap@@
zens
zim@@
è@@
-mann
1908
1948
1956
2013
9.@@
^
abe
abili@@
abra@@
abs
afri@@
aggressi@@
agra
agra@@
alphab@@
alto
ambassad@@
amit@@
amm@@
andin@@
anil
anthro@@
anticip@@
aor@@
aravind
arbitr@@
arre@@
arsen@@
asha
asp@@
atr@@
att@@
austri@@
auto-@@
avi@@
behavi@@
beno@@
best@@
biome@@
bitter@@
blog@@
body@@
bor
bourne
braun
britannica
buddh@@
cambo@@
canadi@@
cept
ces@@
cet@@
chal@@
circu@@
college-@@
comedi@@
comman@@
commen@@
controll@@
crick@@
cript
curricul@@
da-@@
dak@@
dc
dee
diam@@
disne@@
dm@@
do-it-@@
dollar@@
doyle
drin@@
earth-@@
ecuador
edu@@
ef
effec@@
ego@@
eil
eis@@
element@@
eli
emotion@@
enab@@
ener
eren
esh
essions
euro@@
excep@@
experi@@
explan@@
explic@@
expos@@
facul@@
fantas@@
feel@@
feld
fen
feu@@
ffe
finder
fing@@
forestation
fos
fox@@
fris@@
futuri@@
gap@@
gator
geb@@
geckos
gela@@
geno@@
geous
ging@@
glam@@
googl@@
gos
griff@@
haas
hamas
hanna
har
hi-@@
hillis
hm
hou@@
hu
iden
imperi@@
impul@@
incen@@
indo-@@
infi@@
ingness
invol@@
isen
ization
jag@@
job@@
jog@@
jose@@
kac@@
kant
kar
kas
khal@@
kie
kilo
king@@
koko
kon
kru@@
lapse
latte
lazar@@
ld
leah
leon@@
lett-@@
lifel@@
linke@@
liter@@
lle
lotto
lovel@@
marilyn
massi@@
meaning@@
mel
mell@@
mens
meteori@@
meyer
mich@@
minu@@
moderator
motiva@@
motive
mountain@@
mps
muff@@
multimedia-@@
muni@@
musta@@
nanometer
nathaniel
natu@@
need@@
neon@@
nett
nier
nik
nir@@
nug@@
occupi@@
onally
opera@@
opti@@
opy
orie
orkut
ort@@
ose
ote
ough@@
partment
pasta
patriot
penelope
percent@@
pete
philanthro@@
phosphor@@
phthal@@
play-@@
plex
pment
pop@@
privat@@
prototyp@@
qat@@
quantifi@@
quer@@
quez
rad
raff@@
raid
rajasthan
rau@@
reb@@
regeneration
rendi@@
rett
riel
river@@
rives
rober@@
rors
rot@@
rott@@
rr@@
sagan
sandel
sandy
satis@@
saunders
schen
schro@@
serra
sert
shrin@@
sich@@
sier
signi@@
silhouette
sim@@
sivers
sives
skate@@
smar@@
solar@@
sors
speak@@
stadi@@
stall
stick@@
stud@@
stuntman
subur@@
such@@
sung
surro@@
sus
synchron@@
syste@@
tahl@@
tancy
tank@@
tanz@@
taskrabbit
taxi@@
teds
teme
tempo
test@@
tetra@@
tex
thermostat
tice
tig@@
total@@
tow@@
trand
traumati@@
travel@@
trium@@
tro
tung
ubi@@
unab@@
usion
vably
vacu@@
valent
velo@@
villa
viscer@@
voo@@
ware@@
wen
wiki@@
wit@@
yus
yx
za-@@
zab@@
zach
zations
zucker@@
zzy
-in-@@
000@@
197@@
21@@
99@@
aa@@
aaaa@@
aba
aber
absur@@
adily
afel
agr@@
aida
alds
alisch
alp@@
alum@@
aly@@
amazon@@
amis
anor@@
ante
arbit@@
arin
arot
arran@@
ati@@
atten
atures
ball-@@
ballo@@
banglades@@
bao
bec@@
bel
bennett
bever@@
bial
bie@@
bik
blat@@
bler
brah@@
brazi@@
bron@@
cals
capac@@
car-@@
catho@@
centu@@
certific@@
chai
chel@@
chlor@@
chri@@
citi@@
coch@@
cole
commission@@
contr@@
contro@@
curr@@
degre@@
den-@@
descri@@
desig@@
develop@@
dia@@
die-@@
differ@@
dir
discover@@
dopamin@@
drich
dul
e-
ehrlich
ema@@
embed@@
encyclo@@
ende
ene@@
enes
enor@@
entary
eradic@@
eter
exo@@
expe@@
fabul@@
face@@
fant@@
feld@@
femini@@
fest@@
ffen
figh@@
flag@@
floss
food-@@
formal@@
found@@
frei@@
fung@@
geni@@
ges@@
gestion
ghted
gig
gio
gman
gration
gress
grun@@
gurus
gymnasi@@
h.
ha-@@
hack@@
hai
happ@@
haus@@
hend
himalay@@
hof@@
hous@@
ht@@
hygi@@
ihu@@
immedi@@
incar@@
inclu@@
incubat@@
industr@@
inevi@@
inhab@@
inn
inso@@
inspi@@
instrument@@
insulin@@
intervie@@
irani@@
is-@@
jell@@
juli@@
kab@@
kapu@@
kavi@@
kenne@@
kill@@
koso@@
kraft
kran
kul@@
kus@@
leans
leth@@
lib@@
lik@@
like@@
lind@@
locker
mack@@
maer@@
malari@@
mana@@
marsh@@
masse
mean@@
mer-@@
meteor@@
metr@@
millenni@@
miner@@
mira@@
mitten
mium
modern@@
montage
more@@
mug@@
multination@@
musli@@
mysteri@@
n.
nach@@
neurotransmitter
nia
novo@@
obsc@@
och@@
ois
ona
oo
oper
opi@@
orni@@
osau@@
osaurus
owitz
param@@
parameter
pas
perfor@@
personi@@
pf@@
phenomen@@
phic
phone-@@
planet@@
pler
pointer
popu@@
prei@@
preston
prevent@@
prior@@
promis@@
psychop@@
pup@@
radio@@
raft
rea@@
reali@@
reci@@
reich
resear@@
resnick
rhetor@@
riet
riski@@
rodri@@
ros@@
rosal@@
routin@@
saf@@
scholar@@
schrö@@
sci@@
science-@@
shepher@@
shou@@
sili@@
simp@@
sine
sinus@@
skr@@
smart@@
sos
spiel@@
stab
stad@@
staf@@
stens
ster-@@
sterili@@
stif@@
stopp@@
stung
suit@@
symbo@@
synap@@
synes@@
tag@@
taneous
tasking
tast@@
techn@@
templ@@
ten-@@
terrori@@
tete
them@@
therap@@
thom@@
thur
tman
tner
tod
tode
todes
trau@@
tribu@@
trie@@
tv-@@
tyrone
tzer
ully
ultr@@
ultra@@
umines@@
unimagin@@
upp@@
ution
vers@@
vey
video@@
vili@@
vision@@
vivi@@
vory
vu@@
wal
walt
weblogs
western@@
wher@@
wid@@
wie@@
wis@@
wolf@@
yland
your@@
ypt
zac@@
zig
zig@@
zz
-fi
.a.
100@@
4-@@
90@@
achil@@
acht
action@@
ader
afgh@@
african-@@
agon
ahen
aid@@
airs
alas@@
ales
alex@@
alis@@
aner
angi@@
angst
appro@@
architec@@
aron
arr@@
asse
assess@@
ateful
ater@@
auff@@
bach@@
belo@@
bens
bilities
blas@@
bos
bots@@
brie@@
brill@@
challen@@
chao@@
chines@@
chol@@
cisco
cke
cks@@
clas@@
cn@@
cock@@
cola
coli
compre@@
consci@@
const@@
dal@@
decision-@@
defic@@
demogra@@
depressi@@
dishman
distan@@
doch
doms
downlo@@
dragon@@
drum@@
ducing
econ@@
ecuad@@
ela@@
eland
ele
elizab@@
elo@@
elyn
encounter@@
energe@@
enligh@@
enthusiast@@
entin
entran@@
episo@@
erin
esis
essen@@
etes
evapo@@
evolu@@
excit@@
existenti@@
expand@@
extre@@
faction
fail@@
fashioned
fischer
flick@@
forec@@
franc@@
fter
galac@@
gele@@
gem
genous
gravitation
guarante@@
gus
guten@@
hart@@
hast
haus
hens
hic
him@@
hindu@@
hl
hler
hmmm
hol
holl@@
holo@@
hormon@@
horr@@
hub@@
ido@@
iety
ih@@
ik
illas
illeg@@
indepen@@
indones@@
inet
inferi@@
infla@@
intelligent@@
iq@@
jes@@
jude
juni@@
kern@@
kie@@
kleiner
knopf
know-@@
kos
kre@@
kung
kunst@@
la-@@
labyrinth
lag@@
langu@@
large-@@
leblo@@
lem@@
logists
lov@@
magnifi@@
mahl@@
marath@@
margar@@
marri@@
mart
mauri@@
megawatt
minde@@
mize
mm-@@
mmi@@
mobil@@
mohammed
mush@@
myce@@
nagel
nami@@
napp@@
naz@@
neur@@
nichol@@
nun
occur@@
orchestr@@
orities
orten
parado@@
participat@@
pav@@
payo@@
pecu@@
pedia
pension@@
phas@@
phosp@@
pian@@
pige@@
pite
poe@@
polar@@
potenti@@
pow@@
pps
practic@@
premiere
primi@@
prise
prison@@
profi@@
programm@@
pseu@@
quadra@@
quantita@@
quas@@
r.@@
rama
reflexi@@
rehabili@@
remem@@
repeat@@
requisi@@
respect@@
riv@@
robben
robu@@
rockstar
rome@@
ros
rupe@@
rut@@
sack
samer
scaff@@
schnei@@
school-@@
science-fiction
see-@@
seem@@
seg@@
sene
serv@@
sexu@@
shoul@@
sie
silic@@
sinn@@
spani@@
sprang
spri@@
spur@@
stat
stem@@
steu@@
stil@@
strateg@@
strie@@
suggesti@@
supre@@
swallo@@
symp@@
symph@@
tara@@
tas
tatto@@
tcha
tea@@
tern
thermo@@
thres@@
tissu@@
transpar@@
trivi@@
tsun@@
tten@@
tter-@@
tti
turk@@
tw@@
tyr@@
u.
u.s.-@@
uit
uni
unken
unter
va-@@
vag@@
valence
vehi@@
vene@@
verage
verb@@
versary
vibr@@
viron@@
volk@@
volun@@
voy@@
vulner@@
wand
week@@
ween
weh
wein@@
weiser
wich
witz
worl@@
xious
yfish
zel
zen-@@
zent@@
zit@@
ã@@
ç@@
és
อ@@
000
3d-@@
abled
absol@@
accessi@@
acker@@
ae@@
almo@@
alu@@
amazonas
ambulan@@
amer@@
andes
ange@@
angiogenic
angri@@
anium
anta
anthrop@@
anx@@
aper
apri@@
argumentation
arial
arious
astronom@@
athan
ator@@
att
atz
audio@@
aur@@
authentic@@
avat@@
bau@@
bauer
benjam@@
berg@@
billi@@
bine
biot@@
bo-@@
book-@@
brei@@
brenn@@
brun@@
bs@@
buddhi@@
bure@@
bush-@@
business-@@
cafe@@
califor@@
canv@@
carb@@
cei@@
ceptions
chel
cheryl
choreogra@@
chter
circa
codi@@
cogni@@
compati@@
conspi@@
convin@@
cyber-@@
cybor@@
das@@
dass
dener
depen@@
derly
des-@@
design-@@
desk@@
det
det@@
dez@@
diale@@
dialo@@
dicke
dictat@@
diction@@
dik@@
dimit@@
dinosau@@
diplom@@
disappe@@
disci@@
dnis@@
do-@@
dok@@
dollar-@@
domest@@
dron
dur
dv@@
eben
ech
elabor@@
ema
embo@@
emo@@
ems
enga@@
eni@@
enlighten@@
ente
entic@@
enz
erden
ernst
este@@
ethi@@
etr@@
etz
exempl@@
ferin
fert
fig
figuration
fisch@@
ford-@@
fore
frank@@
fu
gegen@@
gelo@@
gels
genial
genie
genug
geries
gestalt
glas
gment
gna@@
goog@@
goti@@
gression
grie@@
guidel@@
halten@@
happen@@
hart
health@@
hef@@
heu@@
himalaya
hirsh@@
humi@@
hurri@@
ib
ien
iest
iken
imag@@
ims
ingo
ings@@
inquir@@
insel
intelligen@@
internet-@@
internets
inve@@
iron@@
isra@@
iti
itos
jo-@@
john@@
kak@@
kamer@@
kap@@
ken-@@
kland
klas@@
kog@@
koll@@
kom@@
kop@@
kram
krist@@
kryp@@
kt@@
ktor
kum
kum@@
kuri@@
lager
lange
lem
lep@@
lette
liby@@
liqu@@
lithi@@
lium
luck@@
mafi@@
mais
manuel
mass@@
massa@@
mber
mble@@
mend@@
metab@@
metall@@
mete@@
methodi@@
metro@@
midd@@
mie
mode@@
mund
nacht@@
nanot@@
nein
nels
nev@@
nich@@
nst
nun@@
ober@@
olymp@@
ond
oner
operative
opini@@
opport@@
orche@@
orchest@@
orgas@@
orth@@
oton@@
oun@@
pago@@
papa
parame@@
partis@@
passion@@
patrio@@
pavili@@
pcs
performan@@
phantas@@
philanthrop@@
photogra@@
place@@
planetar@@
politi@@
pon
pop-@@
posit@@
ppm
prag@@
prax@@
presi@@
primar@@
progno@@
programme
protokoll
protot@@
ps-@@
ps@@
reag@@
recyc@@
relev@@
renew@@
republi@@
rhe@@
rie@@
rigi@@
rigor@@
riss
rohe
room@@
rosa
rum
s.@@
sager
salon
schatz
schi@@
schizop@@
schle@@
scienti@@
seine
semble
seme@@
semin@@
seroton@@
sest
shakespe@@
signifi@@
ske@@
small@@
sole@@
son-@@
spider@@
spiegel
spiri@@
sprung
start-@@
stating
stead
stil
stimu@@
stol@@
strangel@@
stren@@
string@@
swis@@
synthe@@
tana
tance
tau@@
tei@@
tem
testim@@
tet
teu@@
theore@@
thyl@@
tifi@@
tik@@
tinker@@
tise
tness
tol@@
ton-@@
toy@@
train@@
trea@@
tten
ttes
tudes
tung@@
twee@@
ult
ultras@@
ultraso@@
uner@@
unger
ungs
ur-@@
uts
vat@@
venezu@@
venting
victi@@
vil
vio@@
vism
vocabul@@
volks@@
volt
wagen
wald
warn@@
wehr@@
whir@@
wis
won@@
ww@@
xe
yable
yester@@
z.
zeal@@
zep@@
zir@@
zon


â
ê@@
í
ü@@
…
*
---
....
198@@
abad
abund@@
adel@@
afro@@
aga@@
agno@@
alen
alga@@
aller
alles
alo
alt
alters
alumini@@
ambia
amin@@
anal@@
antiretrovir@@
apor@@
approach@@
aqua@@
arden
arities
arte@@
arthri@@
aspe@@
assic
astero@@
asters
astrop@@
atlan@@
atra@@
atur
atus
atz@@
austral@@
awes@@
awi
aya
bang@@
bani@@
baum@@
beet@@
bein
bele@@
bender
bergs
besie@@
besser
bett@@
bion@@
biotechn@@
bis
bizar@@
blatt
ble-@@
blen
bn@@
boo
bran
brett@@
brew
brookl@@
butt@@
cain
calci@@
calyp@@
can-@@
cardio@@
catastrop@@
ceptible
ceu@@
charlot@@
cht@@
cials
cines
cise
citizen@@
complex@@
computer@@
connec@@
corpo@@
corpor@@
country@@
curri@@
dary
datab@@
deep@@
delph@@
demonstr@@
derick
dership
deshow
destruc@@
digit@@
dings
dipl@@
dler
dlock
dorf
dramati@@
drin
dung@@
ean
eben@@
ec
eck@@
ecraft
egal
egel
eigen@@
einem
eisen
elementar@@
eler@@
ellen@@
ement@@
empi@@
endanger@@
enth@@
entle@@
entr@@
epilep@@
ern
erob@@
esse
essen
etc.
eth
excell@@
expon@@
extin@@
fft
fie@@
firm@@
flei@@
fon
foo@@
freude
ften
funk
furni@@
für
gabe
ganz
garb@@
garten
gebra@@
gei@@
genu@@
geograph@@
geome@@
gess@@
gier
gif@@
glau@@
golf@@
gom@@
google-@@
gross@@
guay
gung
habili@@
half@@
halle
hava
herit@@
herr
heter@@
hier
hin
hing@@
hinter@@
hio
hip@@
hiro@@
hle
hne@@
hock@@
holt
honest@@
hri@@
ied
ige
iger
iges
iker
incredi@@
ind@@
inder
infec@@
infin@@
inform@@
inju@@
instan@@
invest@@
irre@@
isse
isse@@
itre@@
jul@@
ka-@@
kapa@@
karo@@
karti@@
kell@@
keller
kels
kg
kleb@@
klo@@
koch
koff@@
kuba
kupp@@
kus
lai@@
landscap@@
lang@@
last@@
lauf@@
laut
led-@@
lei
leiter
lemm@@
lern@@
lich
licht@@
lige
liger
live-@@
lk@@
luf@@
lunge
mae@@
mail-@@
mails
manufac@@
marshmal@@
marvel@@
matte
matthe@@
maus@@
media-@@
meet@@
mein@@
micha@@
mie@@
millen@@
minder@@
mins
miss@@
mitt@@
mme
modus
muse@@
nah@@
naj@@
near@@
nem
nen
nen@@
nest@@
nette
nitro@@
noby@@
novel@@
nucle@@
oa@@
ob
od
ods
omen
omen@@
ondri@@
onie
ortho@@
ost@@
oul
outs@@
partic@@
penic@@
peop@@
perman@@
phoeni@@
phosphor
pid
pizz@@
pl
plasti@@
portfoli@@
possi@@
pox
ppe
preju@@
premier@@
prim@@
prima
privile@@
profit@@
progressi@@
proper@@
prostat@@
prostitu@@
proteom@@
prü@@
qual@@
quat@@
quisition
rami@@
rang@@
rasi@@
rauf
reach@@
redwood-@@
relation@@
reluct@@
rement
resili@@
ret@@
richter
ries@@
roh@@
rom
rosen@@
rote
rucksack
russ@@
sach@@
sack@@
sak@@
sala@@
sandwi@@
sanit@@
scher
schin@@
schlau@@
schmuck
schn@@
schol@@
schu@@
schwei@@
sear@@
seba@@
sender
sep@@
singapo@@
smit@@
sms-@@
solu@@
sour@@
spen@@
spie@@
spiel
sport@@
sse
standard-@@
stans
steins
stel
stian
stig@@
sud@@
superno@@
susta@@
symptom@@
systemati@@
sz@@
tak@@
tat
tec@@
telescop@@
teller
tempo@@
teres
tern@@
tester
testoster@@
tha@@
therine
thesia
thieu
tition@@
tlen@@
tod@@
toge@@
toi@@
toile@@
trie
tsch@@
tuber@@
tun
twent@@
ulti@@
unbelie@@
unes
uss@@
vae
vagin@@
vail@@
varie@@
vention
verk@@
verlei@@
versi@@
vien@@
vog@@
w.@@
waff@@
wal-@@
wale
wana
wart
west-@@
whirl@@
wie
wilde
winn@@
wird
wus@@
ym@@
zei@@
ziger
zin
zine
zium
zog
zt
zwei@@
²
à
ñ@@
ā@@
ร
่
-test
..
.b.
4.000
\
_
abend
able@@
ablen@@
abli@@
absen@@
absolu@@
absolutes
abul@@
acci@@
accom@@
accumu@@
acqui@@
adjac@@
adoles@@
aka@@
aku@@
alab@@
alexand@@
allgemeinen
alph@@
alt@@
amateur@@
ambigu@@
ambu@@
anbe@@
angio@@
anschluss
apar@@
appl@@
are-@@
arez
arist@@
arithme@@
arn@@
arz@@
asia@@
athei@@
auf@@
aum
autor@@
ba-@@
baby-@@
balan@@
base@@
basket@@
baum
beam@@
beauti@@
bei
bein@@
bela@@
bere@@
bergen
bern
bese@@
bier
bilder@@
bile
biogra@@
biol@@
biolog@@
biolumines@@
biomimi@@
bip
bla
blings
blitz@@
blumen@@
boundar@@
bras@@
brasili@@
brem@@
brett
brief@@
brin@@
bule
café
candi@@
casi@@
ceased
cen
charac@@
chen-@@
chert
chev@@
chic@@
childr@@
chimpanze@@
chinas
chr@@
christen
christop@@
chromosom@@
chten@@
chti@@
cil
circuit@@
ckens
cm
comic@@
compon@@
countr@@
dach@@
dall@@
dank
dat
dau@@
ddin
dea@@
debat@@
deck@@
dehy@@
demie
denly
dens@@
dented
design@@
desto
destru@@
detail@@
deter
detro@@
deutsche
devel@@
diab@@
diagra@@
diamon@@
diarr@@
diarrhe@@
dich@@
diesel@@
difficul@@
digital@@
ding@@
dolph@@
doppel@@
dosis
druck
dule
durch
echt
edel@@
effi@@
egoi@@
egyp@@
egypti@@
ei
eier
eigen
eigentum
ein-@@
elen
eles
elles
eln
else@@
embas@@
embry@@
emis@@
ence-@@
ency@@
eng
engl@@
entations
enten@@
entre@@
era@@
erde
ertes
erzielen
espe@@
estro@@
etab@@
ettes
europe@@
every@@
exhibi@@
extro@@
ez@@
felder
fer-@@
feri@@
fester
festi@@
feuer@@
ffee
filter@@
flori@@
forgi@@
fos@@
freest@@
frei
freie
frequ@@
frontal@@
fs@@
ft-@@
fte
further@@
gab
geck@@
gedanken
gee@@
gefil@@
geist@@
geld@@
gem@@
genei@@
gener
genöss@@
george@@
gere@@
gerie
gert
geruch
gerä@@
geschützt
ghters
gigan@@
glaci@@
gots
gott
gott@@
gottes@@
gou@@
gps-@@
graff@@
guine@@
gust
guten
gym@@
gymn@@
gö@@
habe
haber
haft
harr@@
haut
heavi@@
heim@@
helm
herein
herz
hie@@
hinder@@
hine
hip-@@
hlen@@
holm
holz@@
hosp@@
hren@@
hten
hypothe@@
ib@@
ideal@@
idee
ie-@@
ier@@
iga
ike@@
iland
imi@@
immer
immobili@@
implemen@@
infor@@
information@@
ingen
ingeni@@
ingenu@@
inji@@
inne
inne@@
innova@@
inta@@
interest@@
internationale
intui@@
io@@
ipo@@
ische
iser
iso@@
issi@@
isten
ito@@
japan@@
jaze@@
jazz@@
jeffer@@
jordan@@
jung@@
jungfrau
kais@@
kali@@
kam
kampf
kaner
kapital
karb@@
kauf@@
kei@@
keiten
kends
kenn@@
kent@@
kern
kilome@@
kino
kio
klavier
kodi@@
kolo@@
kongo
konz@@
korn
kot
kot@@
krab@@
kran@@
krieg
ktu@@
kuh@@
kuns@@
kunst
kyo@@
kö@@
laborat@@
labors
labyrin@@
latz
lawr@@
lebe@@
leber@@
legal@@
legen
ler-@@
lichen
liches
lime@@
link@@
llen
lok@@
london@@
londoner
lung@@
lymph@@
macin@@
macinto@@
maden
magazin@@
magin@@
mainfra@@
mals
malt
manhat@@
manian
mann@@
manufactur@@
mata
mathe@@
mathemati@@
maus
mclu@@
meer
mein
mend
mende
mensch
mensch@@
merk@@
met@@
metaph@@
methan@@
milch
minster
mmer@@
mmert
moral@@
morgen
mosk@@
mptions
mut
mythos
mä@@
möglich
nago@@
nanotechn@@
nass
national@@
nee
netfli@@
nettes
neue
neur
newspa@@
nov@@
nung
obvi@@
olding
olly@@
olympi@@
one-on-@@
onen
onk@@
online-@@
opp@@
optimis@@
orb@@
ord@@
oreg@@
origam@@
orous
orts
othe@@
otro@@
ousa
outrage@@
palest@@
papu@@
pare
partici@@
passa@@
pcar
peking
peng
phab@@
phen
phon
phr@@
picas@@
poor@@
potat@@
ppel
ppi
pran@@
previ@@
proble@@
profess@@
prot@@
pst
psychopath@@
pä@@
quant@@
rah
ramen@@
rants
reason@@
rech@@
rechtlich
rede
regal
regel@@
regen
regen@@
region@@
regnet
reich@@
remember@@
rent@@
repar@@
repor@@
requi@@
respir@@
rett@@
richar@@
risi@@
robot@@
ror
roug@@
röntgen
saat@@
sabba@@
sacri@@
sahar@@
samar@@
sance
sapi@@
sass
schach@@
schachtel
schaf@@
schau@@
schen@@
schil@@
schl@@
schlei@@
schnell
schwa@@
schwe@@
schwi@@
schwin@@
seaf@@
sei
seil
sein@@
sek
seli@@
semp@@
sens
sequen@@
seus
shang@@
shif@@
sibi@@
sier@@
sig
sincla@@
sko@@
skol@@
softwar@@
software-@@
sohn
sophistic@@
spaghetti@@
spezifisch
spil@@
splan@@
spru@@
spur
sput@@
ssen
ssig@@
sst
stag
stahl
star-@@
stard
stati@@
station@@
stently
stern@@
stewar@@
steward@@
stie@@
stille
stipen@@
stors
straight@@
strating
strich
studi@@
sump@@
supr@@
sweise
syl@@
sylv@@
sylvania
symb@@
syndro@@
system@@
sä@@
tami@@
taschen
taskrab@@
teig
teria
terranean
thema
therlands
thly
throughs
ti-@@
tie@@
tification
tions-@@
tok@@
tonne
topf
tot
toten
tradition@@
trainings
transduc@@
tread@@
trine
trom@@
trum
tsam
tur
tze
tze@@
tzen
u.s.@@
ubiquit@@
ue@@
ul
unities
universi@@
uno
unprece@@
unter@@
urin
uru@@
usd
ushahi@@
vegetari@@
veillan@@
veland
vention@@
verdi@@
verfahr@@
vermin@@
verr@@
vibri@@
viel@@
vier@@
viet@@
von@@
vor-@@
wech@@
wege
weh@@
welche
welle
wetter
what@@
wider@@
wilder@@
win-@@
wirkungen
wo
wood-@@
wurzel
xide
xima@@
youn@@
z-@@
zel@@
zell@@
zelle
zet@@
zoom@@
zop@@
zun@@
zur
zwe@@
£
â@@
ä@@
è
ë@@
ï@@
ô@@
ö@@
ø@@
ú@@
über@@
ă@@
ć
ē
ť
ย
ย@@
€
你@@
葱
送@@
